{
  "version": "1.0",
  "truncation": null,
  "padding": null,
  "added_tokens": [
    {
      "id": 0,
      "content": "[PAD]",
      "single_word": false,
      "lstrip": false,
      "rstrip": false,
      "normalized": false,
      "special": true
    },
    {
      "id": 1,
      "content": "[UNK]",
      "single_word": false,
      "lstrip": false,
      "rstrip": false,
      "normalized": false,
      "special": true
    },
    {
      "id": 2,
      "content": "[BOS]",
      "single_word": false,
      "lstrip": false,
      "rstrip": false,
      "normalized": false,
      "special": true
    },
    {
      "id": 3,
      "content": "[EOS]",
      "single_word": false,
      "lstrip": false,
      "rstrip": false,
      "normalized": false,
      "special": true
    },
    {
      "id": 4,
      "content": "[MASK]",
      "single_word": false,
      "lstrip": false,
      "rstrip": false,
      "normalized": false,
      "special": true
    },
    {
      "id": 5,
      "content": "[STRUCTURAL_OPEN]",
      "single_word": false,
      "lstrip": false,
      "rstrip": false,
      "normalized": false,
      "special": true
    },
    {
      "id": 6,
      "content": "[STRUCTURAL_CLOSE]",
      "single_word": false,
      "lstrip": false,
      "rstrip": false,
      "normalized": false,
      "special": true
    }
  ],
  "normalizer": null,
  "pre_tokenizer": {
    "type": "WhitespaceSplit"
  },
  "post_processor": null,
  "decoder": null,
  "model": {
    "type": "BPE",
    "dropout": null,
    "unk_token": "[UNK]",
    "continuing_subword_prefix": null,
    "end_of_word_suffix": null,
    "fuse_unk": false,
    "byte_fallback": false,
    "ignore_merges": false,
    "vocab": {
      "[PAD]": 0,
      "[UNK]": 1,
      "[BOS]": 2,
      "[EOS]": 3,
      "[MASK]": 4,
      "[STRUCTURAL_OPEN]": 5,
      "[STRUCTURAL_CLOSE]": 6,
      "!": 7,
      "\"": 8,
      "#": 9,
      "$": 10,
      "'": 11,
      "(": 12,
      ")": 13,
      "*": 14,
      "+": 15,
      ",": 16,
      "-": 17,
      ".": 18,
      "/": 19,
      "0": 20,
      "1": 21,
      "2": 22,
      "3": 23,
      "4": 24,
      "5": 25,
      "6": 26,
      "7": 27,
      "8": 28,
      "9": 29,
      ":": 30,
      ";": 31,
      "=": 32,
      ">": 33,
      "?": 34,
      "@": 35,
      "A": 36,
      "B": 37,
      "C": 38,
      "D": 39,
      "E": 40,
      "F": 41,
      "G": 42,
      "H": 43,
      "I": 44,
      "J": 45,
      "K": 46,
      "L": 47,
      "M": 48,
      "N": 49,
      "O": 50,
      "P": 51,
      "R": 52,
      "S": 53,
      "T": 54,
      "U": 55,
      "V": 56,
      "W": 57,
      "X": 58,
      "Y": 59,
      "Z": 60,
      "[": 61,
      "\\": 62,
      "]": 63,
      "^": 64,
      "_": 65,
      "`": 66,
      "a": 67,
      "b": 68,
      "c": 69,
      "d": 70,
      "e": 71,
      "f": 72,
      "g": 73,
      "h": 74,
      "i": 75,
      "j": 76,
      "k": 77,
      "l": 78,
      "m": 79,
      "n": 80,
      "o": 81,
      "p": 82,
      "q": 83,
      "r": 84,
      "s": 85,
      "t": 86,
      "u": 87,
      "v": 88,
      "w": 89,
      "x": 90,
      "y": 91,
      "z": 92,
      "{": 93,
      "|": 94,
      "}": 95,
      "~": 96,
      "¬": 97,
      "ι": 98,
      "λ": 99,
      "π": 100,
      "σ": 101,
      "ω": 102,
      "–": 103,
      "—": 104,
      "→": 105,
      "↦": 106,
      "⇒": 107,
      "∅": 108,
      "∈": 109,
      "∉": 110,
      "∧": 111,
      "∨": 112,
      "≟": 113,
      "≠": 114,
      "≤": 115,
      "≥": 116,
      "▷": 117,
      "✓": 118,
      "⟦": 119,
      "⟧": 120,
      "⟨": 121,
      "⟩": 122,
      "⟪": 123,
      "⟫": 124,
      "er": 125,
      "on": 126,
      "re": 127,
      "at": 128,
      "\",": 129,
      "in": 130,
      "ar": 131,
      "or": 132,
      "st": 133,
      "en": 134,
      "ge": 135,
      "\",\"": 136,
      "se": 137,
      "ro": 138,
      "',": 139,
      "an": 140,
      "co": 141,
      "ut": 142,
      "de": 143,
      "di": 144,
      ":s": 145,
      "ti": 146,
      "ch": 147,
      "con": 148,
      "':": 149,
      "al": 150,
      "su": 151,
      "ma": 152,
      "\\n": 153,
      "'.": 154,
      "pro": 155,
      "ac": 156,
      "d_": 157,
      "es": 158,
      "it": 159,
      "un": 160,
      "ent": 161,
      "fi": 162,
      "ur": 163,
      "str": 164,
      "du": 165,
      ":_": 166,
      "me": 167,
      "mp": 168,
      "ex": 169,
      ":[": 170,
      "ion": 171,
      "⟩→": 172,
      "er_": 173,
      "\")": 174,
      "e_": 175,
      "t_": 176,
      "ard": 177,
      "mo": 178,
      "ts": 179,
      "\"]": 180,
      "age": 181,
      "for": 182,
      "yp": 183,
      "[\"": 184,
      "che": 185,
      "1π": 186,
      "ip": 187,
      "le": 188,
      "s]": 189,
      "(\"": 190,
      "as": 191,
      "dat": 192,
      "typ": 193,
      "rc": 194,
      "ack": 195,
      "arg": 196,
      "card": 197,
      "mm": 198,
      "er.": 199,
      "ec": 200,
      "li": 201,
      "produ": 202,
      "produc": 203,
      "js": 204,
      "s\"": 205,
      "ul": 206,
      "))": 207,
      "oma": 208,
      "ad": 209,
      "and": 210,
      "ackage": 211,
      "mer": 212,
      "package": 213,
      "ure": 214,
      "ap": 215,
      "lo": 216,
      "t(": 217,
      "t.": 218,
      ":i": 219,
      "no": 220,
      "dic": 221,
      ":[s]": 222,
      "_]": 223,
      "he": 224,
      "lf": 225,
      "out": 226,
      "tr": 227,
      "self": 228,
      "ed": 229,
      "_p": 230,
      "consu": 231,
      "\\\"": 232,
      "na": 233,
      "sy": 234,
      "ver": 235,
      "mmand": 236,
      "can": 237,
      "est": 238,
      "id": 239,
      "sco": 240,
      "args": 241,
      "--": 242,
      "=\"": 243,
      "fa": 244,
      "if": 245,
      "is": 246,
      "json": 247,
      "_co": 248,
      "dir": 249,
      "name": 250,
      "confi": 251,
      "faul": 252,
      "sche": 253,
      "tar": 254,
      "one": 255,
      "\",s\"": 256,
      "forge": 257,
      "targe": 258,
      ").": 259,
      ")\",\"": 260,
      "cr": 261,
      "ren": 262,
      "ing": 263,
      "ort": 264,
      "config": 265,
      "schema": 266,
      "src": 267,
      "to": 268,
      "ue": 269,
      "ars": 270,
      "defaul": 271,
      "sub": 272,
      "omadic": 273,
      "crip": 274,
      "put": 275,
      "ation": 276,
      "}⟫": 277,
      "⟪{": 278,
      "ath": 279,
      "ind": 280,
      "typer.": 281,
      "producer": 282,
      "consumer": 283,
      "\"]⟧": 284,
      "card[\"": 285,
      "cript": 286,
      "None": 287,
      "ain": 288,
      "fro": 289,
      "s(": 290,
      "sion": 291,
      "um": 292,
      "atomadic": 293,
      "score": 294,
      "FI": 295,
      "ON": 296,
      "oc": 297,
      "⟦card[\"": 298,
      "self.": 299,
      "bo": 300,
      "og": 301,
      "pl": 302,
      "run": 303,
      "chain": 304,
      "sul": 305,
      ":[_]": 306,
      "⟩→s": 307,
      "\\\"\\\"": 308,
      "),": 309,
      "Tr": 310,
      "``": 311,
      "ed_": 312,
      "fac": 313,
      "ha": 314,
      "s.": 315,
      "s:[s]": 316,
      "th": 317,
      "output": 318,
      "schema_": 319,
      "ep": 320,
      "jec": 321,
      "la": 322,
      "tur": 323,
      "resul": 324,
      "ory": 325,
      "ith": 326,
      "3ω": 327,
      "T_": 328,
      "ot": 329,
      "pars": 330,
      "ature": 331,
      "tion": 332,
      "turn": 333,
      "cal": 334,
      "cli": 335,
      "ig": 336,
      "pa": 337,
      "didat": 338,
      "\\n\\n": 339,
      "version": 340,
      "rend": 341,
      "='": 342,
      "_d": 343,
      "av": 344,
      "el": 345,
      "err": 346,
      "arti": 347,
      "utc": 348,
      "tier": 349,
      "mmands": 350,
      "json.": 351,
      "name:s": 352,
      "schema_version": 353,
      "artifac": 354,
      "**": 355,
      "TS": 356,
      "imp": 357,
      "lp": 358,
      "lin": 359,
      "ner": 360,
      "py": 361,
      "int": 362,
      "code": 363,
      "help": 364,
      "candidat": 365,
      "render_": 366,
      ":b": 367,
      ":\",\"": 368,
      "CON": 369,
      "[[": 370,
      "_dir": 371,
      "ct": 372,
      "ds": 373,
      "ke": 374,
      "our": 375,
      "pen": 376,
      "path": 377,
      "vi": 378,
      "wr": 379,
      "inv": 380,
      "root": 381,
      "demo": 382,
      "time": 383,
      "⟩→_": 384,
      "ply": 385,
      "nerg": 386,
      "'a": 387,
      "+\"": 388,
      ":f": 389,
      "ai": 390,
      "doc": 391,
      "fe": 392,
      "ol": 393,
      "t=": 394,
      "tex": 395,
      "up": 396,
      "return": 397,
      "anif": 398,
      "add_": 399,
      "FIG": 400,
      "CONFIG": 401,
      "ourc": 402,
      "anifest": 403,
      ",\",\"": 404,
      "Co": 405,
      "EX": 406,
      "cat": 407,
      "dy": 408,
      "fun": 409,
      "pre": 410,
      "t)": 411,
      "test": 412,
      "y_": 413,
      "orche": 414,
      "url": 415,
      "er_args": 416,
      "omain": 417,
      "forge.": 418,
      "True": 419,
      "func": 420,
      "orchestr": 421,
      "\".": 422,
      "()": 423,
      "Er": 424,
      "_ap": 425,
      "ble": 426,
      "ic": 427,
      "md_": 428,
      "ror": 429,
      "sourc": 430,
      "zen": 431,
      "red": 432,
      "set(": 433,
      "uto": 434,
      "del": 435,
      "model": 436,
      "date": 437,
      "⟪{'": 438,
      "frozen": 439,
      "atomadic-": 440,
      "body": 441,
      "ign": 442,
      "nergy": 443,
      "Error": 444,
      "frozenset(": 445,
      "4_": 446,
      "_o": 447,
      "_demo": 448,
      "em": 449,
      "mes": 450,
      "po": 451,
      "at_": 452,
      "utf": 453,
      "cho": 454,
      "projec": 455,
      "exc": 456,
      "type": 457,
      "ider": 458,
      "}⟫)": 459,
      "cli_demo": 460,
      "_dt.": 461,
      "writ": 462,
      "EXTS": 463,
      "-8": 464,
      ".ge": 465,
      "/\\n": 466,
      "=_": 467,
      "domain": 468,
      "fg": 469,
      "kind": 470,
      "r.": 471,
      "⟨self": 472,
      "erat": 473,
      "at(": 474,
      "ate": 475,
      "enerat": 476,
      ":s⟩": 477,
      "tier_": 478,
      "fix": 479,
      "strip": 480,
      "not": 481,
      "ument": 482,
      "parser": 483,
      "help=\"": 484,
      "feature": 485,
      "utf-8": 486,
      "project_": 487,
      "⟨self:": 488,
      "=tr": 489,
      "=True": 490,
      "Fal": 491,
      "RE": 492,
      "Scan": 493,
      "_c": 494,
      "_orchestr": 495,
      "ber": 496,
      "cur": 497,
      "cmd_": 498,
      "fin": 499,
      "gi": 500,
      "ke_": 501,
      "num": 502,
      "s':": 503,
      "∅)": 504,
      "cod": 505,
      "unt": 506,
      "dump": 507,
      "\"])": 508,
      "sy_orchestr": 509,
      "from": 510,
      "\\\"\\\"\\\"": 511,
      "```": 512,
      "hase": 513,
      "json.dump": 514,
      "import": 515,
      "4_sy_orchestr": 516,
      "cho(": 517,
      "write_": 518,
      "=true": 519,
      "=True)\",\"": 520,
      "False": 521,
      "number": 522,
      "json.dumps(": 523,
      "4_sy_orchestration": 524,
      "##": 525,
      "(_": 526,
      "/`": 527,
      "Cli": 528,
      "Ex": 529,
      "LL": 530,
      "Sy": 531,
      "_render_": 532,
      "_ke": 533,
      "auto": 534,
      "len": 535,
      "mith": 536,
      "phase": 537,
      "qu": 538,
      "s_": 539,
      "si": 540,
      "vider": 541,
      "with": 542,
      "in(": 543,
      "env": 544,
      "encod": 545,
      "alog": 546,
      "ent=": 547,
      "form": 548,
      "producer_args": 549,
      "_]]": 550,
      "----": 551,
      "_comp": 552,
      "producer\"]⟧": 553,
      "consumer\"]⟧": 554,
      "atomadic_": 555,
      "⟦card[\"producer\"]⟧": 556,
      "⟦card[\"consumer\"]⟧": 557,
      "paren": 558,
      "mmandsmith": 559,
      "line": 560,
      "time.": 561,
      "returncode": 562,
      "catalog": 563,
      "prese": 564,
      "function": 565,
      "utf-8\")": 566,
      "final": 567,
      "Client": 568,
      "encoding": 569,
      "(card": 570,
      ".s": 571,
      "a4_sy_orchestration": 572,
      "bal": 573,
      "generat": 574,
      "has": 575,
      "jo": 576,
      "pec": 577,
      "port": 578,
      "rai": 579,
      "smo": 580,
      "the": 581,
      "⟨name:s": 582,
      "⟨schema_version": 583,
      "stan": 584,
      "'.m": 585,
      "provider": 586,
      "it(": 587,
      ":_⟩→s": 588,
      ":_⟩→_": 589,
      "modu": 590,
      "types": 591,
      "apt": 592,
      "load": 593,
      "now": 594,
      "trac": 595,
      "_pre": 596,
      "consum": 597,
      "defaults": 598,
      "default=": 599,
      "indent=": 600,
      "cript':": 601,
      "run(": 602,
      "thon": 603,
      "result.": 604,
      "python": 605,
      "candidate_": 606,
      "[[_]]": 607,
      "CONFIG_": 608,
      "\".jo": 609,
      "cli_demo_": 610,
      "len(": 611,
      "format(": 612,
      "raise": 613,
      "⟨schema_version:s": 614,
      "indent=2": 615,
      "\".join(": 616,
      ",help=\"": 617,
      "Ar": 618,
      "Card": 619,
      "DE": 620,
      "DI": 621,
      "De": 622,
      "Manifest": 623,
      "Rep": 624,
      "_con": 625,
      "_fi": 626,
      "ad_": 627,
      "able": 628,
      "ces": 629,
      "ire": 630,
      "jav": 631,
      "las": 632,
      "open": 633,
      "oformat(": 634,
      "rst": 635,
      "s=": 636,
      "script": 637,
      "ary": 638,
      "secon": 639,
      "ang": 640,
      "anscript": 641,
      "times": 642,
      "\\n\")": 643,
      "str(": 644,
      "string": 645,
      "er.add_": 646,
      "js',": 647,
      "app": 648,
      "local": 649,
      "head": 650,
      "tra": 651,
      "args.": 652,
      "=\"utf-8\")": 653,
      "isoformat(": 654,
      "target_": 655,
      ").isoformat(": 656,
      "default_": 657,
      "typer.Ex": 658,
      "ject": 659,
      "lama": 660,
      "call": 661,
      "candidates": 662,
      "text(": 663,
      "Commandsmith": 664,
      "source_": 665,
      "datetime.": 666,
      "_dt.datetime.": 667,
      "cur_": 668,
      "LLM": 669,
      "encoding=\"utf-8\")": 670,
      "now(": 671,
      "DIR": 672,
      "javas": 673,
      "seconds": 674,
      "timespec": 675,
      ").isoformat(timespec": 676,
      "typer.Exit(": 677,
      "\"+": 678,
      "')": 679,
      "/v": 680,
      "1_": 681,
      "2_": 682,
      "=int": 683,
      "AU": 684,
      "ES": 685,
      "FAU": 686,
      "LT_": 687,
      "]\",\"": 688,
      "_output": 689,
      "_root": 690,
      "a,": 691,
      "ache": 692,
      "gent": 693,
      "ist": 694,
      "ment": 695,
      "mis": 696,
      "mbo": 697,
      "manifest": 698,
      "s,": 699,
      "sign": 700,
      "tent": 701,
      "x',": 702,
      "},": 703,
      "}',": 704,
      "\",type": 705,
      "orts": 706,
      "step": 707,
      "ged": 708,
      "secho(": 709,
      "commands": 710,
      "tiply": 711,
      ":_⟩": 712,
      "⟩→i": 713,
      "s]]": 714,
      "(\"a": 715,
      "dates": 716,
      "argument": 717,
      "ultiply": 718,
      "mergent": 719,
      "_pars": 720,
      "sys.": 721,
      "_command": 722,
      "src/": 723,
      "typer.secho(": 724,
      "FIL": 725,
      "run_": 726,
      "ed_at_": 727,
      "results": 728,
      "err=True)\",\"": 729,
      "tier:s": 730,
      "artifact": 731,
      "[[s]]": 732,
      "ctx": 733,
      "vide": 734,
      "invo": 735,
      "updates": 736,
      "atomadic-forge.": 737,
      "fg='": 738,
      "gistr": 739,
      "ke_results": 740,
      "unt:i": 741,
      "number\")": 742,
      "Synergy": 743,
      "atomadic_forge.": 744,
      "generated_at_": 745,
      "smoke_results": 746,
      "stants": 747,
      "candidate_id": 748,
      "Arg": 749,
      "DEFAU": 750,
      "er.add_argument": 751,
      "jectory": 752,
      "/v1": 753,
      "=int,help=\"": 754,
      "mbol": 755,
      "\",type=int,help=\"": 756,
      "generated_at_utc": 757,
      "DEFAULT_": 758,
      "'}": 759,
      "'producer": 760,
      "'}⟫)": 761,
      "(targe": 762,
      ")+\"": 763,
      "Con": 764,
      "E_": 765,
      "Emergent": 766,
      "For": 767,
      "Log": 768,
      "RI": 769,
      "Re": 770,
      "_feature": 771,
      "capt": 772,
      "d(": 773,
      "ff": 774,
      "fn": 775,
      "ifi": 776,
      "i_ke": 777,
      "m',": 778,
      "multiply": 779,
      "pr": 780,
      "par": 781,
      "pure": 782,
      "s:i": 783,
      "sha": 784,
      "t:s": 785,
      "t(\"": 786,
      "ted": 787,
      "ub": 788,
      "⟨⟩→s": 789,
      "red_": 790,
      "requ": 791,
      "report": 792,
      "command": 793,
      "divide": 794,
      "all": 795,
      "promp": 796,
      "proces": 797,
      "iter": 798,
      "unds": 799,
      "uration": 800,
      "exist": 801,
      "⟩→[": 802,
      "er_fn": 803,
      "list": 804,
      "low": 805,
      "node": 806,
      "synergy": 807,
      "subtrac": 808,
      "None,": 809,
      "score_": 810,
      "score:f": 811,
      "self._": 812,
      "Transcript": 813,
      "T_EXTS": 814,
      "pay": 815,
      "\\n\\n##": 816,
      "erry": 817,
      "ollama": 818,
      "atomadic-forge": 819,
      "frozenset({": 820,
      "frozenset(⟪{": 821,
      ".get(\"": 822,
      "/\\n.": 823,
      "module": 824,
      "_prefix": 825,
      "Report": 826,
      "trajectory": 827,
      "gistry": 828,
      "DEFAULT_CONFIG": 829,
      ")+\"\\n\")": 830,
      "Forge": 831,
      "capture": 832,
      "TranscriptLog": 833,
      "!=": 834,
      "'-": 835,
      "'types": 836,
      "'javas": 837,
      "'atomadic_forge.": 838,
      "(t": 839,
      "(config": 840,
      ",indent=2": 841,
      ".un": 842,
      ".call": 843,
      "00": 844,
      "0_": 845,
      "0:\",\"": 846,
      "3_": 847,
      ":\"": 848,
      ":\",s\"": 849,
      "=False": 850,
      "AM": 851,
      "An": 852,
      "CRI": 853,
      "LA": 854,
      "LI": 855,
      "LO": 856,
      "Liter": 857,
      "NAM": 858,
      "PT_EXTS": 859,
      "RO": 860,
      "Se": 861,
      "St": 862,
      "Sto": 863,
      "[sys.": 864,
      "duration": 865,
      "glo": 866,
      "k_con": 867,
      "les": 868,
      "lang": 869,
      "ml": 870,
      "mory": 871,
      "os": 872,
      "p_": 873,
      "pic": 874,
      "qk_con": 875,
      "ry": 876,
      "s)": 877,
      "s\",\"": 878,
      "s:[_]": 879,
      "vel": 880,
      "wo": 881,
      "ze": 882,
      "|\\n": 883,
      "∨\"": 884,
      "⟨card": 885,
      "⟨src": 886,
      "repo": 887,
      "read_": 888,
      "\",default=": 889,
      "int(": 890,
      "rounds": 891,
      "',\",s\"": 892,
      "ution": 893,
      "utable": 894,
      "al[": 895,
      "main": 896,
      "'.c": 897,
      "ites": 898,
      "entry": 899,
      "file": 900,
      "memory": 901,
      "ext": 902,
      "exec": 903,
      "⟩→∅": 904,
      "\")]": 905,
      "mo_comp": 906,
      "ipe": 907,
      "rc)\",\"": 908,
      ")))": 909,
      "))\",\"": 910,
      "_path": 911,
      "\",s\"-": 912,
      "target)": 913,
      ").returncode": 914,
      "top_": 915,
      "subparser": 916,
      "subproces": 917,
      "og_feature": 918,
      "),encoding=\"utf-8\")": 919,
      "ed_cli": 920,
      "s.run(": 921,
      "lable": 922,
      "**:": 923,
      "imports": 924,
      "lines": 925,
      "path.": 926,
      "sources": 927,
      "red',": 928,
      "Error,": 929,
      "_omis": 930,
      "at_function": 931,
      "=_promp": 932,
      "domain_": 933,
      "strip(": 934,
      "project_dir": 935,
      "cmd_b": 936,
      "write_text(": 937,
      "=true)": 938,
      "phase_omis": 939,
      "⟦card[\"producer\"]⟧,": 940,
      "a4_sy_orchestration.un": 941,
      "default_target_": 942,
      "LLMClient": 943,
      "typer.Exit(rc)\",\"": 944,
      "\"+package": 945,
      "1_at_function": 946,
      "2_mo_comp": 947,
      "_output=False": 948,
      "typer.secho(f": 949,
      "updates[\"": 950,
      "fg='red',": 951,
      "SynergyScan": 952,
      "EmergentScan": 953,
      "ified_cli": 954,
      "shared_": 955,
      "payload": 956,
      "frozenset(⟪{'.": 957,
      "capture_output=False": 958,
      "'-m',": 959,
      "'atomadic_forge.a4_sy_orchestration.un": 960,
      "0_qk_con": 961,
      "3_og_feature": 962,
      "CRIPT_EXTS": 963,
      "Literal[": 964,
      "Store": 965,
      "[sys.exec": 966,
      "duration_": 967,
      "global": 968,
      "osites": 969,
      "|\\n|": 970,
      "utable,": 971,
      ").returncode\",\"": 972,
      "subprocess.run(": 973,
      "=_prompt_": 974,
      "phase_omission": 975,
      "2_mo_composites": 976,
      "ified_cli',\",s\"": 977,
      "capture_output=False).returncode\",\"": 978,
      "'atomadic_forge.a4_sy_orchestration.unified_cli',\",s\"": 979,
      "0_qk_constants": 980,
      "[sys.executable,": 981,
      "\"\\n": 982,
      "((": 983,
      "(paren": 984,
      ",exist": 985,
      "->": 986,
      ".sub": 987,
      ".utc": 988,
      ".up": 989,
      "=dic": 990,
      "AL": 991,
      "CLI": 992,
      "D_": 993,
      "Fi": 994,
      "JS": 995,
      "NO": 996,
      "Path": 997,
      "RC": 998,
      "Run": 999,
      "TE": 1000,
      "_P": 1001,
      "_chain": 1002,
      "_CONFIG_": 1003,
      "`src/": 1004,
      "aw": 1005,
      "be": 1006,
      "by": 1007,
      "bas": 1008,
      "back": 1009,
      "bution": 1010,
      "ce_": 1011,
      "clas": 1012,
      "d',": 1013,
      "e(": 1014,
      "fo": 1015,
      "g',": 1016,
      "gment": 1017,
      "ht": 1018,
      "il": 1019,
      "ired": 1020,
      "ibution": 1021,
      "kdir": 1022,
      "k=true)": 1023,
      "ll": 1024,
      "lat": 1025,
      "le_": 1026,
      "mon": 1027,
      "min": 1028,
      "mkdir": 1029,
      "pas": 1030,
      "raw": 1031,
      "s\\n": 1032,
      "te": 1033,
      "uage": 1034,
      "zone": 1035,
      "⟦prese": 1036,
      "⟧`": 1037,
      "attr": 1038,
      "ated": 1039,
      "\",DEFAULT_CONFIG": 1040,
      "input": 1041,
      "state": 1042,
      "enc": 1043,
      "\",\"\",\"": 1044,
      "segment": 1045,
      "ropic": 1046,
      "comm": 1047,
      "distr": 1048,
      ":s⟩→s": 1049,
      "cherry": 1050,
      "content": 1051,
      "'.s": 1052,
      "item": 1053,
      "fiel": 1054,
      "exp": 1055,
      "exit": 1056,
      "ts=true": 1057,
      "data": 1058,
      "lib": 1059,
      "package_prefix": 1060,
      "apply": 1061,
      "t.write_text(": 1062,
      ":i⟩→i": 1063,
      "symbol": 1064,
      "scout": 1065,
      "=\"seconds": 1066,
      "json_": 1067,
      "_count:i": 1068,
      "target": 1069,
      "target.write_text(": 1070,
      "None:\",\"": 1071,
      "None,\",\"": 1072,
      "plit": 1073,
      "chain[\"": 1074,
      "s:[s]⟩": 1075,
      "thropic": 1076,
      "output_dir": 1077,
      "artifact)": 1078,
      "pytest": 1079,
      "intent": 1080,
      "ctory": 1081,
      "timezone": 1082,
      "docstring": 1083,
      "add_parser": 1084,
      "catch": 1085,
      "tests": 1086,
      "_appen": 1087,
      "_apply": 1088,
      "_api_ke": 1089,
      "⟪{'python": 1090,
      "_ok=true)": 1091,
      "pose": 1092,
      "_dt.timezone": 1093,
      "project_root": 1094,
      "```bas": 1095,
      "env',": 1096,
      "_comple": 1097,
      "preset": 1098,
      "has_": 1099,
      "consumer_args": 1100,
      "cli_demo_returncode": 1101,
      "ManifestStore": 1102,
      "headline": 1103,
      "_dt.datetime.now(": 1104,
      ").isoformat(timespec=\"seconds": 1105,
      "ache',": 1106,
      "signature": 1107,
      "FILE_": 1108,
      "'}),": 1109,
      "print(": 1110,
      "score_trajectory": 1111,
      "ollama_": 1112,
      "'typescript':": 1113,
      "'javascript':": 1114,
      "⟨card:_⟩→s": 1115,
      "sources_dir": 1116,
      "default_target_score": 1117,
      "\"+package+\"": 1118,
      "Literal[(\"": 1119,
      "\"\\n\".join(": 1120,
      "(parents=true": 1121,
      ",exist_ok=true)": 1122,
      ".sub(\"": 1123,
      ".update": 1124,
      "=dict(": 1125,
      "AL_CONFIG_": 1126,
      "JSON": 1127,
      "mkdir(parents=true": 1128,
      "⟦preset.": 1129,
      "\",DEFAULT_CONFIG[\"": 1130,
      "distribution": 1131,
      "⟪{'python':": 1132,
      "_dt.timezone.utc": 1133,
      "```bash": 1134,
      "_dt.datetime.now(_dt.timezone.utc": 1135,
      ").isoformat(timespec=\"seconds\")": 1136,
      "AL_CONFIG_DIR": 1137,
      "mkdir(parents=true,exist_ok=true)": 1138,
      "']": 1139,
      "'}⟫": 1140,
      "'consumer": 1141,
      "'),": 1142,
      "'atomadic-forge.": 1143,
      "'pure": 1144,
      "'synergy": 1145,
      "(\",\"": 1146,
      "(src": 1147,
      "(func": 1148,
      "(body": 1149,
      "(invo": 1150,
      ",default=": 1151,
      ".0": 1152,
      ".\",\"": 1153,
      ".\\\"\\\"\\\"": 1154,
      ".invo": 1155,
      ".ext": 1156,
      ".strip(": 1157,
      "/a": 1158,
      "0]": 1159,
      "=args": 1160,
      "=config": 1161,
      "=self.": 1162,
      "=_dt.datetime.": 1163,
      "=subparser": 1164,
      "@app": 1165,
      "AS": 1166,
      "At": 1167,
      "ER": 1168,
      "G_": 1169,
      "GNO": 1170,
      "In": 1171,
      "IGNO": 1172,
      "SE": 1173,
      "SRC": 1174,
      "TI": 1175,
      "YP": 1176,
      "Z\",": 1177,
      "['": 1178,
      "[]": 1179,
      "[str": 1180,
      "[list": 1181,
      "_re": 1182,
      "_id": 1183,
      "_EXTS": 1184,
      "_bal": 1185,
      "_tier:s": 1186,
      "_memory": 1187,
      "`a": 1188,
      "a:i": 1189,
      "b\",type=int,help=\"": 1190,
      "b)))": 1191,
      "cle": 1192,
      "do": 1193,
      "dout": 1194,
      "echo(": 1195,
      "ir": 1196,
      "iv": 1197,
      "ked_": 1198,
      "kdo": 1199,
      "s:": 1200,
      "sp": 1201,
      "s',": 1202,
      "s\")": 1203,
      "s/`": 1204,
      "split": 1205,
      "tec": 1206,
      "two": 1207,
      "tattr": 1208,
      "wn": 1209,
      "war": 1210,
      "wor": 1211,
      "x(": 1212,
      "{rc": 1213,
      "{package": 1214,
      "{\",s\"": 1215,
      "↦print(": 1216,
      "⟦package": 1217,
      "⟦result.": 1218,
      "⟧\")": 1219,
      "⟨model": 1220,
      "⟨a:i": 1221,
      "registry": 1222,
      "recomm": 1223,
      "\",help=\"": 1224,
      "\",generated_at_utc": 1225,
      "inde": 1226,
      "in_memory": 1227,
      "stdout": 1228,
      "endat": 1229,
      "end(": 1230,
      "gest": 1231,
      "getattr": 1232,
      "\",\"a": 1233,
      "\",\"\",s\"": 1234,
      "ses": 1235,
      "set_": 1236,
      "ros": 1237,
      "aned": 1238,
      "ance_": 1239,
      "def": 1240,
      "detec": 1241,
      "cond": 1242,
      "conver": 1243,
      "alname:s": 1244,
      "align": 1245,
      "summ": 1246,
      "max": 1247,
      "'.ts": 1248,
      "propose": 1249,
      "und": 1250,
      "entory": 1251,
      "str(\"": 1252,
      "er_lines": 1253,
      "\"]=_prompt_": 1254,
      "[\"@app": 1255,
      "level": 1256,
      "(\"b\",type=int,help=\"": 1257,
      "er.set_": 1258,
      "s\"⟦": 1259,
      "merge": 1260,
      "merged": 1261,
      "log": 1262,
      "nore": 1263,
      "out_command": 1264,
      "_pipe": 1265,
      "=\"atomadic-forge.": 1266,
      "_coun": 1267,
      ")\",\"[": 1268,
      "src)": 1269,
      "subcommand": 1270,
      "typer.Con": 1271,
      "typer.echo(": 1272,
      "None:\",s\"": 1273,
      "s()": 1274,
      "⟦card[\"candidate_id": 1275,
      ":[_]⟩": 1276,
      "face": 1277,
      "s.add_parser": 1278,
      "schema_id": 1279,
      "parser.add_argument": 1280,
      "='seconds": 1281,
      "='Arg": 1282,
      "avai": 1283,
      "error": 1284,
      "utcnow(": 1285,
      "json.load": 1286,
      "json.JSON": 1287,
      "schema_version':": 1288,
      "schema_version=\"atomadic-forge.": 1289,
      "artifact_": 1290,
      "help='Arg": 1291,
      "inventory": 1292,
      "+\"Z\",": 1293,
      "olation": 1294,
      "text": 1295,
      "return\",\"": 1296,
      "y_m": 1297,
      "y_env": 1298,
      "⟪{'schema_version':": 1299,
      "body)+\"\\n\")": 1300,
      "body.ext": 1301,
      "Error)": 1302,
      "excep": 1303,
      "cli_demo_command": 1304,
      "=_head": 1305,
      "kind:s": 1306,
      "tier_distribution": 1307,
      "notated": 1308,
      "⟨self:Commandsmith": 1309,
      "RED_": 1310,
      "_cfg": 1311,
      "_clas": 1312,
      "ke_with": 1313,
      "=True)\",\"def": 1314,
      "False,": 1315,
      "numbers\")": 1316,
      "json.dumps({\",s\"": 1317,
      "_key": 1318,
      "auto_apply": 1319,
      "qualname:s": 1320,
      "parent.": 1321,
      "final_": 1322,
      "(card)": 1323,
      ".scan": 1324,
      "defaults(func": 1325,
      "CONFIG_FILE_": 1326,
      "cli_demo_stdout": 1327,
      "indent=2))\",\"": 1328,
      "Decode": 1329,
      "open_id": 1330,
      "str(artifact)": 1331,
      "args.a,": 1332,
      "args.b)))": 1333,
      "candidates=": 1334,
      "Commandsmith.": 1335,
      "DIRS": 1336,
      ").isoformat(timespec='seconds": 1337,
      "')]": 1338,
      "(\"a\",type=int,help=\"": 1339,
      "_parser.add_argument": 1340,
      "ctx:": 1341,
      "ctx.invo": 1342,
      "Argument": 1343,
      "/v1',": 1344,
      "/v1\",generated_at_utc": 1345,
      "required": 1346,
      "⟩→[_]": 1347,
      "subtract_": 1348,
      "frozenset({'pure": 1349,
      ".callback": 1350,
      "Annotated": 1351,
      "LOC": 1352,
      "NAME": 1353,
      "ROO": 1354,
      "Second": 1355,
      "Stub": 1356,
      "language": 1357,
      "ml',": 1358,
      "rounds_comple": 1359,
      "shared_schema": 1360,
      "First": 1361,
      "`src/\"+package+\"": 1362,
      "llm": 1363,
      "latenc": 1364,
      "exited": 1365,
      "json_artifact": 1366,
      "target.write_text(json.dumps(": 1367,
      "_api_key_env": 1368,
      "\"\\n\".join(body)+\"\\n\")": 1369,
      "_dt.datetime.now(_dt.timezone.utc).isoformat(timespec='seconds": 1370,
      ").isoformat(timespec=\"seconds\")+\"Z\",": 1371,
      "'synergy':": 1372,
      "(body=_head": 1373,
      "(invoke_with": 1374,
      ",default=str": 1375,
      "=args↦print(": 1376,
      "=config.get(\"": 1377,
      "=_dt.datetime.utcnow(": 1378,
      "=subparsers.add_parser": 1379,
      "Atomadic": 1380,
      "IGNORED_": 1381,
      "[str]": 1382,
      "[list[str]": 1383,
      "_balance_": 1384,
      "cleaned": 1385,
      "ked_subcommand": 1386,
      "kdown": 1387,
      "{rc}',": 1388,
      "⟦package⟧": 1389,
      "⟨model:_": 1390,
      "recommendat": 1391,
      "in_memory_pipe": 1392,
      "end([\"@app": 1393,
      "getattr(_": 1394,
      "converged": 1395,
      "summary": 1396,
      "proposed_": 1397,
      "er_lines(card)": 1398,
      "(\"b\",type=int,help=\"Second": 1399,
      "er.set_defaults(func": 1400,
      "out_command=True)\",\"def": 1401,
      "typer.echo(json.dumps({\",s\"": 1402,
      "⟦card[\"candidate_id\"]⟧": 1403,
      "available": 1404,
      "json.loads(": 1405,
      "json.JSONDecode": 1406,
      "help='Args": 1407,
      "body.extend([\"@app": 1408,
      "CONFIG_FILE_NAME": 1409,
      "indent=2))\",\"\"])": 1410,
      "open_idx": 1411,
      "str(artifact)]\",\"": 1412,
      "args.a,args.b)))": 1413,
      "(\"a\",type=int,help=\"First": 1414,
      "ctx.invoked_subcommand": 1415,
      "/v1\",generated_at_utc=_dt.datetime.utcnow(": 1416,
      ".callback(invoke_with": 1417,
      "Annotated[list[str]": 1418,
      "rounds_completed": 1419,
      "`src/\"+package+\"/a": 1420,
      "latency_m": 1421,
      "(body=_header_lines(card)": 1422,
      "=subparsers.add_parser(\"": 1423,
      "IGNORED_DIRS": 1424,
      "recommendation": 1425,
      "er.set_defaults(func=args↦print(": 1426,
      "body.extend([\"@app.callback(invoke_with": 1427,
      "/v1\",generated_at_utc=_dt.datetime.utcnow().isoformat(timespec=\"seconds\")+\"Z\",": 1428,
      "body.extend([\"@app.callback(invoke_without_command=True)\",\"def": 1429,
      "\":\"": 1430,
      "'produc": 1431,
      "'--": 1432,
      "'state": 1433,
      "'{package": 1434,
      "(G": 1435,
      "(self.": 1436,
      "(node": 1437,
      ")∨\"": 1438,
      ",\"": 1439,
      ",\",s\"": 1440,
      ",config": 1441,
      "-args": 1442,
      "-tier": 1443,
      "._": 1444,
      ".json": 1445,
      "/CONFIG_FILE_NAME": 1446,
      "1)": 1447,
      "100": 1448,
      "2σ": 1449,
      "5-tier": 1450,
      "=run_": 1451,
      "?\"": 1452,
      "AA": 1453,
      "AI": 1454,
      "AV": 1455,
      "Ch": 1456,
      "Dire": 1457,
      "Generat": 1458,
      "HON": 1459,
      "Imp": 1460,
      "JAV": 1461,
      "OS": 1462,
      "PY": 1463,
      "Sco": 1464,
      "Sur": 1465,
      "Sign": 1466,
      "TYP": 1467,
      "THON": 1468,
      "Val": 1469,
      "[⟪": 1470,
      "[]\",\"": 1471,
      "[0]": 1472,
      "_se": 1473,
      "_as": 1474,
      "_name": 1475,
      "_to": 1476,
      "_utc": 1477,
      "_type": 1478,
      "_si": 1479,
      "_step": 1480,
      "a-": 1481,
      "ab": 1482,
      "ag": 1483,
      "are": 1484,
      "ast": 1485,
      "ase": 1486,
      "adic": 1487,
      "bl": 1488,
      "b:i⟩→i": 1489,
      "base": 1490,
      "cer": 1491,
      "ction": 1492,
      "cros": 1493,
      "e:": 1494,
      "ew": 1495,
      "ever": 1496,
      "f⟧": 1497,
      "f',": 1498,
      "fli": 1499,
      "find": 1500,
      "her": 1501,
      "ies": 1502,
      "ize": 1503,
      "kg": 1504,
      "ken": 1505,
      "ly": 1506,
      "ler": 1507,
      "lle": 1508,
      "mar": 1509,
      "of": 1510,
      "pt": 1511,
      "per": 1512,
      "pkg": 1513,
      "sa": 1514,
      "scrip": 1515,
      "voc": 1516,
      "wh": 1517,
      "yout": 1518,
      "{e:": 1519,
      "∈IGNORED_DIRS": 1520,
      "⟨chain": 1521,
      "⟨node": 1522,
      "⟨project_root": 1523,
      "⟫]": 1524,
      "erme": 1525,
      "er()": 1526,
      "revi": 1527,
      "ator": 1528,
      "in-": 1529,
      "ini": 1530,
      "arc": 1531,
      "arts": 1532,
      "stall": 1533,
      "gemin": 1534,
      "\",\"re": 1535,
      "ses:[s]": 1536,
      "and_": 1537,
      "anthropic": 1538,
      "comp": 1539,
      "cover": 1540,
      "count:i": 1541,
      "ded": 1542,
      "descrip": 1543,
      "disco": 1544,
      "diate": 1545,
      "digest": 1546,
      "tif": 1547,
      "'.p": 1548,
      "'.w": 1549,
      "'.to": 1550,
      "'.js',": 1551,
      "ace": 1552,
      "met": 1553,
      "meth": 1554,
      "export": 1555,
      "⟩→b": 1556,
      "e_report": 1557,
      "t_docstring": 1558,
      "ts_utc": 1559,
      "forwar": 1560,
      "[\"provider": 1561,
      "mment": 1562,
      "producer_fn": 1563,
      "s\"#": 1564,
      "ulary": 1565,
      "adapt": 1566,
      "package,": 1567,
      "package:s": 1568,
      "load_": 1569,
      "out',": 1570,
      "try": 1571,
      "_pure": 1572,
      "names": 1573,
      "synerg": 1574,
      "json',": 1575,
      "_comment": 1576,
      ").re": 1577,
      ").split": 1578,
      "config_fi": 1579,
      "config.update": 1580,
      "ueError": 1581,
      "typer.Argument": 1582,
      "consumer-args": 1583,
      "ocstring": 1584,
      "self.write_": 1585,
      "this": 1586,
      "output_root": 1587,
      "result": 1588,
      "\\n\\n```bash": 1589,
      "_domain": 1590,
      "_docstring": 1591,
      "artifact.": 1592,
      "**{e:": 1593,
      "interme": 1594,
      ":b⟩": 1595,
      "key": 1596,
      "path:_": 1597,
      "violation": 1598,
      "olv": 1599,
      "t=self.": 1600,
      "t=len(": 1601,
      "text:s": 1602,
      "Command": 1603,
      "prefix": 1604,
      "url,": 1605,
      "url:s": 1606,
      "url':": 1607,
      "True,": 1608,
      "md_path": 1609,
      "models": 1610,
      "excer": 1611,
      ".get(": 1612,
      ".get_docstring": 1613,
      "domains": 1614,
      "kind:_": 1615,
      "tier_inde": 1616,
      "strip_comment": 1617,
      "⟨self:TranscriptLog": 1618,
      "RE.sub(\"": 1619,
      "RESE": 1620,
      "cmd_a": 1621,
      "cmd_a,": 1622,
      "\\\"\\\"\\\"Run": 1623,
      "(_step": 1624,
      "Symbol": 1625,
      "_render_phase_omission": 1626,
      "sibl": 1627,
      "producer_args:": 1628,
      "--------": 1629,
      "⟦card[\"consumer\"]⟧,": 1630,
      "⟦card[\"consumer\"]⟧.\\\"\\\"\\\"": 1631,
      "lineage": 1632,
      ".sav": 1633,
      "'.md": 1634,
      "'.mjs',": 1635,
      "consumer_fn": 1636,
      "run(\",\"": 1637,
      "Defaul": 1638,
      "ManifestCard": 1639,
      "openai": 1640,
      "source_root": 1641,
      "cur_score": 1642,
      "javascript": 1643,
      "typer.Exit(2": 1644,
      "ESCRIPT_EXTS": 1645,
      "_root:_": 1646,
      "ache/\\n.": 1647,
      "manifest_dir": 1648,
      "s,smoke_results": 1649,
      "run_id": 1650,
      "generated_at_utc:s": 1651,
      "Registry": 1652,
      "parts": 1653,
      "⟩→[s]": 1654,
      "self._turn": 1655,
      "atomadic-forge\"": 1656,
      "module:s": 1657,
      ",indent=2,default=str": 1658,
      "LAN": 1659,
      "read_text(": 1660,
      "read_config_fi": 1661,
      "\",default=cur_": 1662,
      "file:s": 1663,
      "_path)": 1664,
      "_path=": 1665,
      "top_n": 1666,
      "top_level": 1667,
      "imports:[s]": 1668,
      "cmd_b,": 1669,
      "typer.secho(f'producer": 1670,
      "subprocess.run(cmd_a,": 1671,
      "subprocess.run(cmd_b,": 1672,
      "monadic": 1673,
      "raw_appen": 1674,
      "s\\n-": 1675,
      "⟧`\",s\"-": 1676,
      "inputs": 1677,
      "scout['": 1678,
      "None,\",\")": 1679,
      "ASCRIPT_EXTS": 1680,
      "Intent": 1681,
      "TIER": 1682,
      "work": 1683,
      "detect_": 1684,
      "alignment": 1685,
      "\"]=_prompt_str(\"": 1686,
      "typer.Context": 1687,
      "artifact_md_path": 1688,
      "except": 1689,
      "parent.mkdir(parents=true,exist_ok=true)": 1690,
      "final_score": 1691,
      "frozenset({'pure',": 1692,
      "LOCAL_CONFIG_DIR": 1693,
      "StubLLMClient": 1694,
      "_api_key_env:_⟩": 1695,
      "_dt.datetime.now(_dt.timezone.utc).isoformat(timespec='seconds'),": 1696,
      "json.JSONDecodeError)": 1697,
      "(node)∨\"": 1698,
      "Directory": 1699,
      "Generated": 1700,
      "JAVASCRIPT_EXTS": 1701,
      "OSError,": 1702,
      "PYTHON": 1703,
      "Surface": 1704,
      "Signature": 1705,
      "TYPESCRIPT_EXTS": 1706,
      "ValueError": 1707,
      "[⟪:": 1708,
      "_token": 1709,
      "_size": 1710,
      "abulary": 1711,
      "ast.get_docstring": 1712,
      "flict": 1713,
      "llection": 1714,
      "vocabulary": 1715,
      "⟨node:_⟩→s": 1716,
      "review": 1717,
      "coverage": 1718,
      "description": 1719,
      "metho": 1720,
      "exported_": 1721,
      "ts_utc':": 1722,
      "forwarded": 1723,
      "[\"provider\"]": 1724,
      "config.update(_step": 1725,
      "typer.Argument(\",\"": 1726,
      "\\n\\n```bash\\n": 1727,
      "intermediate": 1728,
      "RESETS": 1729,
      "sibling": 1730,
      "⟦card[\"consumer\"]⟧.\\\"\\\"\\\"\",\"": 1731,
      "RegistryManifestCard": 1732,
      ",indent=2,default=str),encoding=\"utf-8\")": 1733,
      "read_config_file": 1734,
      "typer.Context,\",\"": 1735,
      "PYTHON_EXTS": 1736,
      "ast.get_docstring(node)∨\"": 1737,
      "\"\\\"\\\"\\\"": 1738,
      "'\",\"": 1739,
      "'run": 1740,
      "'orchestr": 1741,
      "'model": 1742,
      "'kind": 1743,
      "'main": 1744,
      "'))\",\"": 1745,
      "'ht": 1746,
      "'content": 1747,
      "'ollama_": 1748,
      "'latency_m": 1749,
      "'url':": 1750,
      "'ts_utc':": 1751,
      "(f": 1752,
      "(h": 1753,
      "(k": 1754,
      "({": 1755,
      "(_p": 1756,
      "(doc": 1757,
      "(url": 1758,
      "(local": 1759,
      "(updates[\"": 1760,
      "(data": 1761,
      "(consumer_args": 1762,
      "(s\"⟦": 1763,
      "(schema_version=\"atomadic-forge.": 1764,
      "(args.a,args.b)))": 1765,
      "(prefix": 1766,
      "(OSError,": 1767,
      "(description": 1768,
      ")?": 1769,
      ")∈": 1770,
      ")≥": 1771,
      ")}⟫": 1772,
      ")\\n\\n": 1773,
      "*.": 1774,
      "*producer_args": 1775,
      ",v": 1776,
      ",package": 1777,
      ",domain_": 1778,
      ",max": 1779,
      ",open_idx": 1780,
      "-Z": 1781,
      "-⟦": 1782,
      "-in": 1783,
      "-not": 1784,
      "-')": 1785,
      "-fo": 1786,
      "-out',": 1787,
      ".1": 1788,
      ".T": 1789,
      ".v": 1790,
      ".\\n": 1791,
      ".\")": 1792,
      ".writ": 1793,
      ".exist": 1794,
      ".low": 1795,
      ".item": 1796,
      ".mkdir(parents=true,exist_ok=true)": 1797,
      ".registry": 1798,
      ".')]": 1799,
      "/\"": 1800,
      "//": 1801,
      "/5": 1802,
      "/_": 1803,
      "/LOCAL_CONFIG_DIR": 1804,
      "0,": 1805,
      "25": 1806,
      "2',": 1807,
      "3',": 1808,
      "4ι": 1809,
      "4',": 1810,
      "5)": 1811,
      "8⟫]": 1812,
      ":v": 1813,
      "=f": 1814,
      "=re": 1815,
      "=co": 1816,
      "=card": 1817,
      "=⟪{'": 1818,
      "=has": 1819,
      "=len(": 1820,
      "=smoke_results": 1821,
      "=read_config_file": 1822,
      "=ast.get_docstring(node)∨\"": 1823,
      "?doc": 1824,
      "AG": 1825,
      "Auto": 1826,
      "ALL": 1827,
      "A-Z": 1828,
      "BAL_CONFIG_DIR": 1829,
      "CO": 1830,
      "Can": 1831,
      "EC": 1832,
      "EM": 1833,
      "EN": 1834,
      "GU": 1835,
      "Gem": 1836,
      "ITS": 1837,
      "Kind": 1838,
      "KG_": 1839,
      "MA": 1840,
      "MM": 1841,
      "MP": 1842,
      "NI": 1843,
      "Ol": 1844,
      "Open": 1845,
      "Pro": 1846,
      "Pic": 1847,
      "PKG_": 1848,
      "ST": 1849,
      "Script": 1850,
      "Ti": 1851,
      "Typ": 1852,
      "The": 1853,
      "Test": 1854,
      "Wire": 1855,
      "[import": 1856,
      "[A-Z": 1857,
      "\\\\": 1858,
      "__": 1859,
      "_ro": 1860,
      "_de": 1861,
      "__p": 1862,
      "_config": 1863,
      "_la": 1864,
      "_tier": 1865,
      "_name:s": 1866,
      "_EX": 1867,
      "_url": 1868,
      "_line": 1869,
      "_candidate_id": 1870,
      "_NAM": 1871,
      "_signature": 1872,
      "_required": 1873,
      "_summary": 1874,
      "_mar": 1875,
      "_text:s": 1876,
      "_excer": 1877,
      "`.": 1878,
      "`⟦": 1879,
      "`\",\"": 1880,
      "`forge": 1881,
      "`run": 1882,
      "a',": 1883,
      "ach": 1884,
      "a2_mo_composites": 1885,
      "akdown": 1886,
      "br": 1887,
      "bu": 1888,
      "bre": 1889,
      "bel": 1890,
      "b_signature": 1891,
      "ci": 1892,
      "c∈": 1893,
      "c[\"": 1894,
      "ce(": 1895,
      "cache',": 1896,
      "cach": 1897,
      "der": 1898,
      "d:i": 1899,
      "eb": 1900,
      "ev": 1901,
      "emp": 1902,
      "eCard": 1903,
      "eff": 1904,
      "fre": 1905,
      "fe_": 1906,
      "ful": 1907,
      "gnore": 1908,
      "hex": 1909,
      "hand": 1910,
      "hap": 1911,
      "hig": 1912,
      "hlib": 1913,
      "h[⟪:": 1914,
      "io": 1915,
      "ide": 1916,
      "jp": 1917,
      "ju": 1918,
      "ker": 1919,
      "kip": 1920,
      "k:v": 1921,
      "l_p": 1922,
      "ms:i": 1923,
      "mil": 1924,
      "next": 1925,
      "ose": 1926,
      "ot_": 1927,
      "o:i": 1928,
      "osi": 1929,
      "pip": 1930,
      "pth": 1931,
      "ption": 1932,
      "pipe": 1933,
      "ru": 1934,
      "ran": 1935,
      "s∈": 1936,
      "sent": 1937,
      "sing": 1938,
      "s),": 1939,
      "sav": 1940,
      "s:f": 1941,
      "sider": 1942,
      "s']": 1943,
      "ss',": 1944,
      "shap": 1945,
      "skip": 1946,
      "tp": 1947,
      "tre": 1948,
      "t',": 1949,
      "tmp": 1950,
      "ture": 1951,
      "ude": 1952,
      "ues": 1953,
      "v≠": 1954,
      "venv": 1955,
      "venv',": 1956,
      "ward": 1957,
      "wire": 1958,
      "x'}⟫)": 1959,
      "xt',": 1960,
      "yel": 1961,
      "ycach": 1962,
      "{'": 1963,
      "{exc": 1964,
      "|--------": 1965,
      "})": 1966,
      "∅})": 1967,
      "∈re": 1968,
      "⟦chain[\"": 1969,
      "⟧\\n\\n##": 1970,
      "⟨config": 1971,
      "⟨candidate_id": 1972,
      "⟨report": 1973,
      "⟨project_dir": 1974,
      "⟨⟩→[_]": 1975,
      "⟨url:s": 1976,
      "⟨file:s": 1977,
      "erer": 1978,
      "er((": 1979,
      "er=subparsers.add_parser(\"": 1980,
      "onic": 1981,
      "on_con": 1982,
      "read": 1983,
      "rectory": 1984,
      "resp": 1985,
      "\",[\"": 1986,
      "\",encoding=\"utf-8\")": 1987,
      "\",src)": 1988,
      "\",1)": 1989,
      "ints": 1990,
      "instan": 1991,
      "install": 1992,
      "ort_": 1993,
      "ort(": 1994,
      "orary": 1995,
      "stat": 1996,
      "sts:[s]": 1997,
      "stem": 1998,
      "enfor": 1999,
      "encode": 2000,
      "eno:i": 2001,
      "\",\"##": 2002,
      "\",\"types": 2003,
      "\",\"javascript": 2004,
      "see": 2005,
      "role": 2006,
      "anel": 2007,
      "commandsmith": 2008,
      "dist": 2009,
      "directory": 2010,
      "tignore": 2011,
      "chit": 2012,
      "constants": 2013,
      "consider": 2014,
      "\\n\"": 2015,
      "\\n\",1)": 2016,
      "'./": 2017,
      "'.g": 2018,
      "'.t": 2019,
      "'.y": 2020,
      "'.mp": 2021,
      "'.js": 2022,
      "'.py": 2023,
      "'.wr": 2024,
      "'.wo": 2025,
      "'.env',": 2026,
      "'.json',": 2027,
      "'.jp": 2028,
      "d_types": 2029,
      "d_names": 2030,
      "d_lineage": 2031,
      "es',": 2032,
      "it',": 2033,
      "itted": 2034,
      "fig": 2035,
      "first": 2036,
      "file_": 2037,
      "mp)": 2038,
      "mpfile": 2039,
      "mp_required": 2040,
      "extra": 2041,
      "er_arg": 2042,
      "e__": 2043,
      "t_consider": 2044,
      "ts:[s]": 2045,
      "\"]=f": 2046,
      "ypy_": 2047,
      "s]\",\"": 2048,
      "(\"utf-8\")": 2049,
      "(\"\\n\",1)": 2050,
      "cards:[_]": 2051,
      "er.\",\"": 2052,
      "er.json": 2053,
      "add": 2054,
      "package:_": 2055,
      "package_name": 2056,
      "loat(": 2057,
      "t.parent.mkdir(parents=true,exist_ok=true)": 2058,
      "dict": 2059,
      "transcript": 2060,
      "self_as": 2061,
      "ed:i": 2062,
      "syn": 2063,
      "verb_signature": 2064,
      "scode": 2065,
      "--provider": 2066,
      "--consumer-args": 2067,
      "is_": 2068,
      "ision": 2069,
      "isinstan": 2070,
      "json-out',": 2071,
      "_count": 2072,
      "dir:s": 2073,
      "name,": 2074,
      "name⟧": 2075,
      "forge_se": 2076,
      ").')]": 2077,
      ").hex": 2078,
      "to_tier:s": 2079,
      "default": 2080,
      "⟪{}⟫": 2081,
      "⟪{'a": 2082,
      "⟪{}⟫)": 2083,
      "producer,": 2084,
      "producer:s": 2085,
      "consumer,": 2086,
      "consumer:s": 2087,
      "cript'": 2088,
      "None)": 2089,
      "None)\",\"": 2090,
      "place": 2091,
      "chain_coun": 2092,
      "sult": 2093,
      "havi": 2094,
      "ha25": 2095,
      "s.Co": 2096,
      "layout": 2097,
      "laude": 2098,
      "T_FIL": 2099,
      "T_TE": 2100,
      "T_RE.sub(\"": 2101,
      "otonic": 2102,
      "parser.": 2103,
      "parser.set_defaults(func=args↦print(": 2104,
      "callable": 2105,
      "igno": 2106,
      "ignore": 2107,
      "pair": 2108,
      "didateCard": 2109,
      "\\n\\n⟦": 2110,
      "renderer": 2111,
      "='utf-8": 2112,
      "='synergy": 2113,
      "else": 2114,
      "lineno:i": 2115,
      "help_text:s": 2116,
      "render_test": 2117,
      "path:s": 2118,
      "via": 2119,
      "wrapp": 2120,
      "inv=co": 2121,
      "'auto": 2122,
      "'a4_sy_orchestration": 2123,
      "'a1_at_function": 2124,
      "'a3_og_feature": 2125,
      "'a2_mo_composites": 2126,
      "doc_token": 2127,
      "doc?doc": 2128,
      "feed": 2129,
      "upward": 2130,
      "add_parser.add_argument": 2131,
      "Comp": 2132,
      "orchestrator": 2133,
      "\".atomadic-forge\"": 2134,
      "ice": 2135,
      "⟪{'available": 2136,
      "4_project_": 2137,
      "_of": 2138,
      "emitted": 2139,
      "points": 2140,
      "choice": 2141,
      "exc\",\"": 2142,
      "exc:\",\"": 2143,
      "type:": 2144,
      "tier_inventory": 2145,
      "strip()": 2146,
      "⟨self:ManifestStore": 2147,
      "_cache',": 2148,
      "_cache/\\n.": 2149,
      "cur_prefix": 2150,
      "gist": 2151,
      "gitignore": 2152,
      "unter((": 2153,
      "from_tier:s": 2154,
      "```\\n\\n##": 2155,
      "```\",\"\",s\"": 2156,
      "importable": 2157,
      "False}⟫": 2158,
      "json.dumps(entry": 2159,
      "_render_shared_schema": 2160,
      "_render_json_artifact": 2161,
      "_render_in_memory_pipe": 2162,
      "atomadic_forge_se": 2163,
      "⟦card[\"consumer\"]⟧,\",\"": 2164,
      "time.mon": 2165,
      "catalog))": 2166,
      "catalog_size": 2167,
      "functions:[s]": 2168,
      "final_output": 2169,
      "finalize": 2170,
      "encoding='utf-8": 2171,
      "(cards)": 2172,
      ".sha25": 2173,
      "a4_sy_orchestration/`": 2174,
      "generated": 2175,
      "has_clas": 2176,
      "smoke": 2177,
      "'.md',": 2178,
      "modules": 2179,
      "_present": 2180,
      "result.score_trajectory": 2181,
      "python\",\"javascript": 2182,
      "\".join(chain[\"": 2183,
      "Demo": 2184,
      "Report(": 2185,
      "_first": 2186,
      "_files": 2187,
      "_file_": 2188,
      "ire_pure": 2189,
      "open(\"a": 2190,
      "angler": 2191,
      "str(SRC": 2192,
      "local_cfg": 2193,
      "default_exp": 2194,
      "source_repo": 2195,
      "\"+result.": 2196,
      "1_provider": 2197,
      "manifest=": 2198,
      "commands_dir": 2199,
      "commands=card": 2200,
      "(\"a0_qk_constants": 2201,
      "_parser.set_defaults(func=args↦print(": 2202,
      "_parser=subparsers.add_parser(\"": 2203,
      "typer.secho('producer": 2204,
      "fg='yel": 2205,
      "atomadic_forge.commands": 2206,
      "'})}⟫": 2207,
      "'producer':": 2208,
      "(target=self.": 2209,
      "(target.parent.mkdir(parents=true,exist_ok=true)": 2210,
      "Config": 2211,
      "Result": 2212,
      "d(⟪{'schema_version':": 2213,
      "i_key": 2214,
      "multiply_parser.add_argument": 2215,
      "priv": 2216,
      "parse": 2217,
      "t:s⟩→s": 2218,
      "require_pure": 2219,
      "report,indent=2,default=str),encoding=\"utf-8\")": 2220,
      "command.')]": 2221,
      "divide_parser.add_argument": 2222,
      "low',": 2223,
      "subtract": 2224,
      "score_bre": 2225,
      "self._raw_appen": 2226,
      "erryPic": 2227,
      ")+\"\\n\"))": 2228,
      "TranscriptLog._": 2229,
      "(tag": 2230,
      "(tmp)": 2231,
      "(config[\"provider\"]": 2232,
      ",indent=2),encoding=\"utf-8\")": 2233,
      "Anthropic": 2234,
      "LATE": 2235,
      "LOBAL_CONFIG_DIR": 2236,
      "Step": 2237,
      "lang_la": 2238,
      "s\",\"a4_sy_orchestration": 2239,
      "s\",\"a2_mo_composites": 2240,
      "∨\"(": 2241,
      "⟨src:s": 2242,
      "⟨src:s⟩→s": 2243,
      "⟨src_root:_": 2244,
      "main`": 2245,
      "'.cjs',": 2246,
      "project_dir/LOCAL_CONFIG_DIR": 2247,
      "⟦card[\"producer\"]⟧,\",s\"": 2248,
      "1_at_functions/`": 2249,
      "1_at_functions\",\"a2_mo_composites": 2250,
      "typer.secho(f'consumer": 2251,
      "shared_vocabulary": 2252,
      "payload.get(": 2253,
      "'-m',\",\"": 2254,
      "3_og_features/`": 2255,
      "3_og_features\",\"a4_sy_orchestration": 2256,
      "duration_ms:i": 2257,
      "global_": 2258,
      "global_cfg": 2259,
      "2_mo_composites/`": 2260,
      "0_qk_constants':": 2261,
      "0_qk_constants/`": 2262,
      "Path(tmp)": 2263,
      "_PRESETS": 2264,
      "befo": 2265,
      "behavi": 2266,
      "classes": 2267,
      "e(json.dumps(entry": 2268,
      "passe": 2269,
      "tempfile": 2270,
      "stateful": 2271,
      "\",\"\",\"##": 2272,
      "segment∈IGNORED_DIRS": 2273,
      "'.sv": 2274,
      "field_types": 2275,
      "lib.": 2276,
      "symbol_count": 2277,
      "_count:i⟩": 2278,
      "target:_⟩→_": 2279,
      "docstring:s⟩": 2280,
      "_append_lineage": 2281,
      "has_self_as": 2282,
      "headline:s": 2283,
      "signatures": 2284,
      "default_target_score\"]=f": 2285,
      ".sub(\"^": 2286,
      ".update({": 2287,
      "'],": 2288,
      "'consumer':": 2289,
      "'atomadic-forge.transcript": 2290,
      "(src,open_idx": 2291,
      ".0f⟧": 2292,
      ".\",\"-": 2293,
      ".strip().split": 2294,
      "\",\"a1_at_functions\",\"a2_mo_composites": 2295,
      "\",\"a3_og_features\",\"a4_sy_orchestration": 2296,
      "ses_domain": 2297,
      "merge_config": 2298,
      "merged.update({": 2299,
      "_count=len(": 2300,
      "error_": 2301,
      "tier_distribution:[_]": 2302,
      "_classes:[s]": 2303,
      "_key':": 2304,
      "_key:_": 2305,
      ".scan/v1\",generated_at_utc=_dt.datetime.utcnow().isoformat(timespec=\"seconds\")+\"Z\",": 2306,
      "candidates=candidates": 2307,
      "Commandsmith.write_": 2308,
      "subtract_parser.add_argument": 2309,
      "ROOT": 2310,
      "ROOT_TE": 2311,
      "target.write_text(json.dumps(report,indent=2,default=str),encoding=\"utf-8\")": 2312,
      "_balance_pair": 2313,
      "cleaned=re": 2314,
      "getattr(_producer,": 2315,
      "getattr(_consumer,": 2316,
      "⟦card[\"candidate_id\"]⟧,\",\"": 2317,
      "⟦card[\"candidate_id\"]⟧,\",s\"": 2318,
      "json.loads(artifact.": 2319,
      "open_idx:i⟩→i": 2320,
      "recommendations:[s]⟩": 2321,
      "/v1\",generated_at_utc=_dt.datetime.utcnow().isoformat(timespec=\"seconds\")+\"Z\",commands=card": 2322,
      "'producer.json": 2323,
      "'--json-out',": 2324,
      "'state',": 2325,
      "'{package}": 2326,
      ",config))": 2327,
      ".json\"": 2328,
      "CherryPic": 2329,
      "Import": 2330,
      "Score": 2331,
      "[0]:\"": 2332,
      "_type:s": 2333,
      "a-z": 2334,
      "base_url": 2335,
      "certif": 2336,
      "crosses_domain": 2337,
      "every": 2338,
      "finding": 2339,
      "pt:s⟩": 2340,
      "peration": 2341,
      "safe_": 2342,
      "why": 2343,
      "⟨chain:_⟩→s": 2344,
      "⟨project_root:_": 2345,
      "in-memory": 2346,
      "gemini_key": 2347,
      "\",\"rename": 2348,
      "discover": 2349,
      "digest()": 2350,
      "'.web": 2351,
      "load_config": 2352,
      "try:\",\"": 2353,
      "synergies": 2354,
      ").replace": 2355,
      "_docstring_first": 2356,
      "path:_⟩→∅": 2357,
      "tier_index(": 2358,
      ".save_report": 2359,
      "Default": 2360,
      "source_root:s⟩": 2361,
      "cur_score))": 2362,
      "typer.Exit(2)": 2363,
      "s,smoke_results=smoke_results": 2364,
      "LANGU": 2365,
      "read_text(encoding='utf-8": 2366,
      "_path=project_dir/LOCAL_CONFIG_DIR": 2367,
      "TIER_NAM": 2368,
      "worktre": 2369,
      "detect_ollama": 2370,
      "Directory(prefix": 2371,
      "SignatureCard": 2372,
      "ValueError(": 2373,
      "llections.Co": 2374,
      "review:": 2375,
      "coverage',": 2376,
      "method_names": 2377,
      "sibling_": 2378,
      "RegistryManifestCard(schema_version=\"atomadic-forge.": 2379,
      "'run',": 2380,
      "'orchestrate": 2381,
      "'models':": 2382,
      "'kind':": 2383,
      "'main',": 2384,
      "'latency_ms':": 2385,
      "(f.writ": 2386,
      "(h=has": 2387,
      "(k,v": 2388,
      "(_panel": 2389,
      "(doc=ast.get_docstring(node)∨\"": 2390,
      "(updates[\"default_target_score\"]=f": 2391,
      "-⟦h[⟪:": 2392,
      "-not-fo": 2393,
      ".Temp": 2394,
      ".exists()": 2395,
      ".lower()": 2396,
      ".items()": 2397,
      ".registry/v1\",generated_at_utc=_dt.datetime.utcnow().isoformat(timespec=\"seconds\")+\"Z\",commands=card": 2398,
      "/5:": 2399,
      "8⟫]⟧\")": 2400,
      "COMM": 2401,
      "CandidateCard": 2402,
      "EMITS": 2403,
      "ENT_RE.sub(\"": 2404,
      "Gemini": 2405,
      "MPLATE": 2406,
      "Ollama": 2407,
      "OpenAI": 2408,
      "PKG_ROOT_TE": 2409,
      "Tier": 2410,
      "[import-not-fo": 2411,
      "[A-Za-z": 2412,
      "_root_": 2413,
      "_depth": 2414,
      "__pycach": 2415,
      "_EXT": 2416,
      "`run`": 2417,
      "akdown:[_]": 2418,
      "buil": 2419,
      "c∈catalog))": 2420,
      "evolv": 2421,
      "effec": 2422,
      "free": 2423,
      "hlib.sha25": 2424,
      "jump_required": 2425,
      "l_parts": 2426,
      "ruff": 2427,
      "tmp:\",\"": 2428,
      "v≠∅})": 2429,
      "{exc}',": 2430,
      "⟨candidate_id:s": 2431,
      "⟨report:_": 2432,
      "⟨project_dir:_⟩→_": 2433,
      "on_conflict": 2434,
      "oraryDirectory(prefix": 2435,
      "enforces": 2436,
      "encode(\"utf-8\")": 2437,
      "\",\"typescript": 2438,
      "commandsmith.registry/v1\",generated_at_utc=_dt.datetime.utcnow().isoformat(timespec=\"seconds\")+\"Z\",commands=card": 2439,
      "directory\",default=cur_": 2440,
      "chitec": 2441,
      "constants,": 2442,
      "'.py',": 2443,
      "'.wrangler": 2444,
      "'.woff": 2445,
      "er_args]\",\"": 2446,
      "(\"\\n\",1)[0]:\"": 2447,
      "isinstance(": 2448,
      ").hexdigest()": 2449,
      "⟪{'a0_qk_constants':": 2450,
      "chain_count_consider": 2451,
      "otonic()": 2452,
      "ignore[import-not-fo": 2453,
      "='synergy-')": 2454,
      "render_tests_": 2455,
      "inv=collections.Co": 2456,
      "'a4_sy_orchestration':": 2457,
      "'a1_at_functions':": 2458,
      "'a3_og_features':": 2459,
      "'a2_mo_composites':": 2460,
      "doc?doc.strip().split": 2461,
      "⟪{'available':": 2462,
      "4_project_defaults": 2463,
      "unter((c[\"": 2464,
      "time.monotonic()": 2465,
      "_present:b": 2466,
      "python\",\"javascript\",\"typescript": 2467,
      "Report(schema_version=\"atomadic-forge.": 2468,
      "_files:[s]": 2469,
      "open(\"a\",encoding=\"utf-8\")": 2470,
      "default_export_": 2471,
      "(\"a0_qk_constants\",\"a1_at_functions\",\"a2_mo_composites": 2472,
      "fg='yellow',": 2473,
      "private": 2474,
      "score_breakdown:[_]": 2475,
      "self._raw_append(⟪{'schema_version':": 2476,
      "(tags_": 2477,
      "(config[\"provider\"],config))": 2478,
      "lang_label": 2479,
      "payload.get('": 2480,
      "before": 2481,
      "tempfile.Temp": 2482,
      "has_self_assign": 2483,
      "'atomadic-forge.transcript/v1',": 2484,
      "(src,open_idx,\"": 2485,
      "merged.update({k:v": 2486,
      "_balance_pair(src,open_idx,\"": 2487,
      "cleaned=re.sub(\"^": 2488,
      "json.loads(artifact.read_text(encoding='utf-8": 2489,
      "'producer.json'\",\"": 2490,
      "CherryPick": 2491,
      ").replace(\"": 2492,
      "_docstring_first_line": 2493,
      "LANGUAG": 2494,
      "_path=project_dir/LOCAL_CONFIG_DIR/CONFIG_FILE_NAME": 2495,
      "TIER_NAMES": 2496,
      "worktrees',": 2497,
      "RegistryManifestCard(schema_version=\"atomadic-forge.commandsmith.registry/v1\",generated_at_utc=_dt.datetime.utcnow().isoformat(timespec=\"seconds\")+\"Z\",commands=card": 2498,
      "(f.write(json.dumps(entry": 2499,
      "(h=hashlib.sha25": 2500,
      "(k,v)∈": 2501,
      "(_panel(\"": 2502,
      "(doc=ast.get_docstring(node)∨\"\"": 2503,
      "(updates[\"default_target_score\"]=float(": 2504,
      "-⟦h[⟪:8⟫]⟧\")": 2505,
      "COMMENT_RE.sub(\"": 2506,
      "PKG_ROOT_TEMPLATE": 2507,
      "__pycache__": 2508,
      "oraryDirectory(prefix='synergy-')": 2509,
      "encode(\"utf-8\")).hexdigest()": 2510,
      "ignore[import-not-found": 2511,
      "inv=collections.Counter((c[\"": 2512,
      "doc?doc.strip().split(\"\\n\",1)[0]:\"": 2513,
      "(\"a0_qk_constants\",\"a1_at_functions\",\"a2_mo_composites\",\"a3_og_features\",\"a4_sy_orchestration": 2514,
      "tempfile.TemporaryDirectory(prefix='synergy-')": 2515,
      "json.loads(artifact.read_text(encoding='utf-8'))\",\"": 2516,
      "RegistryManifestCard(schema_version=\"atomadic-forge.commandsmith.registry/v1\",generated_at_utc=_dt.datetime.utcnow().isoformat(timespec=\"seconds\")+\"Z\",commands=cards,smoke_results=smoke_results": 2517,
      "(h=hashlib.sha256": 2518,
      "COMMENT_RE.sub(\"\",src)": 2519,
      "!s\"": 2520,
      "\"~": 2521,
      "\"config": 2522,
      "\"+\"": 2523,
      "\"```": 2524,
      "\"python": 2525,
      "\"?\"": 2526,
      "\"javascript": 2527,
      "\"⟧\\n\\n##": 2528,
      "\"__pycache__": 2529,
      "'\"": 2530,
      "''": 2531,
      "'0": 2532,
      "'m": 2533,
      "'t": 2534,
      "'⟦": 2535,
      "'\\n": 2536,
      "'\")": 2537,
      "'package": 2538,
      "'forge": 2539,
      "').": 2540,
      "')\",\"": 2541,
      "'src": 2542,
      "'turn": 2543,
      "'version": 2544,
      "'path": 2545,
      "'type": 2546,
      "'phase": 2547,
      "'python": 2548,
      "'app": 2549,
      "'src/": 2550,
      "'artifact": 2551,
      "'generated_at_utc": 2552,
      "'node": 2553,
      "'module": 2554,
      "'duration_": 2555,
      "'phase_omission": 2556,
      "'cherry": 2557,
      "'package_prefix": 2558,
      "'scout": 2559,
      "'target": 2560,
      "'output_dir": 2561,
      "'env',": 2562,
      "'preset": 2563,
      "'cli_demo_returncode": 2564,
      "'headline": 2565,
      "'score_trajectory": 2566,
      "'sources_dir": 2567,
      "'default_target_score": 2568,
      "''),": 2569,
      "'schema_id": 2570,
      "'artifact_": 2571,
      "'cli_demo_command": 2572,
      "'tier_distribution": 2573,
      "'cli_demo_stdout": 2574,
      "'shared_schema": 2575,
      "'llm": 2576,
      "'in_memory_pipe": 2577,
      "'converged": 2578,
      "'rounds_completed": 2579,
      "'recommendation": 2580,
      "'anthropic": 2581,
      "'met": 2582,
      "'out',": 2583,
      "'output_root": 2584,
      "'result": 2585,
      "'openai": 2586,
      "'run_id": 2587,
      "'artifact_md_path": 2588,
      "'final_score": 2589,
      "'description": 2590,
      "'io": 2591,
      "'venv',": 2592,
      "'role": 2593,
      "'dist": 2594,
      "'extra": 2595,
      "'finalize": 2596,
      "'shared_vocabulary": 2597,
      "'in-memory": 2598,
      "'gemini_key": 2599,
      "'coverage',": 2600,
      "'buil": 2601,
      "'private": 2602,
      "'worktrees',": 2603,
      "'__pycache__": 2604,
      "(0": 2605,
      "(?": 2606,
      "(E": 2607,
      "(W": 2608,
      "(d": 2609,
      "(or": 2610,
      "(s\"": 2611,
      "())": 2612,
      "(args": 2613,
      "()\",\"": 2614,
      "(parser": 2615,
      "(phase": 2616,
      "(with": 2617,
      "(catalog": 2618,
      "(defaults": 2619,
      "(args.": 2620,
      "(s)": 2621,
      "()))": 2622,
      "(path.": 2623,
      "(project_dir": 2624,
      "(global": 2625,
      "(Fi": 2626,
      "(ht": 2627,
      "(scout": 2628,
      "(print(": 2629,
      "(sp": 2630,
      "(detec": 2631,
      "(merged": 2632,
      "(log": 2633,
      "(candidates=": 2634,
      "('--": 2635,
      "(5-tier": 2636,
      "(pkg": 2637,
      "(arc": 2638,
      "(domains": 2639,
      "(self._turn": 2640,
      "(intermediate": 2641,
      "(next": 2642,
      "(skip": 2643,
      "(see": 2644,
      "(name,": 2645,
      "(⟪{}⟫)": 2646,
      "(renderer": 2647,
      "(atomadic_forge_se": 2648,
      "(result.score_trajectory": 2649,
      "(manifest=": 2650,
      "(Anthropic": 2651,
      "(every": 2652,
      "(safe_": 2653,
      "(⟪{'available':": 2654,
      "(self._raw_append(⟪{'schema_version':": 2655,
      "(lang_label": 2656,
      "(cleaned=re.sub(\"^": 2657,
      "(!s\"": 2658,
      ")]": 2659,
      ")\")": 2660,
      ")[\"": 2661,
      ")\"])": 2662,
      ")},": 2663,
      ")\",default=": 2664,
      ")\"⟧\\n\\n##": 2665,
      "*b": 2666,
      "*produc": 2667,
      "*consum": 2668,
      "*len(": 2669,
      "*100": 2670,
      "+1": 2671,
      "+b": 2672,
      "+\",": 2673,
      "+s\"": 2674,
      ",sub": 2675,
      ",output": 2676,
      ",t)": 2677,
      ",_render_": 2678,
      ",defaults": 2679,
      ",pic": 2680,
      ",project_dir": 2681,
      ",apply": 2682,
      ",source_root": 2683,
      ",top_n": 2684,
      ",global_cfg": 2685,
      ",on_conflict": 2686,
      "-9": 2687,
      "-]": 2688,
      "-e": 2689,
      "-k": 2690,
      "-t": 2691,
      "-se": 2692,
      "-co": 2693,
      "-import": 2694,
      "-pas": 2695,
      "-apply": 2696,
      "-alignment": 2697,
      "-cache',": 2698,
      "-shap": 2699,
      "-|--------": 2700,
      ".U": 2701,
      ".r": 2702,
      ".st": 2703,
      ".ur": 2704,
      ".ap": 2705,
      ".format(": 2706,
      ".atomadic-forge": 2707,
      ".te": 2708,
      ".inde": 2709,
      ".Argument": 2710,
      ".find": 2711,
      ".key": 2712,
      ".atomadic-forge\"": 2713,
      ".read": 2714,
      ".strip()": 2715,
      "._append_lineage": 2716,
      ".open(\"a\",encoding=\"utf-8\")": 2717,
      "/b": 2718,
      "/t": 2719,
      "/\")": 2720,
      "/ap": 2721,
      "/s\"⟦": 2722,
      "/100": 2723,
      "/\".atomadic-forge\"": 2724,
      "/a4_sy_orchestration/`": 2725,
      "/.atomadic-forge\"": 2726,
      "0)": 2727,
      "0=": 2728,
      "0',": 2729,
      "0}⟫)": 2730,
      "0?\"": 2731,
      "0*100": 2732,
      "0-9": 2733,
      "11": 2734,
      "1]": 2735,
      "1',": 2736,
      "1/5:": 2737,
      "2]": 2738,
      "200": 2739,
      "3]": 2740,
      "3}": 2741,
      "3_api_ke": 2742,
      "34',": 2743,
      "4]": 2744,
      "4'}⟫": 2745,
      "40,": 2746,
      "4/5:": 2747,
      "434',": 2748,
      "5]": 2749,
      "5_": 2750,
      "5.0": 2751,
      "7B": 2752,
      "7b": 2753,
      "75.0": 2754,
      "8()": 2755,
      "8*len(": 2756,
      ":\\n": 2757,
      ":\\n\\n": 2758,
      ":repo": 2759,
      "://": 2760,
      ":⟪{}⟫": 2761,
      ":.0f⟧": 2762,
      ":11": 2763,
      ":200": 2764,
      ":7b": 2765,
      "=[": 2766,
      "=arg": 2767,
      "=package": 2768,
      "=bo": 2769,
      "=output": 2770,
      "=url": 2771,
      "=catalog": 2772,
      "=repo": 2773,
      "=domain_": 2774,
      "=apply": 2775,
      "=project_root": 2776,
      "=max": 2777,
      "=s\"⟦": 2778,
      "=log": 2779,
      "=language": 2780,
      "=cleaned": 2781,
      "=json.loads(": 2782,
      "=package,": 2783,
      "=self._turn": 2784,
      "=top_n": 2785,
      "=5)": 2786,
      "=⟪{}⟫": 2787,
      "=parser.": 2788,
      "=smoke": 2789,
      "=require_pure": 2790,
      "=on_conflict": 2791,
      "=doc?doc.strip().split(\"\\n\",1)[0]:\"": 2792,
      "?src": 2793,
      "?self.": 2794,
      "?parts": 2795,
      "?JAVASCRIPT_EXTS": 2796,
      "?TYPESCRIPT_EXTS": 2797,
      "Ad": 2798,
      "As": 2799,
      "Bo": 2800,
      "BLOC": 2801,
      "CE": 2802,
      "Cer": 2803,
      "C_EXTS": 2804,
      "Claude": 2805,
      "DO": 2806,
      "DS": 2807,
      "Di": 2808,
      "Dec": 2809,
      "Dic": 2810,
      "Duration": 2811,
      "D\":\"": 2812,
      "EF": 2813,
      "ED_": 2814,
      "ED\":\"": 2815,
      "Fe": 2816,
      "Fo": 2817,
      "Fin": 2818,
      "Find": 2819,
      "FES": 2820,
      "FEC": 2821,
      "F_EXT": 2822,
      "GI": 2823,
      "GLOBAL_CONFIG_DIR": 2824,
      "GED\":\"": 2825,
      "It": 2826,
      "IDE": 2827,
      "INI": 2828,
      "Js": 2829,
      "Jav": 2830,
      "JEC": 2831,
      "K_": 2832,
      "Ke": 2833,
      "La": 2834,
      "Lang": 2835,
      "LError,": 2836,
      "Liv": 2837,
      "Ma": 2838,
      "Mer": 2839,
      "Man": 2840,
      "Multiply": 2841,
      "MAI": 2842,
      "Nex": 2843,
      "Not": 2844,
      "NE_": 2845,
      "NG_": 2846,
      "N_EXT": 2847,
      "OU": 2848,
      "OW": 2849,
      "Out": 2850,
      "Option": 2851,
      "Operation": 2852,
      "OF_EXT": 2853,
      "PT": 2854,
      "Pl": 2855,
      "Pre": 2856,
      "Pas": 2857,
      "Package": 2858,
      "Pars": 2859,
      "Phase": 2860,
      "P.get(": 2861,
      "PRESETS": 2862,
      "RY": 2863,
      "R_": 2864,
      "Ro": 2865,
      "Res": 2866,
      "Rec": 2867,
      "RLError,": 2868,
      "Si": 2869,
      "Smo": 2870,
      "Sha": 2871,
      "Sourc": 2872,
      "Sub": 2873,
      "SOU": 2874,
      "Th": 2875,
      "TTI": 2876,
      "Vi": 2877,
      "Ver": 2878,
      "VER": 2879,
      "VIDE": 2880,
      "Wh": 2881,
      "[m": 2882,
      "[t": 2883,
      "[\",\"": 2884,
      "[_]": 2885,
      "[name": 2886,
      "[cod": 2887,
      "[_]]": 2888,
      "[⟦card[\"producer\"]⟧,": 2889,
      "[language": 2890,
      "[Atomadic": 2891,
      "[Step": 2892,
      "[1]": 2893,
      "[:200": 2894,
      "]\\n": 2895,
      "]\")": 2896,
      "]\",s\"": 2897,
      "],\",\"": 2898,
      "]\",[\"": 2899,
      "][A-Za-z": 2900,
      "](ht": 2901,
      "].format(": 2902,
      "_h": 2903,
      "_n": 2904,
      "_en": 2905,
      "_\",\"": 2906,
      "_\")": 2907,
      "_can": 2908,
      "_args": 2909,
      "_json": 2910,
      "_src": 2911,
      "_producer": 2912,
      "_consumer": 2913,
      "_resul": 2914,
      "_turn": 2915,
      "_up": 2916,
      "_fix": 2917,
      "_strip": 2918,
      "_import": 2919,
      "_json.dumps(": 2920,
      "_len": 2921,
      "_catalog": 2922,
      "_consum": 2923,
      "_call": 2924,
      "_FIL": 2925,
      "_all": 2926,
      "_module": 2927,
      "_trajectory": 2928,
      "_Store": 2929,
      "_ollama_": 2930,
      "_⟦preset.": 2931,
      "_split": 2932,
      "_wor": 2933,
      "_log": 2934,
      "_).re": 2935,
      "_Generated": 2936,
      "_ST": 2937,
      "_\\\\": 2938,
      "_dict": 2939,
      "_is_": 2940,
      "_functions:[s]": 2941,
      "_modules": 2942,
      "_INI": 2943,
      "_SOU": 2944,
      "`atomadic-forge": 2945,
      "`⟦preset.": 2946,
      "`⟦result.": 2947,
      "`intermediate": 2948,
      "`--provider": 2949,
      "`a4_sy_orchestration/`": 2950,
      "`main`": 2951,
      "a0": 2952,
      "a1": 2953,
      "a2": 2954,
      "a3": 2955,
      "a4": 2956,
      "a\",\"": 2957,
      "amp": 2958,
      "abo": 2959,
      "aider": 2960,
      "a/\\n": 2961,
      "ajectory": 2962,
      "aml',": 2963,
      "amet": 2964,
      "aScript": 2965,
      "a\\\\": 2966,
      "a*b": 2967,
      "a+b": 2968,
      "a/b": 2969,
      "b≠": 2970,
      "bmp": 2971,
      "b:i": 2972,
      "best": 2973,
      "ck": 2974,
      "car": 2975,
      "cit": 2976,
      "c\")": 2977,
      "cul": 2978,
      "cache/\\n.": 2979,
      "css',": 2980,
      "cision": 2981,
      "c\",\"rename": 2982,
      "d)": 2983,
      "don": 2984,
      "den": 2985,
      "d:[s]": 2986,
      "ds:[s]": 2987,
      "d/\\n": 2988,
      "d\")]": 2989,
      "denc": 2990,
      "d'}⟫": 2991,
      "df',": 2992,
      "d.mkdir(parents=true,exist_ok=true)": 2993,
      "e)": 2994,
      "eg": 2995,
      "e\",\"": 2996,
      "edi": 2997,
      "ets": 2998,
      "e:[s]": 2999,
      "eed": 3000,
      "e)\",\"": 3001,
      "e:f": 3002,
      "emergent": 3003,
      "e(config": 3004,
      "eback": 3005,
      "eg',": 3006,
      "e\",\"\",\"": 3007,
      "e⟧\")": 3008,
      "eScript": 3009,
      "e`.": 3010,
      "f]": 3011,
      "fer": 3012,
      "fut": 3013,
      "fs:[s]": 3014,
      "fla": 3015,
      "fol": 3016,
      "ftest": 3017,
      "f=self.": 3018,
      "f'{package}": 3019,
      "f=log": 3020,
      "ger": 3021,
      "gat": 3022,
      "ggest": 3023,
      "g)?": 3024,
      "g-in": 3025,
      "gues": 3026,
      "git',": 3027,
      "g-⟦h[⟪:8⟫]⟧\")": 3028,
      "ho": 3029,
      "hard": 3030,
      "her.": 3031,
      "hid": 3032,
      "hg',": 3033,
      "iz": 3034,
      "i|": 3035,
      "ico": 3036,
      "istr": 3037,
      "ile": 3038,
      "ium": 3039,
      "idate": 3040,
      "imin": 3041,
      "i/t": 3042,
      "i_trajectory": 3043,
      "ks": 3044,
      "know": 3045,
      "k_chain": 3046,
      "ker.\",\"": 3047,
      "k_all": 3048,
      "l\"": 3049,
      "ls": 3050,
      "lexit": 3051,
      "m∈": 3052,
      "man": 3053,
      "mal": 3054,
      "m(\"": 3055,
      "min(": 3056,
      "m'}⟫)": 3057,
      "mypy_": 3058,
      "nu": 3059,
      "n',": 3060,
      "ned": 3061,
      "ng',": 3062,
      "never": 3063,
      "need": 3064,
      "ou": 3065,
      "o\",\"": 3066,
      "over": 3067,
      "oog": 3068,
      "operation": 3069,
      "p',": 3070,
      "p∈IGNORED_DIRS": 3071,
      "p∈re": 3072,
      "pts:[s]": 3073,
      "ped:i": 3074,
      "rat": 3075,
      "r:_": 3076,
      "ration": 3077,
      "rface": 3078,
      "ries": 3079,
      "rg-⟦h[⟪:8⟫]⟧\")": 3080,
      "rm(\"": 3081,
      "s⟧": 3082,
      "ser": 3083,
      "sor": 3084,
      "s:s": 3085,
      "sage": 3086,
      "s))": 3087,
      "sis": 3088,
      "scr": 3089,
      "sort": 3090,
      "s\"]⟧": 3091,
      "s\\n\\n": 3092,
      "simp": 3093,
      "s:b": 3094,
      "s}⟫)": 3095,
      "sClient": 3096,
      "spec": 3097,
      "s\")]": 3098,
      "s),encoding=\"utf-8\")": 3099,
      "sof": 3100,
      "ser()": 3101,
      "s:b⟩": 3102,
      "solv": 3103,
      "s_of": 3104,
      "s_count:i⟩": 3105,
      "s_count=len(": 3106,
      "so\",\"": 3107,
      "tw": 3108,
      "ty": 3109,
      "tor": 3110,
      "tch": 3111,
      "tal": 3112,
      "t\\n": 3113,
      "tes": 3114,
      "tas": 3115,
      "tain": 3116,
      "tup": 3117,
      "ty_": 3118,
      "tf',": 3119,
      "t,pic": 3120,
      "ug": 3121,
      "ual": 3122,
      "uct": 3123,
      "usClient": 3124,
      "v',": 3125,
      "val": 3126,
      "ves": 3127,
      "ver_": 3128,
      "v2_": 3129,
      "vscode": 3130,
      "ve)\",\"": 3131,
      "wer": 3132,
      "wir": 3133,
      "w)≥": 3134,
      "w∈re": 3135,
      "w.lower()": 3136,
      "wiz": 3137,
      "xls": 3138,
      "y:i": 3139,
      "y((": 3140,
      "yError)": 3141,
      "yResult": 3142,
      "yScore": 3143,
      "y(config[\"provider\"],config))": 3144,
      "y-co": 3145,
      "you": 3146,
      "zer": 3147,
      "ze_": 3148,
      "{}": 3149,
      "{w.lower()": 3150,
      "|⟦": 3151,
      "|atomadic_": 3152,
      "|\\n\\n##": 3153,
      "|openai": 3154,
      "}}⟫": 3155,
      "–100": 3156,
      "→\".join(chain[\"": 3157,
      "∅⟩": 3158,
      "∈card[\"": 3159,
      "∈_PRESETS": 3160,
      "∧segment∈IGNORED_DIRS": 3161,
      "∨segment": 3162,
      "∨[]": 3163,
      "∨⟪{}⟫)": 3164,
      "≟\"javascript": 3165,
      "≟0?\"": 3166,
      "✓\":\"": 3167,
      "⟦consumer": 3168,
      "⟦tier": 3169,
      "⟦len(": 3170,
      "⟦_dt.datetime.now(_dt.timezone.utc": 3171,
      "⟦domains": 3172,
      "⟦safe_": 3173,
      "⟦e⟧\")": 3174,
      "⟧;": 3175,
      "⟧\".": 3176,
      "⟧\",s\"-": 3177,
      "⟧->": 3178,
      "⟧.\",\"": 3179,
      "⟧/ap": 3180,
      "⟧_\",\"": 3181,
      "⟧|⟦": 3182,
      "⟨re": 3183,
      "⟨package": 3184,
      "⟨path": 3185,
      "⟨⟩→_": 3186,
      "⟨prese": 3187,
      "⟨provider": 3188,
      "⟨local": 3189,
      "⟨source_": 3190,
      "⟨tier:s": 3191,
      "⟨repo": 3192,
      "⟨⟩→∅": 3193,
      "⟨segment": 3194,
      "⟨_re": 3195,
      "⟨qualname:s": 3196,
      "⟨language": 3197,
      "⟨result": 3198,
      "⟨text:s": 3199,
      "⟨imports:[s]": 3200,
      "⟨stem": 3201,
      "⟨producer:s": 3202,
      "⟨from_tier:s": 3203,
      "⟨t:s⟩→s": 3204,
      "⟨base_url": 3205,
      "⟨finding": 3206,
      "⟨over": 3207,
      "⟨r:_": 3208,
      "erent": 3209,
      "ered": 3210,
      "ers:[s]": 3211,
      "er:_⟩": 3212,
      "er(description": 3213,
      "ers_of": 3214,
      "onent": 3215,
      "ons:[s]⟩": 3216,
      "only": 3217,
      "onder": 3218,
      "onger": 3219,
      "recon": 3220,
      "real": 3221,
      "reas": 3222,
      "registr": 3223,
      "relat": 3224,
      "re_log": 3225,
      "ating": 3226,
      "\",[]": 3227,
      "\",required": 3228,
      "\",cleaned": 3229,
      "\",_as": 3230,
      "\",strip_comment": 3231,
      "\",stem": 3232,
      "init": 3233,
      "infer": 3234,
      "inser": 3235,
      "arit": 3236,
      "arkdown": 3237,
      "architec": 3238,
      "ord": 3239,
      "oral": 3240,
      "order": 3241,
      "orker": 3242,
      "ormal": 3243,
      "stand": 3244,
      "st=\"": 3245,
      "stat(": 3246,
      "stub": 3247,
      "st_size": 3248,
      "st:11": 3249,
      "stamp": 3250,
      "enal": 3251,
      "enum": 3252,
      "get_": 3253,
      "get(": 3254,
      "ges:[s]": 3255,
      "geDec": 3256,
      "\",\"$": 3257,
      "\",\"-": 3258,
      "\",\"\")": 3259,
      "\",\"phase_omission": 3260,
      "\",\"clas": 3261,
      "\",\"shared_schema": 3262,
      "\",\"in_memory_pipe": 3263,
      "\",\"wrapp": 3264,
      "\",\"```\",\"\",s\"": 3265,
      "\",\"shared_vocabulary": 3266,
      "\",\"\",stem": 3267,
      "set": 3268,
      "sets": 3269,
      "ses_": 3270,
      "',\",\"": 3271,
      "andu": 3272,
      "annot": 3273,
      "any((": 3274,
      "coun": 3275,
      "cov',": 3276,
      "utes": 3277,
      "utReport": 3278,
      "decision": 3279,
      "dest=\"": 3280,
      "diff": 3281,
      "discr": 3282,
      ":sourc": 3283,
      ":s⟩→∅": 3284,
      ":s⟩→b": 3285,
      "til": 3286,
      "tier.": 3287,
      "tic\",\"rename": 3288,
      "ch)": 3289,
      "cherr": 3290,
      "consts:[s]": 3291,
      "conftest": 3292,
      "almo": 3293,
      "alid": 3294,
      "alone": 3295,
      "al(t": 3296,
      "al**:": 3297,
      "als:[s]⟩": 3298,
      "alues": 3299,
      "al:7b": 3300,
      "ale:[s]": 3301,
      "sues": 3302,
      "sumes": 3303,
      "suggest": 3304,
      "surface": 3305,
      "sure_log": 3306,
      "may": 3307,
      "\\n-": 3308,
      "\\n```": 3309,
      "\\n.v": 3310,
      "\\n.atomadic-forge": 3311,
      "'.as": 3312,
      "'.ad": 3313,
      "'.lo": 3314,
      "'.no": 3315,
      "'.ot": 3316,
      "'.code": 3317,
      "'.doc": 3318,
      "'.cur": 3319,
      "'.rst": 3320,
      "'.atomadic-forge": 3321,
      "'.les": 3322,
      "'.ht": 3323,
      "'.pytest": 3324,
      "'.ini": 3325,
      "'.ide": 3326,
      "'.next": 3327,
      "'.venv',": 3328,
      "'.gitignore": 3329,
      "'.coverage',": 3330,
      "'.ruff": 3331,
      "'.worktrees',": 3332,
      "'.aider": 3333,
      "'.bmp": 3334,
      "'.edi": 3335,
      "'.hg',": 3336,
      "'.ico": 3337,
      "'.nu": 3338,
      "'.vscode": 3339,
      "'.xls": 3340,
      "proves": 3341,
      "acros": 3342,
      "d_chain": 3343,
      "d_imports": 3344,
      "d_signature": 3345,
      "d_hand": 3346,
      "d_(?": 3347,
      "ess": 3348,
      "its": 3349,
      "unavailable": 3350,
      "unknow": 3351,
      "unspec": 3352,
      "until": 3353,
      "ent,": 3354,
      "ents\\n-": 3355,
      "ent_count:i⟩": 3356,
      "files": 3357,
      "urist": 3358,
      "str)": 3359,
      "struct": 3360,
      "stronger": 3361,
      "dule": 3362,
      ":_⟩→[s]": 3363,
      "exit(": 3364,
      "expose": 3365,
      ":[[_]]": 3366,
      ":[f]": 3367,
      "⟩→f": 3368,
      "er_name:s": 3369,
      "er_app": 3370,
      "er_default_": 3371,
      "er_pay": 3372,
      "er_inputs": 3373,
      "er_igno": 3374,
      "\"))": 3375,
      "\"),source_root": 3376,
      "\")∨[]": 3377,
      "e_config": 3378,
      "e_to": 3379,
      "e_)?": 3380,
      "t_to": 3381,
      "t_distribution": 3382,
      "ard:\\n\\n": 3383,
      "ts',": 3384,
      "ts\",[\"": 3385,
      "\"]]": 3386,
      "\"]))": 3387,
      "\"]).": 3388,
      "\"],_render_": 3389,
      "force_": 3390,
      "[\"name": 3391,
      "ipsis": 3392,
      "lect": 3393,
      "le)\",\"[": 3394,
      "leNot": 3395,
      "(\"commands": 3396,
      "(\"Se": 3397,
      "(\".\")": 3398,
      "(\"[A-Za-z": 3399,
      "(\"python\",\"javascript\",\"typescript": 3400,
      "(\"/\")": 3401,
      "(\"_\")": 3402,
      "(\"→\".join(chain[\"": 3403,
      "as_p": 3404,
      "ass',": 3405,
      "assumes": 3406,
      "data,": 3407,
      "typer_app": 3408,
      "ackets": 3409,
      "arg-alignment": 3410,
      "card.get(\"": 3411,
      "cards)": 3412,
      "lied": 3413,
      "licit": 3414,
      "produced": 3415,
      "produce\",\"\",\"": 3416,
      "js_re": 3417,
      "s\"Error": 3418,
      "s\"em": 3419,
      "s\"syn": 3420,
      "s\"Comp": 3421,
      "))}⟫": 3422,
      "))\\n\"": 3423,
      "adme": 3424,
      "add(": 3425,
      "package_root": 3426,
      "package:_⟩": 3427,
      "package:s⟩→s": 3428,
      "package.\\\"\\\"\\\"": 3429,
      "package⟧`\",s\"-": 3430,
      "package=package": 3431,
      "package_json": 3432,
      "ure__": 3433,
      "ure_excer": 3434,
      "lopen": 3435,
      "t(args.a,args.b)))": 3436,
      "t(0,": 3437,
      ":i⟩": 3438,
      "novel": 3439,
      "no_up": 3440,
      "dict)": 3441,
      "heurist": 3442,
      "out)": 3443,
      "out=config.get(\"": 3444,
      "out=5)": 3445,
      "ed:s": 3446,
      "ed\")": 3447,
      "ed(data": 3448,
      "ed=len(": 3449,
      "ed)\"⟧\\n\\n##": 3450,
      "edDic": 3451,
      "_penal": 3452,
      "sys\\n": 3453,
      "verif": 3454,
      "verdict": 3455,
      "can_import": 3456,
      "est.ur": 3457,
      "idoc": 3458,
      "idges:[s]": 3459,
      "args\",\"": 3460,
      "args:[_]": 3461,
      "args=parser.": 3462,
      "--package": 3463,
      "--apply": 3464,
      "--preset": 3465,
      "--|--------": 3466,
      "---|--------": 3467,
      "=\"A": 3468,
      "=\"atomadic_forge_se": 3469,
      "fail": 3470,
      "faile": 3471,
      "ify": 3472,
      "if',": 3473,
      "is_pure": 3474,
      "issues": 3475,
      "_commands": 3476,
      "_collection": 3477,
      "dir:_": 3478,
      "dir:_⟩": 3479,
      "dir/\"": 3480,
      "dir/s\"⟦": 3481,
      "named": 3482,
      "name':": 3483,
      "name⟧`": 3484,
      "name∈_PRESETS": 3485,
      "confidenc": 3486,
      "confirm(\"": 3487,
      "schedule": 3488,
      "\",s\"forge": 3489,
      "forged',": 3490,
      "target=self.": 3491,
      ").\\\"\\\"\\\"": 3492,
      ").exp": 3493,
      ").parent.": 3494,
      ").st_size": 3495,
      ").as_p": 3496,
      ")\",\"```\",\"\",s\"": 3497,
      ")\",\"\",cleaned": 3498,
      "ing\",\"": 3499,
      "config)": 3500,
      "config'}⟫)": 3501,
      "config[\"provider\"]": 3502,
      "config,indent=2),encoding=\"utf-8\")": 3503,
      "config_path=project_dir/LOCAL_CONFIG_DIR/CONFIG_FILE_NAME": 3504,
      "schemas:[s]": 3505,
      "schemas=": 3506,
      "schema')\",\"": 3507,
      "src\"": 3508,
      "src))": 3509,
      "src=_": 3510,
      "src_root": 3511,
      "src=config.get(\"": 3512,
      "src.exists()": 3513,
      "to_tier": 3514,
      "total": 3515,
      "subdir:s": 3516,
      "sub_commands": 3517,
      "ations:i": 3518,
      "ation_comple": 3519,
      "ation\",\"\",s\"": 3520,
      "ations\\n\\n": 3521,
      "⟪{**{e:": 3522,
      "typer.Option": 3523,
      "producer⟧->": 3524,
      "\"]⟧\")": 3525,
      "card[\"kind": 3526,
      "None\",\"": 3527,
      "s())": 3528,
      "s(chain": 3529,
      "s(catalog": 3530,
      "s(local_cfg": 3531,
      "s(dest=\"": 3532,
      "s(cards)": 3533,
      "s(src))": 3534,
      "atomadic.te": 3535,
      "FIX": 3536,
      "oc',": 3537,
      "ocation\",\"\",s\"": 3538,
      "self.feature": 3539,
      "self.manifest_dir": 3540,
      "self.run_id": 3541,
      "self._append_lineage": 3542,
      "self.discover": 3543,
      "runner": 3544,
      "chain:": 3545,
      "chain:_": 3546,
      "chain\"])": 3547,
      "chains=": 3548,
      "chains)": 3549,
      "chains),": 3550,
      "chains_count=len(": 3551,
      "chain\"]).": 3552,
      ":[_]⟩→_": 3553,
      ":[_]⟩→∅": 3554,
      ":[_]⟩→b": 3555,
      "\\\"\\\"\",strip_comment": 3556,
      "),result.": 3557,
      "),tier_inventory": 3558,
      "),candidates=candidates": 3559,
      "),chain_count_consider": 3560,
      "),\"```": 3561,
      "Trajectory": 3562,
      "ed_tier:s": 3563,
      "ed_clas": 3564,
      "ed_|atomadic_": 3565,
      "s.\"])": 3566,
      "s.\\\"\\\"\\\"": 3567,
      "s.get(": 3568,
      "s.\",\"-": 3569,
      "thing": 3570,
      "output:s": 3571,
      "outputs:[s]": 3572,
      "output_files:[s]": 3573,
      "output)\",\"```\",\"\",s\"": 3574,
      "law": 3575,
      "turall": 3576,
      "result)": 3577,
      "ithub": 3578,
      "T_LA": 3579,
      "parser.add_": 3580,
      "atureSurface": 3581,
      "tional": 3582,
      "tions_": 3583,
      "tionCh": 3584,
      "calcul": 3585,
      "clients\\n-": 3586,
      "paired": 3587,
      "\\n\\n#": 3588,
      "\\n\\n>": 3589,
      "\\n\\nfrom": 3590,
      "\\n\\nTh": 3591,
      "\\n\\n_Generated": 3592,
      "av',": 3593,
      "eless": 3594,
      "tier:": 3595,
      "tier\"]": 3596,
      "tier))": 3597,
      "tiers:[s]": 3598,
      "tiers:i": 3599,
      "schema_version')": 3600,
      "**LLM": 3601,
      "**⟦result.": 3602,
      "**upward": 3603,
      "**\"+result.": 3604,
      "**Duration": 3605,
      "**Fin": 3606,
      "**Package": 3607,
      "**Ro": 3608,
      "**Trajectory": 3609,
      "py'}⟫)": 3610,
      "py[cod": 3611,
      "int:s⟩": 3612,
      "intent=": 3613,
      "int(\"Se": 3614,
      "code:": 3615,
      "render_synerg": 3616,
      "render_read": 3617,
      "render_gitignore": 3618,
      "render_registr": 3619,
      "render_js_re": 3620,
      "render_package_json": 3621,
      "CONVER": 3622,
      "_dir:s": 3623,
      "_dirs=": 3624,
      "ds:f": 3625,
      "keReport": 3626,
      "pend": 3627,
      "pathlib": 3628,
      "path:\\n": 3629,
      "inv)))": 3630,
      "invalid": 3631,
      "invocation\",\"\",s\"": 3632,
      "inv),tier_inventory": 3633,
      "root:s": 3634,
      "root:_": 3635,
      "demo/v1',": 3636,
      "demo_mar": 3637,
      "timestamp": 3638,
      "timeout=5)": 3639,
      "'a2',": 3640,
      "'a3',": 3641,
      "'a0',": 3642,
      "'a1',": 3643,
      "'a4'}⟫": 3644,
      "document": 3645,
      "docs_": 3646,
      "docs(cards)": 3647,
      "few": 3648,
      "fetch": 3649,
      "ol(config": 3650,
      "olution": 3651,
      "t=target": 3652,
      "text)": 3653,
      "return_type:s": 3654,
      "add_parser.set_defaults(func=args↦print(": 3655,
      "test-pas": 3656,
      "tests.\\\"\\\"\\\"": 3657,
      "y_module": 3658,
      "y_and_": 3659,
      "y_adapt": 3660,
      "y_manifest=": 3661,
      "y_package:_⟩": 3662,
      "url.r": 3663,
      "url=s\"⟦": 3664,
      "True}⟫": 3665,
      "func(args": 3666,
      "\".strip(": 3667,
      "\".strip()": 3668,
      "ic.\",\"": 3669,
      "ic\\n-": 3670,
      "model:s": 3671,
      "model':": 3672,
      "models=": 3673,
      "models,": 3674,
      "model(config[\"provider\"],config))": 3675,
      "⟪{'provider": 3676,
      "⟪{'json_artifact": 3677,
      "body:s": 3678,
      "frozenset(),": 3679,
      "_option": 3680,
      "ement_count:i⟩": 3681,
      "message": 3682,
      "posi": 3683,
      "utf8()": 3684,
      "project:s": 3685,
      "exc)": 3686,
      "/\\n*.": 3687,
      "/\\nvenv": 3688,
      "/\\n```\\n\\n##": 3689,
      "/\\nbuil": 3690,
      "=_step": 3691,
      "=_BLOC": 3692,
      "domain:s": 3693,
      "domain\"]": 3694,
      "domains:[s]": 3695,
      "domain(s)": 3696,
      "fg',": 3697,
      "kind,": 3698,
      "kind:s⟩→s": 3699,
      "kind⟧\".": 3700,
      "r.duration_": 3701,
      "r.preset": 3702,
      "r.cli_demo_returncode": 3703,
      "r.headline": 3704,
      "r.score_trajectory": 3705,
      "r.cli_demo_command": 3706,
      "r.cli_demo_stdout": 3707,
      "r.converged": 3708,
      "r.rounds_completed": 3709,
      "r.package,": 3710,
      "r.output_root": 3711,
      "r.artifact_md_path": 3712,
      "r.final_score": 3713,
      "ateReport": 3714,
      "tier_layout": 3715,
      "tier_inv=collections.Counter((c[\"": 3716,
      "tier_gues": 3717,
      "tier_inv)))": 3718,
      "fix:s⟩": 3719,
      "fixture": 3720,
      "strip(\"/\")": 3721,
      "parser=subparsers.add_parser(\"": 3722,
      "features)": 3723,
      "feature_count:i": 3724,
      "feature_count=len(": 3725,
      "⟨self:LLMClient": 3726,
      "⟨self:SynergyScan": 3727,
      "⟨self:EmergentScan": 3728,
      "⟨self:StubLLMClient": 3729,
      "REGI": 3730,
      "REFIX": 3731,
      "find_chain": 3732,
      "from_tier": 3733,
      "\\\"\\\"\\\"Phase": 3734,
      "```\",_as": 3735,
      "imported:s": 3736,
      "write_met": 3737,
      "=true,help=\"": 3738,
      "json.dumps(config,indent=2),encoding=\"utf-8\")": 3739,
      "(__file_": 3740,
      "(_,t)": 3741,
      "(_PRESETS": 3742,
      "(_force_": 3743,
      "/`main`": 3744,
      "Exit": 3745,
      "Extrac": 3746,
      "_render_demo_mar": 3747,
      "auto)": 3748,
      "auto/v1',": 3749,
      "auto=bo": 3750,
      "auto_fix": 3751,
      "auto\",\"```\",\"\",s\"": 3752,
      "auto\"))": 3753,
      "phase_h": 3754,
      "phase).\\\"\\\"\\\"": 3755,
      "s_attr": 3756,
      "s_and_": 3757,
      "s_emitted": 3758,
      "s_rat": 3759,
      "simil": 3760,
      "size_": 3761,
      "vider]\",[\"": 3762,
      "with(\".\")": 3763,
      "form\")": 3764,
      "----|\\n|": 3765,
      "------|--------": 3766,
      "⟦card[\"consumer\"]⟧],\",\"": 3767,
      "parens": 3768,
      "parent\\n": 3769,
      "line:i": 3770,
      "catalog=catalog": 3771,
      "catalog),chain_count_consider": 3772,
      "functions": 3773,
      "functions\\n-": 3774,
      "function\",\"clas": 3775,
      "final,": 3776,
      "final=run_": 3777,
      "(card))": 3778,
      "(cards=": 3779,
      "(cards,smoke_results": 3780,
      "(cards),encoding=\"utf-8\")": 3781,
      ".split": 3782,
      "their": 3783,
      "⟨name:s⟩": 3784,
      "⟨name:s⟩→_": 3785,
      "'.mypy_": 3786,
      "'.markdown": 3787,
      "provider\",default=": 3788,
      "module_": 3789,
      "tract": 3790,
      "traceback": 3791,
      "_presets": 3792,
      "defaults)": 3793,
      "defaults:_⟩→_": 3794,
      "run(ctx:": 3795,
      "result.cli_demo_command": 3796,
      "python_file_": 3797,
      "candidate_count:i": 3798,
      "candidate_coun": 3799,
      "CONFIG_EXTS": 3800,
      "cli_demo_args:[_]": 3801,
      "len(cherry": 3802,
      "len(content": 3803,
      "len(w)≥": 3804,
      "raised:[s]": 3805,
      "\".join((s\"⟦": 3806,
      "\".join((s\"": 3807,
      "\".join(result.cli_demo_command": 3808,
      "Architec": 3809,
      "_consts:[s]": 3810,
      "able:i": 3811,
      "s=int(": 3812,
      "s=max": 3813,
      "s=parser.add_": 3814,
      "s=⟪{'json_artifact": 3815,
      "str(path.": 3816,
      "str(cur_score))": 3817,
      "str(result)": 3818,
      "strings": 3819,
      "app()": 3820,
      "local.items()": 3821,
      "local_path=project_dir/LOCAL_CONFIG_DIR/CONFIG_FILE_NAME": 3822,
      "localho": 3823,
      "target_tier:s": 3824,
      "target_score:f": 3825,
      "target_root:s": 3826,
      "calls": 3827,
      "callers_of": 3828,
      "candidates:[_]": 3829,
      "candidates:[_]⟩": 3830,
      "candidates),candidates=candidates": 3831,
      "source_dir:s": 3832,
      "source_subdir:s": 3833,
      "source_line:i": 3834,
      "cur_out=config.get(\"": 3835,
      "cur_src=config.get(\"": 3836,
      "cur_auto=bo": 3837,
      "encoding=\"utf-8\")))": 3838,
      "')}⟫": 3839,
      "2_model(config[\"provider\"],config))": 3840,
      "missing": 3841,
      "misc\")": 3842,
      "manifest,indent=2),encoding=\"utf-8\")": 3843,
      "manifest(cards,smoke_results": 3844,
      "s,require_pure": 3845,
      "s,catalog=catalog": 3846,
      "signals:[s]⟩": 3847,
      "orts:b": 3848,
      "steps": 3849,
      "commands:[_]": 3850,
      "sys.path.": 3851,
      "sys.path:\\n": 3852,
      "src/⟦package⟧": 3853,
      "run_auto": 3854,
      "run_wiz": 3855,
      "updates)": 3856,
      "updates=⟪{}⟫": 3857,
      "SynergyKind": 3858,
      "SynergyCandidateCard": 3859,
      "smoke_results:_⟩→_": 3860,
      "smoke_results:[_]⟩": 3861,
      "smoke_results=smoke": 3862,
      "DEFAULT_LANGUAG": 3863,
      "(target)": 3864,
      "(target,pic": 3865,
      "(target=target": 3866,
      "Conflict": 3867,
      "E_EXTS": 3868,
      "EmergentCandidateCard": 3869,
      "RING_": 3870,
      "Regist": 3871,
      "Reproduce\",\"\",\"": 3872,
      "_features:": 3873,
      "ified)\"⟧\\n\\n##": 3874,
      "multiply\",help=\"": 3875,
      "multiply(args.a,args.b)))": 3876,
      "multiply_parser.set_defaults(func=args↦print(": 3877,
      "multiply_parser=subparsers.add_parser(\"": 3878,
      "parated": 3879,
      "paramet": 3880,
      "pure:b⟩": 3881,
      "s:i⟩": 3882,
      "shared": 3883,
      "tedBo": 3884,
      "red_segment": 3885,
      "request.ur": 3886,
      "commands.\"])": 3887,
      "divide\",help=\"": 3888,
      "divide(args.a,args.b)))": 3889,
      "divide_parser.set_defaults(func=args↦print(": 3890,
      "divide_parser=subparsers.add_parser(\"": 3891,
      "all:f": 3892,
      "all(\"[A-Za-z": 3893,
      "prompt:s⟩→s": 3894,
      "process": 3895,
      "iterations:i": 3896,
      "unds**:": 3897,
      "er_fn\",\"wrapp": 3898,
      "list_ollama_": 3899,
      "list(_PRESETS": 3900,
      "list_presets": 3901,
      "lows": 3902,
      "lower": 3903,
      "low._": 3904,
      "synergy.scan/v1\",generated_at_utc=_dt.datetime.utcnow().isoformat(timespec=\"seconds\")+\"Z\",": 3905,
      "subtract(args.a,args.b)))": 3906,
      "self._chains_count=len(": 3907,
      "self._calls": 3908,
      "atomadic-forge').": 3909,
      "frozenset({'.ts": 3910,
      "frozenset({'.js',": 3911,
      "frozenset({'.py',": 3912,
      "frozenset(⟪{'.md',": 3913,
      ".get(\"auto_apply": 3914,
      ".get(\"models": 3915,
      "/\\n.pytest": 3916,
      "/\\n.ide": 3917,
      "/\\n.venv": 3918,
      "/\\n.DS": 3919,
      "DEFAULT_CONFIG)": 3920,
      "Forge\\n\\n```bash\\n": 3921,
      "ForgeConfig": 3922,
      "Forge](ht": 3923,
      "TranscriptLog.ap": 3924,
      "'typescript'": 3925,
      "'javascript'": 3926,
      "(t0=": 3927,
      "(config))": 3928,
      "(config=dict(": 3929,
      ",indent=2)+\"\\n\")": 3930,
      ".calls": 3931,
      ":\"misc\")": 3932,
      "LINE_": 3933,
      "ROJEC": 3934,
      "ROVIDE": 3935,
      "Setup": 3936,
      "ml'}),": 3937,
      "mlcov',": 3938,
      "s\",\"metho": 3939,
      "s\",\"\",\"##": 3940,
      "s:[_]⟩": 3941,
      "s:[_]⟩→i": 3942,
      "velte": 3943,
      "∨\"\")": 3944,
      "⟨card:_⟩→[s]": 3945,
      "repo:s": 3946,
      "\",default=cur_prefix": 3947,
      "rounds:i": 3948,
      "rounds⟧\",s\"-": 3949,
      "'.cache',": 3950,
      "'.css',": 3951,
      "'.claude": 3952,
      "'.cfg',": 3953,
      "entry=⟪{'": 3954,
      "entry:[_]⟩→∅": 3955,
      "file.\",\"-": 3956,
      "subparsers(dest=\"": 3957,
      "subparsers=parser.add_": 3958,
      "imports:f": 3959,
      "lines))": 3960,
      "lines=[": 3961,
      "path.write_text(": 3962,
      "path.read_text(": 3963,
      "path.open(\"a\",encoding=\"utf-8\")": 3964,
      "sources',": 3965,
      "Error,json.JSONDecodeError)": 3966,
      "Error,Ke": 3967,
      "domain_inventory": 3968,
      "domain_inv=collections.Counter((c[\"": 3969,
      "domain_inv),tier_inventory": 3970,
      "strip(),": 3971,
      "default_target_score:f": 3972,
      "LLMClient.call": 3973,
      "\"+package+s\"": 3974,
      "typer.secho(f'in-memory": 3975,
      "updates[\"package_prefix": 3976,
      "updates[\"output_dir": 3977,
      "updates[\"sources_dir": 3978,
      "updates[\"auto_apply": 3979,
      "SynergyScanReport": 3980,
      "SynergyScan.scan": 3981,
      "SynergyScan.save_report": 3982,
      "SynergyScanReport(schema_version=\"atomadic-forge.": 3983,
      "EmergentScanReport": 3984,
      "EmergentScan.scan": 3985,
      "EmergentScan.save_report": 3986,
      "EmergentScanReport(schema_version=\"atomadic-forge.": 3987,
      "payload,indent=2,default=str),encoding=\"utf-8\")": 3988,
      "payload:[_]⟩→_": 3989,
      "frozenset(⟪{'.js',": 3990,
      "frozenset(⟪{'.ht": 3991,
      "frozenset(⟪{'.json',": 3992,
      "frozenset(⟪{'.git',": 3993,
      "frozenset(⟪{'.ts',": 3994,
      "frozenset(⟪{'.py'}⟫)": 3995,
      "Literal[(\"a0_qk_constants\",\"a1_at_functions\",\"a2_mo_composites\",\"a3_og_features\",\"a4_sy_orchestration": 3996,
      "duration_s:": 3997,
      "duration_s:f": 3998,
      "global_path=": 3999,
      "|\\n|------|--------": 4000,
      "=_prompt_str(\"": 4001,
      "=_prompt_int(\"Se": 4002,
      "((json.loads(": 4003,
      "((TIER_NAMES": 4004,
      "CLI)\\n\\n": 4005,
      "CLI.\")": 4006,
      "NOTE": 4007,
      "Path(G": 4008,
      "Path\\n\\n#": 4009,
      "Path(__file_": 4010,
      "RCE_EXTS": 4011,
      "RunReport": 4012,
      "_PYP": 4013,
      "_PREFIX": 4014,
      "_PROVIDE": 4015,
      "_chain':": 4016,
      "_chains_count:i⟩": 4017,
      "_chains=max": 4018,
      "_chains,require_pure": 4019,
      "`src/\"+package+s\"": 4020,
      "below._": 4021,
      "bytes": 4022,
      "classes:[s]": 4023,
      "e().parent.": 4024,
      "fo/\\nbuil": 4025,
      "llipsis": 4026,
      "minutes": 4027,
      "pass": 4028,
      "pass_rat": 4029,
      "raw))": 4030,
      "raw=_prompt_str(\"": 4031,
      "s\\nforge": 4032,
      "te:b": 4033,
      "inputs:[s]": 4034,
      "input_files:[s]": 4035,
      "\",\"\",\"-": 4036,
      "\",\"\",\"```\",_as": 4037,
      "command_": 4038,
      "cherry=run_": 4039,
      "cherry,apply": 4040,
      "cherry(target,pic": 4041,
      "content,": 4042,
      "content:s⟩→∅": 4043,
      "'.scss',": 4044,
      "'.sass',": 4045,
      "'.svelte": 4046,
      "items':": 4047,
      "items']": 4048,
      "items:[_]⟩": 4049,
      "field',": 4050,
      "fields:[s]": 4051,
      "fields:f": 4052,
      "explicit": 4053,
      "exports:b": 4054,
      "data.get(\"models": 4055,
      "package_prefix:s⟩": 4056,
      "package_prefix\"])": 4057,
      "package_prefix\",DEFAULT_CONFIG[\"": 4058,
      "apply}⟫)": 4059,
      "symbols:[_]": 4060,
      "symbol_count:i": 4061,
      "symbol_name:s": 4062,
      "json_artifact)": 4063,
      "target.write_text(render_registr": 4064,
      "chain[\"chain\"])": 4065,
      "output_dir:s": 4066,
      "output_dir\"])": 4067,
      "output_dir\",DEFAULT_CONFIG[\"": 4068,
      "pytest_summary": 4069,
      "intent:s": 4070,
      "intent.strip(": 4071,
      "intent⟧\\n\\n##": 4072,
      "intent.strip()": 4073,
      "add_parser=subparsers.add_parser(\"": 4074,
      "tests\\n\\n```bash\\n": 4075,
      "tests_present:b": 4076,
      "tests_dir:s": 4077,
      "tests/\\n```\\n\\n##": 4078,
      "_apply':": 4079,
      "project_root).as_p": 4080,
      "preset:_": 4081,
      "has_work": 4082,
      "has_schedule": 4083,
      "has_module_": 4084,
      "consumer_args,": 4085,
      "consumer_args:": 4086,
      "cli_demo_returncode:i": 4087,
      "cli_demo_returncode⟧`": 4088,
      "cli_demo_returncode≟0?\"": 4089,
      "ManifestStore.sav": 4090,
      "ManifestStore._append_lineage": 4091,
      "headline⟧_\",\"": 4092,
      "FILE_EXTS": 4093,
      "score_trajectory:[f]": 4094,
      "ollama_url:s": 4095
    },
    "merges": [
      [
        "e",
        "r"
      ],
      [
        "o",
        "n"
      ],
      [
        "r",
        "e"
      ],
      [
        "a",
        "t"
      ],
      [
        "\"",
        ","
      ],
      [
        "i",
        "n"
      ],
      [
        "a",
        "r"
      ],
      [
        "o",
        "r"
      ],
      [
        "s",
        "t"
      ],
      [
        "e",
        "n"
      ],
      [
        "g",
        "e"
      ],
      [
        "\",",
        "\""
      ],
      [
        "s",
        "e"
      ],
      [
        "r",
        "o"
      ],
      [
        "'",
        ","
      ],
      [
        "a",
        "n"
      ],
      [
        "c",
        "o"
      ],
      [
        "u",
        "t"
      ],
      [
        "d",
        "e"
      ],
      [
        "d",
        "i"
      ],
      [
        ":",
        "s"
      ],
      [
        "t",
        "i"
      ],
      [
        "c",
        "h"
      ],
      [
        "c",
        "on"
      ],
      [
        "'",
        ":"
      ],
      [
        "a",
        "l"
      ],
      [
        "s",
        "u"
      ],
      [
        "m",
        "a"
      ],
      [
        "\\",
        "n"
      ],
      [
        "'",
        "."
      ],
      [
        "p",
        "ro"
      ],
      [
        "a",
        "c"
      ],
      [
        "d",
        "_"
      ],
      [
        "e",
        "s"
      ],
      [
        "i",
        "t"
      ],
      [
        "u",
        "n"
      ],
      [
        "en",
        "t"
      ],
      [
        "f",
        "i"
      ],
      [
        "u",
        "r"
      ],
      [
        "st",
        "r"
      ],
      [
        "d",
        "u"
      ],
      [
        ":",
        "_"
      ],
      [
        "m",
        "e"
      ],
      [
        "m",
        "p"
      ],
      [
        "e",
        "x"
      ],
      [
        ":",
        "["
      ],
      [
        "i",
        "on"
      ],
      [
        "⟩",
        "→"
      ],
      [
        "er",
        "_"
      ],
      [
        "\"",
        ")"
      ],
      [
        "e",
        "_"
      ],
      [
        "t",
        "_"
      ],
      [
        "ar",
        "d"
      ],
      [
        "m",
        "o"
      ],
      [
        "t",
        "s"
      ],
      [
        "\"",
        "]"
      ],
      [
        "a",
        "ge"
      ],
      [
        "f",
        "or"
      ],
      [
        "y",
        "p"
      ],
      [
        "[",
        "\""
      ],
      [
        "ch",
        "e"
      ],
      [
        "1",
        "π"
      ],
      [
        "i",
        "p"
      ],
      [
        "l",
        "e"
      ],
      [
        "s",
        "]"
      ],
      [
        "(",
        "\""
      ],
      [
        "a",
        "s"
      ],
      [
        "d",
        "at"
      ],
      [
        "t",
        "yp"
      ],
      [
        "r",
        "c"
      ],
      [
        "ac",
        "k"
      ],
      [
        "ar",
        "g"
      ],
      [
        "c",
        "ard"
      ],
      [
        "m",
        "m"
      ],
      [
        "er",
        "."
      ],
      [
        "e",
        "c"
      ],
      [
        "l",
        "i"
      ],
      [
        "pro",
        "du"
      ],
      [
        "produ",
        "c"
      ],
      [
        "j",
        "s"
      ],
      [
        "s",
        "\""
      ],
      [
        "u",
        "l"
      ],
      [
        ")",
        ")"
      ],
      [
        "o",
        "ma"
      ],
      [
        "a",
        "d"
      ],
      [
        "an",
        "d"
      ],
      [
        "ack",
        "age"
      ],
      [
        "m",
        "er"
      ],
      [
        "p",
        "ackage"
      ],
      [
        "u",
        "re"
      ],
      [
        "a",
        "p"
      ],
      [
        "l",
        "o"
      ],
      [
        "t",
        "("
      ],
      [
        "t",
        "."
      ],
      [
        ":",
        "i"
      ],
      [
        "n",
        "o"
      ],
      [
        "di",
        "c"
      ],
      [
        ":[",
        "s]"
      ],
      [
        "_",
        "]"
      ],
      [
        "h",
        "e"
      ],
      [
        "l",
        "f"
      ],
      [
        "o",
        "ut"
      ],
      [
        "t",
        "r"
      ],
      [
        "se",
        "lf"
      ],
      [
        "e",
        "d"
      ],
      [
        "_",
        "p"
      ],
      [
        "con",
        "su"
      ],
      [
        "\\",
        "\""
      ],
      [
        "n",
        "a"
      ],
      [
        "s",
        "y"
      ],
      [
        "v",
        "er"
      ],
      [
        "mm",
        "and"
      ],
      [
        "c",
        "an"
      ],
      [
        "e",
        "st"
      ],
      [
        "i",
        "d"
      ],
      [
        "s",
        "co"
      ],
      [
        "arg",
        "s"
      ],
      [
        "-",
        "-"
      ],
      [
        "=",
        "\""
      ],
      [
        "f",
        "a"
      ],
      [
        "i",
        "f"
      ],
      [
        "i",
        "s"
      ],
      [
        "js",
        "on"
      ],
      [
        "_",
        "co"
      ],
      [
        "di",
        "r"
      ],
      [
        "na",
        "me"
      ],
      [
        "con",
        "fi"
      ],
      [
        "fa",
        "ul"
      ],
      [
        "s",
        "che"
      ],
      [
        "t",
        "ar"
      ],
      [
        "on",
        "e"
      ],
      [
        "\",",
        "s\""
      ],
      [
        "for",
        "ge"
      ],
      [
        "tar",
        "ge"
      ],
      [
        ")",
        "."
      ],
      [
        ")",
        "\",\""
      ],
      [
        "c",
        "r"
      ],
      [
        "re",
        "n"
      ],
      [
        "in",
        "g"
      ],
      [
        "or",
        "t"
      ],
      [
        "confi",
        "g"
      ],
      [
        "sche",
        "ma"
      ],
      [
        "s",
        "rc"
      ],
      [
        "t",
        "o"
      ],
      [
        "u",
        "e"
      ],
      [
        "ar",
        "s"
      ],
      [
        "de",
        "faul"
      ],
      [
        "su",
        "b"
      ],
      [
        "oma",
        "dic"
      ],
      [
        "cr",
        "ip"
      ],
      [
        "p",
        "ut"
      ],
      [
        "at",
        "ion"
      ],
      [
        "}",
        "⟫"
      ],
      [
        "⟪",
        "{"
      ],
      [
        "at",
        "h"
      ],
      [
        "in",
        "d"
      ],
      [
        "typ",
        "er."
      ],
      [
        "produc",
        "er"
      ],
      [
        "consu",
        "mer"
      ],
      [
        "\"]",
        "⟧"
      ],
      [
        "card",
        "[\""
      ],
      [
        "crip",
        "t"
      ],
      [
        "N",
        "one"
      ],
      [
        "a",
        "in"
      ],
      [
        "f",
        "ro"
      ],
      [
        "s",
        "("
      ],
      [
        "s",
        "ion"
      ],
      [
        "u",
        "m"
      ],
      [
        "at",
        "omadic"
      ],
      [
        "sco",
        "re"
      ],
      [
        "F",
        "I"
      ],
      [
        "O",
        "N"
      ],
      [
        "o",
        "c"
      ],
      [
        "⟦",
        "card[\""
      ],
      [
        "self",
        "."
      ],
      [
        "b",
        "o"
      ],
      [
        "o",
        "g"
      ],
      [
        "p",
        "l"
      ],
      [
        "r",
        "un"
      ],
      [
        "ch",
        "ain"
      ],
      [
        "su",
        "l"
      ],
      [
        ":[",
        "_]"
      ],
      [
        "⟩→",
        "s"
      ],
      [
        "\\\"",
        "\\\""
      ],
      [
        ")",
        ","
      ],
      [
        "T",
        "r"
      ],
      [
        "`",
        "`"
      ],
      [
        "e",
        "d_"
      ],
      [
        "f",
        "ac"
      ],
      [
        "h",
        "a"
      ],
      [
        "s",
        "."
      ],
      [
        "s",
        ":[s]"
      ],
      [
        "t",
        "h"
      ],
      [
        "out",
        "put"
      ],
      [
        "schema",
        "_"
      ],
      [
        "e",
        "p"
      ],
      [
        "j",
        "ec"
      ],
      [
        "l",
        "a"
      ],
      [
        "t",
        "ur"
      ],
      [
        "re",
        "sul"
      ],
      [
        "or",
        "y"
      ],
      [
        "it",
        "h"
      ],
      [
        "3",
        "ω"
      ],
      [
        "T",
        "_"
      ],
      [
        "o",
        "t"
      ],
      [
        "p",
        "ars"
      ],
      [
        "at",
        "ure"
      ],
      [
        "ti",
        "on"
      ],
      [
        "tur",
        "n"
      ],
      [
        "c",
        "al"
      ],
      [
        "c",
        "li"
      ],
      [
        "i",
        "g"
      ],
      [
        "p",
        "a"
      ],
      [
        "di",
        "dat"
      ],
      [
        "\\n",
        "\\n"
      ],
      [
        "ver",
        "sion"
      ],
      [
        "ren",
        "d"
      ],
      [
        "=",
        "'"
      ],
      [
        "_",
        "d"
      ],
      [
        "a",
        "v"
      ],
      [
        "e",
        "l"
      ],
      [
        "er",
        "r"
      ],
      [
        "ar",
        "ti"
      ],
      [
        "ut",
        "c"
      ],
      [
        "ti",
        "er"
      ],
      [
        "mmand",
        "s"
      ],
      [
        "json",
        "."
      ],
      [
        "name",
        ":s"
      ],
      [
        "schema_",
        "version"
      ],
      [
        "arti",
        "fac"
      ],
      [
        "*",
        "*"
      ],
      [
        "T",
        "S"
      ],
      [
        "i",
        "mp"
      ],
      [
        "l",
        "p"
      ],
      [
        "l",
        "in"
      ],
      [
        "n",
        "er"
      ],
      [
        "p",
        "y"
      ],
      [
        "in",
        "t"
      ],
      [
        "co",
        "de"
      ],
      [
        "he",
        "lp"
      ],
      [
        "can",
        "didat"
      ],
      [
        "rend",
        "er_"
      ],
      [
        ":",
        "b"
      ],
      [
        ":",
        "\",\""
      ],
      [
        "C",
        "ON"
      ],
      [
        "[",
        "["
      ],
      [
        "_",
        "dir"
      ],
      [
        "c",
        "t"
      ],
      [
        "d",
        "s"
      ],
      [
        "k",
        "e"
      ],
      [
        "o",
        "ur"
      ],
      [
        "p",
        "en"
      ],
      [
        "p",
        "ath"
      ],
      [
        "v",
        "i"
      ],
      [
        "w",
        "r"
      ],
      [
        "in",
        "v"
      ],
      [
        "ro",
        "ot"
      ],
      [
        "de",
        "mo"
      ],
      [
        "ti",
        "me"
      ],
      [
        "⟩→",
        "_"
      ],
      [
        "pl",
        "y"
      ],
      [
        "ner",
        "g"
      ],
      [
        "'",
        "a"
      ],
      [
        "+",
        "\""
      ],
      [
        ":",
        "f"
      ],
      [
        "a",
        "i"
      ],
      [
        "d",
        "oc"
      ],
      [
        "f",
        "e"
      ],
      [
        "o",
        "l"
      ],
      [
        "t",
        "="
      ],
      [
        "t",
        "ex"
      ],
      [
        "u",
        "p"
      ],
      [
        "re",
        "turn"
      ],
      [
        "an",
        "if"
      ],
      [
        "ad",
        "d_"
      ],
      [
        "FI",
        "G"
      ],
      [
        "CON",
        "FIG"
      ],
      [
        "our",
        "c"
      ],
      [
        "anif",
        "est"
      ],
      [
        ",",
        "\",\""
      ],
      [
        "C",
        "o"
      ],
      [
        "E",
        "X"
      ],
      [
        "c",
        "at"
      ],
      [
        "d",
        "y"
      ],
      [
        "f",
        "un"
      ],
      [
        "p",
        "re"
      ],
      [
        "t",
        ")"
      ],
      [
        "t",
        "est"
      ],
      [
        "y",
        "_"
      ],
      [
        "or",
        "che"
      ],
      [
        "ur",
        "l"
      ],
      [
        "er_",
        "args"
      ],
      [
        "oma",
        "in"
      ],
      [
        "forge",
        "."
      ],
      [
        "Tr",
        "ue"
      ],
      [
        "fun",
        "c"
      ],
      [
        "orche",
        "str"
      ],
      [
        "\"",
        "."
      ],
      [
        "(",
        ")"
      ],
      [
        "E",
        "r"
      ],
      [
        "_",
        "ap"
      ],
      [
        "b",
        "le"
      ],
      [
        "i",
        "c"
      ],
      [
        "m",
        "d_"
      ],
      [
        "r",
        "or"
      ],
      [
        "s",
        "ourc"
      ],
      [
        "z",
        "en"
      ],
      [
        "re",
        "d"
      ],
      [
        "se",
        "t("
      ],
      [
        "ut",
        "o"
      ],
      [
        "de",
        "l"
      ],
      [
        "mo",
        "del"
      ],
      [
        "dat",
        "e"
      ],
      [
        "⟪{",
        "'"
      ],
      [
        "fro",
        "zen"
      ],
      [
        "atomadic",
        "-"
      ],
      [
        "bo",
        "dy"
      ],
      [
        "ig",
        "n"
      ],
      [
        "nerg",
        "y"
      ],
      [
        "Er",
        "ror"
      ],
      [
        "frozen",
        "set("
      ],
      [
        "4",
        "_"
      ],
      [
        "_",
        "o"
      ],
      [
        "_",
        "demo"
      ],
      [
        "e",
        "m"
      ],
      [
        "m",
        "es"
      ],
      [
        "p",
        "o"
      ],
      [
        "at",
        "_"
      ],
      [
        "ut",
        "f"
      ],
      [
        "ch",
        "o"
      ],
      [
        "pro",
        "jec"
      ],
      [
        "ex",
        "c"
      ],
      [
        "typ",
        "e"
      ],
      [
        "id",
        "er"
      ],
      [
        "}⟫",
        ")"
      ],
      [
        "cli",
        "_demo"
      ],
      [
        "_d",
        "t."
      ],
      [
        "wr",
        "it"
      ],
      [
        "EX",
        "TS"
      ],
      [
        "-",
        "8"
      ],
      [
        ".",
        "ge"
      ],
      [
        "/",
        "\\n"
      ],
      [
        "=",
        "_"
      ],
      [
        "d",
        "omain"
      ],
      [
        "f",
        "g"
      ],
      [
        "k",
        "ind"
      ],
      [
        "r",
        "."
      ],
      [
        "⟨",
        "self"
      ],
      [
        "er",
        "at"
      ],
      [
        "at",
        "("
      ],
      [
        "at",
        "e"
      ],
      [
        "en",
        "erat"
      ],
      [
        ":s",
        "⟩"
      ],
      [
        "ti",
        "er_"
      ],
      [
        "fi",
        "x"
      ],
      [
        "str",
        "ip"
      ],
      [
        "no",
        "t"
      ],
      [
        "um",
        "ent"
      ],
      [
        "pars",
        "er"
      ],
      [
        "help",
        "=\""
      ],
      [
        "fe",
        "ature"
      ],
      [
        "utf",
        "-8"
      ],
      [
        "projec",
        "t_"
      ],
      [
        "⟨self",
        ":"
      ],
      [
        "=",
        "tr"
      ],
      [
        "=",
        "True"
      ],
      [
        "F",
        "al"
      ],
      [
        "R",
        "E"
      ],
      [
        "S",
        "can"
      ],
      [
        "_",
        "c"
      ],
      [
        "_",
        "orchestr"
      ],
      [
        "b",
        "er"
      ],
      [
        "c",
        "ur"
      ],
      [
        "c",
        "md_"
      ],
      [
        "f",
        "in"
      ],
      [
        "g",
        "i"
      ],
      [
        "k",
        "e_"
      ],
      [
        "n",
        "um"
      ],
      [
        "s",
        "':"
      ],
      [
        "∅",
        ")"
      ],
      [
        "co",
        "d"
      ],
      [
        "un",
        "t"
      ],
      [
        "du",
        "mp"
      ],
      [
        "\"]",
        ")"
      ],
      [
        "sy",
        "_orchestr"
      ],
      [
        "fro",
        "m"
      ],
      [
        "\\\"\\\"",
        "\\\""
      ],
      [
        "``",
        "`"
      ],
      [
        "ha",
        "se"
      ],
      [
        "json.",
        "dump"
      ],
      [
        "imp",
        "ort"
      ],
      [
        "4_",
        "sy_orchestr"
      ],
      [
        "cho",
        "("
      ],
      [
        "writ",
        "e_"
      ],
      [
        "=tr",
        "ue"
      ],
      [
        "=True",
        ")\",\""
      ],
      [
        "Fal",
        "se"
      ],
      [
        "num",
        "ber"
      ],
      [
        "json.dump",
        "s("
      ],
      [
        "4_sy_orchestr",
        "ation"
      ],
      [
        "#",
        "#"
      ],
      [
        "(",
        "_"
      ],
      [
        "/",
        "`"
      ],
      [
        "C",
        "li"
      ],
      [
        "E",
        "x"
      ],
      [
        "L",
        "L"
      ],
      [
        "S",
        "y"
      ],
      [
        "_",
        "render_"
      ],
      [
        "_",
        "ke"
      ],
      [
        "a",
        "uto"
      ],
      [
        "l",
        "en"
      ],
      [
        "m",
        "ith"
      ],
      [
        "p",
        "hase"
      ],
      [
        "q",
        "u"
      ],
      [
        "s",
        "_"
      ],
      [
        "s",
        "i"
      ],
      [
        "v",
        "ider"
      ],
      [
        "w",
        "ith"
      ],
      [
        "in",
        "("
      ],
      [
        "en",
        "v"
      ],
      [
        "en",
        "cod"
      ],
      [
        "al",
        "og"
      ],
      [
        "ent",
        "="
      ],
      [
        "for",
        "m"
      ],
      [
        "produc",
        "er_args"
      ],
      [
        "_]",
        "]"
      ],
      [
        "--",
        "--"
      ],
      [
        "_co",
        "mp"
      ],
      [
        "producer",
        "\"]⟧"
      ],
      [
        "consumer",
        "\"]⟧"
      ],
      [
        "atomadic",
        "_"
      ],
      [
        "⟦card[\"",
        "producer\"]⟧"
      ],
      [
        "⟦card[\"",
        "consumer\"]⟧"
      ],
      [
        "pa",
        "ren"
      ],
      [
        "mmands",
        "mith"
      ],
      [
        "lin",
        "e"
      ],
      [
        "time",
        "."
      ],
      [
        "return",
        "code"
      ],
      [
        "cat",
        "alog"
      ],
      [
        "pre",
        "se"
      ],
      [
        "func",
        "tion"
      ],
      [
        "utf-8",
        "\")"
      ],
      [
        "fin",
        "al"
      ],
      [
        "Cli",
        "ent"
      ],
      [
        "encod",
        "ing"
      ],
      [
        "(",
        "card"
      ],
      [
        ".",
        "s"
      ],
      [
        "a",
        "4_sy_orchestration"
      ],
      [
        "b",
        "al"
      ],
      [
        "g",
        "enerat"
      ],
      [
        "h",
        "as"
      ],
      [
        "j",
        "o"
      ],
      [
        "p",
        "ec"
      ],
      [
        "p",
        "ort"
      ],
      [
        "r",
        "ai"
      ],
      [
        "s",
        "mo"
      ],
      [
        "t",
        "he"
      ],
      [
        "⟨",
        "name:s"
      ],
      [
        "⟨",
        "schema_version"
      ],
      [
        "st",
        "an"
      ],
      [
        "'.",
        "m"
      ],
      [
        "pro",
        "vider"
      ],
      [
        "it",
        "("
      ],
      [
        ":_",
        "⟩→s"
      ],
      [
        ":_",
        "⟩→_"
      ],
      [
        "mo",
        "du"
      ],
      [
        "typ",
        "es"
      ],
      [
        "ap",
        "t"
      ],
      [
        "lo",
        "ad"
      ],
      [
        "no",
        "w"
      ],
      [
        "tr",
        "ac"
      ],
      [
        "_p",
        "re"
      ],
      [
        "consu",
        "m"
      ],
      [
        "defaul",
        "ts"
      ],
      [
        "defaul",
        "t="
      ],
      [
        "ind",
        "ent="
      ],
      [
        "cript",
        "':"
      ],
      [
        "run",
        "("
      ],
      [
        "th",
        "on"
      ],
      [
        "resul",
        "t."
      ],
      [
        "py",
        "thon"
      ],
      [
        "candidat",
        "e_"
      ],
      [
        "[[",
        "_]]"
      ],
      [
        "CONFIG",
        "_"
      ],
      [
        "\".",
        "jo"
      ],
      [
        "cli_demo",
        "_"
      ],
      [
        "len",
        "("
      ],
      [
        "form",
        "at("
      ],
      [
        "rai",
        "se"
      ],
      [
        "⟨schema_version",
        ":s"
      ],
      [
        "indent=",
        "2"
      ],
      [
        "\".jo",
        "in("
      ],
      [
        ",",
        "help=\""
      ],
      [
        "A",
        "r"
      ],
      [
        "C",
        "ard"
      ],
      [
        "D",
        "E"
      ],
      [
        "D",
        "I"
      ],
      [
        "D",
        "e"
      ],
      [
        "M",
        "anifest"
      ],
      [
        "R",
        "ep"
      ],
      [
        "_",
        "con"
      ],
      [
        "_",
        "fi"
      ],
      [
        "a",
        "d_"
      ],
      [
        "a",
        "ble"
      ],
      [
        "c",
        "es"
      ],
      [
        "i",
        "re"
      ],
      [
        "j",
        "av"
      ],
      [
        "l",
        "as"
      ],
      [
        "o",
        "pen"
      ],
      [
        "o",
        "format("
      ],
      [
        "r",
        "st"
      ],
      [
        "s",
        "="
      ],
      [
        "s",
        "cript"
      ],
      [
        "ar",
        "y"
      ],
      [
        "se",
        "con"
      ],
      [
        "an",
        "g"
      ],
      [
        "an",
        "script"
      ],
      [
        "ti",
        "mes"
      ],
      [
        "\\n",
        "\")"
      ],
      [
        "str",
        "("
      ],
      [
        "str",
        "ing"
      ],
      [
        "er.",
        "add_"
      ],
      [
        "js",
        "',"
      ],
      [
        "ap",
        "p"
      ],
      [
        "lo",
        "cal"
      ],
      [
        "he",
        "ad"
      ],
      [
        "tr",
        "a"
      ],
      [
        "args",
        "."
      ],
      [
        "=\"",
        "utf-8\")"
      ],
      [
        "is",
        "oformat("
      ],
      [
        "targe",
        "t_"
      ],
      [
        ").",
        "isoformat("
      ],
      [
        "defaul",
        "t_"
      ],
      [
        "typer.",
        "Ex"
      ],
      [
        "jec",
        "t"
      ],
      [
        "la",
        "ma"
      ],
      [
        "cal",
        "l"
      ],
      [
        "candidat",
        "es"
      ],
      [
        "tex",
        "t("
      ],
      [
        "Co",
        "mmandsmith"
      ],
      [
        "sourc",
        "e_"
      ],
      [
        "date",
        "time."
      ],
      [
        "_dt.",
        "datetime."
      ],
      [
        "cur",
        "_"
      ],
      [
        "LL",
        "M"
      ],
      [
        "encoding",
        "=\"utf-8\")"
      ],
      [
        "now",
        "("
      ],
      [
        "DI",
        "R"
      ],
      [
        "jav",
        "as"
      ],
      [
        "secon",
        "ds"
      ],
      [
        "times",
        "pec"
      ],
      [
        ").isoformat(",
        "timespec"
      ],
      [
        "typer.Ex",
        "it("
      ],
      [
        "\"",
        "+"
      ],
      [
        "'",
        ")"
      ],
      [
        "/",
        "v"
      ],
      [
        "1",
        "_"
      ],
      [
        "2",
        "_"
      ],
      [
        "=",
        "int"
      ],
      [
        "A",
        "U"
      ],
      [
        "E",
        "S"
      ],
      [
        "F",
        "AU"
      ],
      [
        "L",
        "T_"
      ],
      [
        "]",
        "\",\""
      ],
      [
        "_",
        "output"
      ],
      [
        "_",
        "root"
      ],
      [
        "a",
        ","
      ],
      [
        "a",
        "che"
      ],
      [
        "g",
        "ent"
      ],
      [
        "i",
        "st"
      ],
      [
        "m",
        "ent"
      ],
      [
        "m",
        "is"
      ],
      [
        "m",
        "bo"
      ],
      [
        "m",
        "anifest"
      ],
      [
        "s",
        ","
      ],
      [
        "s",
        "ign"
      ],
      [
        "t",
        "ent"
      ],
      [
        "x",
        "',"
      ],
      [
        "}",
        ","
      ],
      [
        "}",
        "',"
      ],
      [
        "\",",
        "type"
      ],
      [
        "or",
        "ts"
      ],
      [
        "st",
        "ep"
      ],
      [
        "ge",
        "d"
      ],
      [
        "se",
        "cho("
      ],
      [
        "co",
        "mmands"
      ],
      [
        "ti",
        "ply"
      ],
      [
        ":_",
        "⟩"
      ],
      [
        "⟩→",
        "i"
      ],
      [
        "s]",
        "]"
      ],
      [
        "(\"",
        "a"
      ],
      [
        "dat",
        "es"
      ],
      [
        "arg",
        "ument"
      ],
      [
        "ul",
        "tiply"
      ],
      [
        "mer",
        "gent"
      ],
      [
        "_p",
        "ars"
      ],
      [
        "sy",
        "s."
      ],
      [
        "_co",
        "mmand"
      ],
      [
        "src",
        "/"
      ],
      [
        "typer.",
        "secho("
      ],
      [
        "FI",
        "L"
      ],
      [
        "run",
        "_"
      ],
      [
        "ed_",
        "at_"
      ],
      [
        "resul",
        "ts"
      ],
      [
        "err",
        "=True)\",\""
      ],
      [
        "tier",
        ":s"
      ],
      [
        "artifac",
        "t"
      ],
      [
        "[[",
        "s]]"
      ],
      [
        "ct",
        "x"
      ],
      [
        "vi",
        "de"
      ],
      [
        "inv",
        "o"
      ],
      [
        "up",
        "dates"
      ],
      [
        "atomadic-",
        "forge."
      ],
      [
        "fg",
        "='"
      ],
      [
        "gi",
        "str"
      ],
      [
        "ke_",
        "results"
      ],
      [
        "unt",
        ":i"
      ],
      [
        "number",
        "\")"
      ],
      [
        "Sy",
        "nergy"
      ],
      [
        "atomadic_",
        "forge."
      ],
      [
        "generat",
        "ed_at_"
      ],
      [
        "smo",
        "ke_results"
      ],
      [
        "stan",
        "ts"
      ],
      [
        "candidate_",
        "id"
      ],
      [
        "Ar",
        "g"
      ],
      [
        "DE",
        "FAU"
      ],
      [
        "er.add_",
        "argument"
      ],
      [
        "ject",
        "ory"
      ],
      [
        "/v",
        "1"
      ],
      [
        "=int",
        ",help=\""
      ],
      [
        "mbo",
        "l"
      ],
      [
        "\",type",
        "=int,help=\""
      ],
      [
        "generated_at_",
        "utc"
      ],
      [
        "DEFAU",
        "LT_"
      ],
      [
        "'",
        "}"
      ],
      [
        "'",
        "producer"
      ],
      [
        "'",
        "}⟫)"
      ],
      [
        "(",
        "targe"
      ],
      [
        ")",
        "+\""
      ],
      [
        "C",
        "on"
      ],
      [
        "E",
        "_"
      ],
      [
        "E",
        "mergent"
      ],
      [
        "F",
        "or"
      ],
      [
        "L",
        "og"
      ],
      [
        "R",
        "I"
      ],
      [
        "R",
        "e"
      ],
      [
        "_",
        "feature"
      ],
      [
        "c",
        "apt"
      ],
      [
        "d",
        "("
      ],
      [
        "f",
        "f"
      ],
      [
        "f",
        "n"
      ],
      [
        "i",
        "fi"
      ],
      [
        "i",
        "_ke"
      ],
      [
        "m",
        "',"
      ],
      [
        "m",
        "ultiply"
      ],
      [
        "p",
        "r"
      ],
      [
        "p",
        "ar"
      ],
      [
        "p",
        "ure"
      ],
      [
        "s",
        ":i"
      ],
      [
        "s",
        "ha"
      ],
      [
        "t",
        ":s"
      ],
      [
        "t",
        "(\""
      ],
      [
        "t",
        "ed"
      ],
      [
        "u",
        "b"
      ],
      [
        "⟨",
        "⟩→s"
      ],
      [
        "re",
        "d_"
      ],
      [
        "re",
        "qu"
      ],
      [
        "re",
        "port"
      ],
      [
        "co",
        "mmand"
      ],
      [
        "di",
        "vide"
      ],
      [
        "al",
        "l"
      ],
      [
        "pro",
        "mp"
      ],
      [
        "pro",
        "ces"
      ],
      [
        "it",
        "er"
      ],
      [
        "un",
        "ds"
      ],
      [
        "ur",
        "ation"
      ],
      [
        "ex",
        "ist"
      ],
      [
        "⟩→",
        "["
      ],
      [
        "er_",
        "fn"
      ],
      [
        "li",
        "st"
      ],
      [
        "lo",
        "w"
      ],
      [
        "no",
        "de"
      ],
      [
        "sy",
        "nergy"
      ],
      [
        "sub",
        "trac"
      ],
      [
        "None",
        ","
      ],
      [
        "score",
        "_"
      ],
      [
        "score",
        ":f"
      ],
      [
        "self.",
        "_"
      ],
      [
        "Tr",
        "anscript"
      ],
      [
        "T_",
        "EXTS"
      ],
      [
        "pa",
        "y"
      ],
      [
        "\\n\\n",
        "##"
      ],
      [
        "err",
        "y"
      ],
      [
        "ol",
        "lama"
      ],
      [
        "atomadic-",
        "forge"
      ],
      [
        "frozenset(",
        "{"
      ],
      [
        "frozenset(",
        "⟪{"
      ],
      [
        ".ge",
        "t(\""
      ],
      [
        "/\\n",
        "."
      ],
      [
        "modu",
        "le"
      ],
      [
        "_pre",
        "fix"
      ],
      [
        "Rep",
        "ort"
      ],
      [
        "tra",
        "jectory"
      ],
      [
        "gistr",
        "y"
      ],
      [
        "DEFAULT_",
        "CONFIG"
      ],
      [
        ")+\"",
        "\\n\")"
      ],
      [
        "For",
        "ge"
      ],
      [
        "capt",
        "ure"
      ],
      [
        "Transcript",
        "Log"
      ],
      [
        "!",
        "="
      ],
      [
        "'",
        "-"
      ],
      [
        "'",
        "types"
      ],
      [
        "'",
        "javas"
      ],
      [
        "'",
        "atomadic_forge."
      ],
      [
        "(",
        "t"
      ],
      [
        "(",
        "config"
      ],
      [
        ",",
        "indent=2"
      ],
      [
        ".",
        "un"
      ],
      [
        ".",
        "call"
      ],
      [
        "0",
        "0"
      ],
      [
        "0",
        "_"
      ],
      [
        "0",
        ":\",\""
      ],
      [
        "3",
        "_"
      ],
      [
        ":",
        "\""
      ],
      [
        ":",
        "\",s\""
      ],
      [
        "=",
        "False"
      ],
      [
        "A",
        "M"
      ],
      [
        "A",
        "n"
      ],
      [
        "C",
        "RI"
      ],
      [
        "L",
        "A"
      ],
      [
        "L",
        "I"
      ],
      [
        "L",
        "O"
      ],
      [
        "L",
        "iter"
      ],
      [
        "N",
        "AM"
      ],
      [
        "P",
        "T_EXTS"
      ],
      [
        "R",
        "O"
      ],
      [
        "S",
        "e"
      ],
      [
        "S",
        "t"
      ],
      [
        "S",
        "to"
      ],
      [
        "[",
        "sys."
      ],
      [
        "d",
        "uration"
      ],
      [
        "g",
        "lo"
      ],
      [
        "k",
        "_con"
      ],
      [
        "l",
        "es"
      ],
      [
        "l",
        "ang"
      ],
      [
        "m",
        "l"
      ],
      [
        "m",
        "ory"
      ],
      [
        "o",
        "s"
      ],
      [
        "p",
        "_"
      ],
      [
        "p",
        "ic"
      ],
      [
        "q",
        "k_con"
      ],
      [
        "r",
        "y"
      ],
      [
        "s",
        ")"
      ],
      [
        "s",
        "\",\""
      ],
      [
        "s",
        ":[_]"
      ],
      [
        "v",
        "el"
      ],
      [
        "w",
        "o"
      ],
      [
        "z",
        "e"
      ],
      [
        "|",
        "\\n"
      ],
      [
        "∨",
        "\""
      ],
      [
        "⟨",
        "card"
      ],
      [
        "⟨",
        "src"
      ],
      [
        "re",
        "po"
      ],
      [
        "re",
        "ad_"
      ],
      [
        "\",",
        "default="
      ],
      [
        "in",
        "t("
      ],
      [
        "ro",
        "unds"
      ],
      [
        "',",
        "\",s\""
      ],
      [
        "ut",
        "ion"
      ],
      [
        "ut",
        "able"
      ],
      [
        "al",
        "["
      ],
      [
        "ma",
        "in"
      ],
      [
        "'.",
        "c"
      ],
      [
        "it",
        "es"
      ],
      [
        "ent",
        "ry"
      ],
      [
        "fi",
        "le"
      ],
      [
        "me",
        "mory"
      ],
      [
        "ex",
        "t"
      ],
      [
        "ex",
        "ec"
      ],
      [
        "⟩→",
        "∅"
      ],
      [
        "\")",
        "]"
      ],
      [
        "mo",
        "_comp"
      ],
      [
        "ip",
        "e"
      ],
      [
        "rc",
        ")\",\""
      ],
      [
        "))",
        ")"
      ],
      [
        "))",
        "\",\""
      ],
      [
        "_p",
        "ath"
      ],
      [
        "\",s\"",
        "-"
      ],
      [
        "targe",
        "t)"
      ],
      [
        ").",
        "returncode"
      ],
      [
        "to",
        "p_"
      ],
      [
        "sub",
        "parser"
      ],
      [
        "sub",
        "proces"
      ],
      [
        "og",
        "_feature"
      ],
      [
        "),",
        "encoding=\"utf-8\")"
      ],
      [
        "ed_",
        "cli"
      ],
      [
        "s.",
        "run("
      ],
      [
        "la",
        "ble"
      ],
      [
        "**",
        ":"
      ],
      [
        "imp",
        "orts"
      ],
      [
        "lin",
        "es"
      ],
      [
        "path",
        "."
      ],
      [
        "sourc",
        "es"
      ],
      [
        "red",
        "',"
      ],
      [
        "Error",
        ","
      ],
      [
        "_o",
        "mis"
      ],
      [
        "at_",
        "function"
      ],
      [
        "=_",
        "promp"
      ],
      [
        "domain",
        "_"
      ],
      [
        "strip",
        "("
      ],
      [
        "project_",
        "dir"
      ],
      [
        "cmd_",
        "b"
      ],
      [
        "write_",
        "text("
      ],
      [
        "=true",
        ")"
      ],
      [
        "phase",
        "_omis"
      ],
      [
        "⟦card[\"producer\"]⟧",
        ","
      ],
      [
        "a4_sy_orchestration",
        ".un"
      ],
      [
        "default_",
        "target_"
      ],
      [
        "LLM",
        "Client"
      ],
      [
        "typer.Exit(",
        "rc)\",\""
      ],
      [
        "\"+",
        "package"
      ],
      [
        "1_",
        "at_function"
      ],
      [
        "2_",
        "mo_comp"
      ],
      [
        "_output",
        "=False"
      ],
      [
        "typer.secho(",
        "f"
      ],
      [
        "updates",
        "[\""
      ],
      [
        "fg='",
        "red',"
      ],
      [
        "Synergy",
        "Scan"
      ],
      [
        "Emergent",
        "Scan"
      ],
      [
        "ifi",
        "ed_cli"
      ],
      [
        "sha",
        "red_"
      ],
      [
        "pay",
        "load"
      ],
      [
        "frozenset(⟪{",
        "'."
      ],
      [
        "capture",
        "_output=False"
      ],
      [
        "'-",
        "m',"
      ],
      [
        "'atomadic_forge.",
        "a4_sy_orchestration.un"
      ],
      [
        "0_",
        "qk_con"
      ],
      [
        "3_",
        "og_feature"
      ],
      [
        "CRI",
        "PT_EXTS"
      ],
      [
        "Liter",
        "al["
      ],
      [
        "Sto",
        "re"
      ],
      [
        "[sys.",
        "exec"
      ],
      [
        "duration",
        "_"
      ],
      [
        "glo",
        "bal"
      ],
      [
        "os",
        "ites"
      ],
      [
        "|\\n",
        "|"
      ],
      [
        "utable",
        ","
      ],
      [
        ").returncode",
        "\",\""
      ],
      [
        "subproces",
        "s.run("
      ],
      [
        "=_promp",
        "t_"
      ],
      [
        "phase_omis",
        "sion"
      ],
      [
        "2_mo_comp",
        "osites"
      ],
      [
        "ified_cli",
        "',\",s\""
      ],
      [
        "capture_output=False",
        ").returncode\",\""
      ],
      [
        "'atomadic_forge.a4_sy_orchestration.un",
        "ified_cli',\",s\""
      ],
      [
        "0_qk_con",
        "stants"
      ],
      [
        "[sys.exec",
        "utable,"
      ],
      [
        "\"",
        "\\n"
      ],
      [
        "(",
        "("
      ],
      [
        "(",
        "paren"
      ],
      [
        ",",
        "exist"
      ],
      [
        "-",
        ">"
      ],
      [
        ".",
        "sub"
      ],
      [
        ".",
        "utc"
      ],
      [
        ".",
        "up"
      ],
      [
        "=",
        "dic"
      ],
      [
        "A",
        "L"
      ],
      [
        "C",
        "LI"
      ],
      [
        "D",
        "_"
      ],
      [
        "F",
        "i"
      ],
      [
        "J",
        "S"
      ],
      [
        "N",
        "O"
      ],
      [
        "P",
        "ath"
      ],
      [
        "R",
        "C"
      ],
      [
        "R",
        "un"
      ],
      [
        "T",
        "E"
      ],
      [
        "_",
        "P"
      ],
      [
        "_",
        "chain"
      ],
      [
        "_",
        "CONFIG_"
      ],
      [
        "`",
        "src/"
      ],
      [
        "a",
        "w"
      ],
      [
        "b",
        "e"
      ],
      [
        "b",
        "y"
      ],
      [
        "b",
        "as"
      ],
      [
        "b",
        "ack"
      ],
      [
        "b",
        "ution"
      ],
      [
        "c",
        "e_"
      ],
      [
        "c",
        "las"
      ],
      [
        "d",
        "',"
      ],
      [
        "e",
        "("
      ],
      [
        "f",
        "o"
      ],
      [
        "g",
        "',"
      ],
      [
        "g",
        "ment"
      ],
      [
        "h",
        "t"
      ],
      [
        "i",
        "l"
      ],
      [
        "i",
        "red"
      ],
      [
        "i",
        "bution"
      ],
      [
        "k",
        "dir"
      ],
      [
        "k",
        "=true)"
      ],
      [
        "l",
        "l"
      ],
      [
        "l",
        "at"
      ],
      [
        "l",
        "e_"
      ],
      [
        "m",
        "on"
      ],
      [
        "m",
        "in"
      ],
      [
        "m",
        "kdir"
      ],
      [
        "p",
        "as"
      ],
      [
        "r",
        "aw"
      ],
      [
        "s",
        "\\n"
      ],
      [
        "t",
        "e"
      ],
      [
        "u",
        "age"
      ],
      [
        "z",
        "one"
      ],
      [
        "⟦",
        "prese"
      ],
      [
        "⟧",
        "`"
      ],
      [
        "at",
        "tr"
      ],
      [
        "at",
        "ed"
      ],
      [
        "\",",
        "DEFAULT_CONFIG"
      ],
      [
        "in",
        "put"
      ],
      [
        "st",
        "ate"
      ],
      [
        "en",
        "c"
      ],
      [
        "\",\"",
        "\",\""
      ],
      [
        "se",
        "gment"
      ],
      [
        "ro",
        "pic"
      ],
      [
        "co",
        "mm"
      ],
      [
        "di",
        "str"
      ],
      [
        ":s",
        "⟩→s"
      ],
      [
        "ch",
        "erry"
      ],
      [
        "con",
        "tent"
      ],
      [
        "'.",
        "s"
      ],
      [
        "it",
        "em"
      ],
      [
        "fi",
        "el"
      ],
      [
        "ex",
        "p"
      ],
      [
        "ex",
        "it"
      ],
      [
        "ts",
        "=true"
      ],
      [
        "dat",
        "a"
      ],
      [
        "li",
        "b"
      ],
      [
        "package",
        "_prefix"
      ],
      [
        "ap",
        "ply"
      ],
      [
        "t.",
        "write_text("
      ],
      [
        ":i",
        "⟩→i"
      ],
      [
        "sy",
        "mbol"
      ],
      [
        "sco",
        "ut"
      ],
      [
        "=\"",
        "seconds"
      ],
      [
        "json",
        "_"
      ],
      [
        "_co",
        "unt:i"
      ],
      [
        "targe",
        "t"
      ],
      [
        "targe",
        "t.write_text("
      ],
      [
        "None",
        ":\",\""
      ],
      [
        "None",
        ",\",\""
      ],
      [
        "pl",
        "it"
      ],
      [
        "chain",
        "[\""
      ],
      [
        "s:[s]",
        "⟩"
      ],
      [
        "th",
        "ropic"
      ],
      [
        "output",
        "_dir"
      ],
      [
        "artifac",
        "t)"
      ],
      [
        "py",
        "test"
      ],
      [
        "int",
        "ent"
      ],
      [
        "ct",
        "ory"
      ],
      [
        "time",
        "zone"
      ],
      [
        "doc",
        "string"
      ],
      [
        "add_",
        "parser"
      ],
      [
        "cat",
        "ch"
      ],
      [
        "test",
        "s"
      ],
      [
        "_ap",
        "pen"
      ],
      [
        "_ap",
        "ply"
      ],
      [
        "_ap",
        "i_ke"
      ],
      [
        "⟪{'",
        "python"
      ],
      [
        "_o",
        "k=true)"
      ],
      [
        "po",
        "se"
      ],
      [
        "_dt.",
        "timezone"
      ],
      [
        "project_",
        "root"
      ],
      [
        "```",
        "bas"
      ],
      [
        "env",
        "',"
      ],
      [
        "_comp",
        "le"
      ],
      [
        "prese",
        "t"
      ],
      [
        "has",
        "_"
      ],
      [
        "consum",
        "er_args"
      ],
      [
        "cli_demo_",
        "returncode"
      ],
      [
        "Manifest",
        "Store"
      ],
      [
        "head",
        "line"
      ],
      [
        "_dt.datetime.",
        "now("
      ],
      [
        ").isoformat(timespec",
        "=\"seconds"
      ],
      [
        "ache",
        "',"
      ],
      [
        "sign",
        "ature"
      ],
      [
        "FIL",
        "E_"
      ],
      [
        "'}",
        "),"
      ],
      [
        "pr",
        "int("
      ],
      [
        "score_",
        "trajectory"
      ],
      [
        "ollama",
        "_"
      ],
      [
        "'types",
        "cript':"
      ],
      [
        "'javas",
        "cript':"
      ],
      [
        "⟨card",
        ":_⟩→s"
      ],
      [
        "sources",
        "_dir"
      ],
      [
        "default_target_",
        "score"
      ],
      [
        "\"+package",
        "+\""
      ],
      [
        "Literal[",
        "(\""
      ],
      [
        "\"\\n",
        "\".join("
      ],
      [
        "(paren",
        "ts=true"
      ],
      [
        ",exist",
        "_ok=true)"
      ],
      [
        ".sub",
        "(\""
      ],
      [
        ".up",
        "date"
      ],
      [
        "=dic",
        "t("
      ],
      [
        "AL",
        "_CONFIG_"
      ],
      [
        "JS",
        "ON"
      ],
      [
        "mkdir",
        "(parents=true"
      ],
      [
        "⟦prese",
        "t."
      ],
      [
        "\",DEFAULT_CONFIG",
        "[\""
      ],
      [
        "distr",
        "ibution"
      ],
      [
        "⟪{'python",
        "':"
      ],
      [
        "_dt.timezone",
        ".utc"
      ],
      [
        "```bas",
        "h"
      ],
      [
        "_dt.datetime.now(",
        "_dt.timezone.utc"
      ],
      [
        ").isoformat(timespec=\"seconds",
        "\")"
      ],
      [
        "AL_CONFIG_",
        "DIR"
      ],
      [
        "mkdir(parents=true",
        ",exist_ok=true)"
      ],
      [
        "'",
        "]"
      ],
      [
        "'",
        "}⟫"
      ],
      [
        "'",
        "consumer"
      ],
      [
        "'",
        "),"
      ],
      [
        "'",
        "atomadic-forge."
      ],
      [
        "'",
        "pure"
      ],
      [
        "'",
        "synergy"
      ],
      [
        "(",
        "\",\""
      ],
      [
        "(",
        "src"
      ],
      [
        "(",
        "func"
      ],
      [
        "(",
        "body"
      ],
      [
        "(",
        "invo"
      ],
      [
        ",",
        "default="
      ],
      [
        ".",
        "0"
      ],
      [
        ".",
        "\",\""
      ],
      [
        ".",
        "\\\"\\\"\\\""
      ],
      [
        ".",
        "invo"
      ],
      [
        ".",
        "ext"
      ],
      [
        ".",
        "strip("
      ],
      [
        "/",
        "a"
      ],
      [
        "0",
        "]"
      ],
      [
        "=",
        "args"
      ],
      [
        "=",
        "config"
      ],
      [
        "=",
        "self."
      ],
      [
        "=",
        "_dt.datetime."
      ],
      [
        "=",
        "subparser"
      ],
      [
        "@",
        "app"
      ],
      [
        "A",
        "S"
      ],
      [
        "A",
        "t"
      ],
      [
        "E",
        "R"
      ],
      [
        "G",
        "_"
      ],
      [
        "G",
        "NO"
      ],
      [
        "I",
        "n"
      ],
      [
        "I",
        "GNO"
      ],
      [
        "S",
        "E"
      ],
      [
        "S",
        "RC"
      ],
      [
        "T",
        "I"
      ],
      [
        "Y",
        "P"
      ],
      [
        "Z",
        "\","
      ],
      [
        "[",
        "'"
      ],
      [
        "[",
        "]"
      ],
      [
        "[",
        "str"
      ],
      [
        "[",
        "list"
      ],
      [
        "_",
        "re"
      ],
      [
        "_",
        "id"
      ],
      [
        "_",
        "EXTS"
      ],
      [
        "_",
        "bal"
      ],
      [
        "_",
        "tier:s"
      ],
      [
        "_",
        "memory"
      ],
      [
        "`",
        "a"
      ],
      [
        "a",
        ":i"
      ],
      [
        "b",
        "\",type=int,help=\""
      ],
      [
        "b",
        ")))"
      ],
      [
        "c",
        "le"
      ],
      [
        "d",
        "o"
      ],
      [
        "d",
        "out"
      ],
      [
        "e",
        "cho("
      ],
      [
        "i",
        "r"
      ],
      [
        "i",
        "v"
      ],
      [
        "k",
        "ed_"
      ],
      [
        "k",
        "do"
      ],
      [
        "s",
        ":"
      ],
      [
        "s",
        "p"
      ],
      [
        "s",
        "',"
      ],
      [
        "s",
        "\")"
      ],
      [
        "s",
        "/`"
      ],
      [
        "s",
        "plit"
      ],
      [
        "t",
        "ec"
      ],
      [
        "t",
        "wo"
      ],
      [
        "t",
        "attr"
      ],
      [
        "w",
        "n"
      ],
      [
        "w",
        "ar"
      ],
      [
        "w",
        "or"
      ],
      [
        "x",
        "("
      ],
      [
        "{",
        "rc"
      ],
      [
        "{",
        "package"
      ],
      [
        "{",
        "\",s\""
      ],
      [
        "↦",
        "print("
      ],
      [
        "⟦",
        "package"
      ],
      [
        "⟦",
        "result."
      ],
      [
        "⟧",
        "\")"
      ],
      [
        "⟨",
        "model"
      ],
      [
        "⟨",
        "a:i"
      ],
      [
        "re",
        "gistry"
      ],
      [
        "re",
        "comm"
      ],
      [
        "\",",
        "help=\""
      ],
      [
        "\",",
        "generated_at_utc"
      ],
      [
        "in",
        "de"
      ],
      [
        "in",
        "_memory"
      ],
      [
        "st",
        "dout"
      ],
      [
        "en",
        "dat"
      ],
      [
        "en",
        "d("
      ],
      [
        "ge",
        "st"
      ],
      [
        "ge",
        "tattr"
      ],
      [
        "\",\"",
        "a"
      ],
      [
        "\",\"",
        "\",s\""
      ],
      [
        "se",
        "s"
      ],
      [
        "se",
        "t_"
      ],
      [
        "ro",
        "s"
      ],
      [
        "an",
        "ed"
      ],
      [
        "an",
        "ce_"
      ],
      [
        "de",
        "f"
      ],
      [
        "de",
        "tec"
      ],
      [
        "con",
        "d"
      ],
      [
        "con",
        "ver"
      ],
      [
        "al",
        "name:s"
      ],
      [
        "al",
        "ign"
      ],
      [
        "su",
        "mm"
      ],
      [
        "ma",
        "x"
      ],
      [
        "'.",
        "ts"
      ],
      [
        "pro",
        "pose"
      ],
      [
        "un",
        "d"
      ],
      [
        "ent",
        "ory"
      ],
      [
        "str",
        "(\""
      ],
      [
        "er_",
        "lines"
      ],
      [
        "\"]",
        "=_prompt_"
      ],
      [
        "[\"",
        "@app"
      ],
      [
        "le",
        "vel"
      ],
      [
        "(\"",
        "b\",type=int,help=\""
      ],
      [
        "er.",
        "set_"
      ],
      [
        "s\"",
        "⟦"
      ],
      [
        "mer",
        "ge"
      ],
      [
        "mer",
        "ged"
      ],
      [
        "lo",
        "g"
      ],
      [
        "no",
        "re"
      ],
      [
        "out",
        "_command"
      ],
      [
        "_p",
        "ipe"
      ],
      [
        "=\"",
        "atomadic-forge."
      ],
      [
        "_co",
        "un"
      ],
      [
        ")\",\"",
        "["
      ],
      [
        "src",
        ")"
      ],
      [
        "sub",
        "command"
      ],
      [
        "typer.",
        "Con"
      ],
      [
        "typer.",
        "echo("
      ],
      [
        "None",
        ":\",s\""
      ],
      [
        "s(",
        ")"
      ],
      [
        "⟦card[\"",
        "candidate_id"
      ],
      [
        ":[_]",
        "⟩"
      ],
      [
        "fac",
        "e"
      ],
      [
        "s.",
        "add_parser"
      ],
      [
        "schema_",
        "id"
      ],
      [
        "pars",
        "er.add_argument"
      ],
      [
        "='",
        "seconds"
      ],
      [
        "='",
        "Arg"
      ],
      [
        "av",
        "ai"
      ],
      [
        "err",
        "or"
      ],
      [
        "utc",
        "now("
      ],
      [
        "json.",
        "load"
      ],
      [
        "json.",
        "JSON"
      ],
      [
        "schema_version",
        "':"
      ],
      [
        "schema_version",
        "=\"atomadic-forge."
      ],
      [
        "artifac",
        "t_"
      ],
      [
        "help",
        "='Arg"
      ],
      [
        "inv",
        "entory"
      ],
      [
        "+\"",
        "Z\","
      ],
      [
        "ol",
        "ation"
      ],
      [
        "tex",
        "t"
      ],
      [
        "return",
        "\",\""
      ],
      [
        "y_",
        "m"
      ],
      [
        "y_",
        "env"
      ],
      [
        "⟪{'",
        "schema_version':"
      ],
      [
        "body",
        ")+\"\\n\")"
      ],
      [
        "body",
        ".ext"
      ],
      [
        "Error",
        ")"
      ],
      [
        "exc",
        "ep"
      ],
      [
        "cli_demo",
        "_command"
      ],
      [
        "=_",
        "head"
      ],
      [
        "kind",
        ":s"
      ],
      [
        "tier_",
        "distribution"
      ],
      [
        "not",
        "ated"
      ],
      [
        "⟨self:",
        "Commandsmith"
      ],
      [
        "RE",
        "D_"
      ],
      [
        "_c",
        "fg"
      ],
      [
        "_c",
        "las"
      ],
      [
        "ke_",
        "with"
      ],
      [
        "=True)\",\"",
        "def"
      ],
      [
        "False",
        ","
      ],
      [
        "number",
        "s\")"
      ],
      [
        "json.dumps(",
        "{\",s\""
      ],
      [
        "_ke",
        "y"
      ],
      [
        "auto",
        "_apply"
      ],
      [
        "qu",
        "alname:s"
      ],
      [
        "paren",
        "t."
      ],
      [
        "final",
        "_"
      ],
      [
        "(card",
        ")"
      ],
      [
        ".s",
        "can"
      ],
      [
        "defaults",
        "(func"
      ],
      [
        "CONFIG_",
        "FILE_"
      ],
      [
        "cli_demo_",
        "stdout"
      ],
      [
        "indent=2",
        "))\",\""
      ],
      [
        "De",
        "code"
      ],
      [
        "open",
        "_id"
      ],
      [
        "str(",
        "artifact)"
      ],
      [
        "args.",
        "a,"
      ],
      [
        "args.",
        "b)))"
      ],
      [
        "candidates",
        "="
      ],
      [
        "Commandsmith",
        "."
      ],
      [
        "DIR",
        "S"
      ],
      [
        ").isoformat(timespec",
        "='seconds"
      ],
      [
        "')",
        "]"
      ],
      [
        "(\"a",
        "\",type=int,help=\""
      ],
      [
        "_pars",
        "er.add_argument"
      ],
      [
        "ctx",
        ":"
      ],
      [
        "ctx",
        ".invo"
      ],
      [
        "Arg",
        "ument"
      ],
      [
        "/v1",
        "',"
      ],
      [
        "/v1",
        "\",generated_at_utc"
      ],
      [
        "requ",
        "ired"
      ],
      [
        "⟩→[",
        "_]"
      ],
      [
        "subtrac",
        "t_"
      ],
      [
        "frozenset({",
        "'pure"
      ],
      [
        ".call",
        "back"
      ],
      [
        "An",
        "notated"
      ],
      [
        "LO",
        "C"
      ],
      [
        "NAM",
        "E"
      ],
      [
        "RO",
        "O"
      ],
      [
        "Se",
        "cond"
      ],
      [
        "St",
        "ub"
      ],
      [
        "lang",
        "uage"
      ],
      [
        "ml",
        "',"
      ],
      [
        "rounds",
        "_comple"
      ],
      [
        "shared_",
        "schema"
      ],
      [
        "Fi",
        "rst"
      ],
      [
        "`src/",
        "\"+package+\""
      ],
      [
        "ll",
        "m"
      ],
      [
        "lat",
        "enc"
      ],
      [
        "exit",
        "ed"
      ],
      [
        "json_",
        "artifact"
      ],
      [
        "target.write_text(",
        "json.dumps("
      ],
      [
        "_api_ke",
        "y_env"
      ],
      [
        "\"\\n\".join(",
        "body)+\"\\n\")"
      ],
      [
        "_dt.datetime.now(_dt.timezone.utc",
        ").isoformat(timespec='seconds"
      ],
      [
        ").isoformat(timespec=\"seconds\")",
        "+\"Z\","
      ],
      [
        "'synergy",
        "':"
      ],
      [
        "(body",
        "=_head"
      ],
      [
        "(invo",
        "ke_with"
      ],
      [
        ",default=",
        "str"
      ],
      [
        "=args",
        "↦print("
      ],
      [
        "=config",
        ".get(\""
      ],
      [
        "=_dt.datetime.",
        "utcnow("
      ],
      [
        "=subparser",
        "s.add_parser"
      ],
      [
        "At",
        "omadic"
      ],
      [
        "IGNO",
        "RED_"
      ],
      [
        "[str",
        "]"
      ],
      [
        "[list",
        "[str]"
      ],
      [
        "_bal",
        "ance_"
      ],
      [
        "cle",
        "aned"
      ],
      [
        "ked_",
        "subcommand"
      ],
      [
        "kdo",
        "wn"
      ],
      [
        "{rc",
        "}',"
      ],
      [
        "⟦package",
        "⟧"
      ],
      [
        "⟨model",
        ":_"
      ],
      [
        "recomm",
        "endat"
      ],
      [
        "in_memory",
        "_pipe"
      ],
      [
        "end(",
        "[\"@app"
      ],
      [
        "getattr",
        "(_"
      ],
      [
        "conver",
        "ged"
      ],
      [
        "summ",
        "ary"
      ],
      [
        "propose",
        "d_"
      ],
      [
        "er_lines",
        "(card)"
      ],
      [
        "(\"b\",type=int,help=\"",
        "Second"
      ],
      [
        "er.set_",
        "defaults(func"
      ],
      [
        "out_command",
        "=True)\",\"def"
      ],
      [
        "typer.echo(",
        "json.dumps({\",s\""
      ],
      [
        "⟦card[\"candidate_id",
        "\"]⟧"
      ],
      [
        "avai",
        "lable"
      ],
      [
        "json.load",
        "s("
      ],
      [
        "json.JSON",
        "Decode"
      ],
      [
        "help='Arg",
        "s"
      ],
      [
        "body.ext",
        "end([\"@app"
      ],
      [
        "CONFIG_FILE_",
        "NAME"
      ],
      [
        "indent=2))\",\"",
        "\"])"
      ],
      [
        "open_id",
        "x"
      ],
      [
        "str(artifact)",
        "]\",\""
      ],
      [
        "args.a,",
        "args.b)))"
      ],
      [
        "(\"a\",type=int,help=\"",
        "First"
      ],
      [
        "ctx.invo",
        "ked_subcommand"
      ],
      [
        "/v1\",generated_at_utc",
        "=_dt.datetime.utcnow("
      ],
      [
        ".callback",
        "(invoke_with"
      ],
      [
        "Annotated",
        "[list[str]"
      ],
      [
        "rounds_comple",
        "ted"
      ],
      [
        "`src/\"+package+\"",
        "/a"
      ],
      [
        "latenc",
        "y_m"
      ],
      [
        "(body=_head",
        "er_lines(card)"
      ],
      [
        "=subparsers.add_parser",
        "(\""
      ],
      [
        "IGNORED_",
        "DIRS"
      ],
      [
        "recommendat",
        "ion"
      ],
      [
        "er.set_defaults(func",
        "=args↦print("
      ],
      [
        "body.extend([\"@app",
        ".callback(invoke_with"
      ],
      [
        "/v1\",generated_at_utc=_dt.datetime.utcnow(",
        ").isoformat(timespec=\"seconds\")+\"Z\","
      ],
      [
        "body.extend([\"@app.callback(invoke_with",
        "out_command=True)\",\"def"
      ],
      [
        "\"",
        ":\""
      ],
      [
        "'",
        "produc"
      ],
      [
        "'",
        "--"
      ],
      [
        "'",
        "state"
      ],
      [
        "'",
        "{package"
      ],
      [
        "(",
        "G"
      ],
      [
        "(",
        "self."
      ],
      [
        "(",
        "node"
      ],
      [
        ")",
        "∨\""
      ],
      [
        ",",
        "\""
      ],
      [
        ",",
        "\",s\""
      ],
      [
        ",",
        "config"
      ],
      [
        "-",
        "args"
      ],
      [
        "-",
        "tier"
      ],
      [
        ".",
        "_"
      ],
      [
        ".",
        "json"
      ],
      [
        "/",
        "CONFIG_FILE_NAME"
      ],
      [
        "1",
        ")"
      ],
      [
        "1",
        "00"
      ],
      [
        "2",
        "σ"
      ],
      [
        "5",
        "-tier"
      ],
      [
        "=",
        "run_"
      ],
      [
        "?",
        "\""
      ],
      [
        "A",
        "A"
      ],
      [
        "A",
        "I"
      ],
      [
        "A",
        "V"
      ],
      [
        "C",
        "h"
      ],
      [
        "D",
        "ire"
      ],
      [
        "G",
        "enerat"
      ],
      [
        "H",
        "ON"
      ],
      [
        "I",
        "mp"
      ],
      [
        "J",
        "AV"
      ],
      [
        "O",
        "S"
      ],
      [
        "P",
        "Y"
      ],
      [
        "S",
        "co"
      ],
      [
        "S",
        "ur"
      ],
      [
        "S",
        "ign"
      ],
      [
        "T",
        "YP"
      ],
      [
        "T",
        "HON"
      ],
      [
        "V",
        "al"
      ],
      [
        "[",
        "⟪"
      ],
      [
        "[",
        "]\",\""
      ],
      [
        "[",
        "0]"
      ],
      [
        "_",
        "se"
      ],
      [
        "_",
        "as"
      ],
      [
        "_",
        "name"
      ],
      [
        "_",
        "to"
      ],
      [
        "_",
        "utc"
      ],
      [
        "_",
        "type"
      ],
      [
        "_",
        "si"
      ],
      [
        "_",
        "step"
      ],
      [
        "a",
        "-"
      ],
      [
        "a",
        "b"
      ],
      [
        "a",
        "g"
      ],
      [
        "a",
        "re"
      ],
      [
        "a",
        "st"
      ],
      [
        "a",
        "se"
      ],
      [
        "a",
        "dic"
      ],
      [
        "b",
        "l"
      ],
      [
        "b",
        ":i⟩→i"
      ],
      [
        "b",
        "ase"
      ],
      [
        "c",
        "er"
      ],
      [
        "c",
        "tion"
      ],
      [
        "c",
        "ros"
      ],
      [
        "e",
        ":"
      ],
      [
        "e",
        "w"
      ],
      [
        "e",
        "ver"
      ],
      [
        "f",
        "⟧"
      ],
      [
        "f",
        "',"
      ],
      [
        "f",
        "li"
      ],
      [
        "f",
        "ind"
      ],
      [
        "h",
        "er"
      ],
      [
        "i",
        "es"
      ],
      [
        "i",
        "ze"
      ],
      [
        "k",
        "g"
      ],
      [
        "k",
        "en"
      ],
      [
        "l",
        "y"
      ],
      [
        "l",
        "er"
      ],
      [
        "l",
        "le"
      ],
      [
        "m",
        "ar"
      ],
      [
        "o",
        "f"
      ],
      [
        "p",
        "t"
      ],
      [
        "p",
        "er"
      ],
      [
        "p",
        "kg"
      ],
      [
        "s",
        "a"
      ],
      [
        "s",
        "crip"
      ],
      [
        "v",
        "oc"
      ],
      [
        "w",
        "h"
      ],
      [
        "y",
        "out"
      ],
      [
        "{",
        "e:"
      ],
      [
        "∈",
        "IGNORED_DIRS"
      ],
      [
        "⟨",
        "chain"
      ],
      [
        "⟨",
        "node"
      ],
      [
        "⟨",
        "project_root"
      ],
      [
        "⟫",
        "]"
      ],
      [
        "er",
        "me"
      ],
      [
        "er",
        "()"
      ],
      [
        "re",
        "vi"
      ],
      [
        "at",
        "or"
      ],
      [
        "in",
        "-"
      ],
      [
        "in",
        "i"
      ],
      [
        "ar",
        "c"
      ],
      [
        "ar",
        "ts"
      ],
      [
        "st",
        "all"
      ],
      [
        "ge",
        "min"
      ],
      [
        "\",\"",
        "re"
      ],
      [
        "se",
        "s:[s]"
      ],
      [
        "an",
        "d_"
      ],
      [
        "an",
        "thropic"
      ],
      [
        "co",
        "mp"
      ],
      [
        "co",
        "ver"
      ],
      [
        "co",
        "unt:i"
      ],
      [
        "de",
        "d"
      ],
      [
        "de",
        "scrip"
      ],
      [
        "di",
        "sco"
      ],
      [
        "di",
        "ate"
      ],
      [
        "di",
        "gest"
      ],
      [
        "ti",
        "f"
      ],
      [
        "'.",
        "p"
      ],
      [
        "'.",
        "w"
      ],
      [
        "'.",
        "to"
      ],
      [
        "'.",
        "js',"
      ],
      [
        "ac",
        "e"
      ],
      [
        "me",
        "t"
      ],
      [
        "me",
        "th"
      ],
      [
        "ex",
        "port"
      ],
      [
        "⟩→",
        "b"
      ],
      [
        "e_",
        "report"
      ],
      [
        "t_",
        "docstring"
      ],
      [
        "ts",
        "_utc"
      ],
      [
        "for",
        "war"
      ],
      [
        "[\"",
        "provider"
      ],
      [
        "mm",
        "ent"
      ],
      [
        "produc",
        "er_fn"
      ],
      [
        "s\"",
        "#"
      ],
      [
        "ul",
        "ary"
      ],
      [
        "ad",
        "apt"
      ],
      [
        "package",
        ","
      ],
      [
        "package",
        ":s"
      ],
      [
        "lo",
        "ad_"
      ],
      [
        "out",
        "',"
      ],
      [
        "tr",
        "y"
      ],
      [
        "_p",
        "ure"
      ],
      [
        "na",
        "mes"
      ],
      [
        "sy",
        "nerg"
      ],
      [
        "json",
        "',"
      ],
      [
        "_co",
        "mment"
      ],
      [
        ").",
        "re"
      ],
      [
        ").",
        "split"
      ],
      [
        "config",
        "_fi"
      ],
      [
        "config",
        ".update"
      ],
      [
        "ue",
        "Error"
      ],
      [
        "typer.",
        "Argument"
      ],
      [
        "consumer",
        "-args"
      ],
      [
        "oc",
        "string"
      ],
      [
        "self.",
        "write_"
      ],
      [
        "th",
        "is"
      ],
      [
        "output",
        "_root"
      ],
      [
        "resul",
        "t"
      ],
      [
        "\\n\\n",
        "```bash"
      ],
      [
        "_d",
        "omain"
      ],
      [
        "_d",
        "ocstring"
      ],
      [
        "artifac",
        "t."
      ],
      [
        "**",
        "{e:"
      ],
      [
        "int",
        "erme"
      ],
      [
        ":b",
        "⟩"
      ],
      [
        "ke",
        "y"
      ],
      [
        "path",
        ":_"
      ],
      [
        "vi",
        "olation"
      ],
      [
        "ol",
        "v"
      ],
      [
        "t=",
        "self."
      ],
      [
        "t=",
        "len("
      ],
      [
        "tex",
        "t:s"
      ],
      [
        "Co",
        "mmand"
      ],
      [
        "pre",
        "fix"
      ],
      [
        "url",
        ","
      ],
      [
        "url",
        ":s"
      ],
      [
        "url",
        "':"
      ],
      [
        "True",
        ","
      ],
      [
        "md_",
        "path"
      ],
      [
        "model",
        "s"
      ],
      [
        "exc",
        "er"
      ],
      [
        ".ge",
        "t("
      ],
      [
        ".ge",
        "t_docstring"
      ],
      [
        "domain",
        "s"
      ],
      [
        "kind",
        ":_"
      ],
      [
        "tier_",
        "inde"
      ],
      [
        "strip",
        "_comment"
      ],
      [
        "⟨self:",
        "TranscriptLog"
      ],
      [
        "RE",
        ".sub(\""
      ],
      [
        "RE",
        "SE"
      ],
      [
        "cmd_",
        "a"
      ],
      [
        "cmd_",
        "a,"
      ],
      [
        "\\\"\\\"\\\"",
        "Run"
      ],
      [
        "(_",
        "step"
      ],
      [
        "Sy",
        "mbol"
      ],
      [
        "_render_",
        "phase_omission"
      ],
      [
        "si",
        "bl"
      ],
      [
        "producer_args",
        ":"
      ],
      [
        "----",
        "----"
      ],
      [
        "⟦card[\"consumer\"]⟧",
        ","
      ],
      [
        "⟦card[\"consumer\"]⟧",
        ".\\\"\\\"\\\""
      ],
      [
        "line",
        "age"
      ],
      [
        ".s",
        "av"
      ],
      [
        "'.m",
        "d"
      ],
      [
        "'.m",
        "js',"
      ],
      [
        "consum",
        "er_fn"
      ],
      [
        "run(",
        "\",\""
      ],
      [
        "De",
        "faul"
      ],
      [
        "Manifest",
        "Card"
      ],
      [
        "open",
        "ai"
      ],
      [
        "source_",
        "root"
      ],
      [
        "cur_",
        "score"
      ],
      [
        "javas",
        "cript"
      ],
      [
        "typer.Exit(",
        "2"
      ],
      [
        "ES",
        "CRIPT_EXTS"
      ],
      [
        "_root",
        ":_"
      ],
      [
        "ache",
        "/\\n."
      ],
      [
        "manifest",
        "_dir"
      ],
      [
        "s,",
        "smoke_results"
      ],
      [
        "run_",
        "id"
      ],
      [
        "generated_at_utc",
        ":s"
      ],
      [
        "Re",
        "gistry"
      ],
      [
        "par",
        "ts"
      ],
      [
        "⟩→[",
        "s]"
      ],
      [
        "self._",
        "turn"
      ],
      [
        "atomadic-forge",
        "\""
      ],
      [
        "module",
        ":s"
      ],
      [
        ",indent=2",
        ",default=str"
      ],
      [
        "LA",
        "N"
      ],
      [
        "read_",
        "text("
      ],
      [
        "read_",
        "config_fi"
      ],
      [
        "\",default=",
        "cur_"
      ],
      [
        "file",
        ":s"
      ],
      [
        "_path",
        ")"
      ],
      [
        "_path",
        "="
      ],
      [
        "top_",
        "n"
      ],
      [
        "top_",
        "level"
      ],
      [
        "imports",
        ":[s]"
      ],
      [
        "cmd_b",
        ","
      ],
      [
        "typer.secho(f",
        "'producer"
      ],
      [
        "subprocess.run(",
        "cmd_a,"
      ],
      [
        "subprocess.run(",
        "cmd_b,"
      ],
      [
        "mon",
        "adic"
      ],
      [
        "raw",
        "_appen"
      ],
      [
        "s\\n",
        "-"
      ],
      [
        "⟧`",
        "\",s\"-"
      ],
      [
        "input",
        "s"
      ],
      [
        "scout",
        "['"
      ],
      [
        "None,\",\"",
        ")"
      ],
      [
        "AS",
        "CRIPT_EXTS"
      ],
      [
        "In",
        "tent"
      ],
      [
        "TI",
        "ER"
      ],
      [
        "wor",
        "k"
      ],
      [
        "detec",
        "t_"
      ],
      [
        "align",
        "ment"
      ],
      [
        "\"]=_prompt_",
        "str(\""
      ],
      [
        "typer.Con",
        "text"
      ],
      [
        "artifact_",
        "md_path"
      ],
      [
        "excep",
        "t"
      ],
      [
        "parent.",
        "mkdir(parents=true,exist_ok=true)"
      ],
      [
        "final_",
        "score"
      ],
      [
        "frozenset({'pure",
        "',"
      ],
      [
        "LOC",
        "AL_CONFIG_DIR"
      ],
      [
        "Stub",
        "LLMClient"
      ],
      [
        "_api_key_env",
        ":_⟩"
      ],
      [
        "_dt.datetime.now(_dt.timezone.utc).isoformat(timespec='seconds",
        "'),"
      ],
      [
        "json.JSONDecode",
        "Error)"
      ],
      [
        "(node",
        ")∨\""
      ],
      [
        "Dire",
        "ctory"
      ],
      [
        "Generat",
        "ed"
      ],
      [
        "JAV",
        "ASCRIPT_EXTS"
      ],
      [
        "OS",
        "Error,"
      ],
      [
        "PY",
        "THON"
      ],
      [
        "Sur",
        "face"
      ],
      [
        "Sign",
        "ature"
      ],
      [
        "TYP",
        "ESCRIPT_EXTS"
      ],
      [
        "Val",
        "ueError"
      ],
      [
        "[⟪",
        ":"
      ],
      [
        "_to",
        "ken"
      ],
      [
        "_si",
        "ze"
      ],
      [
        "ab",
        "ulary"
      ],
      [
        "ast",
        ".get_docstring"
      ],
      [
        "fli",
        "ct"
      ],
      [
        "lle",
        "ction"
      ],
      [
        "voc",
        "abulary"
      ],
      [
        "⟨node",
        ":_⟩→s"
      ],
      [
        "revi",
        "ew"
      ],
      [
        "cover",
        "age"
      ],
      [
        "descrip",
        "tion"
      ],
      [
        "meth",
        "o"
      ],
      [
        "export",
        "ed_"
      ],
      [
        "ts_utc",
        "':"
      ],
      [
        "forwar",
        "ded"
      ],
      [
        "[\"provider",
        "\"]"
      ],
      [
        "config.update",
        "(_step"
      ],
      [
        "typer.Argument",
        "(\",\""
      ],
      [
        "\\n\\n```bash",
        "\\n"
      ],
      [
        "interme",
        "diate"
      ],
      [
        "RESE",
        "TS"
      ],
      [
        "sibl",
        "ing"
      ],
      [
        "⟦card[\"consumer\"]⟧.\\\"\\\"\\\"",
        "\",\""
      ],
      [
        "Registry",
        "ManifestCard"
      ],
      [
        ",indent=2,default=str",
        "),encoding=\"utf-8\")"
      ],
      [
        "read_config_fi",
        "le"
      ],
      [
        "typer.Context",
        ",\",\""
      ],
      [
        "PYTHON",
        "_EXTS"
      ],
      [
        "ast.get_docstring",
        "(node)∨\""
      ],
      [
        "\"",
        "\\\"\\\"\\\""
      ],
      [
        "'",
        "\",\""
      ],
      [
        "'",
        "run"
      ],
      [
        "'",
        "orchestr"
      ],
      [
        "'",
        "model"
      ],
      [
        "'",
        "kind"
      ],
      [
        "'",
        "main"
      ],
      [
        "'",
        "))\",\""
      ],
      [
        "'",
        "ht"
      ],
      [
        "'",
        "content"
      ],
      [
        "'",
        "ollama_"
      ],
      [
        "'",
        "latency_m"
      ],
      [
        "'",
        "url':"
      ],
      [
        "'",
        "ts_utc':"
      ],
      [
        "(",
        "f"
      ],
      [
        "(",
        "h"
      ],
      [
        "(",
        "k"
      ],
      [
        "(",
        "{"
      ],
      [
        "(",
        "_p"
      ],
      [
        "(",
        "doc"
      ],
      [
        "(",
        "url"
      ],
      [
        "(",
        "local"
      ],
      [
        "(",
        "updates[\""
      ],
      [
        "(",
        "data"
      ],
      [
        "(",
        "consumer_args"
      ],
      [
        "(",
        "s\"⟦"
      ],
      [
        "(",
        "schema_version=\"atomadic-forge."
      ],
      [
        "(",
        "args.a,args.b)))"
      ],
      [
        "(",
        "prefix"
      ],
      [
        "(",
        "OSError,"
      ],
      [
        "(",
        "description"
      ],
      [
        ")",
        "?"
      ],
      [
        ")",
        "∈"
      ],
      [
        ")",
        "≥"
      ],
      [
        ")",
        "}⟫"
      ],
      [
        ")",
        "\\n\\n"
      ],
      [
        "*",
        "."
      ],
      [
        "*",
        "producer_args"
      ],
      [
        ",",
        "v"
      ],
      [
        ",",
        "package"
      ],
      [
        ",",
        "domain_"
      ],
      [
        ",",
        "max"
      ],
      [
        ",",
        "open_idx"
      ],
      [
        "-",
        "Z"
      ],
      [
        "-",
        "⟦"
      ],
      [
        "-",
        "in"
      ],
      [
        "-",
        "not"
      ],
      [
        "-",
        "')"
      ],
      [
        "-",
        "fo"
      ],
      [
        "-",
        "out',"
      ],
      [
        ".",
        "1"
      ],
      [
        ".",
        "T"
      ],
      [
        ".",
        "v"
      ],
      [
        ".",
        "\\n"
      ],
      [
        ".",
        "\")"
      ],
      [
        ".",
        "writ"
      ],
      [
        ".",
        "exist"
      ],
      [
        ".",
        "low"
      ],
      [
        ".",
        "item"
      ],
      [
        ".",
        "mkdir(parents=true,exist_ok=true)"
      ],
      [
        ".",
        "registry"
      ],
      [
        ".",
        "')]"
      ],
      [
        "/",
        "\""
      ],
      [
        "/",
        "/"
      ],
      [
        "/",
        "5"
      ],
      [
        "/",
        "_"
      ],
      [
        "/",
        "LOCAL_CONFIG_DIR"
      ],
      [
        "0",
        ","
      ],
      [
        "2",
        "5"
      ],
      [
        "2",
        "',"
      ],
      [
        "3",
        "',"
      ],
      [
        "4",
        "ι"
      ],
      [
        "4",
        "',"
      ],
      [
        "5",
        ")"
      ],
      [
        "8",
        "⟫]"
      ],
      [
        ":",
        "v"
      ],
      [
        "=",
        "f"
      ],
      [
        "=",
        "re"
      ],
      [
        "=",
        "co"
      ],
      [
        "=",
        "card"
      ],
      [
        "=",
        "⟪{'"
      ],
      [
        "=",
        "has"
      ],
      [
        "=",
        "len("
      ],
      [
        "=",
        "smoke_results"
      ],
      [
        "=",
        "read_config_file"
      ],
      [
        "=",
        "ast.get_docstring(node)∨\""
      ],
      [
        "?",
        "doc"
      ],
      [
        "A",
        "G"
      ],
      [
        "A",
        "uto"
      ],
      [
        "A",
        "LL"
      ],
      [
        "A",
        "-Z"
      ],
      [
        "B",
        "AL_CONFIG_DIR"
      ],
      [
        "C",
        "O"
      ],
      [
        "C",
        "an"
      ],
      [
        "E",
        "C"
      ],
      [
        "E",
        "M"
      ],
      [
        "E",
        "N"
      ],
      [
        "G",
        "U"
      ],
      [
        "G",
        "em"
      ],
      [
        "I",
        "TS"
      ],
      [
        "K",
        "ind"
      ],
      [
        "K",
        "G_"
      ],
      [
        "M",
        "A"
      ],
      [
        "M",
        "M"
      ],
      [
        "M",
        "P"
      ],
      [
        "N",
        "I"
      ],
      [
        "O",
        "l"
      ],
      [
        "O",
        "pen"
      ],
      [
        "P",
        "ro"
      ],
      [
        "P",
        "ic"
      ],
      [
        "P",
        "KG_"
      ],
      [
        "S",
        "T"
      ],
      [
        "S",
        "cript"
      ],
      [
        "T",
        "i"
      ],
      [
        "T",
        "yp"
      ],
      [
        "T",
        "he"
      ],
      [
        "T",
        "est"
      ],
      [
        "W",
        "ire"
      ],
      [
        "[",
        "import"
      ],
      [
        "[",
        "A-Z"
      ],
      [
        "\\",
        "\\"
      ],
      [
        "_",
        "_"
      ],
      [
        "_",
        "ro"
      ],
      [
        "_",
        "de"
      ],
      [
        "_",
        "_p"
      ],
      [
        "_",
        "config"
      ],
      [
        "_",
        "la"
      ],
      [
        "_",
        "tier"
      ],
      [
        "_",
        "name:s"
      ],
      [
        "_",
        "EX"
      ],
      [
        "_",
        "url"
      ],
      [
        "_",
        "line"
      ],
      [
        "_",
        "candidate_id"
      ],
      [
        "_",
        "NAM"
      ],
      [
        "_",
        "signature"
      ],
      [
        "_",
        "required"
      ],
      [
        "_",
        "summary"
      ],
      [
        "_",
        "mar"
      ],
      [
        "_",
        "text:s"
      ],
      [
        "_",
        "excer"
      ],
      [
        "`",
        "."
      ],
      [
        "`",
        "⟦"
      ],
      [
        "`",
        "\",\""
      ],
      [
        "`",
        "forge"
      ],
      [
        "`",
        "run"
      ],
      [
        "a",
        "',"
      ],
      [
        "a",
        "ch"
      ],
      [
        "a",
        "2_mo_composites"
      ],
      [
        "a",
        "kdown"
      ],
      [
        "b",
        "r"
      ],
      [
        "b",
        "u"
      ],
      [
        "b",
        "re"
      ],
      [
        "b",
        "el"
      ],
      [
        "b",
        "_signature"
      ],
      [
        "c",
        "i"
      ],
      [
        "c",
        "∈"
      ],
      [
        "c",
        "[\""
      ],
      [
        "c",
        "e("
      ],
      [
        "c",
        "ache',"
      ],
      [
        "c",
        "ach"
      ],
      [
        "d",
        "er"
      ],
      [
        "d",
        ":i"
      ],
      [
        "e",
        "b"
      ],
      [
        "e",
        "v"
      ],
      [
        "e",
        "mp"
      ],
      [
        "e",
        "Card"
      ],
      [
        "e",
        "ff"
      ],
      [
        "f",
        "re"
      ],
      [
        "f",
        "e_"
      ],
      [
        "f",
        "ul"
      ],
      [
        "g",
        "nore"
      ],
      [
        "h",
        "ex"
      ],
      [
        "h",
        "and"
      ],
      [
        "h",
        "ap"
      ],
      [
        "h",
        "ig"
      ],
      [
        "h",
        "lib"
      ],
      [
        "h",
        "[⟪:"
      ],
      [
        "i",
        "o"
      ],
      [
        "i",
        "de"
      ],
      [
        "j",
        "p"
      ],
      [
        "j",
        "u"
      ],
      [
        "k",
        "er"
      ],
      [
        "k",
        "ip"
      ],
      [
        "k",
        ":v"
      ],
      [
        "l",
        "_p"
      ],
      [
        "m",
        "s:i"
      ],
      [
        "m",
        "il"
      ],
      [
        "n",
        "ext"
      ],
      [
        "o",
        "se"
      ],
      [
        "o",
        "t_"
      ],
      [
        "o",
        ":i"
      ],
      [
        "o",
        "si"
      ],
      [
        "p",
        "ip"
      ],
      [
        "p",
        "th"
      ],
      [
        "p",
        "tion"
      ],
      [
        "p",
        "ipe"
      ],
      [
        "r",
        "u"
      ],
      [
        "r",
        "an"
      ],
      [
        "s",
        "∈"
      ],
      [
        "s",
        "ent"
      ],
      [
        "s",
        "ing"
      ],
      [
        "s",
        "),"
      ],
      [
        "s",
        "av"
      ],
      [
        "s",
        ":f"
      ],
      [
        "s",
        "ider"
      ],
      [
        "s",
        "']"
      ],
      [
        "s",
        "s',"
      ],
      [
        "s",
        "hap"
      ],
      [
        "s",
        "kip"
      ],
      [
        "t",
        "p"
      ],
      [
        "t",
        "re"
      ],
      [
        "t",
        "',"
      ],
      [
        "t",
        "mp"
      ],
      [
        "t",
        "ure"
      ],
      [
        "u",
        "de"
      ],
      [
        "u",
        "es"
      ],
      [
        "v",
        "≠"
      ],
      [
        "v",
        "env"
      ],
      [
        "v",
        "env',"
      ],
      [
        "w",
        "ard"
      ],
      [
        "w",
        "ire"
      ],
      [
        "x",
        "'}⟫)"
      ],
      [
        "x",
        "t',"
      ],
      [
        "y",
        "el"
      ],
      [
        "y",
        "cach"
      ],
      [
        "{",
        "'"
      ],
      [
        "{",
        "exc"
      ],
      [
        "|",
        "--------"
      ],
      [
        "}",
        ")"
      ],
      [
        "∅",
        "})"
      ],
      [
        "∈",
        "re"
      ],
      [
        "⟦",
        "chain[\""
      ],
      [
        "⟧",
        "\\n\\n##"
      ],
      [
        "⟨",
        "config"
      ],
      [
        "⟨",
        "candidate_id"
      ],
      [
        "⟨",
        "report"
      ],
      [
        "⟨",
        "project_dir"
      ],
      [
        "⟨",
        "⟩→[_]"
      ],
      [
        "⟨",
        "url:s"
      ],
      [
        "⟨",
        "file:s"
      ],
      [
        "er",
        "er"
      ],
      [
        "er",
        "(("
      ],
      [
        "er",
        "=subparsers.add_parser(\""
      ],
      [
        "on",
        "ic"
      ],
      [
        "on",
        "_con"
      ],
      [
        "re",
        "ad"
      ],
      [
        "re",
        "ctory"
      ],
      [
        "re",
        "sp"
      ],
      [
        "\",",
        "[\""
      ],
      [
        "\",",
        "encoding=\"utf-8\")"
      ],
      [
        "\",",
        "src)"
      ],
      [
        "\",",
        "1)"
      ],
      [
        "in",
        "ts"
      ],
      [
        "in",
        "stan"
      ],
      [
        "in",
        "stall"
      ],
      [
        "or",
        "t_"
      ],
      [
        "or",
        "t("
      ],
      [
        "or",
        "ary"
      ],
      [
        "st",
        "at"
      ],
      [
        "st",
        "s:[s]"
      ],
      [
        "st",
        "em"
      ],
      [
        "en",
        "for"
      ],
      [
        "en",
        "code"
      ],
      [
        "en",
        "o:i"
      ],
      [
        "\",\"",
        "##"
      ],
      [
        "\",\"",
        "types"
      ],
      [
        "\",\"",
        "javascript"
      ],
      [
        "se",
        "e"
      ],
      [
        "ro",
        "le"
      ],
      [
        "an",
        "el"
      ],
      [
        "co",
        "mmandsmith"
      ],
      [
        "di",
        "st"
      ],
      [
        "di",
        "rectory"
      ],
      [
        "ti",
        "gnore"
      ],
      [
        "ch",
        "it"
      ],
      [
        "con",
        "stants"
      ],
      [
        "con",
        "sider"
      ],
      [
        "\\n",
        "\""
      ],
      [
        "\\n",
        "\",1)"
      ],
      [
        "'.",
        "/"
      ],
      [
        "'.",
        "g"
      ],
      [
        "'.",
        "t"
      ],
      [
        "'.",
        "y"
      ],
      [
        "'.",
        "mp"
      ],
      [
        "'.",
        "js"
      ],
      [
        "'.",
        "py"
      ],
      [
        "'.",
        "wr"
      ],
      [
        "'.",
        "wo"
      ],
      [
        "'.",
        "env',"
      ],
      [
        "'.",
        "json',"
      ],
      [
        "'.",
        "jp"
      ],
      [
        "d_",
        "types"
      ],
      [
        "d_",
        "names"
      ],
      [
        "d_",
        "lineage"
      ],
      [
        "es",
        "',"
      ],
      [
        "it",
        "',"
      ],
      [
        "it",
        "ted"
      ],
      [
        "fi",
        "g"
      ],
      [
        "fi",
        "rst"
      ],
      [
        "fi",
        "le_"
      ],
      [
        "mp",
        ")"
      ],
      [
        "mp",
        "file"
      ],
      [
        "mp",
        "_required"
      ],
      [
        "ex",
        "tra"
      ],
      [
        "er_",
        "arg"
      ],
      [
        "e_",
        "_"
      ],
      [
        "t_",
        "consider"
      ],
      [
        "ts",
        ":[s]"
      ],
      [
        "\"]",
        "=f"
      ],
      [
        "yp",
        "y_"
      ],
      [
        "s]",
        "\",\""
      ],
      [
        "(\"",
        "utf-8\")"
      ],
      [
        "(\"",
        "\\n\",1)"
      ],
      [
        "card",
        "s:[_]"
      ],
      [
        "er.",
        "\",\""
      ],
      [
        "er.",
        "json"
      ],
      [
        "ad",
        "d"
      ],
      [
        "package",
        ":_"
      ],
      [
        "package",
        "_name"
      ],
      [
        "lo",
        "at("
      ],
      [
        "t.",
        "parent.mkdir(parents=true,exist_ok=true)"
      ],
      [
        "dic",
        "t"
      ],
      [
        "tr",
        "anscript"
      ],
      [
        "self",
        "_as"
      ],
      [
        "ed",
        ":i"
      ],
      [
        "sy",
        "n"
      ],
      [
        "ver",
        "b_signature"
      ],
      [
        "sco",
        "de"
      ],
      [
        "--",
        "provider"
      ],
      [
        "--",
        "consumer-args"
      ],
      [
        "is",
        "_"
      ],
      [
        "is",
        "ion"
      ],
      [
        "is",
        "instan"
      ],
      [
        "json",
        "-out',"
      ],
      [
        "_co",
        "unt"
      ],
      [
        "dir",
        ":s"
      ],
      [
        "name",
        ","
      ],
      [
        "name",
        "⟧"
      ],
      [
        "forge",
        "_se"
      ],
      [
        ").",
        "')]"
      ],
      [
        ").",
        "hex"
      ],
      [
        "to",
        "_tier:s"
      ],
      [
        "defaul",
        "t"
      ],
      [
        "⟪{",
        "}⟫"
      ],
      [
        "⟪{",
        "'a"
      ],
      [
        "⟪{",
        "}⟫)"
      ],
      [
        "producer",
        ","
      ],
      [
        "producer",
        ":s"
      ],
      [
        "consumer",
        ","
      ],
      [
        "consumer",
        ":s"
      ],
      [
        "cript",
        "'"
      ],
      [
        "None",
        ")"
      ],
      [
        "None",
        ")\",\""
      ],
      [
        "pl",
        "ace"
      ],
      [
        "chain",
        "_coun"
      ],
      [
        "sul",
        "t"
      ],
      [
        "ha",
        "vi"
      ],
      [
        "ha",
        "25"
      ],
      [
        "s.",
        "Co"
      ],
      [
        "la",
        "yout"
      ],
      [
        "la",
        "ude"
      ],
      [
        "T_",
        "FIL"
      ],
      [
        "T_",
        "TE"
      ],
      [
        "T_",
        "RE.sub(\""
      ],
      [
        "ot",
        "onic"
      ],
      [
        "pars",
        "er."
      ],
      [
        "pars",
        "er.set_defaults(func=args↦print("
      ],
      [
        "cal",
        "lable"
      ],
      [
        "ig",
        "no"
      ],
      [
        "ig",
        "nore"
      ],
      [
        "pa",
        "ir"
      ],
      [
        "didat",
        "eCard"
      ],
      [
        "\\n\\n",
        "⟦"
      ],
      [
        "rend",
        "erer"
      ],
      [
        "='",
        "utf-8"
      ],
      [
        "='",
        "synergy"
      ],
      [
        "el",
        "se"
      ],
      [
        "lin",
        "eno:i"
      ],
      [
        "help",
        "_text:s"
      ],
      [
        "render_",
        "test"
      ],
      [
        "path",
        ":s"
      ],
      [
        "vi",
        "a"
      ],
      [
        "wr",
        "app"
      ],
      [
        "inv",
        "=co"
      ],
      [
        "'a",
        "uto"
      ],
      [
        "'a",
        "4_sy_orchestration"
      ],
      [
        "'a",
        "1_at_function"
      ],
      [
        "'a",
        "3_og_feature"
      ],
      [
        "'a",
        "2_mo_composites"
      ],
      [
        "doc",
        "_token"
      ],
      [
        "doc",
        "?doc"
      ],
      [
        "fe",
        "ed"
      ],
      [
        "up",
        "ward"
      ],
      [
        "add_",
        "parser.add_argument"
      ],
      [
        "Co",
        "mp"
      ],
      [
        "orchestr",
        "ator"
      ],
      [
        "\".",
        "atomadic-forge\""
      ],
      [
        "ic",
        "e"
      ],
      [
        "⟪{'",
        "available"
      ],
      [
        "4_",
        "project_"
      ],
      [
        "_o",
        "f"
      ],
      [
        "em",
        "itted"
      ],
      [
        "po",
        "ints"
      ],
      [
        "cho",
        "ice"
      ],
      [
        "exc",
        "\",\""
      ],
      [
        "exc",
        ":\",\""
      ],
      [
        "type",
        ":"
      ],
      [
        "tier_",
        "inventory"
      ],
      [
        "strip",
        "()"
      ],
      [
        "⟨self:",
        "ManifestStore"
      ],
      [
        "_c",
        "ache',"
      ],
      [
        "_c",
        "ache/\\n."
      ],
      [
        "cur",
        "_prefix"
      ],
      [
        "gi",
        "st"
      ],
      [
        "gi",
        "tignore"
      ],
      [
        "unt",
        "er(("
      ],
      [
        "from",
        "_tier:s"
      ],
      [
        "```",
        "\\n\\n##"
      ],
      [
        "```",
        "\",\"\",s\""
      ],
      [
        "import",
        "able"
      ],
      [
        "False",
        "}⟫"
      ],
      [
        "json.dumps(",
        "entry"
      ],
      [
        "_render_",
        "shared_schema"
      ],
      [
        "_render_",
        "json_artifact"
      ],
      [
        "_render_",
        "in_memory_pipe"
      ],
      [
        "atomadic_",
        "forge_se"
      ],
      [
        "⟦card[\"consumer\"]⟧",
        ",\",\""
      ],
      [
        "time.",
        "mon"
      ],
      [
        "catalog",
        "))"
      ],
      [
        "catalog",
        "_size"
      ],
      [
        "function",
        "s:[s]"
      ],
      [
        "final",
        "_output"
      ],
      [
        "final",
        "ize"
      ],
      [
        "encoding",
        "='utf-8"
      ],
      [
        "(card",
        "s)"
      ],
      [
        ".s",
        "ha25"
      ],
      [
        "a4_sy_orchestration",
        "/`"
      ],
      [
        "generat",
        "ed"
      ],
      [
        "has",
        "_clas"
      ],
      [
        "smo",
        "ke"
      ],
      [
        "'.m",
        "d',"
      ],
      [
        "modu",
        "les"
      ],
      [
        "_pre",
        "sent"
      ],
      [
        "result.",
        "score_trajectory"
      ],
      [
        "python",
        "\",\"javascript"
      ],
      [
        "\".join(",
        "chain[\""
      ],
      [
        "De",
        "mo"
      ],
      [
        "Rep",
        "ort("
      ],
      [
        "_fi",
        "rst"
      ],
      [
        "_fi",
        "les"
      ],
      [
        "_fi",
        "le_"
      ],
      [
        "ire",
        "_pure"
      ],
      [
        "open",
        "(\"a"
      ],
      [
        "ang",
        "ler"
      ],
      [
        "str(",
        "SRC"
      ],
      [
        "local",
        "_cfg"
      ],
      [
        "default_",
        "exp"
      ],
      [
        "source_",
        "repo"
      ],
      [
        "\"+",
        "result."
      ],
      [
        "1_",
        "provider"
      ],
      [
        "manifest",
        "="
      ],
      [
        "commands",
        "_dir"
      ],
      [
        "commands",
        "=card"
      ],
      [
        "(\"a",
        "0_qk_constants"
      ],
      [
        "_pars",
        "er.set_defaults(func=args↦print("
      ],
      [
        "_pars",
        "er=subparsers.add_parser(\""
      ],
      [
        "typer.secho(",
        "'producer"
      ],
      [
        "fg='",
        "yel"
      ],
      [
        "atomadic_forge.",
        "commands"
      ],
      [
        "'}",
        ")}⟫"
      ],
      [
        "'producer",
        "':"
      ],
      [
        "(targe",
        "t=self."
      ],
      [
        "(targe",
        "t.parent.mkdir(parents=true,exist_ok=true)"
      ],
      [
        "Con",
        "fig"
      ],
      [
        "Re",
        "sult"
      ],
      [
        "d(",
        "⟪{'schema_version':"
      ],
      [
        "i_ke",
        "y"
      ],
      [
        "multiply",
        "_parser.add_argument"
      ],
      [
        "pr",
        "iv"
      ],
      [
        "par",
        "se"
      ],
      [
        "t:s",
        "⟩→s"
      ],
      [
        "requ",
        "ire_pure"
      ],
      [
        "report",
        ",indent=2,default=str),encoding=\"utf-8\")"
      ],
      [
        "command",
        ".')]"
      ],
      [
        "divide",
        "_parser.add_argument"
      ],
      [
        "low",
        "',"
      ],
      [
        "subtrac",
        "t"
      ],
      [
        "score_",
        "bre"
      ],
      [
        "self._",
        "raw_appen"
      ],
      [
        "erry",
        "Pic"
      ],
      [
        ")+\"\\n\")",
        ")"
      ],
      [
        "TranscriptLog",
        "._"
      ],
      [
        "(t",
        "ag"
      ],
      [
        "(t",
        "mp)"
      ],
      [
        "(config",
        "[\"provider\"]"
      ],
      [
        ",indent=2",
        "),encoding=\"utf-8\")"
      ],
      [
        "An",
        "thropic"
      ],
      [
        "LA",
        "TE"
      ],
      [
        "LO",
        "BAL_CONFIG_DIR"
      ],
      [
        "St",
        "ep"
      ],
      [
        "lang",
        "_la"
      ],
      [
        "s\",\"",
        "a4_sy_orchestration"
      ],
      [
        "s\",\"",
        "a2_mo_composites"
      ],
      [
        "∨\"",
        "("
      ],
      [
        "⟨src",
        ":s"
      ],
      [
        "⟨src",
        ":s⟩→s"
      ],
      [
        "⟨src",
        "_root:_"
      ],
      [
        "main",
        "`"
      ],
      [
        "'.c",
        "js',"
      ],
      [
        "project_dir",
        "/LOCAL_CONFIG_DIR"
      ],
      [
        "⟦card[\"producer\"]⟧,",
        "\",s\""
      ],
      [
        "1_at_function",
        "s/`"
      ],
      [
        "1_at_function",
        "s\",\"a2_mo_composites"
      ],
      [
        "typer.secho(f",
        "'consumer"
      ],
      [
        "shared_",
        "vocabulary"
      ],
      [
        "payload",
        ".get("
      ],
      [
        "'-m',",
        "\",\""
      ],
      [
        "3_og_feature",
        "s/`"
      ],
      [
        "3_og_feature",
        "s\",\"a4_sy_orchestration"
      ],
      [
        "duration_",
        "ms:i"
      ],
      [
        "global",
        "_"
      ],
      [
        "global",
        "_cfg"
      ],
      [
        "2_mo_composites",
        "/`"
      ],
      [
        "0_qk_constants",
        "':"
      ],
      [
        "0_qk_constants",
        "/`"
      ],
      [
        "Path",
        "(tmp)"
      ],
      [
        "_P",
        "RESETS"
      ],
      [
        "be",
        "fo"
      ],
      [
        "be",
        "havi"
      ],
      [
        "clas",
        "ses"
      ],
      [
        "e(",
        "json.dumps(entry"
      ],
      [
        "pas",
        "se"
      ],
      [
        "te",
        "mpfile"
      ],
      [
        "state",
        "ful"
      ],
      [
        "\",\"\",\"",
        "##"
      ],
      [
        "segment",
        "∈IGNORED_DIRS"
      ],
      [
        "'.s",
        "v"
      ],
      [
        "fiel",
        "d_types"
      ],
      [
        "lib",
        "."
      ],
[...]
