{
  "version": "1.0",
  "truncation": null,
  "padding": null,
  "added_tokens": [
    {
      "id": 0,
      "content": "[PAD]",
      "single_word": false,
      "lstrip": false,
      "rstrip": false,
      "normalized": false,
      "special": true
    },
    {
      "id": 1,
      "content": "[UNK]",
      "single_word": false,
      "lstrip": false,
      "rstrip": false,
      "normalized": false,
      "special": true
    },
    {
      "id": 2,
      "content": "[BOS]",
      "single_word": false,
      "lstrip": false,
      "rstrip": false,
      "normalized": false,
      "special": true
    },
    {
      "id": 3,
      "content": "[EOS]",
      "single_word": false,
      "lstrip": false,
      "rstrip": false,
      "normalized": false,
      "special": true
    },
    {
      "id": 4,
      "content": "[MASK]",
      "single_word": false,
      "lstrip": false,
      "rstrip": false,
      "normalized": false,
      "special": true
    },
    {
      "id": 5,
      "content": "[STRUCTURAL_OPEN]",
      "single_word": false,
      "lstrip": false,
      "rstrip": false,
      "normalized": false,
      "special": true
    },
    {
      "id": 6,
      "content": "[STRUCTURAL_CLOSE]",
      "single_word": false,
      "lstrip": false,
      "rstrip": false,
      "normalized": false,
      "special": true
    }
  ],
  "normalizer": null,
  "pre_tokenizer": {
    "type": "Whitespace"
  },
  "post_processor": null,
  "decoder": null,
  "model": {
    "type": "BPE",
    "dropout": null,
    "unk_token": "[UNK]",
    "continuing_subword_prefix": null,
    "end_of_word_suffix": null,
    "fuse_unk": false,
    "byte_fallback": false,
    "ignore_merges": false,
    "vocab": {
      "[PAD]": 0,
      "[UNK]": 1,
      "[BOS]": 2,
      "[EOS]": 3,
      "[MASK]": 4,
      "[STRUCTURAL_OPEN]": 5,
      "[STRUCTURAL_CLOSE]": 6,
      "!": 7,
      "\"": 8,
      "#": 9,
      "$": 10,
      "'": 11,
      "(": 12,
      ")": 13,
      "*": 14,
      "+": 15,
      ",": 16,
      "-": 17,
      ".": 18,
      "/": 19,
      "0": 20,
      "1": 21,
      "2": 22,
      "3": 23,
      "4": 24,
      "5": 25,
      "6": 26,
      "7": 27,
      "8": 28,
      "9": 29,
      ":": 30,
      ";": 31,
      "=": 32,
      ">": 33,
      "?": 34,
      "@": 35,
      "A": 36,
      "B": 37,
      "C": 38,
      "D": 39,
      "E": 40,
      "F": 41,
      "G": 42,
      "H": 43,
      "I": 44,
      "J": 45,
      "K": 46,
      "L": 47,
      "M": 48,
      "N": 49,
      "O": 50,
      "P": 51,
      "R": 52,
      "S": 53,
      "T": 54,
      "U": 55,
      "V": 56,
      "W": 57,
      "X": 58,
      "Y": 59,
      "Z": 60,
      "[": 61,
      "\\": 62,
      "]": 63,
      "^": 64,
      "_": 65,
      "`": 66,
      "a": 67,
      "b": 68,
      "c": 69,
      "d": 70,
      "e": 71,
      "f": 72,
      "g": 73,
      "h": 74,
      "i": 75,
      "j": 76,
      "k": 77,
      "l": 78,
      "m": 79,
      "n": 80,
      "o": 81,
      "p": 82,
      "q": 83,
      "r": 84,
      "s": 85,
      "t": 86,
      "u": 87,
      "v": 88,
      "w": 89,
      "x": 90,
      "y": 91,
      "z": 92,
      "{": 93,
      "|": 94,
      "}": 95,
      "~": 96,
      "¬": 97,
      "ι": 98,
      "λ": 99,
      "π": 100,
      "σ": 101,
      "ω": 102,
      "–": 103,
      "—": 104,
      "→": 105,
      "↦": 106,
      "⇒": 107,
      "∅": 108,
      "∈": 109,
      "∉": 110,
      "∧": 111,
      "∨": 112,
      "≟": 113,
      "≠": 114,
      "≤": 115,
      "≥": 116,
      "▷": 117,
      "✓": 118,
      "⟦": 119,
      "⟧": 120,
      "⟨": 121,
      "⟩": 122,
      "⟪": 123,
      "⟫": 124,
      "er": 125,
      "on": 126,
      "re": 127,
      "at": 128,
      "\",": 129,
      "in": 130,
      "ar": 131,
      "or": 132,
      "st": 133,
      "en": 134,
      "ge": 135,
      "\",\"": 136,
      "se": 137,
      "ro": 138,
      "',": 139,
      "an": 140,
      "co": 141,
      "ut": 142,
      "de": 143,
      "di": 144,
      "ti": 145,
      "ch": 146,
      "con": 147,
      "':": 148,
      "al": 149,
      "su": 150,
      "ma": 151,
      "'.": 152,
      "pro": 153,
      "ac": 154,
      "d_": 155,
      "es": 156,
      "\\\"": 157,
      "it": 158,
      "un": 159,
      "ent": 160,
      "fi": 161,
      "ur": 162,
      "str": 163,
      "du": 164,
      "me": 165,
      "mp": 166,
      "ex": 167,
      ":[": 168,
      "ion": 169,
      "⟩→": 170,
      "er_": 171,
      "e_": 172,
      "t_": 173,
      "ard": 174,
      "\")": 175,
      "mo": 176,
      "ts": 177,
      "age": 178,
      "for": 179,
      "yp": 180,
      "che": 181,
      "1π": 182,
      "ip": 183,
      "le": 184,
      "as": 185,
      "dat": 186,
      "typ": 187,
      "(\"": 188,
      "rc": 189,
      "ack": 190,
      "gs": 191,
      "card": 192,
      "mm": 193,
      "ec": 194,
      "li": 195,
      "produ": 196,
      "produc": 197,
      "js": 198,
      "ul": 199,
      "))": 200,
      "oma": 201,
      "ad": 202,
      "and": 203,
      "ackage": 204,
      "mer": 205,
      "package": 206,
      "ure": 207,
      "ap": 208,
      "lo": 209,
      "no": 210,
      "dic": 211,
      "he": 212,
      "lf": 213,
      "out": 214,
      "tr": 215,
      "self": 216,
      "ed": 217,
      "_p": 218,
      "args": 219,
      "get": 220,
      "consu": 221,
      "na": 222,
      "sy": 223,
      "ver": 224,
      "mmand": 225,
      "can": 226,
      "est": 227,
      "id": 228,
      "sco": 229,
      "--": 230,
      "fa": 231,
      "if": 232,
      "is": 233,
      "json": 234,
      "=\"": 235,
      "_co": 236,
      "dir": 237,
      "name": 238,
      "ort": 239,
      "confi": 240,
      "faul": 241,
      "ser": 242,
      "sche": 243,
      "tar": 244,
      "one": 245,
      "forge": 246,
      ").": 247,
      ")\",\"": 248,
      "cr": 249,
      "ren": 250,
      "schema": 251,
      "src": 252,
      "to": 253,
      "ue": 254,
      "arser": 255,
      "defaul": 256,
      "sub": 257,
      "producer": 258,
      "omadic": 259,
      "crip": 260,
      "]⟧": 261,
      "put": 262,
      "ation": 263,
      "config": 264,
      "\"]": 265,
      "[\\\"": 266,
      "}⟫": 267,
      "⟪{": 268,
      "ath": 269,
      "ind": 270,
      "ing": 271,
      "typer": 272,
      "consumer": 273,
      "[\"": 274,
      "\\\"]⟧": 275,
      "cript": 276,
      "None": 277,
      "ain": 278,
      "fro": 279,
      "sion": 280,
      "um": 281,
      "atomadic": 282,
      "set": 283,
      "score": 284,
      "FI": 285,
      "ON": 286,
      "oc": 287,
      "bo": 288,
      "og": 289,
      "pl": 290,
      "run": 291,
      "int": 292,
      "chain": 293,
      "sul": 294,
      "),": 295,
      "Tr": 296,
      "``": 297,
      "ed_": 298,
      "fac": 299,
      "ha": 300,
      "th": 301,
      "output": 302,
      "target": 303,
      "schema_": 304,
      "ep": 305,
      "jec": 306,
      "la": 307,
      "tur": 308,
      "resul": 309,
      "ory": 310,
      "ith": 311,
      "ext": 312,
      "3ω": 313,
      "T_": 314,
      "ot": 315,
      "parser": 316,
      "ature": 317,
      "tion": 318,
      "turn": 319,
      "cal": 320,
      "cli": 321,
      "ig": 322,
      "pa": 323,
      "didat": 324,
      "tier": 325,
      "version": 326,
      "mmands": 327,
      "rend": 328,
      "='": 329,
      "_d": 330,
      "av": 331,
      "el": 332,
      "err": 333,
      "arti": 334,
      "utc": 335,
      "schema_version": 336,
      "artifac": 337,
      "()": 338,
      "**": 339,
      "TS": 340,
      "]]": 341,
      "ds": 342,
      "imp": 343,
      "lp": 344,
      "lin": 345,
      "ner": 346,
      "py": 347,
      "so": 348,
      "code": 349,
      "help": 350,
      "candidat": 351,
      "render_": 352,
      ":\",\"": 353,
      "CON": 354,
      "[[": 355,
      "_dir": 356,
      "ct": 357,
      "ke": 358,
      "pen": 359,
      "path": 360,
      "vi": 361,
      "wr": 362,
      "inv": 363,
      "root": 364,
      "demo": 365,
      "time": 366,
      "er_args": 367,
      "ply": 368,
      "nerg": 369,
      "+\"": 370,
      "ai": 371,
      "doc": 372,
      "fe": 373,
      "text": 374,
      "up": 375,
      "return": 376,
      "anif": 377,
      "urc": 378,
      "add_": 379,
      "⟪{'": 380,
      "FIG": 381,
      "CONFIG": 382,
      "anifest": 383,
      "\"\"": 384,
      ",\",\"": 385,
      "Co": 386,
      "EX": 387,
      "cat": 388,
      "dy": 389,
      "fun": 390,
      "ol": 391,
      "pre": 392,
      "test": 393,
      "y_": 394,
      "orche": 395,
      "\\\"\\\"": 396,
      "url": 397,
      "omain": 398,
      "True": 399,
      "artifact": 400,
      "sourc": 401,
      "func": 402,
      "orchestr": 403,
      "Er": 404,
      "_ap": 405,
      "ble": 406,
      "ic": 407,
      "md_": 408,
      "ror": 409,
      "zen": 410,
      "red": 411,
      "uto": 412,
      "del": 413,
      "unt": 414,
      "model": 415,
      "date": 416,
      "frozen": 417,
      "body": 418,
      "ign": 419,
      "nergy": 420,
      "Error": 421,
      "frozenset": 422,
      "4_": 423,
      "_o": 424,
      "_demo": 425,
      "em": 426,
      "mes": 427,
      "po": 428,
      "at_": 429,
      "utf": 430,
      "cho": 431,
      "projec": 432,
      "exc": 433,
      "type": 434,
      "ider": 435,
      "}⟫)": 436,
      "result": 437,
      "tions": 438,
      "cli_demo": 439,
      "_dt": 440,
      "writ": 441,
      "EXTS": 442,
      "\".": 443,
      "({": 444,
      "auto": 445,
      "domain": 446,
      "fg": 447,
      "kind": 448,
      "erat": 449,
      "ate": 450,
      "enerat": 451,
      "get_": 452,
      "tier_": 453,
      "fix": 454,
      "strip": 455,
      "not": 456,
      "ument": 457,
      "feature": 458,
      "project_": 459,
      "Fal": 460,
      "RE": 461,
      "Scan": 462,
      "_c": 463,
      "_orchestr": 464,
      "a4_": 465,
      "ber": 466,
      "cur": 467,
      "cmd_": 468,
      "fin": 469,
      "gi": 470,
      "gument": 471,
      "ke_": 472,
      "num": 473,
      "∅)": 474,
      "cod": 475,
      "dump": 476,
      "producer_args": 477,
      "true": 478,
      "sy_orchestr": 479,
      "default": 480,
      "from": 481,
      "```": 482,
      "hase": 483,
      "import": 484,
      "write_": 485,
      "False": 486,
      "a4_sy_orchestr": 487,
      "number": 488,
      "dumps": 489,
      "a4_sy_orchestration": 490,
      "##": 491,
      "/`": 492,
      "Cli": 493,
      "Ex": 494,
      "LL": 495,
      "Sy": 496,
      "]⟩": 497,
      "_st": 498,
      "_render_": 499,
      "_ke": 500,
      "len": 501,
      "mith": 502,
      "phase": 503,
      "qu": 504,
      "si": 505,
      "vider": 506,
      "with": 507,
      "⟨⟩→": 508,
      "env": 509,
      "encod": 510,
      "commands": 511,
      "alog": 512,
      "form": 513,
      "ass": 514,
      "----": 515,
      "_comp": 516,
      "\"])": 517,
      "\\\"]⟧,": 518,
      "atomadic_": 519,
      "paren": 520,
      "line": 521,
      "returncode": 522,
      "catalog": 523,
      "preset": 524,
      "final": 525,
      "Client": 526,
      "encoding": 527,
      "]\",\"": 528,
      "_con": 529,
      "bal": 530,
      "generat": 531,
      "has": 532,
      "jo": 533,
      "pec": 534,
      "port": 535,
      "rai": 536,
      "smo": 537,
      "the": 538,
      "stan": 539,
      "provider": 540,
      "ess": 541,
      "modu": 542,
      "types": 543,
      "cards": 544,
      "apt": 545,
      "load": 546,
      "now": 547,
      "trac": 548,
      "_pre": 549,
      "consum": 550,
      "defaults": 551,
      "indent": 552,
      "chains": 553,
      "thon": 554,
      "python": 555,
      "candidate_": 556,
      "CONFIG_": 557,
      "source_": 558,
      "functions": 559,
      "Exit": 560,
      "format": 561,
      "atomadic_forge": 562,
      "join": 563,
      "raise": 564,
      "().": 565,
      "Ar": 566,
      "Card": 567,
      "DE": 568,
      "DI": 569,
      "De": 570,
      "Manifest": 571,
      "Rep": 572,
      "_fi": 573,
      "_root": 574,
      "ad_": 575,
      "able": 576,
      "ire": 577,
      "jav": 578,
      "open": 579,
      "oformat": 580,
      "rst": 581,
      "script": 582,
      "sha": 583,
      "ary": 584,
      "ses": 585,
      "secon": 586,
      "ang": 587,
      "anscript": 588,
      "times": 589,
      "ascript": 590,
      "app": 591,
      "local": 592,
      "head": 593,
      "tra": 594,
      "sys": 595,
      "isoformat": 596,
      "_count": 597,
      "target_": 598,
      "default_": 599,
      "ject": 600,
      "lama": 601,
      "call": 602,
      "mmandsmith": 603,
      "candidates": 604,
      "Commandsmith": 605,
      "datetime": 606,
      "features": 607,
      "cur_": 608,
      "LLM": 609,
      "DIR": 610,
      "Report": 611,
      "javascript": 612,
      "seconds": 613,
      "timespec": 614,
      "\"+": 615,
      "')": 616,
      "(⟪{": 617,
      ".\",\"": 618,
      "1_": 619,
      "2_": 620,
      "AU": 621,
      "ES": 622,
      "FAU": 623,
      "LT_": 624,
      "_output": 625,
      "a0": 626,
      "a3": 627,
      "ache": 628,
      "gent": 629,
      "ist": 630,
      "ment": 631,
      "mis": 632,
      "mbo": 633,
      "manifest": 634,
      "tent": 635,
      "v1": 636,
      "},": 637,
      "}',": 638,
      "argument": 639,
      "orts": 640,
      "ged": 641,
      "secho": 642,
      "tiply": 643,
      "string": 644,
      "dates": 645,
      "ultiply": 646,
      "mergent": 647,
      "dict": 648,
      "_parser": 649,
      "_command": 650,
      "FIL": 651,
      "run_": 652,
      "ed_at_": 653,
      "results": 654,
      "ctx": 655,
      "vide": 656,
      "invo": 657,
      "updates": 658,
      "add_parser": 659,
      "add_argument": 660,
      "tests": 661,
      "\\\"\\\"\\\"": 662,
      "ignature": 663,
      "gistr": 664,
      "ke_results": 665,
      "Synergy": 666,
      "generated_at_": 667,
      "smoke_results": 668,
      "stants": 669,
      "typescript": 670,
      "candidate_id": 671,
      "DEFAU": 672,
      "jectory": 673,
      "mbol": 674,
      "generated_at_utc": 675,
      "DEFAULT_": 676,
      "'}": 677,
      "'}⟫)": 678,
      "((": 679,
      "(\",\"": 680,
      ")+\"": 681,
      "Con": 682,
      "E_": 683,
      "Emergent": 684,
      "For": 685,
      "Log": 686,
      "RI": 687,
      "Re": 688,
      "_s": 689,
      "_tier": 690,
      "_features": 691,
      "cess": 692,
      "capt": 693,
      "ff": 694,
      "fn": 695,
      "ifi": 696,
      "i_ke": 697,
      "multiply": 698,
      "pr": 699,
      "par": 700,
      "pure": 701,
      "ted": 702,
      "ub": 703,
      "red_": 704,
      "requ": 705,
      "report": 706,
      "divide": 707,
      "all": 708,
      "promp": 709,
      "process": 710,
      "iter": 711,
      "unds": 712,
      "uration": 713,
      "exist": 714,
      "er_fn": 715,
      "list": 716,
      "low": 717,
      "node": 718,
      "synergy": 719,
      "subtrac": 720,
      "\"]=": 721,
      "score_": 722,
      "Transcript": 723,
      "T_EXTS": 724,
      "pay": 725,
      "erry": 726,
      "ollama": 727,
      "models": 728,
      "_step": 729,
      "module": 730,
      "_prefix": 731,
      "trajectory": 732,
      "target_score": 733,
      "(⟪{'.": 734,
      "gistry": 735,
      "DEFAULT_CONFIG": 736,
      "Forge": 737,
      "capture": 738,
      "TranscriptLog": 739,
      "!=": 740,
      "\"-": 741,
      "'-": 742,
      "())": 743,
      "00": 744,
      ":\",": 745,
      "AM": 746,
      "An": 747,
      "CRI": 748,
      "LA": 749,
      "LI": 750,
      "LO": 751,
      "Liter": 752,
      "NAM": 753,
      "PT_EXTS": 754,
      "RO": 755,
      "Se": 756,
      "St": 757,
      "Sto": 758,
      "[(\"": 759,
      "_P": 760,
      "_q": 761,
      "_og": 762,
      "_url": 763,
      "_promp": 764,
      "a1_": 765,
      "a2_": 766,
      "duration": 767,
      "glo": 768,
      "k_con": 769,
      "lang": 770,
      "ml": 771,
      "ms": 772,
      "min": 773,
      "mory": 774,
      "os": 775,
      "p_": 776,
      "pic": 777,
      "ry": 778,
      "vel": 779,
      "wo": 780,
      "ze": 781,
      "repo": 782,
      "read_": 783,
      "\",\"\",": 784,
      "rounds": 785,
      "',\",": 786,
      "command": 787,
      "ution": 788,
      "utable": 789,
      "main": 790,
      "ites": 791,
      "unifi": 792,
      "entry": 793,
      "file": 794,
      "memory": 795,
      "exit": 796,
      "exec": 797,
      "\")]": 798,
      "mo_comp": 799,
      "ipe": 800,
      "asses": 801,
      "data": 802,
      "))\",\"": 803,
      "_path": 804,
      "top_": 805,
      "subparser": 806,
      "subprocess": 807,
      "intent": 808,
      "ed_cli": 809,
      "lable": 810,
      "**:": 811,
      "imports": 812,
      "lines": 813,
      "sources": 814,
      "_omis": 815,
      "at_functions": 816,
      "cli_demo_": 817,
      "domain_": 818,
      "project_dir": 819,
      "cmd_a": 820,
      "cmd_b": 821,
      "write_text": 822,
      "phase_omis": 823,
      "consumer_args": 824,
      "shared_": 825,
      "default_target_score": 826,
      "LLMClient": 827,
      "a0_q": 828,
      "a3_og": 829,
      "SynergyScan": 830,
      "EmergentScan": 831,
      "payload": 832,
      "capture_output": 833,
      "CRIPT_EXTS": 834,
      "Literal": 835,
      "Store": 836,
      "_prompt_": 837,
      "a1_at_functions": 838,
      "a2_mo_comp": 839,
      "global": 840,
      "k_constants": 841,
      "osites": 842,
      "unified_cli": 843,
      "executable": 844,
      "subparsers": 845,
      "phase_omission": 846,
      "a0_qk_constants": 847,
      "a3_og_features": 848,
      "a2_mo_composites": 849,
      "('": 850,
      "->": 851,
      "/\"+": 852,
      "AL": 853,
      "CLI": 854,
      "D_": 855,
      "Fi": 856,
      "JS": 857,
      "NO": 858,
      "Path": 859,
      "RC": 860,
      "Run": 861,
      "TE": 862,
      "]⟩→": 863,
      "_name": 864,
      "_artifact": 865,
      "_chains": 866,
      "_CONFIG_": 867,
      "aw": 868,
      "be": 869,
      "by": 870,
      "bas": 871,
      "back": 872,
      "bution": 873,
      "cl": 874,
      "ce_": 875,
      "fo": 876,
      "gment": 877,
      "ht": 878,
      "il": 879,
      "ired": 880,
      "ibution": 881,
      "kdir": 882,
      "ll": 883,
      "lat": 884,
      "les": 885,
      "le_": 886,
      "md": 887,
      "mon": 888,
      "mkdir": 889,
      "raw": 890,
      "sav": 891,
      "ta": 892,
      "te": 893,
      "uage": 894,
      "zone": 895,
      "⟧`": 896,
      "attr": 897,
      "ated": 898,
      "input": 899,
      "state": 900,
      "enc": 901,
      "\",\"\",\"": 902,
      "segment": 903,
      "ropic": 904,
      "comm": 905,
      "distr": 906,
      "cherry": 907,
      "content": 908,
      "item": 909,
      "ents": 910,
      "fiel": 911,
      "exp": 912,
      "⟩→[": 913,
      "lib": 914,
      ")))": 915,
      "package_prefix": 916,
      "apply": 917,
      "symbol": 918,
      "scout": 919,
      "json_artifact": 920,
      "plit": 921,
      "thropic": 922,
      "output_dir": 923,
      "pytest": 924,
      "ctory": 925,
      "timezone": 926,
      "docstring": 927,
      "update": 928,
      "catch": 929,
      "_appen": 930,
      "_apply": 931,
      "_api_ke": 932,
      "_ok": 933,
      "pose": 934,
      "auto_apply": 935,
      "project_root": 936,
      "_comple": 937,
      "parent": 938,
      "parents": 939,
      "has_": 940,
      "ManifestStore": 941,
      "headline": 942,
      "FILE_": 943,
      "'}),": 944,
      "print": 945,
      "exist_ok": 946,
      "score_trajectory": 947,
      "sources_dir": 948,
      "cli_demo_returncode": 949,
      "AL_CONFIG_": 950,
      "JSON": 951,
      "bash": 952,
      "distribution": 953,
      "items": 954,
      "AL_CONFIG_DIR": 955,
      "\"⟦": 956,
      "']": 957,
      "'}⟫": 958,
      "'),": 959,
      "([\"": 960,
      ")[": 961,
      ")]\",\"": 962,
      ":\"": 963,
      "AS": 964,
      "At": 965,
      "ER": 966,
      "G_": 967,
      "GNO": 968,
      "In": 969,
      "IGNO": 970,
      "SE": 971,
      "SRC": 972,
      "TI": 973,
      "YP": 974,
      "['": 975,
      "[]": 976,
      "_re": 977,
      "_id": 978,
      "_score": 979,
      "_turn": 980,
      "_EXTS": 981,
      "_bal": 982,
      "_head": 983,
      "_memory": 984,
      "`⟦": 985,
      "cle": 986,
      "cache": 987,
      "do": 988,
      "dout": 989,
      "echo": 990,
      "her": 991,
      "ir": 992,
      "iv": 993,
      "ked_": 994,
      "kdo": 995,
      "mar": 996,
      "sp": 997,
      "scan": 998,
      "split": 999,
      "tmp": 1000,
      "tec": 1001,
      "two": 1002,
      "venv": 1003,
      "wn": 1004,
      "war": 1005,
      "wor": 1006,
      "ers": 1007,
      "registry": 1008,
      "recomm": 1009,
      "inde": 1010,
      "in_memory": 1011,
      "arg": 1012,
      "end": 1013,
      "endat": 1014,
      "gest": 1015,
      "set_": 1016,
      "ros": 1017,
      "aned": 1018,
      "ance_": 1019,
      "count": 1020,
      "def": 1021,
      "detec": 1022,
      "cond": 1023,
      "conver": 1024,
      "alname": 1025,
      "align": 1026,
      "summ": 1027,
      "max": 1028,
      "propose": 1029,
      "und": 1030,
      "entory": 1031,
      "ions": 1032,
      "⟩→∅": 1033,
      "er_lines": 1034,
      "t_parser": 1035,
      "\")+\"": 1036,
      "level": 1037,
      "merge": 1038,
      "merged": 1039,
      "log": 1040,
      "nore": 1041,
      "out_command": 1042,
      "_pipe": 1043,
      "getattr": 1044,
      ")\",\"[": 1045,
      "subcommand": 1046,
      "ations": 1047,
      "\\\"]⟧,\",\"": 1048,
      "face": 1049,
      "schema_id": 1050,
      "extend": 1051,
      "avai": 1052,
      "error": 1053,
      "utcnow": 1054,
      "artifact_": 1055,
      "codeError": 1056,
      "inventory": 1057,
      "+\"/": 1058,
      "y_env": 1059,
      "y_ms": 1060,
      "excep": 1061,
      "cli_demo_st": 1062,
      "cli_demo_command": 1063,
      "({'": 1064,
      "({\",": 1065,
      "domains": 1066,
      "tier_distribution": 1067,
      "notated": 1068,
      "RED_": 1069,
      "_cl": 1070,
      "_cfg": 1071,
      "_cache": 1072,
      "ke_with": 1073,
      "numbers": 1074,
      "_key": 1075,
      "qualname": 1076,
      "\\\"]⟧,\",": 1077,
      "final_score": 1078,
      "loads": 1079,
      "CONFIG_FILE_": 1080,
      "Args": 1081,
      "Argument": 1082,
      "DecodeError": 1083,
      "open_id": 1084,
      "callback": 1085,
      "DIRS": 1086,
      "')]": 1087,
      "invoked_": 1088,
      "invoke_with": 1089,
      "\\\"\\\"\\\"\",\"": 1090,
      "Context": 1091,
      "multiply_parser": 1092,
      "required": 1093,
      "divide_parser": 1094,
      "subtract_parser": 1095,
      "Annotated": 1096,
      "LOC": 1097,
      "NAME": 1098,
      "ROO": 1099,
      "Second": 1100,
      "Stub": 1101,
      "_PRE": 1102,
      "duration_s": 1103,
      "language": 1104,
      "rounds_comple": 1105,
      "exited": 1106,
      "))\",\"\"])": 1107,
      "shared_schema": 1108,
      "_prompt_str": 1109,
      "First": 1110,
      "llm": 1111,
      "latenc": 1112,
      "inputs": 1113,
      "_api_key_env": 1114,
      "JSONDecodeError": 1115,
      "([\"@": 1116,
      "Atomadic": 1117,
      "IGNORED_": 1118,
      "_balance_": 1119,
      "_header_lines": 1120,
      "cleaned": 1121,
      "kdown": 1122,
      "recommendat": 1123,
      "index": 1124,
      "in_memory_pipe": 1125,
      "set_defaults": 1126,
      "converged": 1127,
      "summary": 1128,
      "proposed_": 1129,
      "available": 1130,
      "cli_demo_stdout": 1131,
      "CONFIG_FILE_NAME": 1132,
      "open_idx": 1133,
      "invoked_subcommand": 1134,
      "invoke_without_command": 1135,
      "rounds_completed": 1136,
      "latency_ms": 1137,
      "IGNORED_DIRS": 1138,
      "recommendations": 1139,
      "\"#": 1140,
      "\":\"": 1141,
      "'{": 1142,
      "(⟪{'": 1143,
      ")∈": 1144,
      ")∨": 1145,
      ")⟧": 1146,
      ",\"": 1147,
      ".\\\"\\\"\\\"\",\"": 1148,
      "100": 1149,
      "2σ": 1150,
      ":.": 1151,
      "=⟪{'": 1152,
      "?\"": 1153,
      "AA": 1154,
      "AI": 1155,
      "AV": 1156,
      "Ch": 1157,
      "Dire": 1158,
      "Generat": 1159,
      "HON": 1160,
      "Imp": 1161,
      "JAV": 1162,
      "OS": 1163,
      "PY": 1164,
      "Sco": 1165,
      "Sur": 1166,
      "Signature": 1167,
      "TYP": 1168,
      "THON": 1169,
      "Val": 1170,
      "[]\",\"": 1171,
      "_se": 1172,
      "_to": 1173,
      "_producer": 1174,
      "_consumer": 1175,
      "_utc": 1176,
      "_type": 1177,
      "_si": 1178,
      "_raw": 1179,
      "ab": 1180,
      "are": 1181,
      "ast": 1182,
      "ase": 1183,
      "adic": 1184,
      "bl": 1185,
      "base": 1186,
      "cer": 1187,
      "ctions": 1188,
      "cros": 1189,
      "ew": 1190,
      "ever": 1191,
      "fli": 1192,
      "find": 1193,
      "ies": 1194,
      "ize": 1195,
      "kg": 1196,
      "ker": 1197,
      "ken": 1198,
      "ly": 1199,
      "ler": 1200,
      "lle": 1201,
      "mjs": 1202,
      "pt": 1203,
      "per": 1204,
      "pass": 1205,
      "pkg": 1206,
      "sa": 1207,
      "scrip": 1208,
      "signature": 1209,
      "ve": 1210,
      "voc": 1211,
      "wh": 1212,
      "ys": 1213,
      "yout": 1214,
      "|----": 1215,
      "⟪:": 1216,
      "erme": 1217,
      "revi": 1218,
      "ator": 1219,
      "ini": 1220,
      "ings": 1221,
      "arc": 1222,
      "arts": 1223,
      "stat": 1224,
      "stall": 1225,
      "gemin": 1226,
      "',\",\"": 1227,
      "and_": 1228,
      "anthropic": 1229,
      "comp": 1230,
      "cover": 1231,
      "ded": 1232,
      "descrip": 1233,
      "disco": 1234,
      "diate": 1235,
      "digest": 1236,
      "tif": 1237,
      "ace": 1238,
      "meth": 1239,
      "export": 1240,
      "e_report": 1241,
      "\"))": 1242,
      "ts_utc": 1243,
      "forwar": 1244,
      "mments": 1245,
      "producer_fn": 1246,
      "ulary": 1247,
      "add": 1248,
      "adapt": 1249,
      "load_": 1250,
      "try": 1251,
      "_pure": 1252,
      "names": 1253,
      "synerg": 1254,
      "_comments": 1255,
      "src_root": 1256,
      "to_tier": 1257,
      "ueError": 1258,
      "config_fi": 1259,
      "\"],": 1260,
      "\\\"]⟧.\\\"\\\"\\\"\",\"": 1261,
      "ocstring": 1262,
      "interme": 1263,
      "this": 1264,
      "output_root": 1265,
      "_domain": 1266,
      "_docstring": 1267,
      "**{": 1268,
      "keys": 1269,
      "viol": 1270,
      ",\",\")": 1271,
      "Command": 1272,
      "prefix": 1273,
      "md_path": 1274,
      "excer": 1275,
      "({'.": 1276,
      "get_docstring": 1277,
      "tier_index": 1278,
      "strip_comments": 1279,
      "from_tier": 1280,
      "Symbol": 1281,
      "_render_phase_omission": 1282,
      "_render_json_artifact": 1283,
      "sibl": 1284,
      "lineage": 1285,
      "consumer_fn": 1286,
      "source_root": 1287,
      "Defaul": 1288,
      "ManifestCard": 1289,
      "openai": 1290,
      "calls": 1291,
      "cur_score": 1292,
      ".\",\"-": 1293,
      "ESCRIPT_EXTS": 1294,
      "manifest_dir": 1295,
      "run_id": 1296,
      "Registry": 1297,
      "parts": 1298,
      "lower": 1299,
      "subtract": 1300,
      "ollama_": 1301,
      "LAN": 1302,
      "read_text": 1303,
      "read_config_fi": 1304,
      "top_n": 1305,
      "top_level": 1306,
      "classes": 1307,
      "monadic": 1308,
      "tags": 1309,
      "⟧`\",": 1310,
      "symbol_count": 1311,
      "_append": 1312,
      "ASCRIPT_EXTS": 1313,
      "Intent": 1314,
      "SETS": 1315,
      "TIER": 1316,
      "work": 1317,
      "detect_": 1318,
      "alignment": 1319,
      "artifact_md_path": 1320,
      "except": 1321,
      "LOCAL_CONFIG_DIR": 1322,
      "StubLLMClient": 1323,
      "_PRESETS": 1324,
      ")∨\"\"": 1325,
      "Directory": 1326,
      "Generated": 1327,
      "JAVASCRIPT_EXTS": 1328,
      "OSError": 1329,
      "PYTHON": 1330,
      "Surface": 1331,
      "TYPESCRIPT_EXTS": 1332,
      "ValueError": 1333,
      "_token": 1334,
      "_size": 1335,
      "_raw_append": 1336,
      "abulary": 1337,
      "crosses": 1338,
      "flict": 1339,
      "llections": 1340,
      "vocabulary": 1341,
      "review": 1342,
      "coverage": 1343,
      "description": 1344,
      "metho": 1345,
      "exported_": 1346,
      "forwarded": 1347,
      "intermediate": 1348,
      "sibling": 1349,
      "RegistryManifestCard": 1350,
      "read_config_file": 1351,
      "PYTHON_EXTS": 1352,
      "_tokens": 1353,
      "\"```": 1354,
      "'\",\"": 1355,
      "'--": 1356,
      "').": 1357,
      "'))\",\"": 1358,
      "(),": 1359,
      "):": 1360,
      ")?": 1361,
      ")≥": 1362,
      ")}⟫": 1363,
      "*.": 1364,
      "-⟦": 1365,
      "-')": 1366,
      ".\")": 1367,
      ".\"\"": 1368,
      ".')]": 1369,
      "/\"": 1370,
      "//": 1371,
      "0f": 1372,
      "25": 1373,
      "4ι": 1374,
      ":\"\"": 1375,
      "://": 1376,
      "=[": 1377,
      "AG": 1378,
      "Auto": 1379,
      "ALL": 1380,
      "BAL_CONFIG_DIR": 1381,
      "CO": 1382,
      "Can": 1383,
      "EC": 1384,
      "EM": 1385,
      "EN": 1386,
      "GU": 1387,
      "Gem": 1388,
      "GLO": 1389,
      "ITS": 1390,
      "Kind": 1391,
      "KG_": 1392,
      "MA": 1393,
      "MM": 1394,
      "MP": 1395,
      "NI": 1396,
      "Ol": 1397,
      "Open": 1398,
      "Pro": 1399,
      "Pic": 1400,
      "PKG_": 1401,
      "ST": 1402,
      "Script": 1403,
      "Te": 1404,
      "Ti": 1405,
      "Typ": 1406,
      "The": 1407,
      "Test": 1408,
      "Wire": 1409,
      "Za": 1410,
      "[⟪:": 1411,
      "].": 1412,
      "]\",": 1413,
      "],\",\"": 1414,
      "]:\"\"": 1415,
      "__": 1416,
      "_ro": 1417,
      "_de": 1418,
      "__p": 1419,
      "_json": 1420,
      "_confi": 1421,
      "_la": 1422,
      "_text": 1423,
      "_EX": 1424,
      "_ass": 1425,
      "_line": 1426,
      "_candidate_id": 1427,
      "_NAM": 1428,
      "_ms": 1429,
      "_imports": 1430,
      "_mar": 1431,
      "_required": 1432,
      "_summary": 1433,
      "_excer": 1434,
      "_calls": 1435,
      "_MA": 1436,
      "`.": 1437,
      "`\",\"": 1438,
      "a1": 1439,
      "a2": 1440,
      "a4": 1441,
      "ach": 1442,
      "akdown": 1443,
      "br": 1444,
      "bu": 1445,
      "bre": 1446,
      "bel": 1447,
      "b_s": 1448,
      "ce": 1449,
      "ci": 1450,
      "cs": 1451,
      "ces": 1452,
      "cjs": 1453,
      "cach": 1454,
      "der": 1455,
      "eb": 1456,
      "eg": 1457,
      "ev": 1458,
      "eCard": 1459,
      "eff": 1460,
      "fre": 1461,
      "fe_": 1462,
      "ful": 1463,
      "flo": 1464,
      "gnore": 1465,
      "hex": 1466,
      "hand": 1467,
      "hap": 1468,
      "hig": 1469,
      "hlib": 1470,
      "io": 1471,
      "ide": 1472,
      "jp": 1473,
      "ju": 1474,
      "kip": 1475,
      "l_p": 1476,
      "myp": 1477,
      "mil": 1478,
      "next": 1479,
      "of": 1480,
      "ose": 1481,
      "ot_": 1482,
      "osi": 1483,
      "pip": 1484,
      "pth": 1485,
      "ption": 1486,
      "pipe": 1487,
      "ru": 1488,
      "ran": 1489,
      "sv": 1490,
      "sent": 1491,
      "sider": 1492,
      "shap": 1493,
      "skip": 1494,
      "t0": 1495,
      "tp": 1496,
      "tre": 1497,
      "ture": 1498,
      "ude": 1499,
      "val": 1500,
      "vsco": 1501,
      "ward": 1502,
      "wire": 1503,
      "web": 1504,
      "xt": 1505,
      "yel": 1506,
      "ycach": 1507,
      "{'": 1508,
      "})": 1509,
      "∅})": 1510,
      "∨\"": 1511,
      "≠∅})": 1512,
      "⟧\")": 1513,
      "⟫]⟧": 1514,
      "erers": 1515,
      "onic": 1516,
      "on_con": 1517,
      "read": 1518,
      "rename": 1519,
      "repl": 1520,
      "rectory": 1521,
      "resp": 1522,
      "rel_p": 1523,
      "ints": 1524,
      "instan": 1525,
      "install": 1526,
      "ort_": 1527,
      "orary": 1528,
      "sts": 1529,
      "stem": 1530,
      "eno": 1531,
      "enfor": 1532,
      "encode": 1533,
      "\",\"##": 1534,
      "see": 1535,
      "role": 1536,
      "anel": 1537,
      "collections": 1538,
      "dist": 1539,
      "directory": 1540,
      "tignore": 1541,
      "chit": 1542,
      "constants": 1543,
      "consider": 1544,
      "'./": 1545,
      "d_types": 1546,
      "d_names": 1547,
      "d_lineage": 1548,
      "\\\")⟧": 1549,
      "itted": 1550,
      "unt_": 1551,
      "fig": 1552,
      "first": 1553,
      "file_": 1554,
      "meta": 1555,
      "mpfile": 1556,
      "mp_required": 1557,
      "mporary": 1558,
      "extra": 1559,
      "e__": 1560,
      "\")).": 1561,
      "tsx": 1562,
      "asci": 1563,
      "(\"^": 1564,
      "(\"\",": 1565,
      "jsx": 1566,
      "package_root": 1567,
      "package_name": 1568,
      "transcript": 1569,
      "self_ass": 1570,
      "_panel": 1571,
      "syn": 1572,
      "verb_s": 1573,
      "is_": 1574,
      "ision": 1575,
      "isinstan": 1576,
      "_count_": 1577,
      "forged": 1578,
      ").')]": 1579,
      "schemas": 1580,
      "toml": 1581,
      "config_path": 1582,
      "⟪{}⟫": 1583,
      "chain_count_": 1584,
      "sult": 1585,
      "havi": 1586,
      "layout": 1587,
      "laude": 1588,
      "T_RE": 1589,
      "T_FIL": 1590,
      "T_TE": 1591,
      "otonic": 1592,
      "callable": 1593,
      "igno": 1594,
      "ignore": 1595,
      "pair": 1596,
      "didateCard": 1597,
      "renderers": 1598,
      "else": 1599,
      "lineno": 1600,
      "help_text": 1601,
      "render_tests": 1602,
      "via": 1603,
      "wrang": 1604,
      "wrapp": 1605,
      "docs": 1606,
      "doc_tokens": 1607,
      "feed": 1608,
      "upward": 1609,
      "\"\"\"\"": 1610,
      "Comp": 1611,
      "Count": 1612,
      "y_cache": 1613,
      "urllib": 1614,
      "orchestrate": 1615,
      "orchestrator": 1616,
      "ice": 1617,
      "4_project_": 1618,
      "_of": 1619,
      "emitted": 1620,
      "points": 1621,
      "choice": 1622,
      "write": 1623,
      "tier_inv": 1624,
      "tier_inventory": 1625,
      "feature_count": 1626,
      "cur_prefix": 1627,
      "gist": 1628,
      "gitignore": 1629,
      "```\",\"\",": 1630,
      "importable": 1631,
      "write_manifest": 1632,
      "write_registry": 1633,
      "_render_shared_schema": 1634,
      "_render_in_memory_pipe": 1635,
      "phase_": 1636,
      "⟨⟩→[": 1637,
      "commands_dir": 1638,
      "commandsmith": 1639,
      "catalog_size": 1640,
      "final_output": 1641,
      "finalize": 1642,
      "generated": 1643,
      "has_cl": 1644,
      "hashlib": 1645,
      "smoke": 1646,
      "modules": 1647,
      "_present": 1648,
      "candidate_count": 1649,
      "source_repo": 1650,
      "atomadic_forge_se": 1651,
      "Demo": 1652,
      "_first": 1653,
      "_files": 1654,
      "_file_": 1655,
      "ire_pure": 1656,
      "sha25": 1657,
      "local_path": 1658,
      "local_cfg": 1659,
      "default_exp": 1660,
      "cur_out": 1661,
      "cur_src": 1662,
      "cur_auto": 1663,
      "1_provider": 1664,
      "'})}⟫": 1665,
      "Config": 1666,
      "Result": 1667,
      "ff_cache": 1668,
      "i_key": 1669,
      "priv": 1670,
      "parse": 1671,
      "require_pure": 1672,
      "exists": 1673,
      "score_bre": 1674,
      "erryPic": 1675,
      "ollama_url": 1676,
      "_step4_project_": 1677,
      "_step1_provider": 1678,
      "Anthropic": 1679,
      "LATE": 1680,
      "Step": 1681,
      "duration_ms": 1682,
      "lang_la": 1683,
      "woff": 1684,
      "domain_inv": 1685,
      "domain_inventory": 1686,
      "domain_ju": 1687,
      "shared_vocabulary": 1688,
      "SynergyScanReport": 1689,
      "EmergentScanReport": 1690,
      "global_": 1691,
      "global_path": 1692,
      "global_cfg": 1693,
      "_chains_count": 1694,
      "befo": 1695,
      "behavi": 1696,
      "class": 1697,
      "found": 1698,
      "html": 1699,
      "http": 1700,
      "ild": 1701,
      "monotonic": 1702,
      "save": 1703,
      "save_report": 1704,
      "tempfile": 1705,
      "stateful": 1706,
      "\",\"\",\"```": 1707,
      "\",\"\",\"##": 1708,
      "fields": 1709,
      "field_types": 1710,
      "pytest_cache": 1711,
      "_append_lineage": 1712,
      "has_self_ass": 1713,
      "'],": 1714,
      "max_chains": 1715,
      "max_de": 1716,
      "merge_confi": 1717,
      "error_": 1718,
      "_classes": 1719,
      "ROOT": 1720,
      "ROOT_TE": 1721,
      "llm_name": 1722,
      "_balance_pair": 1723,
      "CherryPic": 1724,
      "Import": 1725,
      "Score": 1726,
      "SignatureCard": 1727,
      "base_url": 1728,
      "certif": 1729,
      "every": 1730,
      "findings": 1731,
      "peration": 1732,
      "safe_": 1733,
      "signatures": 1734,
      "why": 1735,
      "|--------": 1736,
      "gemini_key": 1737,
      "anthropic_key": 1738,
      "discover": 1739,
      "adapter": 1740,
      "load_config": 1741,
      "synergies": 1742,
      "_domains": 1743,
      "_docstring_first": 1744,
      "violations": 1745,
      "Default": 1746,
      "openai_key": 1747,
      "ollama_model": 1748,
      "LANGU": 1749,
      "tags_url": 1750,
      "TIER_NAM": 1751,
      "worktre": 1752,
      "detect_ollama": 1753,
      "crosses_domains": 1754,
      "method_names": 1755,
      "sibling_imports": 1756,
      ".\"\"\"": 1757,
      "COMM": 1758,
      "CandidateCard": 1759,
      "EMITS": 1760,
      "ENT_RE": 1761,
      "Gemini": 1762,
      "GLOBAL_CONFIG_DIR": 1763,
      "MPLATE": 1764,
      "Ollama": 1765,
      "OpenAI": 1766,
      "PKG_ROOT_TE": 1767,
      "Temporary": 1768,
      "Tier": 1769,
      "_root_": 1770,
      "__pycach": 1771,
      "_EXT": 1772,
      "build": 1773,
      "css": 1774,
      "evol": 1775,
      "effec": 1776,
      "free": 1777,
      "float": 1778,
      "hexdigest": 1779,
      "higher": 1780,
      "idea": 1781,
      "mypy_cache": 1782,
      "ruff_cache": 1783,
      "vscode": 1784,
      "yellow": 1785,
      "⟫]⟧\")": 1786,
      "on_conflict": 1787,
      "replace": 1788,
      "rel_parts": 1789,
      "enforces": 1790,
      "chitec": 1791,
      "considered": 1792,
      "verb_signature": 1793,
      "isinstance": 1794,
      "chain_count_considered": 1795,
      "wrangler": 1796,
      "Counter": 1797,
      "orchestrators": 1798,
      "final_output_type": 1799,
      "has_class": 1800,
      "sha256": 1801,
      "default_export_": 1802,
      "private": 1803,
      "score_breakdown": 1804,
      "_step4_project_defaults": 1805,
      "lang_label": 1806,
      "domain_jump_required": 1807,
      "before": 1808,
      "has_self_assign": 1809,
      "max_depth": 1810,
      "merge_configs": 1811,
      "CherryPick": 1812,
      "safe_intent": 1813,
      "_docstring_first_line": 1814,
      "LANGUAG": 1815,
      "TIER_NAMES": 1816,
      "worktrees": 1817,
      "COMMENT_RE": 1818,
      "PKG_ROOT_TEMPLATE": 1819,
      "TemporaryDirectory": 1820,
      "__pycache__": 1821,
      "\"'": 1822,
      "\"/": 1823,
      "\"~": 1824,
      "\"+\"": 1825,
      "\"?\"": 1826,
      "'\"": 1827,
      "'\")": 1828,
      "')\",\"": 1829,
      "''),": 1830,
      "'').": 1831,
      "(!": 1832,
      "(?": 1833,
      "(\\\"": 1834,
      "()\",\"": 1835,
      ")(": 1836,
      ")]": 1837,
      ")\",": 1838,
      ")\\\"": 1839,
      ")\")": 1840,
      ")[\"": 1841,
      "):\",\"": 1842,
      ")\"])": 1843,
      ")},": 1844,
      "+\",": 1845,
      ",\",": 1846,
      "-]": 1847,
      "-|--------": 1848,
      ".\"])": 1849,
      "/.": 1850,
      "/{": 1851,
      "/⟦": 1852,
      "/\".": 1853,
      "/\\\")⟧": 1854,
      "11": 1855,
      "1f": 1856,
      "200": 1857,
      "34": 1858,
      "3_api_ke": 1859,
      "40": 1860,
      "434": 1861,
      "5_": 1862,
      "75": 1863,
      "7B": 1864,
      "7b": 1865,
      "9_": 1866,
      ":∅": 1867,
      "=\",": 1868,
      "=\\\"": 1869,
      "=(\"": 1870,
      "=⟪{}⟫": 1871,
      "Ad": 1872,
      "As": 1873,
      "Bo": 1874,
      "BLOC": 1875,
      "CE": 1876,
      "Cer": 1877,
      "C_EXTS": 1878,
      "Claude": 1879,
      "DO": 1880,
      "DS": 1881,
      "Di": 1882,
      "Dec": 1883,
      "Dic": 1884,
      "Duration": 1885,
      "ED": 1886,
      "EF": 1887,
      "ED_": 1888,
      "Ell": 1889,
      "Fe": 1890,
      "Fo": 1891,
      "Fin": 1892,
      "Find": 1893,
      "FES": 1894,
      "FEC": 1895,
      "F_EXT": 1896,
      "GI": 1897,
      "GP": 1898,
      "Go": 1899,
      "GED": 1900,
      "It": 1901,
      "IDE": 1902,
      "INI": 1903,
      "Js": 1904,
      "Jav": 1905,
      "JEC": 1906,
      "K_": 1907,
      "Ke": 1908,
      "La": 1909,
      "LError": 1910,
      "Lang": 1911,
      "Liv": 1912,
      "Ma": 1913,
      "Mer": 1914,
      "Man": 1915,
      "Multiply": 1916,
      "MAI": 1917,
      "Nex": 1918,
      "Not": 1919,
      "NE_": 1920,
      "NG_": 1921,
      "N_EXT": 1922,
      "OU": 1923,
      "OW": 1924,
      "Out": 1925,
      "Option": 1926,
      "Operation": 1927,
      "OF_EXT": 1928,
      "Pl": 1929,
      "Pre": 1930,
      "Package": 1931,
      "Parser": 1932,
      "Phase": 1933,
      "Pass": 1934,
      "RY": 1935,
      "Ro": 1936,
      "Res": 1937,
      "Rec": 1938,
      "R_MA": 1939,
      "RLError": 1940,
      "Si": 1941,
      "So": 1942,
      "Smo": 1943,
      "Sha": 1944,
      "Sub": 1945,
      "SOU": 1946,
      "Th": 1947,
      "TTI": 1948,
      "URLError": 1949,
      "Vi": 1950,
      "Ver": 1951,
      "VER": 1952,
      "VIDE": 1953,
      "Wh": 1954,
      "Wor": 1955,
      "[⟦": 1956,
      "[\",\"": 1957,
      "\\-]": 1958,
      "](": 1959,
      "][": 1960,
      "]\")": 1961,
      "])⟧": 1962,
      "_n": 1963,
      "_r": 1964,
      "_in": 1965,
      "_en": 1966,
      "_for": 1967,
      "_args": 1968,
      "_can": 1969,
      "_src": 1970,
      "_resul": 1971,
      "_up": 1972,
      "_fix": 1973,
      "_strip": 1974,
      "_RE": 1975,
      "_import": 1976,
      "_write_": 1977,
      "_len": 1978,
      "_catalog": 1979,
      "_consum": 1980,
      "_functions": 1981,
      "_raise": 1982,
      "_dict": 1983,
      "_FIL": 1984,
      "_all": 1985,
      "_module": 1986,
      "_trajectory": 1987,
      "_LI": 1988,
      "_Store": 1989,
      "_attr": 1990,
      "_wor": 1991,
      "_log": 1992,
      "_and_": 1993,
      "_ollama_": 1994,
      "_Generated": 1995,
      "_ST": 1996,
      "_asci": 1997,
      "_is_": 1998,
      "_emitted": 1999,
      "_modules": 2000,
      "__file_": 2001,
      "_BLOC": 2002,
      "_INI": 2003,
      "_SOU": 2004,
      "`)": 2005,
      "`--": 2006,
      "`/`": 2007,
      "ame": 2008,
      "amp": 2009,
      "abo": 2010,
      "aider": 2011,
      "ajectory": 2012,
      "aml": 2013,
      "aScript": 2014,
      "bmp": 2015,
      "best": 2016,
      "ck": 2017,
      "car": 2018,
      "cit": 2019,
      "cul": 2020,
      "cfg": 2021,
      "cision": 2022,
      "claude": 2023,
      "df": 2024,
      "don": 2025,
      "den": 2026,
      "denc": 2027,
      "edi": 2028,
      "ets": 2029,
      "eed": 2030,
      "emergent": 2031,
      "eback": 2032,
      "eScript": 2033,
      "fs": 2034,
      "ft": 2035,
      "fer": 2036,
      "fut": 2037,
      "fla": 2038,
      "fol": 2039,
      "ftest": 2040,
      "gu": 2041,
      "ger": 2042,
      "gat": 2043,
      "git": 2044,
      "gif": 2045,
      "gith": 2046,
      "ggest": 2047,
      "hg": 2048,
      "ho": 2049,
      "hard": 2050,
      "hid": 2051,
      "hint": 2052,
      "iz": 2053,
      "ico": 2054,
      "istr": 2055,
      "ile": 2056,
      "ium": 2057,
      "idate": 2058,
      "imin": 2059,
      "i_trajectory": 2060,
      "ks": 2061,
      "kit": 2062,
      "know": 2063,
      "k_chains": 2064,
      "k_all": 2065,
      "ls": 2066,
      "less": 2067,
      "lexit": 2068,
      "lve": 2069,
      "man": 2070,
      "mal": 2071,
      "mistr": 2072,
      "ng": 2073,
      "nu": 2074,
      "ned": 2075,
      "never": 2076,
      "need": 2077,
      "ou": 2078,
      "our": 2079,
      "over": 2080,
      "operation": 2081,
      "pts": 2082,
      "pas": 2083,
      "ped": 2084,
      "passes": 2085,
      "ppt": 2086,
      "pdf": 2087,
      "png": 2088,
      "rg": 2089,
      "rm": 2090,
      "ration": 2091,
      "rstrip": 2092,
      "rface": 2093,
      "ries": 2094,
      "sor": 2095,
      "sage": 2096,
      "sis": 2097,
      "sort": 2098,
      "scr": 2099,
      "sing": 2100,
      "simp": 2101,
      "sign": 2102,
      "sass": 2103,
      "sClient": 2104,
      "spec": 2105,
      "svel": 2106,
      "scss": 2107,
      "tf": 2108,
      "ty": 2109,
      "tor": 2110,
      "tch": 2111,
      "tal": 2112,
      "tes": 2113,
      "tas": 2114,
      "tain": 2115,
      "tup": 2116,
      "ty_": 2117,
      "ters": 2118,
      "txt": 2119,
      "ttf": 2120,
      "ug": 2121,
      "ual": 2122,
      "ues": 2123,
      "uct": 2124,
      "usClient": 2125,
      "ves": 2126,
      "ver_": 2127,
      "v2_": 2128,
      "ve_report": 2129,
      "wer": 2130,
      "wav": 2131,
      "wir": 2132,
      "ware": 2133,
      "wiz": 2134,
      "xls": 2135,
      "yError": 2136,
      "yml": 2137,
      "yResult": 2138,
      "yScore": 2139,
      "yaml": 2140,
      "you": 2141,
      "z0": 2142,
      "zer": 2143,
      "ze_": 2144,
      "{}": 2145,
      "|⟦": 2146,
      "}}⟫": 2147,
      "}'}⟫": 2148,
      "→\".": 2149,
      "∨\\\"": 2150,
      "∨⟪{": 2151,
      "∨[]": 2152,
      "≟\"": 2153,
      "✓\":\"": 2154,
      "⟧\"": 2155,
      "⟧.": 2156,
      "⟧/": 2157,
      "⟧;": 2158,
      "⟧\",": 2159,
      "⟧\".": 2160,
      "⟧->": 2161,
      "⟧'\"": 2162,
      "⟧|⟦": 2163,
      "⟫]": 2164,
      "erent": 2165,
      "ered": 2166,
      "ons": 2167,
      "onents": 2168,
      "only": 2169,
      "onder": 2170,
      "onger": 2171,
      "recon": 2172,
      "real": 2173,
      "reas": 2174,
      "reso": 2175,
      "registr": 2176,
      "relat": 2177,
      "regist": 2178,
      "re_log": 2179,
      "ating": 2180,
      "atio": 2181,
      "\",[\"": 2182,
      "\",[]": 2183,
      "instr": 2184,
      "inser": 2185,
      "info": 2186,
      "infer": 2187,
      "arit": 2188,
      "architec": 2189,
      "ord": 2190,
      "oral": 2191,
      "order": 2192,
      "ormal": 2193,
      "stand": 2194,
      "step": 2195,
      "stub": 2196,
      "starts": 2197,
      "st_size": 2198,
      "stamp": 2199,
      "enal": 2200,
      "enum": 2201,
      "ges": 2202,
      "geDec": 2203,
      "\",\"$": 2204,
      "\",\"\")": 2205,
      "\",\"```\",\"\",": 2206,
      "sed": 2207,
      "sets": 2208,
      "separ": 2209,
      "any": 2210,
      "andu": 2211,
      "annot": 2212,
      "cov": 2213,
      "coher": 2214,
      "utes": 2215,
      "utReport": 2216,
      "dest": 2217,
      "decision": 2218,
      "diff": 2219,
      "discr": 2220,
      "tic": 2221,
      "til": 2222,
      "cherr": 2223,
      "consts": 2224,
      "ale": 2225,
      "als": 2226,
      "almo": 2227,
      "alid": 2228,
      "alone": 2229,
      "sues": 2230,
      "sumes": 2231,
      "suggest": 2232,
      "surface": 2233,
      "sure_log": 2234,
      "may": 2235,
      "proves": 2236,
      "acros": 2237,
      "d_chains": 2238,
      "d_imports": 2239,
      "d_signature": 2240,
      "d_hand": 2241,
      "\\\"])⟧": 2242,
      "its": 2243,
      "unavailable": 2244,
      "unknow": 2245,
      "unspec": 2246,
      "until": 2247,
      "ent_count": 2248,
      "files": 2249,
      "urlo": 2250,
      "urist": 2251,
      "strings": 2252,
      "stronger": 2253,
      "dule": 2254,
      "mp3": 2255,
      "mp4": 2256,
      "expose": 2257,
      ":[[": 2258,
      "er_name": 2259,
      "er_app": 2260,
      "er_default_": 2261,
      "er_pay": 2262,
      "er_inputs": 2263,
      "er_igno": 2264,
      "e_to": 2265,
      "e_config": 2266,
      "t_to": 2267,
      "t_distribution": 2268,
      "\"),": 2269,
      "\")))": 2270,
      "\")∨[]": 2271,
      "ipsis": 2272,
      "lect": 2273,
      "leNot": 2274,
      "as_p": 2275,
      "assumes": 2276,
      "typer_app": 2277,
      "(\"[": 2278,
      "(\"\"\"": 2279,
      "(\".\")": 2280,
      "(\"`\",\"": 2281,
      "(\"→\".": 2282,
      "ackets": 2283,
      "lied": 2284,
      "licit": 2285,
      "produce": 2286,
      "produced": 2287,
      "producer_pay": 2288,
      "js_re": 2289,
      "adme": 2290,
      "adoc": 2291,
      "package_json": 2292,
      "ure__": 2293,
      "ure_excer": 2294,
      "api": 2295,
      "appen": 2296,
      "lock": 2297,
      "nox": 2298,
      "novel": 2299,
      "no_up": 2300,
      "heurist": 2301,
      "edDic": 2302,
      "_penal": 2303,
      "verif": 2304,
      "verdict": 2305,
      "can_import": 2306,
      "idoc": 2307,
      "idges": 2308,
      "--|--------": 2309,
      "---|--------": 2310,
      "fail": 2311,
      "faile": 2312,
      "ify": 2313,
      "is_pure": 2314,
      "issues": 2315,
      "jsonl": 2316,
      "_commands": 2317,
      "_collections": 2318,
      "named": 2319,
      "confidenc": 2320,
      "confirm": 2321,
      "schedule": 2322,
      ").\\\"\\\"\\\"\",\"": 2323,
      ")\",\"\",": 2324,
      ")\",\"\",\"##": 2325,
      ")\",\"```\",\"\",": 2326,
      "tox": 2327,
      "total": 2328,
      "subdir": 2329,
      "sub_dir": 2330,
      "sub_commands": 2331,
      "ation_count": 2332,
      "ation_comple": 2333,
      "\"]]": 2334,
      "\"]))": 2335,
      "\"]).": 2336,
      "⟪{**{": 2337,
      "[\"[": 2338,
      "\\\"]⟧\")": 2339,
      "\\\"]⟧],\",\"": 2340,
      "FIX": 2341,
      "ocation": 2342,
      "bool": 2343,
      "ogle": 2344,
      "runner": 2345,
      "),\"```": 2346,
      "Trajectory": 2347,
      "ed_tier": 2348,
      "ed_class": 2349,
      "thing": 2350,
      "outputs": 2351,
      "output_files": 2352,
      "law": 2353,
      "turall": 2354,
      "T_LA": 2355,
      "otf": 2356,
      "atureSurface": 2357,
      "tional": 2358,
      "tionCh": 2359,
      "calcul": 2360,
      "clients": 2361,
      "paired": 2362,
      "tiers": 2363,
      "eless": 2364,
      "()-": 2365,
      "()/": 2366,
      "()?": 2367,
      "():\"": 2368,
      "()∨\\\"": 2369,
      "**⟦": 2370,
      "**\"+": 2371,
      "soft": 2372,
      "codeium": 2373,
      "render_synerg": 2374,
      "render_read": 2375,
      "render_gitignore": 2376,
      "render_registr": 2377,
      "render_js_re": 2378,
      "render_package_json": 2379,
      "CONVER": 2380,
      "keReport": 2381,
      "pathlib": 2382,
      "invalid": 2383,
      "invocation": 2384,
      "demo_mar": 2385,
      "timeout": 2386,
      "timestamp": 2387,
      "docx": 2388,
      "document": 2389,
      "few": 2390,
      "fetch": 2391,
      "return_type": 2392,
      "urces": 2393,
      "add_subparsers": 2394,
      "olation": 2395,
      "olution": 2396,
      "y_package": 2397,
      "y_manifest": 2398,
      "y_module": 2399,
      "y_and_": 2400,
      "y_adapter": 2401,
      "function": 2402,
      "_option": 2403,
      "emrg": 2404,
      "ement_count": 2405,
      "message": 2406,
      "posi": 2407,
      "utf8": 2408,
      "project": 2409,
      "tions_raise": 2410,
      "auto_fix": 2411,
      "ateReport": 2412,
      "get_preset": 2413,
      "tier_layout": 2414,
      "tier_gu": 2415,
      "fixture": 2416,
      "cursor": 2417,
      "find_chains": 2418,
      "imported": 2419,
      "write_docs": 2420,
      "Extrac": 2421,
      "_render_demo_mar": 2422,
      "simil": 2423,
      "size_": 2424,
      "⟨⟩→∅": 2425,
      "----|": 2426,
      "atomadic_v2_": 2427,
      "parens": 2428,
      "_consts": 2429,
      "_conftest": 2430,
      "their": 2431,
      "module_": 2432,
      "tract": 2433,
      "traceback": 2434,
      "_presets": 2435,
      "python_file_": 2436,
      "CONFIG_EXTS": 2437,
      "source_dir": 2438,
      "source_path": 2439,
      "source_line": 2440,
      "source_subdir": 2441,
      "Architec": 2442,
      "shared": 2443,
      "applied": 2444,
      "localho": 2445,
      "target_tier": 2446,
      "target_root": 2447,
      "callers": 2448,
      "')}⟫": 2449,
      "(⟪{}⟫)": 2450,
      ".\",\"\"]": 2451,
      ".\",\"\",\"##": 2452,
      "2_model": 2453,
      "misc": 2454,
      "missing": 2455,
      "run_auto": 2456,
      "run_cherry": 2457,
      "run_finalize": 2458,
      "run_wiz": 2459,
      "run_recon": 2460,
      "tests_dir": 2461,
      "tests_present": 2462,
      "SynergyKind": 2463,
      "SynergyCandidateCard": 2464,
      "DEFAULT_LANGUAG": 2465,
      "(\",\")\")": 2466,
      "Conflict": 2467,
      "E_EXTS": 2468,
      "EmergentCandidateCard": 2469,
      "RING_": 2470,
      "Regist": 2471,
      "Reproduce": 2472,
      "_split": 2473,
      "_tiers": 2474,
      "ified": 2475,
      "parame": 2476,
      "tedBo": 2477,
      "red_segment": 2478,
      "request": 2479,
      "prompt": 2480,
      "iterations": 2481,
      "list_ollama_": 2482,
      "list_presets": 2483,
      "lows": 2484,
      "node_modules": 2485,
      "_step3_api_ke": 2486,
      "_step5_": 2487,
      "_step2_model": 2488,
      "ForgeConfig": 2489,
      "()))": 2490,
      "())}⟫": 2491,
      "ROJEC": 2492,
      "ROVIDE": 2493,
      "Setup": 2494,
      "Select": 2495,
      "_PYP": 2496,
      "_PROVIDE": 2497,
      "minutes": 2498,
      "pick_all": 2499,
      "cli_demo_args": 2500,
      "_prompt_int": 2501,
      "_prompt_confirm": 2502,
      "('--": 2503,
      "FileNot": 2504,
      "NOTE": 2505,
      "RCE_EXTS": 2506,
      "RunReport": 2507,
      "]⟩→∅": 2508,
      "below": 2509,
      "bytes": 2510,
      "ce_utf8": 2511,
      "htm": 2512,
      "mdx": 2513,
      "save_config": 2514,
      "tech": 2515,
      "⟧`\",\"\",": 2516,
      "input_files": 2517,
      "\",\"\",\"-": 2518,
      "command_": 2519,
      "content_len": 2520,
      "field": 2521,
      "exports": 2522,
      "expandu": 2523,
      "explicit": 2524,
      "symbols": 2525,
      "symbol_name": 2526,
      "pytest_summary": 2527,
      "has_work": 2528,
      "has_schedule": 2529,
      "has_module_": 2530,
      "FILE_EXTS": 2531,
      "']},": 2532,
      "'])},": 2533,
      ")[:": 2534,
      ")[⟪:": 2535,
      "ASSE": 2536,
      "G_OF_EXT": 2537,
      "Install": 2538,
      "[],": 2539,
      "[])\",\"": 2540,
      "_resp": 2541,
      "_refs": 2542,
      "_repaired": 2543,
      "here": 2544,
      "ive_to": 2545,
      "markdown": 2546,
      "marker": 2547,
      "space": 2548,
      "ward_imports": 2549,
      "argparse": 2550,
      "detect": 2551,
      "undError": 2552,
      "under_igno": 2553,
      "merged_signature": 2554,
      "logic": 2555,
      "errors": 2556,
      "artifact_size_": 2557,
      "exceptions_raise": 2558,
      "ArgumentParser": 2559,
      "StubFind": 2560,
      "_PREFIX": 2561,
      "_balance_br": 2562,
      "_balance_parens": 2563,
      "proposed_fix": 2564,
      "proposed_summary": 2565,
      "proposed_adapt": 2566,
      "proposed_names": 2567,
      "\":\"\",": 2568,
      ",\"[\",\"": 2569,
      ",\"(\",\")\")": 2570,
      "1000": 2571,
      "?\"✓\":\"": 2572,
      "AAAA": 2573,
      "Imports": 2574,
      "ScoutReport": 2575,
      "_seman": 2576,
      "base_classes": 2577,
      "certain": 2578,
      "findall": 2579,
      "perform": 2580,
      "passing": 2581,
      "pass_r": 2582,
      "pkg_root_": 2583,
      "same": 2584,
      "when": 2585,
      "|------|--------": 2586,
      "stateless": 2587,
      "statement_count": 2588,
      "gemini": 2589,
      "compose": 2590,
      "complexit": 2591,
      "components": 2592,
      "discover_": 2593,
      "tifyResult": 2594,
      "load_keys": 2595,
      "_domain_of": 2596,
      "violation_count": 2597,
      "CommandCard": 2598,
      "CommandSurface": 2599,
      "CommandSignatureCard": 2600,
      "excerpt": 2601,
      "strip_comments_and_": 2602,
      "SymbolKind": 2603,
      "SymbolSignatureCard": 2604,
      "SymbolRec": 2605,
      "Defaults": 2606,
      "LANG_OF_EXT": 2607,
      "top_level_classes": 2608,
      "top_level_functions": 2609,
      "top_level_consts": 2610,
      "IntentSignature": 2611,
      "TIER_PREFIX": 2612,
      "detect_synergies": 2613,
      ")∨\"\".": 2614,
      "crosses_tiers": 2615,
      "review_mar": 2616,
      "method": 2617,
      "exported_functions": 2618,
      "exported_classes": 2619,
      "exported_consts": 2620,
      "sibling_refs": 2621,
      "):⟪{}⟫": 2622,
      ")?\",": 2623,
      ")?\",\"\",": 2624,
      "ALLOW": 2625,
      "ALL_SOU": 2626,
      "NIFES": 2627,
      "Provider": 2628,
      "Project": 2629,
      "STRY": 2630,
      "TypeScript": 2631,
      "TypedDic": 2632,
      "Tests": 2633,
      "TestRunReport": 2634,
      "WireReport": 2635,
      "WireVi": 2636,
      "]\",[\"[": 2637,
      "]:\"\".": 2638,
      "__fut": 2639,
      "_excerpt": 2640,
      "_MANIFES": 2641,
      "bridges": 2642,
      "egg": 2643,
      "jpg": 2644,
      "jpeg": 2645,
      "milarit": 2646,
      "osix": 2647,
      "ositionCh": 2648,
      "rank_chains": 2649,
      "svg": 2650,
      "svn": 2651,
      "shape": 2652,
      "shaping": 2653,
      "skipped": 2654,
      "validate": 2655,
      "values": 2656,
      "webm": 2657,
      "webp": 2658,
      "∨\"(": 2659,
      "∨\"\")": 2660,
      "rename_module": 2661,
      "rename_seman": 2662,
      "\\\")⟧.\",\"\"]": 2663,
      "file_path": 2664,
      "file_count": 2665,
      "asciidoc": 2666,
      "(\"^(": 2667,
      "sync": 2668,
      "is_igno": 2669,
      "T_FILE": 2670,
      "T_FILES": 2671,
      "render_tests_in": 2672,
      "render_tests_conftest": 2673,
      "wrapper": 2674,
      "wrapped_class": 2675,
      "docs_root": 2676,
      "Compose": 2677,
      "CompositionCh": 2678,
      "phase_chain": 2679,
      "phase_hint": 2680,
      "source_repos": 2681,
      "atomadic_forge_seed": 2682,
      "atomadic_forge_seed_": 2683,
      "DemoResult": 2684,
      "DemoPre": 2685,
      "Configure": 2686,
      "parse_args": 2687,
      "AnthropicClient": 2688,
      "woff2": 2689,
      "behaviour": 2690,
      "behavioral": 2691,
      "htmlcov": 2692,
      "https": 2693,
      "\",\"\",\"```\",": 2694,
      "error_kind": 2695,
      "error_message": 2696,
      "ImportError": 2697,
      "ImportSmo": 2698,
      "certify": 2699,
      "certify_package": 2700,
      "everything": 2701,
      "EMITS_INI": 2702,
      "EMITS_PYP": 2703,
      "GeminiClient": 2704,
      "OllamaClient": 2705,
      "OpenAIClient": 2706,
      "_root_of": 2707,
      "evolve": 2708,
      "evolve_report": 2709,
      "effects": 2710,
      "effect_distribution": 2711,
      "has_class_attr": 2712,
      "default_export_kind": 2713,
      "default_export_keys": 2714,
      "CherryPickManifest": 2715,
      "CherryPickIt": 2716,
      "LANGUAGES": 2717,
      "\"'⟦": 2718,
      "\"~/.": 2719,
      "(?:": 2720,
      "(\\\"/\\\")⟧": 2721,
      ")\\\"⟧": 2722,
      "11434": 2723,
      "2000": 2724,
      ":∅⟩": 2725,
      "Add": 2726,
      "Assimil": 2727,
      "CertifyResult": 2728,
      "DOC_EXTS": 2729,
      "DS_Store": 2730,
      "Divide": 2731,
      "EFFEC": 2732,
      "ED_FILE_EXTS": 2733,
      "Ellipsis": 2734,
      "FeatureSurface": 2735,
      "FoundError": 2736,
      "Final": 2737,
      "GISTRY": 2738,
      "GPT": 2739,
      "Google": 2740,
      "JsSurface": 2741,
      "JavaScript": 2742,
      "K_COMMENT_RE": 2743,
      "KeyError": 2744,
      "Layout": 2745,
      "Language": 2746,
      "Lives": 2747,
      "Make": 2748,
      "MergeDec": 2749,
      "Manual": 2750,
      "MAIN_EXT": 2751,
      "NexusClient": 2752,
      "NE_COMMENT_RE": 2753,
      "Output": 2754,
      "Plug": 2755,
      "Rounds": 2756,
      "Resolution": 2757,
      "R_MAP": 2758,
      "Similarit": 2759,
      "Sources": 2760,
      "Shared": 2761,
      "Subtract": 2762,
      "This": 2763,
      "TTICE": 2764,
      "Verify": 2765,
      "What": 2766,
      "Worker": 2767,
      "\\-]+\",": 2768,
      "_normal": 2769,
      "_ensure_log": 2770,
      "_force_utf8": 2771,
      "_canned": 2772,
      "_src_root_of": 2773,
      "_result_to": 2774,
      "_strip_option": 2775,
      "_REGISTRY": 2776,
      "_write_meta": 2777,
      "_consumer_inputs": 2778,
      "_FILE": 2779,
      "_LINE_COMMENT_RE": 2780,
      "_words": 2781,
      "_STRING_": 2782,
      "_ascii_trajectory": 2783,
      "_is_under_igno": 2784,
      "__file__": 2785,
      "_BLOCK_COMMENT_RE": 2786,
      "above": 2787,
      "carries": 2788,
      "editor": 2789,
      "flag": 2790,
      "follows": 2791,
      "gates": 2792,
      "github": 2793,
      "harder": 2794,
      "hidden": 2795,
      "iminating": 2796,
      "mistral": 2797,
      "nuxt": 2798,
      "overall": 2799,
      "passed": 2800,
      "pptx": 2801,
      "rationale": 2802,
      "sorted": 2803,
      "simple": 2804,
      "signals": 2805,
      "svelte": 2806,
      "tasks": 2807,
      "ty_signals": 2808,
      "were": 2809,
      "wiring": 2810,
      "xlsx": 2811,
      "zero": 2812,
      "{}}⟫)": 2813,
      "∨⟪{}⟫)": 2814,
      "⟧->⟦": 2815,
      "eredCommandCard": 2816,
      "reasons": 2817,
      "resolve": 2818,
      "relative_to": 2819,
      "register_fn": 2820,
      "\",[])]": 2821,
      "instruct": 2822,
      "insert": 2823,
      "inferred": 2824,
      "architecturall": 2825,
      "standard": 2826,
      "steps": 2827,
      "stub_penal": 2828,
      "startswith": 2829,
      "enums": 2830,
      "separated": 2831,
      "annotations": 2832,
      "coherent": 2833,
      "different": 2834,
      "discriminating": 2835,
      "cherry_manifest": 2836,
      "almost": 2837,
      "suggested_tier": 2838,
      "across": 2839,
      "d_handler": 2840,
      "unknown": 2841,
      "unspecified": 2842,
      "files_repaired": 2843,
      "urlopen": 2844,
      "er_default_fetch": 2845,
      "\")∨[]))": 2846,
      "as_posix": 2847,
      "(\"\"\"\",": 2848,
      "(\".\")∧": 2849,
      "(\"`\",\"'\")": 2850,
      "producer_payload_keys": 2851,
      "ure_excerpts": 2852,
      "append": 2853,
      "novelty_signals": 2854,
      "no_upward_imports": 2855,
      "heuristic": 2856,
      "verify_and_": 2857,
      "---|------------|": 2858,
      "failure_excerpts": 2859,
      "failed": 2860,
      "confidence": 2861,
      "sub_dirs": 2862,
      "ation_complete": 2863,
      "),\"```\",\"\",\"##": 2864,
      "T_LATTICE": 2865,
      "calculator": 2866,
      "()∨\\\"(": 2867,
      "software": 2868,
      "render_synergy_adapter": 2869,
      "render_readme": 2870,
      "render_registry_module": 2871,
      "render_js_readme": 2872,
      "CONVERGED": 2873,
      "documentation_complete": 2874,
      "positional": 2875,
      "auto_fixable": 2876,
      "tier_layout_present": 2877,
      "tier_guess": 2878,
      "fixtures": 2879,
      "ExtractedBo": 2880,
      "_render_demo_markdown": 2881,
      "traceback_excerpt": 2882,
      "python_file_count": 2883,
      "Architecture": 2884,
      "localhost": 2885,
      "callers_of": 2886,
      "run_wizard": 2887,
      "DEFAULT_LANGUAGE": 2888,
      "ConflictResolution": 2889,
      "RegisteredCommandCard": 2890,
      "_split_words": 2891,
      "parameters": 2892,
      "list_ollama_models": 2893,
      "_step3_api_key": 2894,
      "_step5_verify_and_": 2895,
      "ROJECT": 2896,
      "_PROVIDER_MAP": 2897,
      "FileNotFoundError": 2898,
      "command_modules": 2899,
      "expanduser": 2900,
      "explicitly": 2901,
      "has_worker_default_fetch": 2902,
      "has_scheduled_handler": 2903,
      "has_module_exports": 2904,
      "ASSET_EXTS": 2905,
      "_responder": 2906,
      "artifact_size_bytes": 2907,
      "exceptions_raised": 2908,
      "StubFinding": 2909,
      "_balance_brackets": 2910,
      "proposed_adapter_name": 2911,
      ",\"[\",\"]\")": 2912,
      "?\"✓\":\"(": 2913,
      "AAAANexusClient": 2914,
      "certainly": 2915,
      "pass_ratio": 2916,
      "pkg_root_for": 2917,
      "|------|-----------|------------|": 2918,
      "complexity": 2919,
      "components_emitted": 2920,
      "discover_command_modules": 2921,
      "strip_comments_and_strings": 2922,
      "SymbolRecord": 2923,
      "review_marker": 2924,
      "ALLOWED_FILE_EXTS": 2925,
      "ALL_SOURCE_EXTS": 2926,
      "TypedDicts": 2927,
      "WireViolation": 2928,
      "__future__": 2929,
      "_MANIFEST_FILE": 2930,
      "rename_semantic": 2931,
      "is_ignored_segment": 2932,
      "render_tests_init": 2933,
      "CompositionChain": 2934,
      "DemoPreset": 2935,
      "ImportSmokeReport": 2936,
      "EMITS_INIT_FILES": 2937,
      "EMITS_PYPROJECT": 2938,
      "has_class_attr_collections": 2939,
      "CherryPickItem": 2940,
      "(\\\"/\\\")⟧/": 2941,
      "AssimilateReport": 2942,
      "EFFECT_LATTICE": 2943,
      "FeatureSurfaceCard": 2944,
      "MergeDecision": 2945,
      "SimilarityScore": 2946,
      "_normalize": 2947,
      "_ensure_log_dir": 2948,
      "_result_to_dict": 2949,
      "_strip_optional": 2950,
      "_REGISTRY_FILE": 2951,
      "_STRING_RE": 2952,
      "_is_under_ignored": 2953,
      "editorconfig": 2954,
      "architecturally": 2955,
      "stub_penalty": 2956,
      "discriminating_tokens": 2957,
      "ExtractedBody": 2958,
      "_step5_verify_and_save": 2959
    },
    "merges": [
      [
        "e",
        "r"
      ],
      [
        "o",
        "n"
      ],
      [
        "r",
        "e"
      ],
      [
        "a",
        "t"
      ],
      [
        "\"",
        ","
      ],
      [
        "i",
        "n"
      ],
      [
        "a",
        "r"
      ],
      [
        "o",
        "r"
      ],
      [
        "s",
        "t"
      ],
      [
        "e",
        "n"
      ],
      [
        "g",
        "e"
      ],
      [
        "\",",
        "\""
      ],
      [
        "s",
        "e"
      ],
      [
        "r",
        "o"
      ],
      [
        "'",
        ","
      ],
      [
        "a",
        "n"
      ],
      [
        "c",
        "o"
      ],
      [
        "u",
        "t"
      ],
      [
        "d",
        "e"
      ],
      [
        "d",
        "i"
      ],
      [
        "t",
        "i"
      ],
      [
        "c",
        "h"
      ],
      [
        "c",
        "on"
      ],
      [
        "'",
        ":"
      ],
      [
        "a",
        "l"
      ],
      [
        "s",
        "u"
      ],
      [
        "m",
        "a"
      ],
      [
        "'",
        "."
      ],
      [
        "p",
        "ro"
      ],
      [
        "a",
        "c"
      ],
      [
        "d",
        "_"
      ],
      [
        "e",
        "s"
      ],
      [
        "\\",
        "\""
      ],
      [
        "i",
        "t"
      ],
      [
        "u",
        "n"
      ],
      [
        "en",
        "t"
      ],
      [
        "f",
        "i"
      ],
      [
        "u",
        "r"
      ],
      [
        "st",
        "r"
      ],
      [
        "d",
        "u"
      ],
      [
        "m",
        "e"
      ],
      [
        "m",
        "p"
      ],
      [
        "e",
        "x"
      ],
      [
        ":",
        "["
      ],
      [
        "i",
        "on"
      ],
      [
        "⟩",
        "→"
      ],
      [
        "er",
        "_"
      ],
      [
        "e",
        "_"
      ],
      [
        "t",
        "_"
      ],
      [
        "ar",
        "d"
      ],
      [
        "\"",
        ")"
      ],
      [
        "m",
        "o"
      ],
      [
        "t",
        "s"
      ],
      [
        "a",
        "ge"
      ],
      [
        "f",
        "or"
      ],
      [
        "y",
        "p"
      ],
      [
        "ch",
        "e"
      ],
      [
        "1",
        "π"
      ],
      [
        "i",
        "p"
      ],
      [
        "l",
        "e"
      ],
      [
        "a",
        "s"
      ],
      [
        "d",
        "at"
      ],
      [
        "t",
        "yp"
      ],
      [
        "(",
        "\""
      ],
      [
        "r",
        "c"
      ],
      [
        "ac",
        "k"
      ],
      [
        "g",
        "s"
      ],
      [
        "c",
        "ard"
      ],
      [
        "m",
        "m"
      ],
      [
        "e",
        "c"
      ],
      [
        "l",
        "i"
      ],
      [
        "pro",
        "du"
      ],
      [
        "produ",
        "c"
      ],
      [
        "j",
        "s"
      ],
      [
        "u",
        "l"
      ],
      [
        ")",
        ")"
      ],
      [
        "o",
        "ma"
      ],
      [
        "a",
        "d"
      ],
      [
        "an",
        "d"
      ],
      [
        "ack",
        "age"
      ],
      [
        "m",
        "er"
      ],
      [
        "p",
        "ackage"
      ],
      [
        "u",
        "re"
      ],
      [
        "a",
        "p"
      ],
      [
        "l",
        "o"
      ],
      [
        "n",
        "o"
      ],
      [
        "di",
        "c"
      ],
      [
        "h",
        "e"
      ],
      [
        "l",
        "f"
      ],
      [
        "o",
        "ut"
      ],
      [
        "t",
        "r"
      ],
      [
        "se",
        "lf"
      ],
      [
        "e",
        "d"
      ],
      [
        "_",
        "p"
      ],
      [
        "ar",
        "gs"
      ],
      [
        "ge",
        "t"
      ],
      [
        "con",
        "su"
      ],
      [
        "n",
        "a"
      ],
      [
        "s",
        "y"
      ],
      [
        "v",
        "er"
      ],
      [
        "mm",
        "and"
      ],
      [
        "c",
        "an"
      ],
      [
        "e",
        "st"
      ],
      [
        "i",
        "d"
      ],
      [
        "s",
        "co"
      ],
      [
        "-",
        "-"
      ],
      [
        "f",
        "a"
      ],
      [
        "i",
        "f"
      ],
      [
        "i",
        "s"
      ],
      [
        "js",
        "on"
      ],
      [
        "=",
        "\""
      ],
      [
        "_",
        "co"
      ],
      [
        "di",
        "r"
      ],
      [
        "na",
        "me"
      ],
      [
        "or",
        "t"
      ],
      [
        "con",
        "fi"
      ],
      [
        "fa",
        "ul"
      ],
      [
        "s",
        "er"
      ],
      [
        "s",
        "che"
      ],
      [
        "t",
        "ar"
      ],
      [
        "on",
        "e"
      ],
      [
        "for",
        "ge"
      ],
      [
        ")",
        "."
      ],
      [
        ")",
        "\",\""
      ],
      [
        "c",
        "r"
      ],
      [
        "re",
        "n"
      ],
      [
        "sche",
        "ma"
      ],
      [
        "s",
        "rc"
      ],
      [
        "t",
        "o"
      ],
      [
        "u",
        "e"
      ],
      [
        "ar",
        "ser"
      ],
      [
        "de",
        "faul"
      ],
      [
        "su",
        "b"
      ],
      [
        "produc",
        "er"
      ],
      [
        "oma",
        "dic"
      ],
      [
        "cr",
        "ip"
      ],
      [
        "]",
        "⟧"
      ],
      [
        "p",
        "ut"
      ],
      [
        "at",
        "ion"
      ],
      [
        "confi",
        "g"
      ],
      [
        "\"",
        "]"
      ],
      [
        "[",
        "\\\""
      ],
      [
        "}",
        "⟫"
      ],
      [
        "⟪",
        "{"
      ],
      [
        "at",
        "h"
      ],
      [
        "in",
        "d"
      ],
      [
        "in",
        "g"
      ],
      [
        "typ",
        "er"
      ],
      [
        "consu",
        "mer"
      ],
      [
        "[",
        "\""
      ],
      [
        "\\\"",
        "]⟧"
      ],
      [
        "crip",
        "t"
      ],
      [
        "N",
        "one"
      ],
      [
        "a",
        "in"
      ],
      [
        "f",
        "ro"
      ],
      [
        "s",
        "ion"
      ],
      [
        "u",
        "m"
      ],
      [
        "at",
        "omadic"
      ],
      [
        "se",
        "t"
      ],
      [
        "sco",
        "re"
      ],
      [
        "F",
        "I"
      ],
      [
        "O",
        "N"
      ],
      [
        "o",
        "c"
      ],
      [
        "b",
        "o"
      ],
      [
        "o",
        "g"
      ],
      [
        "p",
        "l"
      ],
      [
        "r",
        "un"
      ],
      [
        "in",
        "t"
      ],
      [
        "ch",
        "ain"
      ],
      [
        "su",
        "l"
      ],
      [
        ")",
        ","
      ],
      [
        "T",
        "r"
      ],
      [
        "`",
        "`"
      ],
      [
        "e",
        "d_"
      ],
      [
        "f",
        "ac"
      ],
      [
        "h",
        "a"
      ],
      [
        "t",
        "h"
      ],
      [
        "out",
        "put"
      ],
      [
        "tar",
        "get"
      ],
      [
        "schema",
        "_"
      ],
      [
        "e",
        "p"
      ],
      [
        "j",
        "ec"
      ],
      [
        "l",
        "a"
      ],
      [
        "t",
        "ur"
      ],
      [
        "re",
        "sul"
      ],
      [
        "or",
        "y"
      ],
      [
        "it",
        "h"
      ],
      [
        "ex",
        "t"
      ],
      [
        "3",
        "ω"
      ],
      [
        "T",
        "_"
      ],
      [
        "o",
        "t"
      ],
      [
        "p",
        "arser"
      ],
      [
        "at",
        "ure"
      ],
      [
        "ti",
        "on"
      ],
      [
        "tur",
        "n"
      ],
      [
        "c",
        "al"
      ],
      [
        "c",
        "li"
      ],
      [
        "i",
        "g"
      ],
      [
        "p",
        "a"
      ],
      [
        "di",
        "dat"
      ],
      [
        "ti",
        "er"
      ],
      [
        "ver",
        "sion"
      ],
      [
        "mmand",
        "s"
      ],
      [
        "ren",
        "d"
      ],
      [
        "=",
        "'"
      ],
      [
        "_",
        "d"
      ],
      [
        "a",
        "v"
      ],
      [
        "e",
        "l"
      ],
      [
        "er",
        "r"
      ],
      [
        "ar",
        "ti"
      ],
      [
        "ut",
        "c"
      ],
      [
        "schema_",
        "version"
      ],
      [
        "arti",
        "fac"
      ],
      [
        "(",
        ")"
      ],
      [
        "*",
        "*"
      ],
      [
        "T",
        "S"
      ],
      [
        "]",
        "]"
      ],
      [
        "d",
        "s"
      ],
      [
        "i",
        "mp"
      ],
      [
        "l",
        "p"
      ],
      [
        "l",
        "in"
      ],
      [
        "n",
        "er"
      ],
      [
        "p",
        "y"
      ],
      [
        "s",
        "o"
      ],
      [
        "co",
        "de"
      ],
      [
        "he",
        "lp"
      ],
      [
        "can",
        "didat"
      ],
      [
        "rend",
        "er_"
      ],
      [
        ":",
        "\",\""
      ],
      [
        "C",
        "ON"
      ],
      [
        "[",
        "["
      ],
      [
        "_",
        "dir"
      ],
      [
        "c",
        "t"
      ],
      [
        "k",
        "e"
      ],
      [
        "p",
        "en"
      ],
      [
        "p",
        "ath"
      ],
      [
        "v",
        "i"
      ],
      [
        "w",
        "r"
      ],
      [
        "in",
        "v"
      ],
      [
        "ro",
        "ot"
      ],
      [
        "de",
        "mo"
      ],
      [
        "ti",
        "me"
      ],
      [
        "er_",
        "args"
      ],
      [
        "pl",
        "y"
      ],
      [
        "ner",
        "g"
      ],
      [
        "+",
        "\""
      ],
      [
        "a",
        "i"
      ],
      [
        "d",
        "oc"
      ],
      [
        "f",
        "e"
      ],
      [
        "t",
        "ext"
      ],
      [
        "u",
        "p"
      ],
      [
        "re",
        "turn"
      ],
      [
        "an",
        "if"
      ],
      [
        "ur",
        "c"
      ],
      [
        "ad",
        "d_"
      ],
      [
        "⟪{",
        "'"
      ],
      [
        "FI",
        "G"
      ],
      [
        "CON",
        "FIG"
      ],
      [
        "anif",
        "est"
      ],
      [
        "\"",
        "\""
      ],
      [
        ",",
        "\",\""
      ],
      [
        "C",
        "o"
      ],
      [
        "E",
        "X"
      ],
      [
        "c",
        "at"
      ],
      [
        "d",
        "y"
      ],
      [
        "f",
        "un"
      ],
      [
        "o",
        "l"
      ],
      [
        "p",
        "re"
      ],
      [
        "t",
        "est"
      ],
      [
        "y",
        "_"
      ],
      [
        "or",
        "che"
      ],
      [
        "\\\"",
        "\\\""
      ],
      [
        "ur",
        "l"
      ],
      [
        "oma",
        "in"
      ],
      [
        "Tr",
        "ue"
      ],
      [
        "artifac",
        "t"
      ],
      [
        "so",
        "urc"
      ],
      [
        "fun",
        "c"
      ],
      [
        "orche",
        "str"
      ],
      [
        "E",
        "r"
      ],
      [
        "_",
        "ap"
      ],
      [
        "b",
        "le"
      ],
      [
        "i",
        "c"
      ],
      [
        "m",
        "d_"
      ],
      [
        "r",
        "or"
      ],
      [
        "z",
        "en"
      ],
      [
        "re",
        "d"
      ],
      [
        "ut",
        "o"
      ],
      [
        "de",
        "l"
      ],
      [
        "un",
        "t"
      ],
      [
        "mo",
        "del"
      ],
      [
        "dat",
        "e"
      ],
      [
        "fro",
        "zen"
      ],
      [
        "bo",
        "dy"
      ],
      [
        "ig",
        "n"
      ],
      [
        "nerg",
        "y"
      ],
      [
        "Er",
        "ror"
      ],
      [
        "frozen",
        "set"
      ],
      [
        "4",
        "_"
      ],
      [
        "_",
        "o"
      ],
      [
        "_",
        "demo"
      ],
      [
        "e",
        "m"
      ],
      [
        "m",
        "es"
      ],
      [
        "p",
        "o"
      ],
      [
        "at",
        "_"
      ],
      [
        "ut",
        "f"
      ],
      [
        "ch",
        "o"
      ],
      [
        "pro",
        "jec"
      ],
      [
        "ex",
        "c"
      ],
      [
        "typ",
        "e"
      ],
      [
        "id",
        "er"
      ],
      [
        "}⟫",
        ")"
      ],
      [
        "resul",
        "t"
      ],
      [
        "tion",
        "s"
      ],
      [
        "cli",
        "_demo"
      ],
      [
        "_d",
        "t"
      ],
      [
        "wr",
        "it"
      ],
      [
        "EX",
        "TS"
      ],
      [
        "\"",
        "."
      ],
      [
        "(",
        "{"
      ],
      [
        "a",
        "uto"
      ],
      [
        "d",
        "omain"
      ],
      [
        "f",
        "g"
      ],
      [
        "k",
        "ind"
      ],
      [
        "er",
        "at"
      ],
      [
        "at",
        "e"
      ],
      [
        "en",
        "erat"
      ],
      [
        "ge",
        "t_"
      ],
      [
        "ti",
        "er_"
      ],
      [
        "fi",
        "x"
      ],
      [
        "str",
        "ip"
      ],
      [
        "no",
        "t"
      ],
      [
        "um",
        "ent"
      ],
      [
        "fe",
        "ature"
      ],
      [
        "projec",
        "t_"
      ],
      [
        "F",
        "al"
      ],
      [
        "R",
        "E"
      ],
      [
        "S",
        "can"
      ],
      [
        "_",
        "c"
      ],
      [
        "_",
        "orchestr"
      ],
      [
        "a",
        "4_"
      ],
      [
        "b",
        "er"
      ],
      [
        "c",
        "ur"
      ],
      [
        "c",
        "md_"
      ],
      [
        "f",
        "in"
      ],
      [
        "g",
        "i"
      ],
      [
        "g",
        "ument"
      ],
      [
        "k",
        "e_"
      ],
      [
        "n",
        "um"
      ],
      [
        "∅",
        ")"
      ],
      [
        "co",
        "d"
      ],
      [
        "du",
        "mp"
      ],
      [
        "produc",
        "er_args"
      ],
      [
        "tr",
        "ue"
      ],
      [
        "sy",
        "_orchestr"
      ],
      [
        "defaul",
        "t"
      ],
      [
        "fro",
        "m"
      ],
      [
        "``",
        "`"
      ],
      [
        "ha",
        "se"
      ],
      [
        "imp",
        "ort"
      ],
      [
        "writ",
        "e_"
      ],
      [
        "Fal",
        "se"
      ],
      [
        "a4_",
        "sy_orchestr"
      ],
      [
        "num",
        "ber"
      ],
      [
        "dump",
        "s"
      ],
      [
        "a4_sy_orchestr",
        "ation"
      ],
      [
        "#",
        "#"
      ],
      [
        "/",
        "`"
      ],
      [
        "C",
        "li"
      ],
      [
        "E",
        "x"
      ],
      [
        "L",
        "L"
      ],
      [
        "S",
        "y"
      ],
      [
        "]",
        "⟩"
      ],
      [
        "_",
        "st"
      ],
      [
        "_",
        "render_"
      ],
      [
        "_",
        "ke"
      ],
      [
        "l",
        "en"
      ],
      [
        "m",
        "ith"
      ],
      [
        "p",
        "hase"
      ],
      [
        "q",
        "u"
      ],
      [
        "s",
        "i"
      ],
      [
        "v",
        "ider"
      ],
      [
        "w",
        "ith"
      ],
      [
        "⟨",
        "⟩→"
      ],
      [
        "en",
        "v"
      ],
      [
        "en",
        "cod"
      ],
      [
        "co",
        "mmands"
      ],
      [
        "al",
        "og"
      ],
      [
        "for",
        "m"
      ],
      [
        "as",
        "s"
      ],
      [
        "--",
        "--"
      ],
      [
        "_co",
        "mp"
      ],
      [
        "\"]",
        ")"
      ],
      [
        "\\\"]⟧",
        ","
      ],
      [
        "atomadic",
        "_"
      ],
      [
        "pa",
        "ren"
      ],
      [
        "lin",
        "e"
      ],
      [
        "return",
        "code"
      ],
      [
        "cat",
        "alog"
      ],
      [
        "pre",
        "set"
      ],
      [
        "fin",
        "al"
      ],
      [
        "Cli",
        "ent"
      ],
      [
        "encod",
        "ing"
      ],
      [
        "]",
        "\",\""
      ],
      [
        "_",
        "con"
      ],
      [
        "b",
        "al"
      ],
      [
        "g",
        "enerat"
      ],
      [
        "h",
        "as"
      ],
      [
        "j",
        "o"
      ],
      [
        "p",
        "ec"
      ],
      [
        "p",
        "ort"
      ],
      [
        "r",
        "ai"
      ],
      [
        "s",
        "mo"
      ],
      [
        "t",
        "he"
      ],
      [
        "st",
        "an"
      ],
      [
        "pro",
        "vider"
      ],
      [
        "es",
        "s"
      ],
      [
        "mo",
        "du"
      ],
      [
        "typ",
        "es"
      ],
      [
        "card",
        "s"
      ],
      [
        "ap",
        "t"
      ],
      [
        "lo",
        "ad"
      ],
      [
        "no",
        "w"
      ],
      [
        "tr",
        "ac"
      ],
      [
        "_p",
        "re"
      ],
      [
        "consu",
        "m"
      ],
      [
        "defaul",
        "ts"
      ],
      [
        "ind",
        "ent"
      ],
      [
        "chain",
        "s"
      ],
      [
        "th",
        "on"
      ],
      [
        "py",
        "thon"
      ],
      [
        "candidat",
        "e_"
      ],
      [
        "CONFIG",
        "_"
      ],
      [
        "sourc",
        "e_"
      ],
      [
        "func",
        "tions"
      ],
      [
        "Ex",
        "it"
      ],
      [
        "form",
        "at"
      ],
      [
        "atomadic_",
        "forge"
      ],
      [
        "jo",
        "in"
      ],
      [
        "rai",
        "se"
      ],
      [
        "(",
        ")."
      ],
      [
        "A",
        "r"
      ],
      [
        "C",
        "ard"
      ],
      [
        "D",
        "E"
      ],
      [
        "D",
        "I"
      ],
      [
        "D",
        "e"
      ],
      [
        "M",
        "anifest"
      ],
      [
        "R",
        "ep"
      ],
      [
        "_",
        "fi"
      ],
      [
        "_",
        "root"
      ],
      [
        "a",
        "d_"
      ],
      [
        "a",
        "ble"
      ],
      [
        "i",
        "re"
      ],
      [
        "j",
        "av"
      ],
      [
        "o",
        "pen"
      ],
      [
        "o",
        "format"
      ],
      [
        "r",
        "st"
      ],
      [
        "s",
        "cript"
      ],
      [
        "s",
        "ha"
      ],
      [
        "ar",
        "y"
      ],
      [
        "se",
        "s"
      ],
      [
        "se",
        "con"
      ],
      [
        "an",
        "g"
      ],
      [
        "an",
        "script"
      ],
      [
        "ti",
        "mes"
      ],
      [
        "as",
        "cript"
      ],
      [
        "ap",
        "p"
      ],
      [
        "lo",
        "cal"
      ],
      [
        "he",
        "ad"
      ],
      [
        "tr",
        "a"
      ],
      [
        "sy",
        "s"
      ],
      [
        "is",
        "oformat"
      ],
      [
        "_co",
        "unt"
      ],
      [
        "tar",
        "get_"
      ],
      [
        "defaul",
        "t_"
      ],
      [
        "jec",
        "t"
      ],
      [
        "la",
        "ma"
      ],
      [
        "cal",
        "l"
      ],
      [
        "mmands",
        "mith"
      ],
      [
        "candidat",
        "es"
      ],
      [
        "Co",
        "mmandsmith"
      ],
      [
        "date",
        "time"
      ],
      [
        "feature",
        "s"
      ],
      [
        "cur",
        "_"
      ],
      [
        "LL",
        "M"
      ],
      [
        "DI",
        "R"
      ],
      [
        "Rep",
        "ort"
      ],
      [
        "jav",
        "ascript"
      ],
      [
        "secon",
        "ds"
      ],
      [
        "times",
        "pec"
      ],
      [
        "\"",
        "+"
      ],
      [
        "'",
        ")"
      ],
      [
        "(",
        "⟪{"
      ],
      [
        ".",
        "\",\""
      ],
      [
        "1",
        "_"
      ],
      [
        "2",
        "_"
      ],
      [
        "A",
        "U"
      ],
      [
        "E",
        "S"
      ],
      [
        "F",
        "AU"
      ],
      [
        "L",
        "T_"
      ],
      [
        "_",
        "output"
      ],
      [
        "a",
        "0"
      ],
      [
        "a",
        "3"
      ],
      [
        "a",
        "che"
      ],
      [
        "g",
        "ent"
      ],
      [
        "i",
        "st"
      ],
      [
        "m",
        "ent"
      ],
      [
        "m",
        "is"
      ],
      [
        "m",
        "bo"
      ],
      [
        "m",
        "anifest"
      ],
      [
        "t",
        "ent"
      ],
      [
        "v",
        "1"
      ],
      [
        "}",
        ","
      ],
      [
        "}",
        "',"
      ],
      [
        "ar",
        "gument"
      ],
      [
        "or",
        "ts"
      ],
      [
        "ge",
        "d"
      ],
      [
        "se",
        "cho"
      ],
      [
        "ti",
        "ply"
      ],
      [
        "str",
        "ing"
      ],
      [
        "dat",
        "es"
      ],
      [
        "ul",
        "tiply"
      ],
      [
        "mer",
        "gent"
      ],
      [
        "dic",
        "t"
      ],
      [
        "_p",
        "arser"
      ],
      [
        "_co",
        "mmand"
      ],
      [
        "FI",
        "L"
      ],
      [
        "run",
        "_"
      ],
      [
        "ed_",
        "at_"
      ],
      [
        "resul",
        "ts"
      ],
      [
        "ct",
        "x"
      ],
      [
        "vi",
        "de"
      ],
      [
        "inv",
        "o"
      ],
      [
        "up",
        "dates"
      ],
      [
        "add_",
        "parser"
      ],
      [
        "add_",
        "argument"
      ],
      [
        "test",
        "s"
      ],
      [
        "\\\"\\\"",
        "\\\""
      ],
      [
        "ign",
        "ature"
      ],
      [
        "gi",
        "str"
      ],
      [
        "ke_",
        "results"
      ],
      [
        "Sy",
        "nergy"
      ],
      [
        "generat",
        "ed_at_"
      ],
      [
        "smo",
        "ke_results"
      ],
      [
        "stan",
        "ts"
      ],
      [
        "types",
        "cript"
      ],
      [
        "candidate_",
        "id"
      ],
      [
        "DE",
        "FAU"
      ],
      [
        "ject",
        "ory"
      ],
      [
        "mbo",
        "l"
      ],
      [
        "generated_at_",
        "utc"
      ],
      [
        "DEFAU",
        "LT_"
      ],
      [
        "'",
        "}"
      ],
      [
        "'",
        "}⟫)"
      ],
      [
        "(",
        "("
      ],
      [
        "(",
        "\",\""
      ],
      [
        ")",
        "+\""
      ],
      [
        "C",
        "on"
      ],
      [
        "E",
        "_"
      ],
      [
        "E",
        "mergent"
      ],
      [
        "F",
        "or"
      ],
      [
        "L",
        "og"
      ],
      [
        "R",
        "I"
      ],
      [
        "R",
        "e"
      ],
      [
        "_",
        "s"
      ],
      [
        "_",
        "tier"
      ],
      [
        "_",
        "features"
      ],
      [
        "c",
        "ess"
      ],
      [
        "c",
        "apt"
      ],
      [
        "f",
        "f"
      ],
      [
        "f",
        "n"
      ],
      [
        "i",
        "fi"
      ],
      [
        "i",
        "_ke"
      ],
      [
        "m",
        "ultiply"
      ],
      [
        "p",
        "r"
      ],
      [
        "p",
        "ar"
      ],
      [
        "p",
        "ure"
      ],
      [
        "t",
        "ed"
      ],
      [
        "u",
        "b"
      ],
      [
        "re",
        "d_"
      ],
      [
        "re",
        "qu"
      ],
      [
        "re",
        "port"
      ],
      [
        "di",
        "vide"
      ],
      [
        "al",
        "l"
      ],
      [
        "pro",
        "mp"
      ],
      [
        "pro",
        "cess"
      ],
      [
        "it",
        "er"
      ],
      [
        "un",
        "ds"
      ],
      [
        "ur",
        "ation"
      ],
      [
        "ex",
        "ist"
      ],
      [
        "er_",
        "fn"
      ],
      [
        "li",
        "st"
      ],
      [
        "lo",
        "w"
      ],
      [
        "no",
        "de"
      ],
      [
        "sy",
        "nergy"
      ],
      [
        "sub",
        "trac"
      ],
      [
        "\"]",
        "="
      ],
      [
        "score",
        "_"
      ],
      [
        "Tr",
        "anscript"
      ],
      [
        "T_",
        "EXTS"
      ],
      [
        "pa",
        "y"
      ],
      [
        "err",
        "y"
      ],
      [
        "ol",
        "lama"
      ],
      [
        "model",
        "s"
      ],
      [
        "_st",
        "ep"
      ],
      [
        "modu",
        "le"
      ],
      [
        "_pre",
        "fix"
      ],
      [
        "tra",
        "jectory"
      ],
      [
        "target_",
        "score"
      ],
      [
        "(⟪{",
        "'."
      ],
      [
        "gistr",
        "y"
      ],
      [
        "DEFAULT_",
        "CONFIG"
      ],
      [
        "For",
        "ge"
      ],
      [
        "capt",
        "ure"
      ],
      [
        "Transcript",
        "Log"
      ],
      [
        "!",
        "="
      ],
      [
        "\"",
        "-"
      ],
      [
        "'",
        "-"
      ],
      [
        "(",
        "))"
      ],
      [
        "0",
        "0"
      ],
      [
        ":",
        "\","
      ],
      [
        "A",
        "M"
      ],
      [
        "A",
        "n"
      ],
      [
        "C",
        "RI"
      ],
      [
        "L",
        "A"
      ],
      [
        "L",
        "I"
      ],
      [
        "L",
        "O"
      ],
      [
        "L",
        "iter"
      ],
      [
        "N",
        "AM"
      ],
      [
        "P",
        "T_EXTS"
      ],
      [
        "R",
        "O"
      ],
      [
        "S",
        "e"
      ],
      [
        "S",
        "t"
      ],
      [
        "S",
        "to"
      ],
      [
        "[",
        "(\""
      ],
      [
        "_",
        "P"
      ],
      [
        "_",
        "q"
      ],
      [
        "_",
        "og"
      ],
      [
        "_",
        "url"
      ],
      [
        "_",
        "promp"
      ],
      [
        "a",
        "1_"
      ],
      [
        "a",
        "2_"
      ],
      [
        "d",
        "uration"
      ],
      [
        "g",
        "lo"
      ],
      [
        "k",
        "_con"
      ],
      [
        "l",
        "ang"
      ],
      [
        "m",
        "l"
      ],
      [
        "m",
        "s"
      ],
      [
        "m",
        "in"
      ],
      [
        "m",
        "ory"
      ],
      [
        "o",
        "s"
      ],
      [
        "p",
        "_"
      ],
      [
        "p",
        "ic"
      ],
      [
        "r",
        "y"
      ],
      [
        "v",
        "el"
      ],
      [
        "w",
        "o"
      ],
      [
        "z",
        "e"
      ],
      [
        "re",
        "po"
      ],
      [
        "re",
        "ad_"
      ],
      [
        "\",\"",
        "\","
      ],
      [
        "ro",
        "unds"
      ],
      [
        "',",
        "\","
      ],
      [
        "co",
        "mmand"
      ],
      [
        "ut",
        "ion"
      ],
      [
        "ut",
        "able"
      ],
      [
        "ma",
        "in"
      ],
      [
        "it",
        "es"
      ],
      [
        "un",
        "ifi"
      ],
      [
        "ent",
        "ry"
      ],
      [
        "fi",
        "le"
      ],
      [
        "me",
        "mory"
      ],
      [
        "ex",
        "it"
      ],
      [
        "ex",
        "ec"
      ],
      [
        "\")",
        "]"
      ],
      [
        "mo",
        "_comp"
      ],
      [
        "ip",
        "e"
      ],
      [
        "as",
        "ses"
      ],
      [
        "dat",
        "a"
      ],
      [
        "))",
        "\",\""
      ],
      [
        "_p",
        "ath"
      ],
      [
        "to",
        "p_"
      ],
      [
        "sub",
        "parser"
      ],
      [
        "sub",
        "process"
      ],
      [
        "int",
        "ent"
      ],
      [
        "ed_",
        "cli"
      ],
      [
        "la",
        "ble"
      ],
      [
        "**",
        ":"
      ],
      [
        "imp",
        "orts"
      ],
      [
        "lin",
        "es"
      ],
      [
        "sourc",
        "es"
      ],
      [
        "_o",
        "mis"
      ],
      [
        "at_",
        "functions"
      ],
      [
        "cli_demo",
        "_"
      ],
      [
        "domain",
        "_"
      ],
      [
        "project_",
        "dir"
      ],
      [
        "cmd_",
        "a"
      ],
      [
        "cmd_",
        "b"
      ],
      [
        "write_",
        "text"
      ],
      [
        "phase",
        "_omis"
      ],
      [
        "consum",
        "er_args"
      ],
      [
        "sha",
        "red_"
      ],
      [
        "default_",
        "target_score"
      ],
      [
        "LLM",
        "Client"
      ],
      [
        "a0",
        "_q"
      ],
      [
        "a3",
        "_og"
      ],
      [
        "Synergy",
        "Scan"
      ],
      [
        "Emergent",
        "Scan"
      ],
      [
        "pay",
        "load"
      ],
      [
        "capture",
        "_output"
      ],
      [
        "CRI",
        "PT_EXTS"
      ],
      [
        "Liter",
        "al"
      ],
      [
        "Sto",
        "re"
      ],
      [
        "_promp",
        "t_"
      ],
      [
        "a1_",
        "at_functions"
      ],
      [
        "a2_",
        "mo_comp"
      ],
      [
        "glo",
        "bal"
      ],
      [
        "k_con",
        "stants"
      ],
      [
        "os",
        "ites"
      ],
      [
        "unifi",
        "ed_cli"
      ],
      [
        "exec",
        "utable"
      ],
      [
        "subparser",
        "s"
      ],
      [
        "phase_omis",
        "sion"
      ],
      [
        "a0_q",
        "k_constants"
      ],
      [
        "a3_og",
        "_features"
      ],
      [
        "a2_mo_comp",
        "osites"
      ],
      [
        "(",
        "'"
      ],
      [
        "-",
        ">"
      ],
      [
        "/",
        "\"+"
      ],
      [
        "A",
        "L"
      ],
      [
        "C",
        "LI"
      ],
      [
        "D",
        "_"
      ],
      [
        "F",
        "i"
      ],
      [
        "J",
        "S"
      ],
      [
        "N",
        "O"
      ],
      [
        "P",
        "ath"
      ],
      [
        "R",
        "C"
      ],
      [
        "R",
        "un"
      ],
      [
        "T",
        "E"
      ],
      [
        "]",
        "⟩→"
      ],
      [
        "_",
        "name"
      ],
      [
        "_",
        "artifact"
      ],
      [
        "_",
        "chains"
      ],
      [
        "_",
        "CONFIG_"
      ],
      [
        "a",
        "w"
      ],
      [
        "b",
        "e"
      ],
      [
        "b",
        "y"
      ],
      [
        "b",
        "as"
      ],
      [
        "b",
        "ack"
      ],
      [
        "b",
        "ution"
      ],
      [
        "c",
        "l"
      ],
      [
        "c",
        "e_"
      ],
      [
        "f",
        "o"
      ],
      [
        "g",
        "ment"
      ],
      [
        "h",
        "t"
      ],
      [
        "i",
        "l"
      ],
      [
        "i",
        "red"
      ],
      [
        "i",
        "bution"
      ],
      [
        "k",
        "dir"
      ],
      [
        "l",
        "l"
      ],
      [
        "l",
        "at"
      ],
      [
        "l",
        "es"
      ],
      [
        "l",
        "e_"
      ],
      [
        "m",
        "d"
      ],
      [
        "m",
        "on"
      ],
      [
        "m",
        "kdir"
      ],
      [
        "r",
        "aw"
      ],
      [
        "s",
        "av"
      ],
      [
        "t",
        "a"
      ],
      [
        "t",
        "e"
      ],
      [
        "u",
        "age"
      ],
      [
        "z",
        "one"
      ],
      [
        "⟧",
        "`"
      ],
      [
        "at",
        "tr"
      ],
      [
        "at",
        "ed"
      ],
      [
        "in",
        "put"
      ],
      [
        "st",
        "ate"
      ],
      [
        "en",
        "c"
      ],
      [
        "\",\"",
        "\",\""
      ],
      [
        "se",
        "gment"
      ],
      [
        "ro",
        "pic"
      ],
      [
        "co",
        "mm"
      ],
      [
        "di",
        "str"
      ],
      [
        "ch",
        "erry"
      ],
      [
        "con",
        "tent"
      ],
      [
        "it",
        "em"
      ],
      [
        "ent",
        "s"
      ],
      [
        "fi",
        "el"
      ],
      [
        "ex",
        "p"
      ],
      [
        "⟩→",
        "["
      ],
      [
        "li",
        "b"
      ],
      [
        "))",
        ")"
      ],
      [
        "package",
        "_prefix"
      ],
      [
        "ap",
        "ply"
      ],
      [
        "sy",
        "mbol"
      ],
      [
        "sco",
        "ut"
      ],
      [
        "json",
        "_artifact"
      ],
      [
        "pl",
        "it"
      ],
      [
        "th",
        "ropic"
      ],
      [
        "output",
        "_dir"
      ],
      [
        "py",
        "test"
      ],
      [
        "ct",
        "ory"
      ],
      [
        "time",
        "zone"
      ],
      [
        "doc",
        "string"
      ],
      [
        "up",
        "date"
      ],
      [
        "cat",
        "ch"
      ],
      [
        "_ap",
        "pen"
      ],
      [
        "_ap",
        "ply"
      ],
      [
        "_ap",
        "i_ke"
      ],
      [
        "_o",
        "k"
      ],
      [
        "po",
        "se"
      ],
      [
        "auto",
        "_apply"
      ],
      [
        "project_",
        "root"
      ],
      [
        "_comp",
        "le"
      ],
      [
        "paren",
        "t"
      ],
      [
        "paren",
        "ts"
      ],
      [
        "has",
        "_"
      ],
      [
        "Manifest",
        "Store"
      ],
      [
        "head",
        "line"
      ],
      [
        "FIL",
        "E_"
      ],
      [
        "'}",
        "),"
      ],
      [
        "pr",
        "int"
      ],
      [
        "exist",
        "_ok"
      ],
      [
        "score_",
        "trajectory"
      ],
      [
        "sources",
        "_dir"
      ],
      [
        "cli_demo_",
        "returncode"
      ],
      [
        "AL",
        "_CONFIG_"
      ],
      [
        "JS",
        "ON"
      ],
      [
        "bas",
        "h"
      ],
      [
        "distr",
        "ibution"
      ],
      [
        "item",
        "s"
      ],
      [
        "AL_CONFIG_",
        "DIR"
      ],
      [
        "\"",
        "⟦"
      ],
      [
        "'",
        "]"
      ],
      [
        "'",
        "}⟫"
      ],
      [
        "'",
        "),"
      ],
      [
        "(",
        "[\""
      ],
      [
        ")",
        "["
      ],
      [
        ")",
        "]\",\""
      ],
      [
        ":",
        "\""
      ],
      [
        "A",
        "S"
      ],
      [
        "A",
        "t"
      ],
      [
        "E",
        "R"
      ],
      [
        "G",
        "_"
      ],
      [
        "G",
        "NO"
      ],
      [
        "I",
        "n"
      ],
      [
        "I",
        "GNO"
      ],
      [
        "S",
        "E"
      ],
      [
        "S",
        "RC"
      ],
      [
        "T",
        "I"
      ],
      [
        "Y",
        "P"
      ],
      [
        "[",
        "'"
      ],
      [
        "[",
        "]"
      ],
      [
        "_",
        "re"
      ],
      [
        "_",
        "id"
      ],
      [
        "_",
        "score"
      ],
      [
        "_",
        "turn"
      ],
      [
        "_",
        "EXTS"
      ],
      [
        "_",
        "bal"
      ],
      [
        "_",
        "head"
      ],
      [
        "_",
        "memory"
      ],
      [
        "`",
        "⟦"
      ],
      [
        "c",
        "le"
      ],
      [
        "c",
        "ache"
      ],
      [
        "d",
        "o"
      ],
      [
        "d",
        "out"
      ],
      [
        "e",
        "cho"
      ],
      [
        "h",
        "er"
      ],
      [
        "i",
        "r"
      ],
      [
        "i",
        "v"
      ],
      [
        "k",
        "ed_"
      ],
      [
        "k",
        "do"
      ],
      [
        "m",
        "ar"
      ],
      [
        "s",
        "p"
      ],
      [
        "s",
        "can"
      ],
      [
        "s",
        "plit"
      ],
      [
        "t",
        "mp"
      ],
      [
        "t",
        "ec"
      ],
      [
        "t",
        "wo"
      ],
      [
        "v",
        "env"
      ],
      [
        "w",
        "n"
      ],
      [
        "w",
        "ar"
      ],
      [
        "w",
        "or"
      ],
      [
        "er",
        "s"
      ],
      [
        "re",
        "gistry"
      ],
      [
        "re",
        "comm"
      ],
      [
        "in",
        "de"
      ],
      [
        "in",
        "_memory"
      ],
      [
        "ar",
        "g"
      ],
      [
        "en",
        "d"
      ],
      [
        "en",
        "dat"
      ],
      [
        "ge",
        "st"
      ],
      [
        "se",
        "t_"
      ],
      [
        "ro",
        "s"
      ],
      [
        "an",
        "ed"
      ],
      [
        "an",
        "ce_"
      ],
      [
        "co",
        "unt"
      ],
      [
        "de",
        "f"
      ],
      [
        "de",
        "tec"
      ],
      [
        "con",
        "d"
      ],
      [
        "con",
        "ver"
      ],
      [
        "al",
        "name"
      ],
      [
        "al",
        "ign"
      ],
      [
        "su",
        "mm"
      ],
      [
        "ma",
        "x"
      ],
      [
        "pro",
        "pose"
      ],
      [
        "un",
        "d"
      ],
      [
        "ent",
        "ory"
      ],
      [
        "ion",
        "s"
      ],
      [
        "⟩→",
        "∅"
      ],
      [
        "er_",
        "lines"
      ],
      [
        "t_",
        "parser"
      ],
      [
        "\")",
        "+\""
      ],
      [
        "le",
        "vel"
      ],
      [
        "mer",
        "ge"
      ],
      [
        "mer",
        "ged"
      ],
      [
        "lo",
        "g"
      ],
      [
        "no",
        "re"
      ],
      [
        "out",
        "_command"
      ],
      [
        "_p",
        "ipe"
      ],
      [
        "get",
        "attr"
      ],
      [
        ")\",\"",
        "["
      ],
      [
        "sub",
        "command"
      ],
      [
        "ation",
        "s"
      ],
      [
        "\\\"]⟧",
        ",\",\""
      ],
      [
        "fac",
        "e"
      ],
      [
        "schema_",
        "id"
      ],
      [
        "ext",
        "end"
      ],
      [
        "av",
        "ai"
      ],
      [
        "err",
        "or"
      ],
      [
        "utc",
        "now"
      ],
      [
        "artifac",
        "t_"
      ],
      [
        "code",
        "Error"
      ],
      [
        "inv",
        "entory"
      ],
      [
        "+\"",
        "/"
      ],
      [
        "y_",
        "env"
      ],
      [
        "y_",
        "ms"
      ],
      [
        "exc",
        "ep"
      ],
      [
        "cli_demo",
        "_st"
      ],
      [
        "cli_demo",
        "_command"
      ],
      [
        "({",
        "'"
      ],
      [
        "({",
        "\","
      ],
      [
        "domain",
        "s"
      ],
      [
        "tier_",
        "distribution"
      ],
      [
        "not",
        "ated"
      ],
      [
        "RE",
        "D_"
      ],
      [
        "_c",
        "l"
      ],
      [
        "_c",
        "fg"
      ],
      [
        "_c",
        "ache"
      ],
      [
        "ke_",
        "with"
      ],
      [
        "number",
        "s"
      ],
      [
        "_ke",
        "y"
      ],
      [
        "qu",
        "alname"
      ],
      [
        "\\\"]⟧,",
        "\","
      ],
      [
        "final",
        "_score"
      ],
      [
        "load",
        "s"
      ],
      [
        "CONFIG_",
        "FILE_"
      ],
      [
        "Ar",
        "gs"
      ],
      [
        "Ar",
        "gument"
      ],
      [
        "De",
        "codeError"
      ],
      [
        "open",
        "_id"
      ],
      [
        "call",
        "back"
      ],
      [
        "DIR",
        "S"
      ],
      [
        "')",
        "]"
      ],
      [
        "invo",
        "ked_"
      ],
      [
        "invo",
        "ke_with"
      ],
      [
        "\\\"\\\"\\\"",
        "\",\""
      ],
      [
        "Con",
        "text"
      ],
      [
        "multiply",
        "_parser"
      ],
      [
        "requ",
        "ired"
      ],
      [
        "divide",
        "_parser"
      ],
      [
        "subtrac",
        "t_parser"
      ],
      [
        "An",
        "notated"
      ],
      [
        "LO",
        "C"
      ],
      [
        "NAM",
        "E"
      ],
      [
        "RO",
        "O"
      ],
      [
        "Se",
        "cond"
      ],
      [
        "St",
        "ub"
      ],
      [
        "_P",
        "RE"
      ],
      [
        "duration",
        "_s"
      ],
      [
        "lang",
        "uage"
      ],
      [
        "rounds",
        "_comple"
      ],
      [
        "exit",
        "ed"
      ],
      [
        "))\",\"",
        "\"])"
      ],
      [
        "shared_",
        "schema"
      ],
      [
        "_prompt_",
        "str"
      ],
      [
        "Fi",
        "rst"
      ],
      [
        "ll",
        "m"
      ],
      [
        "lat",
        "enc"
      ],
      [
        "input",
        "s"
      ],
      [
        "_api_ke",
        "y_env"
      ],
      [
        "JSON",
        "DecodeError"
      ],
      [
        "([\"",
        "@"
      ],
      [
        "At",
        "omadic"
      ],
      [
        "IGNO",
        "RED_"
      ],
      [
        "_bal",
        "ance_"
      ],
      [
        "_head",
        "er_lines"
      ],
      [
        "cle",
        "aned"
      ],
      [
        "kdo",
        "wn"
      ],
      [
        "recomm",
        "endat"
      ],
      [
        "inde",
        "x"
      ],
      [
        "in_memory",
        "_pipe"
      ],
      [
        "set_",
        "defaults"
      ],
      [
        "conver",
        "ged"
      ],
      [
        "summ",
        "ary"
      ],
      [
        "propose",
        "d_"
      ],
      [
        "avai",
        "lable"
      ],
      [
        "cli_demo_st",
        "dout"
      ],
      [
        "CONFIG_FILE_",
        "NAME"
      ],
      [
        "open_id",
        "x"
      ],
      [
        "invoked_",
        "subcommand"
      ],
      [
        "invoke_with",
        "out_command"
      ],
      [
        "rounds_comple",
        "ted"
      ],
      [
        "latenc",
        "y_ms"
      ],
      [
        "IGNORED_",
        "DIRS"
      ],
      [
        "recommendat",
        "ions"
      ],
      [
        "\"",
        "#"
      ],
      [
        "\"",
        ":\""
      ],
      [
        "'",
        "{"
      ],
      [
        "(",
        "⟪{'"
      ],
      [
        ")",
        "∈"
      ],
      [
        ")",
        "∨"
      ],
      [
        ")",
        "⟧"
      ],
      [
        ",",
        "\""
      ],
      [
        ".",
        "\\\"\\\"\\\"\",\""
      ],
      [
        "1",
        "00"
      ],
      [
        "2",
        "σ"
      ],
      [
        ":",
        "."
      ],
      [
        "=",
        "⟪{'"
      ],
      [
        "?",
        "\""
      ],
      [
        "A",
        "A"
      ],
      [
        "A",
        "I"
      ],
      [
        "A",
        "V"
      ],
      [
        "C",
        "h"
      ],
      [
        "D",
        "ire"
      ],
      [
        "G",
        "enerat"
      ],
      [
        "H",
        "ON"
      ],
      [
        "I",
        "mp"
      ],
      [
        "J",
        "AV"
      ],
      [
        "O",
        "S"
      ],
      [
        "P",
        "Y"
      ],
      [
        "S",
        "co"
      ],
      [
        "S",
        "ur"
      ],
      [
        "S",
        "ignature"
      ],
      [
        "T",
        "YP"
      ],
      [
        "T",
        "HON"
      ],
      [
        "V",
        "al"
      ],
      [
        "[",
        "]\",\""
      ],
      [
        "_",
        "se"
      ],
      [
        "_",
        "to"
      ],
      [
        "_",
        "producer"
      ],
      [
        "_",
        "consumer"
      ],
      [
        "_",
        "utc"
      ],
      [
        "_",
        "type"
      ],
      [
        "_",
        "si"
      ],
      [
        "_",
        "raw"
      ],
      [
        "a",
        "b"
      ],
      [
        "a",
        "re"
      ],
      [
        "a",
        "st"
      ],
      [
        "a",
        "se"
      ],
      [
        "a",
        "dic"
      ],
      [
        "b",
        "l"
      ],
      [
        "b",
        "ase"
      ],
      [
        "c",
        "er"
      ],
      [
        "c",
        "tions"
      ],
      [
        "c",
        "ros"
      ],
      [
        "e",
        "w"
      ],
      [
        "e",
        "ver"
      ],
      [
        "f",
        "li"
      ],
      [
        "f",
        "ind"
      ],
      [
        "i",
        "es"
      ],
      [
        "i",
        "ze"
      ],
      [
        "k",
        "g"
      ],
      [
        "k",
        "er"
      ],
      [
        "k",
        "en"
      ],
      [
        "l",
        "y"
      ],
      [
        "l",
        "er"
      ],
      [
        "l",
        "le"
      ],
      [
        "m",
        "js"
      ],
      [
        "p",
        "t"
      ],
      [
        "p",
        "er"
      ],
      [
        "p",
        "ass"
      ],
      [
        "p",
        "kg"
      ],
      [
        "s",
        "a"
      ],
      [
        "s",
        "crip"
      ],
      [
        "s",
        "ignature"
      ],
      [
        "v",
        "e"
      ],
      [
        "v",
        "oc"
      ],
      [
        "w",
        "h"
      ],
      [
        "y",
        "s"
      ],
      [
        "y",
        "out"
      ],
      [
        "|",
        "----"
      ],
      [
        "⟪",
        ":"
      ],
      [
        "er",
        "me"
      ],
      [
        "re",
        "vi"
      ],
      [
        "at",
        "or"
      ],
      [
        "in",
        "i"
      ],
      [
        "in",
        "gs"
      ],
      [
        "ar",
        "c"
      ],
      [
        "ar",
        "ts"
      ],
      [
        "st",
        "at"
      ],
      [
        "st",
        "all"
      ],
      [
        "ge",
        "min"
      ],
      [
        "',",
        "\",\""
      ],
      [
        "an",
        "d_"
      ],
      [
        "an",
        "thropic"
      ],
      [
        "co",
        "mp"
      ],
      [
        "co",
        "ver"
      ],
      [
        "de",
        "d"
      ],
      [
        "de",
        "scrip"
      ],
      [
        "di",
        "sco"
      ],
      [
        "di",
        "ate"
      ],
      [
        "di",
        "gest"
      ],
      [
        "ti",
        "f"
      ],
      [
        "ac",
        "e"
      ],
      [
        "me",
        "th"
      ],
      [
        "ex",
        "port"
      ],
      [
        "e_",
        "report"
      ],
      [
        "\")",
        ")"
      ],
      [
        "ts",
        "_utc"
      ],
      [
        "for",
        "war"
      ],
      [
        "mm",
        "ents"
      ],
      [
        "produc",
        "er_fn"
      ],
      [
        "ul",
        "ary"
      ],
      [
        "ad",
        "d"
      ],
      [
        "ad",
        "apt"
      ],
      [
        "lo",
        "ad_"
      ],
      [
        "tr",
        "y"
      ],
      [
        "_p",
        "ure"
      ],
      [
        "na",
        "mes"
      ],
      [
        "sy",
        "nerg"
      ],
      [
        "_co",
        "mments"
      ],
      [
        "src",
        "_root"
      ],
      [
        "to",
        "_tier"
      ],
      [
        "ue",
        "Error"
      ],
      [
        "config",
        "_fi"
      ],
      [
        "\"]",
        ","
      ],
      [
        "\\\"]⟧",
        ".\\\"\\\"\\\"\",\""
      ],
      [
        "oc",
        "string"
      ],
      [
        "int",
        "erme"
      ],
      [
        "th",
        "is"
      ],
      [
        "output",
        "_root"
      ],
      [
        "_d",
        "omain"
      ],
      [
        "_d",
        "ocstring"
      ],
      [
        "**",
        "{"
      ],
      [
        "ke",
        "ys"
      ],
      [
        "vi",
        "ol"
      ],
      [
        ",\",\"",
        ")"
      ],
      [
        "Co",
        "mmand"
      ],
      [
        "pre",
        "fix"
      ],
      [
        "md_",
        "path"
      ],
      [
        "exc",
        "er"
      ],
      [
        "({",
        "'."
      ],
      [
        "get_",
        "docstring"
      ],
      [
        "tier_",
        "index"
      ],
      [
        "strip",
        "_comments"
      ],
      [
        "from",
        "_tier"
      ],
      [
        "Sy",
        "mbol"
      ],
      [
        "_render_",
        "phase_omission"
      ],
      [
        "_render_",
        "json_artifact"
      ],
      [
        "si",
        "bl"
      ],
      [
        "line",
        "age"
      ],
      [
        "consum",
        "er_fn"
      ],
      [
        "source_",
        "root"
      ],
      [
        "De",
        "faul"
      ],
      [
        "Manifest",
        "Card"
      ],
      [
        "open",
        "ai"
      ],
      [
        "call",
        "s"
      ],
      [
        "cur_",
        "score"
      ],
      [
        ".\",\"",
        "-"
      ],
      [
        "ES",
        "CRIPT_EXTS"
      ],
      [
        "manifest",
        "_dir"
      ],
      [
        "run_",
        "id"
      ],
      [
        "Re",
        "gistry"
      ],
      [
        "par",
        "ts"
      ],
      [
        "low",
        "er"
      ],
      [
        "subtrac",
        "t"
      ],
      [
        "ollama",
        "_"
      ],
      [
        "LA",
        "N"
      ],
      [
        "read_",
        "text"
      ],
      [
        "read_",
        "config_fi"
      ],
      [
        "top_",
        "n"
      ],
      [
        "top_",
        "level"
      ],
      [
        "cl",
        "asses"
      ],
      [
        "mon",
        "adic"
      ],
      [
        "ta",
        "gs"
      ],
      [
        "⟧`",
        "\","
      ],
      [
        "symbol",
        "_count"
      ],
      [
        "_appen",
        "d"
      ],
      [
        "AS",
        "CRIPT_EXTS"
      ],
      [
        "In",
        "tent"
      ],
      [
        "SE",
        "TS"
      ],
      [
        "TI",
        "ER"
      ],
      [
        "wor",
        "k"
      ],
      [
        "detec",
        "t_"
      ],
      [
        "align",
        "ment"
      ],
      [
        "artifact_",
        "md_path"
      ],
      [
        "excep",
        "t"
      ],
      [
        "LOC",
        "AL_CONFIG_DIR"
      ],
      [
        "Stub",
        "LLMClient"
      ],
      [
        "_PRE",
        "SETS"
      ],
      [
        ")∨",
        "\"\""
      ],
      [
        "Dire",
        "ctory"
      ],
      [
        "Generat",
        "ed"
      ],
      [
        "JAV",
        "ASCRIPT_EXTS"
      ],
      [
        "OS",
        "Error"
      ],
      [
        "PY",
        "THON"
      ],
      [
        "Sur",
        "face"
      ],
      [
        "TYP",
        "ESCRIPT_EXTS"
      ],
      [
        "Val",
        "ueError"
      ],
      [
        "_to",
        "ken"
      ],
      [
        "_si",
        "ze"
      ],
      [
        "_raw",
        "_append"
      ],
      [
        "ab",
        "ulary"
      ],
      [
        "cros",
        "ses"
      ],
      [
        "fli",
        "ct"
      ],
      [
        "lle",
        "ctions"
      ],
      [
        "voc",
        "abulary"
      ],
      [
        "revi",
        "ew"
      ],
      [
        "cover",
        "age"
      ],
      [
        "descrip",
        "tion"
      ],
      [
        "meth",
        "o"
      ],
      [
        "export",
        "ed_"
      ],
      [
        "forwar",
        "ded"
      ],
      [
        "interme",
        "diate"
      ],
      [
        "sibl",
        "ing"
      ],
      [
        "Registry",
        "ManifestCard"
      ],
      [
        "read_config_fi",
        "le"
      ],
      [
        "PYTHON",
        "_EXTS"
      ],
      [
        "_token",
        "s"
      ],
      [
        "\"",
        "```"
      ],
      [
        "'",
        "\",\""
      ],
      [
        "'",
        "--"
      ],
      [
        "'",
        ")."
      ],
      [
        "'",
        "))\",\""
      ],
      [
        "(",
        "),"
      ],
      [
        ")",
        ":"
      ],
      [
        ")",
        "?"
      ],
      [
        ")",
        "≥"
      ],
      [
        ")",
        "}⟫"
      ],
      [
        "*",
        "."
      ],
      [
        "-",
        "⟦"
      ],
      [
        "-",
        "')"
      ],
      [
        ".",
        "\")"
      ],
      [
        ".",
        "\"\""
      ],
      [
        ".",
        "')]"
      ],
      [
        "/",
        "\""
      ],
      [
        "/",
        "/"
      ],
      [
        "0",
        "f"
      ],
      [
        "2",
        "5"
      ],
      [
        "4",
        "ι"
      ],
      [
        ":",
        "\"\""
      ],
      [
        ":",
        "//"
      ],
      [
        "=",
        "["
      ],
      [
        "A",
        "G"
      ],
      [
        "A",
        "uto"
      ],
      [
        "A",
        "LL"
      ],
      [
        "B",
        "AL_CONFIG_DIR"
      ],
      [
        "C",
        "O"
      ],
      [
        "C",
        "an"
      ],
      [
        "E",
        "C"
      ],
      [
        "E",
        "M"
      ],
      [
        "E",
        "N"
      ],
      [
        "G",
        "U"
      ],
      [
        "G",
        "em"
      ],
      [
        "G",
        "LO"
      ],
      [
        "I",
        "TS"
      ],
      [
        "K",
        "ind"
      ],
      [
        "K",
        "G_"
      ],
      [
        "M",
        "A"
      ],
      [
        "M",
        "M"
      ],
      [
        "M",
        "P"
      ],
      [
        "N",
        "I"
      ],
      [
        "O",
        "l"
      ],
      [
        "O",
        "pen"
      ],
      [
        "P",
        "ro"
      ],
      [
        "P",
        "ic"
      ],
      [
        "P",
        "KG_"
      ],
      [
        "S",
        "T"
      ],
      [
        "S",
        "cript"
      ],
      [
        "T",
        "e"
      ],
      [
        "T",
        "i"
      ],
      [
        "T",
        "yp"
      ],
      [
        "T",
        "he"
      ],
      [
        "T",
        "est"
      ],
      [
        "W",
        "ire"
      ],
      [
        "Z",
        "a"
      ],
      [
        "[",
        "⟪:"
      ],
      [
        "]",
        "."
      ],
      [
        "]",
        "\","
      ],
      [
        "]",
        ",\",\""
      ],
      [
        "]",
        ":\"\""
      ],
      [
        "_",
        "_"
      ],
      [
        "_",
        "ro"
      ],
      [
        "_",
        "de"
      ],
      [
        "_",
        "_p"
      ],
      [
        "_",
        "json"
      ],
      [
        "_",
        "confi"
      ],
      [
        "_",
        "la"
      ],
      [
        "_",
        "text"
      ],
      [
        "_",
        "EX"
      ],
      [
        "_",
        "ass"
      ],
      [
        "_",
        "line"
      ],
      [
        "_",
        "candidate_id"
      ],
      [
        "_",
        "NAM"
      ],
      [
        "_",
        "ms"
      ],
      [
        "_",
        "imports"
      ],
      [
        "_",
        "mar"
      ],
      [
        "_",
        "required"
      ],
      [
        "_",
        "summary"
      ],
      [
        "_",
        "excer"
      ],
      [
        "_",
        "calls"
      ],
      [
        "_",
        "MA"
      ],
      [
        "`",
        "."
      ],
      [
        "`",
        "\",\""
      ],
      [
        "a",
        "1"
      ],
      [
        "a",
        "2"
      ],
      [
        "a",
        "4"
      ],
      [
        "a",
        "ch"
      ],
      [
        "a",
        "kdown"
      ],
      [
        "b",
        "r"
      ],
      [
        "b",
        "u"
      ],
      [
        "b",
        "re"
      ],
      [
        "b",
        "el"
      ],
      [
        "b",
        "_s"
      ],
      [
        "c",
        "e"
      ],
      [
        "c",
        "i"
      ],
      [
        "c",
        "s"
      ],
      [
        "c",
        "es"
      ],
      [
        "c",
        "js"
      ],
      [
        "c",
        "ach"
      ],
      [
        "d",
        "er"
      ],
      [
        "e",
        "b"
      ],
      [
        "e",
        "g"
      ],
      [
        "e",
        "v"
      ],
      [
        "e",
        "Card"
      ],
      [
        "e",
        "ff"
      ],
      [
        "f",
        "re"
      ],
      [
        "f",
        "e_"
      ],
      [
        "f",
        "ul"
      ],
      [
        "f",
        "lo"
      ],
      [
        "g",
        "nore"
      ],
      [
        "h",
        "ex"
      ],
      [
        "h",
        "and"
      ],
      [
        "h",
        "ap"
      ],
      [
        "h",
        "ig"
      ],
      [
        "h",
        "lib"
      ],
      [
        "i",
        "o"
      ],
      [
        "i",
        "de"
      ],
      [
        "j",
        "p"
      ],
      [
        "j",
        "u"
      ],
      [
        "k",
        "ip"
      ],
      [
        "l",
        "_p"
      ],
      [
        "m",
        "yp"
      ],
      [
        "m",
        "il"
      ],
      [
        "n",
        "ext"
      ],
      [
        "o",
        "f"
      ],
      [
        "o",
        "se"
      ],
      [
        "o",
        "t_"
      ],
      [
        "o",
        "si"
      ],
      [
        "p",
        "ip"
      ],
      [
        "p",
        "th"
      ],
      [
        "p",
        "tion"
      ],
      [
        "p",
        "ipe"
      ],
      [
        "r",
        "u"
      ],
      [
        "r",
        "an"
      ],
      [
        "s",
        "v"
      ],
      [
        "s",
        "ent"
      ],
      [
        "s",
        "ider"
      ],
      [
        "s",
        "hap"
      ],
      [
        "s",
        "kip"
      ],
      [
        "t",
        "0"
      ],
      [
        "t",
        "p"
      ],
      [
        "t",
        "re"
      ],
      [
        "t",
        "ure"
      ],
      [
        "u",
        "de"
      ],
      [
        "v",
        "al"
      ],
      [
        "v",
        "sco"
      ],
      [
        "w",
        "ard"
      ],
      [
        "w",
        "ire"
      ],
      [
        "w",
        "eb"
      ],
      [
        "x",
        "t"
      ],
      [
        "y",
        "el"
      ],
      [
        "y",
        "cach"
      ],
      [
        "{",
        "'"
      ],
      [
        "}",
        ")"
      ],
      [
        "∅",
        "})"
      ],
      [
        "∨",
        "\""
      ],
      [
        "≠",
        "∅})"
      ],
      [
        "⟧",
        "\")"
      ],
      [
        "⟫",
        "]⟧"
      ],
      [
        "er",
        "ers"
      ],
      [
        "on",
        "ic"
      ],
      [
        "on",
        "_con"
      ],
      [
        "re",
        "ad"
      ],
      [
        "re",
        "name"
      ],
      [
        "re",
        "pl"
      ],
      [
        "re",
        "ctory"
      ],
      [
        "re",
        "sp"
      ],
      [
        "re",
        "l_p"
      ],
      [
        "in",
        "ts"
      ],
      [
        "in",
        "stan"
      ],
      [
        "in",
        "stall"
      ],
      [
        "or",
        "t_"
      ],
      [
        "or",
        "ary"
      ],
      [
        "st",
        "s"
      ],
      [
        "st",
        "em"
      ],
      [
        "en",
        "o"
      ],
      [
        "en",
        "for"
      ],
      [
        "en",
        "code"
      ],
      [
        "\",\"",
        "##"
      ],
      [
        "se",
        "e"
      ],
      [
        "ro",
        "le"
      ],
      [
        "an",
        "el"
      ],
      [
        "co",
        "llections"
      ],
      [
        "di",
        "st"
      ],
      [
        "di",
        "rectory"
      ],
      [
        "ti",
        "gnore"
      ],
      [
        "ch",
        "it"
      ],
      [
        "con",
        "stants"
      ],
      [
        "con",
        "sider"
      ],
      [
        "'.",
        "/"
      ],
      [
        "d_",
        "types"
      ],
      [
        "d_",
        "names"
      ],
      [
        "d_",
        "lineage"
      ],
      [
        "\\\"",
        ")⟧"
      ],
      [
        "it",
        "ted"
      ],
      [
        "un",
        "t_"
      ],
      [
        "fi",
        "g"
      ],
      [
        "fi",
        "rst"
      ],
      [
        "fi",
        "le_"
      ],
      [
        "me",
        "ta"
      ],
      [
        "mp",
        "file"
      ],
      [
        "mp",
        "_required"
      ],
      [
        "mp",
        "orary"
      ],
      [
        "ex",
        "tra"
      ],
      [
        "e_",
        "_"
      ],
      [
        "\")",
        ")."
      ],
      [
        "ts",
        "x"
      ],
      [
        "as",
        "ci"
      ],
      [
        "(\"",
        "^"
      ],
      [
        "(\"",
        "\","
      ],
      [
        "js",
        "x"
      ],
      [
        "package",
        "_root"
      ],
      [
        "package",
        "_name"
      ],
      [
        "tr",
        "anscript"
      ],
      [
        "self",
        "_ass"
      ],
      [
        "_p",
        "anel"
      ],
      [
        "sy",
        "n"
      ],
      [
        "ver",
        "b_s"
      ],
      [
        "is",
        "_"
      ],
      [
        "is",
        "ion"
      ],
      [
        "is",
        "instan"
      ],
      [
        "_co",
        "unt_"
      ],
      [
        "forge",
        "d"
      ],
      [
        ").",
        "')]"
      ],
      [
        "schema",
        "s"
      ],
      [
        "to",
        "ml"
      ],
      [
        "config",
        "_path"
      ],
      [
        "⟪{",
        "}⟫"
      ],
      [
        "chain",
        "_count_"
      ],
      [
        "sul",
        "t"
      ],
      [
        "ha",
        "vi"
      ],
      [
        "la",
        "yout"
      ],
      [
        "la",
        "ude"
      ],
      [
        "T_",
        "RE"
      ],
      [
        "T_",
        "FIL"
      ],
      [
        "T_",
        "TE"
      ],
      [
        "ot",
        "onic"
      ],
      [
        "cal",
        "lable"
      ],
      [
        "ig",
        "no"
      ],
      [
        "ig",
        "nore"
      ],
      [
        "pa",
        "ir"
      ],
      [
        "didat",
        "eCard"
      ],
      [
        "rend",
        "erers"
      ],
      [
        "el",
        "se"
      ],
      [
        "lin",
        "eno"
      ],
      [
        "help",
        "_text"
      ],
      [
        "render_",
        "tests"
      ],
      [
        "vi",
        "a"
      ],
      [
        "wr",
        "ang"
      ],
      [
        "wr",
        "app"
      ],
      [
        "doc",
        "s"
      ],
      [
        "doc",
        "_tokens"
      ],
      [
        "fe",
        "ed"
      ],
      [
        "up",
        "ward"
      ],
      [
        "\"\"",
        "\"\""
      ],
      [
        "Co",
        "mp"
      ],
      [
        "Co",
        "unt"
      ],
      [
        "y_",
        "cache"
      ],
      [
        "url",
        "lib"
      ],
      [
        "orchestr",
        "ate"
      ],
      [
        "orchestr",
        "ator"
      ],
      [
        "ic",
        "e"
      ],
      [
        "4_",
        "project_"
      ],
      [
        "_o",
        "f"
      ],
      [
        "em",
        "itted"
      ],
      [
        "po",
        "ints"
      ],
      [
        "cho",
        "ice"
      ],
      [
        "writ",
        "e"
      ],
      [
        "tier_",
        "inv"
      ],
      [
        "tier_",
        "inventory"
      ],
      [
        "feature",
        "_count"
      ],
      [
        "cur",
        "_prefix"
      ],
      [
        "gi",
        "st"
      ],
      [
        "gi",
        "tignore"
      ],
      [
        "```",
        "\",\"\","
      ],
      [
        "import",
        "able"
      ],
      [
        "write_",
        "manifest"
      ],
      [
        "write_",
        "registry"
      ],
      [
        "_render_",
        "shared_schema"
      ],
      [
        "_render_",
        "in_memory_pipe"
      ],
      [
        "phase",
        "_"
      ],
      [
        "⟨⟩→",
        "["
      ],
      [
        "commands",
        "_dir"
      ],
      [
        "commands",
        "mith"
      ],
      [
        "catalog",
        "_size"
      ],
      [
        "final",
        "_output"
      ],
      [
        "final",
        "ize"
      ],
      [
        "generat",
        "ed"
      ],
      [
        "has",
        "_cl"
      ],
      [
        "has",
        "hlib"
      ],
      [
        "smo",
        "ke"
      ],
      [
        "modu",
        "les"
      ],
      [
        "_pre",
        "sent"
      ],
      [
        "candidate_",
        "count"
      ],
      [
        "source_",
        "repo"
      ],
      [
        "atomadic_forge",
        "_se"
      ],
      [
        "De",
        "mo"
      ],
      [
        "_fi",
        "rst"
      ],
      [
        "_fi",
        "les"
      ],
      [
        "_fi",
        "le_"
      ],
      [
        "ire",
        "_pure"
      ],
      [
        "sha",
        "25"
      ],
      [
        "local",
        "_path"
      ],
      [
        "local",
        "_cfg"
      ],
      [
        "default_",
        "exp"
      ],
      [
        "cur_",
        "out"
      ],
      [
        "cur_",
        "src"
      ],
      [
        "cur_",
        "auto"
      ],
      [
        "1_",
        "provider"
      ],
      [
        "'}",
        ")}⟫"
      ],
      [
        "Con",
        "fig"
      ],
      [
        "Re",
        "sult"
      ],
      [
        "ff",
        "_cache"
      ],
      [
        "i_ke",
        "y"
      ],
      [
        "pr",
        "iv"
      ],
      [
        "par",
        "se"
      ],
      [
        "requ",
        "ire_pure"
      ],
      [
        "exist",
        "s"
      ],
      [
        "score_",
        "bre"
      ],
      [
        "erry",
        "Pic"
      ],
      [
        "ollama",
        "_url"
      ],
      [
        "_step",
        "4_project_"
      ],
      [
        "_step",
        "1_provider"
      ],
      [
        "An",
        "thropic"
      ],
      [
        "LA",
        "TE"
      ],
      [
        "St",
        "ep"
      ],
      [
        "duration",
        "_ms"
      ],
      [
        "lang",
        "_la"
      ],
      [
        "wo",
        "ff"
      ],
      [
        "domain_",
        "inv"
      ],
      [
        "domain_",
        "inventory"
      ],
      [
        "domain_",
        "ju"
      ],
      [
        "shared_",
        "vocabulary"
      ],
      [
        "SynergyScan",
        "Report"
      ],
      [
        "EmergentScan",
        "Report"
      ],
      [
        "global",
        "_"
      ],
      [
        "global",
        "_path"
      ],
      [
        "global",
        "_cfg"
      ],
      [
        "_chains",
        "_count"
      ],
      [
        "be",
        "fo"
      ],
      [
        "be",
        "havi"
      ],
      [
        "cl",
        "ass"
      ],
      [
        "fo",
        "und"
      ],
      [
        "ht",
        "ml"
      ],
      [
        "ht",
        "tp"
      ],
      [
        "il",
        "d"
      ],
      [
        "mon",
        "otonic"
      ],
      [
        "sav",
        "e"
      ],
      [
        "sav",
        "e_report"
      ],
      [
        "te",
        "mpfile"
      ],
      [
        "state",
        "ful"
      ],
      [
        "\",\"\",\"",
        "```"
      ],
      [
        "\",\"\",\"",
        "##"
      ],
      [
        "fiel",
        "ds"
      ],
      [
        "fiel",
        "d_types"
      ],
      [
        "pytest",
        "_cache"
      ],
      [
        "_appen",
        "d_lineage"
      ],
      [
        "has_",
        "self_ass"
      ],
      [
        "']",
        ","
      ],
      [
        "max",
        "_chains"
      ],
      [
        "max",
        "_de"
      ],
      [
        "merge",
        "_confi"
      ],
      [
        "error",
        "_"
      ],
      [
        "_cl",
        "asses"
      ],
      [
        "ROO",
        "T"
      ],
      [
        "ROO",
        "T_TE"
      ],
      [
        "llm",
        "_name"
      ],
      [
        "_balance_",
        "pair"
      ],
      [
        "Ch",
        "erryPic"
      ],
      [
        "Imp",
        "ort"
      ],
      [
        "Sco",
        "re"
      ],
      [
        "Signature",
        "Card"
      ],
      [
        "base",
        "_url"
      ],
      [
        "cer",
        "tif"
      ],
      [
        "ever",
        "y"
      ],
      [
        "find",
        "ings"
      ],
      [
        "per",
        "ation"
      ],
      [
        "sa",
        "fe_"
      ],
      [
        "signature",
        "s"
      ],
      [
        "wh",
        "y"
      ],
      [
        "|----",
        "----"
      ],
      [
        "gemin",
        "i_key"
      ],
      [
        "anthropic",
        "_key"
      ],
      [
        "disco",
        "ver"
      ],
      [
        "adapt",
        "er"
      ],
      [
        "load_",
        "config"
      ],
      [
        "synerg",
        "ies"
      ],
      [
        "_domain",
        "s"
      ],
      [
        "_docstring",
        "_first"
      ],
      [
        "viol",
        "ations"
      ],
      [
        "Defaul",
        "t"
      ],
      [
        "openai",
        "_key"
      ],
      [
        "ollama_",
        "model"
      ],
      [
        "LAN",
        "GU"
      ],
      [
        "tags",
        "_url"
      ],
      [
        "TIER",
        "_NAM"
      ],
      [
        "work",
        "tre"
      ],
      [
        "detect_",
        "ollama"
      ],
      [
        "crosses",
        "_domains"
      ],
      [
        "metho",
        "d_names"
      ],
      [
        "sibling",
        "_imports"
      ],
      [
        ".\"\"",
        "\""
      ],
      [
        "CO",
        "MM"
      ],
      [
        "Can",
        "didateCard"
      ],
      [
        "EM",
        "ITS"
      ],
      [
        "EN",
        "T_RE"
      ],
      [
        "Gem",
        "ini"
      ],
      [
        "GLO",
        "BAL_CONFIG_DIR"
      ],
      [
        "MP",
        "LATE"
      ],
      [
        "Ol",
        "lama"
      ],
      [
        "Open",
        "AI"
      ],
      [
        "PKG_",
        "ROOT_TE"
      ],
      [
        "Te",
        "mporary"
      ],
      [
        "Ti",
        "er"
      ],
      [
        "_ro",
        "ot_"
      ],
      [
        "__p",
        "ycach"
      ],
      [
        "_EX",
        "T"
      ],
      [
        "bu",
        "ild"
      ],
      [
        "cs",
        "s"
      ],
      [
        "ev",
        "ol"
      ],
      [
        "eff",
        "ec"
      ],
      [
        "fre",
        "e"
      ],
      [
        "flo",
        "at"
      ],
      [
        "hex",
        "digest"
      ],
      [
        "hig",
        "her"
      ],
      [
        "ide",
        "a"
      ],
      [
        "myp",
        "y_cache"
      ],
      [
        "ru",
        "ff_cache"
      ],
      [
        "vsco",
        "de"
      ],
      [
        "yel",
        "low"
      ],
      [
        "⟫]⟧",
        "\")"
      ],
      [
        "on_con",
        "flict"
      ],
      [
        "repl",
        "ace"
      ],
      [
        "rel_p",
        "arts"
      ],
      [
        "enfor",
        "ces"
      ],
      [
        "chit",
        "ec"
      ],
      [
        "consider",
        "ed"
      ],
      [
        "verb_s",
        "ignature"
      ],
      [
        "isinstan",
        "ce"
      ],
      [
        "chain_count_",
        "considered"
      ],
      [
        "wrang",
        "ler"
      ],
      [
        "Count",
        "er"
      ],
      [
        "orchestrator",
        "s"
      ],
      [
        "final_output",
        "_type"
      ],
      [
        "has_cl",
        "ass"
      ],
      [
        "sha25",
        "6"
      ],
      [
        "default_exp",
        "ort_"
      ],
      [
        "priv",
        "ate"
      ],
      [
        "score_bre",
        "akdown"
      ],
      [
        "_step4_project_",
        "defaults"
      ],
      [
        "lang_la",
        "bel"
      ],
      [
        "domain_ju",
        "mp_required"
      ],
      [
        "befo",
        "re"
      ],
      [
        "has_self_ass",
        "ign"
      ],
      [
        "max_de",
        "pth"
      ],
      [
        "merge_confi",
        "gs"
      ],
      [
        "CherryPic",
        "k"
      ],
      [
        "safe_",
        "intent"
      ],
      [
        "_docstring_first",
        "_line"
      ],
      [
        "LANGU",
        "AG"
      ],
      [
        "TIER_NAM",
        "ES"
      ],
      [
        "worktre",
        "es"
      ],
      [
        "COMM",
        "ENT_RE"
      ],
      [
        "PKG_ROOT_TE",
        "MPLATE"
      ],
      [
        "Temporary",
        "Directory"
      ],
      [
        "__pycach",
        "e__"
      ],
      [
        "\"",
        "'"
      ],
      [
        "\"",
        "/"
      ],
      [
        "\"",
        "~"
      ],
      [
        "\"",
        "+\""
      ],
      [
        "\"",
        "?\""
      ],
      [
        "'",
        "\""
      ],
      [
        "'",
        "\")"
      ],
      [
        "'",
        ")\",\""
      ],
      [
        "'",
        "'),"
      ],
      [
        "'",
        "')."
      ],
      [
        "(",
        "!"
      ],
      [
        "(",
        "?"
      ],
      [
        "(",
        "\\\""
      ],
      [
        "(",
        ")\",\""
      ],
      [
        ")",
        "("
      ],
      [
        ")",
        "]"
      ],
      [
        ")",
        "\","
      ],
      [
        ")",
        "\\\""
      ],
      [
        ")",
        "\")"
      ],
      [
        ")",
        "[\""
      ],
      [
        ")",
        ":\",\""
      ],
      [
        ")",
        "\"])"
      ],
      [
        ")",
        "},"
      ],
      [
        "+",
        "\","
      ],
      [
        ",",
        "\","
      ],
      [
        "-",
        "]"
      ],
      [
        "-",
        "|--------"
      ],
      [
        ".",
        "\"])"
      ],
      [
        "/",
        "."
      ],
      [
        "/",
        "{"
      ],
      [
        "/",
        "⟦"
      ],
      [
        "/",
        "\"."
      ],
      [
        "/",
        "\\\")⟧"
      ],
      [
        "1",
        "1"
      ],
      [
        "1",
        "f"
      ],
      [
        "2",
        "00"
      ],
      [
        "3",
        "4"
      ],
      [
        "3",
        "_api_ke"
      ],
      [
        "4",
        "0"
      ],
      [
        "4",
        "34"
      ],
      [
        "5",
        "_"
      ],
      [
        "7",
        "5"
      ],
      [
        "7",
        "B"
      ],
      [
        "7",
        "b"
      ],
      [
        "9",
        "_"
      ],
      [
        ":",
        "∅"
      ],
      [
        "=",
        "\","
      ],
      [
        "=",
        "\\\""
      ],
      [
        "=",
        "(\""
      ],
      [
        "=",
        "⟪{}⟫"
      ],
      [
        "A",
        "d"
      ],
      [
        "A",
        "s"
      ],
      [
        "B",
        "o"
      ],
      [
        "B",
        "LOC"
      ],
      [
        "C",
        "E"
      ],
      [
        "C",
        "er"
      ],
      [
        "C",
        "_EXTS"
      ],
      [
        "C",
        "laude"
      ],
      [
        "D",
        "O"
      ],
      [
        "D",
        "S"
      ],
      [
        "D",
        "i"
      ],
      [
        "D",
        "ec"
      ],
      [
        "D",
        "ic"
      ],
      [
        "D",
        "uration"
      ],
      [
        "E",
        "D"
      ],
      [
        "E",
        "F"
      ],
      [
        "E",
        "D_"
      ],
      [
        "E",
        "ll"
      ],
      [
        "F",
        "e"
      ],
      [
        "F",
        "o"
      ],
      [
        "F",
        "in"
      ],
      [
        "F",
        "ind"
      ],
      [
        "F",
        "ES"
      ],
      [
        "F",
        "EC"
      ],
      [
        "F",
        "_EXT"
      ],
      [
        "G",
        "I"
      ],
      [
        "G",
        "P"
      ],
      [
        "G",
        "o"
      ],
      [
        "G",
        "ED"
      ],
      [
        "I",
        "t"
      ],
      [
        "I",
        "DE"
      ],
      [
        "I",
        "NI"
      ],
      [
        "J",
        "s"
      ],
      [
        "J",
        "av"
      ],
      [
        "J",
        "EC"
      ],
      [
        "K",
        "_"
      ],
      [
        "K",
        "e"
      ],
      [
        "L",
        "a"
      ],
      [
        "L",
        "Error"
      ],
      [
        "L",
        "ang"
      ],
      [
        "L",
        "iv"
      ],
      [
        "M",
        "a"
      ],
      [
        "M",
        "er"
      ],
      [
        "M",
        "an"
      ],
      [
        "M",
        "ultiply"
      ],
      [
        "M",
        "AI"
      ],
      [
        "N",
        "ex"
      ],
      [
        "N",
        "ot"
      ],
      [
        "N",
        "E_"
      ],
      [
        "N",
        "G_"
      ],
      [
        "N",
        "_EXT"
      ],
      [
        "O",
        "U"
      ],
      [
        "O",
        "W"
      ],
      [
        "O",
        "ut"
      ],
      [
        "O",
        "ption"
      ],
      [
        "O",
        "peration"
      ],
      [
        "O",
        "F_EXT"
      ],
      [
        "P",
        "l"
      ],
      [
        "P",
        "re"
      ],
      [
        "P",
        "ackage"
      ],
      [
        "P",
        "arser"
      ],
      [
        "P",
        "hase"
      ],
      [
        "P",
        "ass"
      ],
      [
        "R",
        "Y"
      ],
      [
        "R",
        "o"
      ],
      [
        "R",
        "es"
      ],
      [
        "R",
        "ec"
      ],
      [
        "R",
        "_MA"
      ],
      [
        "R",
        "LError"
      ],
      [
        "S",
        "i"
      ],
      [
        "S",
        "o"
      ],
      [
        "S",
        "mo"
      ],
      [
        "S",
        "ha"
      ],
      [
        "S",
        "ub"
      ],
      [
        "S",
        "OU"
      ],
      [
        "T",
        "h"
      ],
      [
        "T",
        "TI"
      ],
      [
        "U",
        "RLError"
      ],
      [
        "V",
        "i"
      ],
      [
        "V",
        "er"
      ],
      [
        "V",
        "ER"
      ],
      [
        "V",
        "IDE"
      ],
      [
        "W",
        "h"
      ],
      [
        "W",
        "or"
      ],
      [
        "[",
        "⟦"
      ],
      [
        "[",
        "\",\""
      ],
      [
        "\\",
        "-]"
      ],
      [
        "]",
        "("
      ],
      [
        "]",
        "["
      ],
      [
        "]",
        "\")"
      ],
      [
        "]",
        ")⟧"
      ],
      [
        "_",
        "n"
      ],
      [
        "_",
        "r"
      ],
      [
        "_",
        "in"
      ],
      [
        "_",
        "en"
      ],
      [
        "_",
        "for"
      ],
      [
        "_",
        "args"
      ],
      [
        "_",
        "can"
      ],
      [
        "_",
        "src"
      ],
      [
        "_",
        "resul"
      ],
      [
        "_",
        "up"
      ],
      [
        "_",
        "fix"
      ],
      [
        "_",
        "strip"
      ],
      [
        "_",
        "RE"
      ],
      [
        "_",
        "import"
      ],
      [
        "_",
        "write_"
      ],
      [
        "_",
        "len"
      ],
      [
        "_",
        "catalog"
      ],
      [
        "_",
        "consum"
      ],
      [
        "_",
        "functions"
      ],
      [
        "_",
        "raise"
      ],
      [
        "_",
        "dict"
      ],
      [
        "_",
        "FIL"
      ],
      [
        "_",
        "all"
      ],
      [
        "_",
        "module"
      ],
      [
        "_",
        "trajectory"
      ],
      [
        "_",
        "LI"
      ],
      [
        "_",
        "Store"
      ],
      [
        "_",
        "attr"
      ],
      [
        "_",
        "wor"
      ],
      [
        "_",
        "log"
      ],
      [
        "_",
        "and_"
      ],
      [
        "_",
        "ollama_"
      ],
      [
        "_",
        "Generated"
      ],
      [
        "_",
        "ST"
      ],
      [
        "_",
        "asci"
      ],
      [
        "_",
        "is_"
      ],
      [
        "_",
        "emitted"
      ],
      [
        "_",
        "modules"
      ],
      [
        "_",
        "_file_"
      ],
      [
        "_",
        "BLOC"
      ],
      [
        "_",
        "INI"
      ],
      [
        "_",
        "SOU"
      ],
      [
        "`",
        ")"
      ],
      [
        "`",
        "--"
      ],
      [
        "`",
        "/`"
      ],
      [
        "a",
        "me"
      ],
      [
        "a",
        "mp"
      ],
      [
        "a",
        "bo"
      ],
      [
        "a",
        "ider"
      ],
      [
        "a",
        "jectory"
      ],
      [
        "a",
        "ml"
      ],
      [
        "a",
        "Script"
      ],
      [
        "b",
        "mp"
      ],
      [
        "b",
        "est"
      ],
      [
        "c",
        "k"
      ],
      [
        "c",
        "ar"
      ],
      [
        "c",
        "it"
      ],
      [
        "c",
        "ul"
      ],
      [
        "c",
        "fg"
      ],
      [
        "c",
        "ision"
      ],
      [
        "c",
        "laude"
      ],
      [
        "d",
        "f"
      ],
      [
        "d",
        "on"
      ],
      [
        "d",
        "en"
      ],
      [
        "d",
        "enc"
      ],
      [
        "e",
        "di"
      ],
      [
        "e",
        "ts"
      ],
      [
        "e",
        "ed"
      ],
      [
        "e",
        "mergent"
      ],
      [
        "e",
        "back"
      ],
      [
        "e",
        "Script"
      ],
      [
        "f",
        "s"
      ],
      [
        "f",
        "t"
      ],
      [
        "f",
        "er"
      ],
      [
        "f",
        "ut"
      ],
      [
        "f",
        "la"
      ],
      [
        "f",
        "ol"
      ],
      [
        "f",
        "test"
      ],
      [
        "g",
        "u"
      ],
      [
        "g",
        "er"
      ],
      [
        "g",
        "at"
      ],
      [
        "g",
        "it"
      ],
      [
        "g",
        "if"
      ],
      [
        "g",
        "ith"
      ],
      [
        "g",
        "gest"
      ],
      [
        "h",
        "g"
      ],
      [
        "h",
        "o"
      ],
      [
        "h",
        "ard"
      ],
      [
        "h",
        "id"
      ],
      [
        "h",
        "int"
      ],
      [
        "i",
        "z"
      ],
      [
        "i",
        "co"
      ],
      [
        "i",
        "str"
      ],
      [
        "i",
        "le"
      ],
      [
        "i",
        "um"
      ],
      [
        "i",
        "date"
      ],
      [
        "i",
        "min"
      ],
      [
        "i",
        "_trajectory"
      ],
      [
        "k",
        "s"
      ],
      [
        "k",
        "it"
      ],
      [
        "k",
        "now"
      ],
      [
        "k",
        "_chains"
      ],
      [
        "k",
        "_all"
      ],
      [
        "l",
        "s"
      ],
      [
        "l",
        "ess"
      ],
      [
        "l",
        "exit"
      ],
      [
        "l",
        "ve"
      ],
      [
        "m",
        "an"
      ],
      [
        "m",
        "al"
      ],
      [
        "m",
        "istr"
      ],
      [
        "n",
        "g"
      ],
      [
        "n",
        "u"
      ],
      [
        "n",
        "ed"
      ],
      [
        "n",
        "ever"
      ],
      [
        "n",
        "eed"
      ],
      [
        "o",
        "u"
      ],
      [
        "o",
        "ur"
      ],
      [
        "o",
        "ver"
      ],
      [
        "o",
        "peration"
      ],
      [
        "p",
        "ts"
      ],
      [
        "p",
        "as"
      ],
      [
        "p",
        "ed"
      ],
      [
        "p",
        "asses"
      ],
      [
        "p",
        "pt"
      ],
      [
        "p",
        "df"
      ],
      [
        "p",
        "ng"
      ],
      [
        "r",
        "g"
      ],
      [
        "r",
        "m"
      ],
      [
        "r",
        "ation"
      ],
      [
        "r",
        "strip"
      ],
      [
        "r",
        "face"
      ],
      [
        "r",
        "ies"
      ],
      [
        "s",
        "or"
      ],
      [
        "s",
        "age"
      ],
      [
        "s",
        "is"
      ],
      [
        "s",
        "ort"
      ],
      [
        "s",
        "cr"
      ],
      [
        "s",
        "ing"
      ],
      [
        "s",
        "imp"
      ],
      [
        "s",
        "ign"
      ],
      [
        "s",
        "ass"
      ],
      [
        "s",
        "Client"
      ],
      [
        "s",
        "pec"
      ],
      [
        "s",
        "vel"
      ],
      [
        "s",
        "css"
      ],
      [
        "t",
        "f"
      ],
      [
        "t",
        "y"
      ],
      [
        "t",
        "or"
      ],
      [
        "t",
        "ch"
      ],
      [
        "t",
        "al"
      ],
      [
        "t",
        "es"
      ],
      [
        "t",
        "as"
      ],
      [
        "t",
        "ain"
      ],
      [
        "t",
        "up"
      ],
      [
        "t",
        "y_"
      ],
      [
        "t",
        "ers"
      ],
      [
        "t",
        "xt"
      ],
      [
        "t",
        "tf"
      ],
      [
        "u",
        "g"
      ],
      [
        "u",
        "al"
      ],
      [
        "u",
        "es"
      ],
      [
        "u",
        "ct"
      ],
      [
        "u",
        "sClient"
      ],
      [
        "v",
        "es"
      ],
      [
        "v",
        "er_"
      ],
      [
        "v",
        "2_"
      ],
      [
        "v",
        "e_report"
      ],
      [
        "w",
        "er"
      ],
      [
        "w",
        "av"
      ],
      [
        "w",
        "ir"
      ],
      [
        "w",
        "are"
      ],
      [
        "w",
        "iz"
      ],
      [
        "x",
        "ls"
      ],
      [
        "y",
        "Error"
      ],
      [
        "y",
        "ml"
      ],
      [
        "y",
        "Result"
      ],
      [
        "y",
        "Score"
      ],
      [
        "y",
        "aml"
      ],
      [
        "y",
        "ou"
      ],
      [
        "z",
        "0"
      ],
      [
        "z",
        "er"
      ],
      [
        "z",
        "e_"
      ],
      [
        "{",
        "}"
      ],
      [
        "|",
        "⟦"
      ],
      [
        "}",
        "}⟫"
      ],
      [
        "}",
        "'}⟫"
      ],
      [
        "→",
        "\"."
      ],
      [
        "∨",
        "\\\""
      ],
      [
        "∨",
        "⟪{"
      ],
      [
        "∨",
        "[]"
      ],
      [
        "≟",
        "\""
      ],
      [
        "✓",
        "\":\""
      ],
      [
        "⟧",
        "\""
      ],
      [
        "⟧",
        "."
      ],
      [
        "⟧",
        "/"
      ],
      [
        "⟧",
        ";"
      ],
      [
        "⟧",
        "\","
      ],
      [
        "⟧",
        "\"."
      ],
      [
        "⟧",
        "->"
      ],
      [
        "⟧",
        "'\""
      ],
      [
        "⟧",
        "|⟦"
      ],
      [
        "⟫",
        "]"
      ],
      [
        "er",
        "ent"
      ],
      [
        "er",
        "ed"
      ],
      [
        "on",
        "s"
      ],
      [
        "on",
        "ents"
      ],
      [
        "on",
        "ly"
      ],
      [
        "on",
        "der"
      ],
      [
        "on",
        "ger"
      ],
      [
        "re",
        "con"
      ],
      [
        "re",
        "al"
      ],
      [
        "re",
        "as"
      ],
      [
        "re",
        "so"
      ],
      [
        "re",
        "gistr"
      ],
      [
        "re",
        "lat"
      ],
      [
        "re",
        "gist"
      ],
      [
        "re",
        "_log"
      ],
      [
        "at",
        "ing"
      ],
      [
        "at",
        "io"
      ],
      [
        "\",",
        "[\""
      ],
      [
        "\",",
        "[]"
      ],
      [
        "in",
        "str"
      ],
      [
        "in",
        "ser"
      ],
      [
        "in",
        "fo"
      ],
      [
        "in",
        "fer"
      ],
      [
        "ar",
        "it"
      ],
      [
        "ar",
        "chitec"
      ],
      [
        "or",
        "d"
      ],
      [
        "or",
        "al"
      ],
      [
        "or",
        "der"
      ],
      [
        "or",
        "mal"
      ],
      [
        "st",
        "and"
      ],
      [
        "st",
        "ep"
      ],
      [
        "st",
        "ub"
      ],
      [
        "st",
        "arts"
      ],
      [
        "st",
        "_size"
      ],
      [
        "st",
        "amp"
      ],
      [
        "en",
        "al"
      ],
      [
        "en",
        "um"
      ],
      [
        "ge",
        "s"
      ],
      [
        "ge",
        "Dec"
      ],
      [
        "\",\"",
        "$"
      ],
      [
        "\",\"",
        "\")"
      ],
      [
        "\",\"",
        "```\",\"\","
      ],
      [
        "se",
        "d"
      ],
      [
        "se",
        "ts"
      ],
      [
        "se",
        "par"
      ],
      [
        "an",
        "y"
      ],
      [
        "an",
        "du"
      ],
      [
        "an",
        "not"
      ],
      [
        "co",
        "v"
      ],
      [
        "co",
        "her"
      ],
      [
        "ut",
        "es"
      ],
      [
        "ut",
        "Report"
      ],
      [
        "de",
        "st"
      ],
      [
        "de",
        "cision"
      ],
      [
        "di",
        "ff"
      ],
      [
        "di",
        "scr"
      ],
      [
        "ti",
        "c"
      ],
      [
        "ti",
        "l"
      ],
      [
        "ch",
        "err"
      ],
      [
        "con",
        "sts"
      ],
      [
        "al",
        "e"
      ],
      [
        "al",
        "s"
      ],
      [
        "al",
        "mo"
      ],
      [
        "al",
        "id"
      ],
      [
        "al",
        "one"
      ],
      [
        "su",
        "es"
      ],
      [
        "su",
        "mes"
      ],
      [
        "su",
        "ggest"
      ],
      [
        "su",
        "rface"
      ],
      [
        "su",
        "re_log"
      ],
      [
        "ma",
        "y"
      ],
      [
        "pro",
        "ves"
      ],
      [
        "ac",
        "ros"
      ],
      [
        "d_",
        "chains"
      ],
      [
        "d_",
        "imports"
      ],
      [
        "d_",
        "signature"
      ],
      [
        "d_",
        "hand"
      ],
      [
        "\\\"",
        "])⟧"
      ],
      [
        "it",
        "s"
      ],
      [
        "un",
        "available"
      ],
      [
        "un",
        "know"
      ],
      [
        "un",
        "spec"
      ],
      [
        "un",
        "til"
      ],
      [
        "ent",
        "_count"
      ],
      [
        "fi",
        "les"
      ],
      [
        "ur",
        "lo"
      ],
      [
        "ur",
        "ist"
      ],
      [
        "str",
        "ings"
      ],
      [
        "str",
        "onger"
      ],
      [
        "du",
        "le"
      ],
      [
        "mp",
        "3"
      ],
      [
        "mp",
        "4"
      ],
      [
        "ex",
        "pose"
      ],
      [
        ":[",
        "["
      ],
      [
        "er_",
        "name"
      ],
      [
        "er_",
        "app"
      ],
      [
        "er_",
        "default_"
      ],
      [
        "er_",
        "pay"
      ],
      [
        "er_",
        "inputs"
      ],
      [
        "er_",
        "igno"
      ],
      [
        "e_",
        "to"
      ],
      [
        "e_",
        "config"
      ],
      [
        "t_",
        "to"
      ],
      [
        "t_",
        "distribution"
      ],
      [
        "\")",
        ","
      ],
      [
        "\")",
        "))"
      ],
      [
        "\")",
        "∨[]"
      ],
      [
        "ip",
        "sis"
      ],
      [
        "le",
        "ct"
      ],
      [
        "le",
        "Not"
      ],
      [
        "as",
        "_p"
      ],
      [
        "as",
        "sumes"
      ],
      [
        "typ",
        "er_app"
      ],
      [
        "(\"",
        "["
      ],
      [
        "(\"",
        "\"\""
      ],
      [
        "(\"",
        ".\")"
      ],
      [
        "(\"",
        "`\",\""
      ],
      [
        "(\"",
        "→\"."
      ],
      [
        "ack",
        "ets"
      ],
      [
        "li",
        "ed"
      ],
      [
        "li",
        "cit"
      ],
      [
        "produc",
        "e"
      ],
      [
        "produc",
        "ed"
      ],
      [
        "produc",
        "er_pay"
      ],
      [
        "js",
        "_re"
      ],
      [
        "ad",
        "me"
      ],
      [
        "ad",
        "oc"
      ],
      [
        "package",
        "_json"
      ],
      [
        "ure",
        "__"
      ],
      [
        "ure",
        "_excer"
      ],
      [
        "ap",
        "i"
      ],
      [
        "ap",
        "pen"
      ],
      [
        "lo",
        "ck"
      ],
      [
        "no",
        "x"
      ],
      [
        "no",
        "vel"
      ],
      [
        "no",
        "_up"
      ],
      [
        "he",
        "urist"
      ],
      [
        "ed",
        "Dic"
      ],
      [
        "_p",
        "enal"
      ],
      [
        "ver",
        "if"
      ],
      [
        "ver",
        "dict"
      ],
      [
        "can",
        "_import"
      ],
      [
        "id",
        "oc"
      ],
      [
        "id",
        "ges"
      ],
      [
        "--",
        "|--------"
      ],
      [
        "--",
        "-|--------"
      ],
      [
        "fa",
        "il"
      ],
      [
        "fa",
        "ile"
      ],
      [
        "if",
        "y"
      ],
      [
        "is",
        "_pure"
      ],
      [
        "is",
        "sues"
      ],
      [
        "json",
        "l"
      ],
      [
        "_co",
        "mmands"
      ],
      [
        "_co",
        "llections"
      ],
      [
        "name",
        "d"
      ],
      [
        "confi",
        "denc"
      ],
      [
        "confi",
        "rm"
      ],
      [
        "sche",
        "dule"
      ],
      [
        ").",
        "\\\"\\\"\\\"\",\""
      ],
      [
        ")\",\"",
        "\","
      ],
      [
        ")\",\"",
        "\",\"##"
      ],
      [
        ")\",\"",
        "```\",\"\","
      ],
      [
        "to",
        "x"
      ],
      [
        "to",
        "tal"
      ],
      [
        "sub",
        "dir"
      ],
      [
        "sub",
        "_dir"
      ],
      [
        "sub",
        "_commands"
      ],
      [
        "ation",
        "_count"
      ],
      [
        "ation",
        "_comple"
      ],
      [
        "\"]",
        "]"
      ],
      [
        "\"]",
        "))"
      ],
      [
        "\"]",
        ")."
      ],
      [
        "⟪{",
        "**{"
      ],
      [
        "[\"",
        "["
      ],
      [
        "\\\"]⟧",
        "\")"
      ],
      [
        "\\\"]⟧",
        "],\",\""
      ],
      [
        "FI",
        "X"
      ],
      [
        "oc",
        "ation"
      ],
      [
        "bo",
        "ol"
      ],
      [
        "og",
        "le"
      ],
      [
        "run",
        "ner"
      ],
      [
        "),",
        "\"```"
      ],
      [
        "Tr",
        "ajectory"
      ],
      [
        "ed_",
        "tier"
      ],
      [
        "ed_",
        "class"
      ],
      [
        "th",
        "ing"
      ],
      [
        "output",
        "s"
      ],
      [
        "output",
        "_files"
      ],
      [
        "la",
        "w"
      ],
      [
        "tur",
        "all"
      ],
      [
        "T_",
        "LA"
      ],
      [
        "ot",
        "f"
      ],
      [
        "ature",
        "Surface"
      ],
      [
        "tion",
        "al"
      ],
      [
        "tion",
        "Ch"
      ],
      [
        "cal",
        "cul"
      ],
      [
        "cli",
        "ents"
      ],
      [
        "pa",
        "ired"
      ],
      [
        "tier",
        "s"
      ],
      [
        "el",
        "ess"
      ],
      [
        "()",
        "-"
      ],
      [
        "()",
        "/"
      ],
      [
        "()",
        "?"
      ],
      [
        "()",
        ":\""
      ],
      [
        "()",
        "∨\\\""
      ],
      [
        "**",
        "⟦"
      ],
      [
        "**",
        "\"+"
      ],
      [
        "so",
        "ft"
      ],
      [
        "code",
        "ium"
      ],
      [
        "render_",
        "synerg"
      ],
      [
        "render_",
        "read"
      ],
      [
        "render_",
        "gitignore"
      ],
      [
        "render_",
        "registr"
      ],
      [
        "render_",
        "js_re"
      ],
      [
        "render_",
        "package_json"
      ],
      [
        "CON",
        "VER"
      ],
      [
        "ke",
        "Report"
      ],
      [
        "path",
        "lib"
      ],
      [
        "inv",
        "alid"
      ],
      [
        "inv",
        "ocation"
      ],
      [
        "demo",
        "_mar"
      ],
      [
        "time",
        "out"
      ],
      [
        "time",
        "stamp"
      ],
      [
        "doc",
        "x"
      ],
      [
        "doc",
        "ument"
      ],
      [
        "fe",
        "w"
      ],
      [
        "fe",
        "tch"
      ],
      [
        "return",
        "_type"
      ],
      [
        "urc",
        "es"
      ],
      [
        "add_",
        "subparsers"
      ],
      [
        "ol",
        "ation"
      ],
      [
        "ol",
        "ution"
      ],
      [
        "y_",
        "package"
      ],
      [
        "y_",
        "manifest"
      ],
      [
        "y_",
        "module"
      ],
      [
        "y_",
        "and_"
      ],
      [
        "y_",
        "adapter"
      ],
      [
        "func",
        "tion"
      ],
      [
        "_o",
        "ption"
      ],
      [
        "em",
        "rg"
      ],
      [
        "em",
        "ent_count"
      ],
      [
        "mes",
        "sage"
      ],
      [
        "po",
        "si"
      ],
      [
        "utf",
        "8"
      ],
      [
        "projec",
        "t"
      ],
      [
        "tions",
        "_raise"
      ],
      [
        "auto",
        "_fix"
      ],
      [
        "ate",
        "Report"
      ],
      [
        "get_",
        "preset"
      ],
      [
        "tier_",
        "layout"
      ],
      [
        "tier_",
        "gu"
      ],
      [
        "fix",
        "ture"
      ],
      [
        "cur",
        "sor"
      ],
      [
        "fin",
        "d_chains"
      ],
      [
        "import",
        "ed"
      ],
      [
        "write_",
        "docs"
      ],
      [
        "Ex",
        "trac"
      ],
      [
        "_render_",
        "demo_mar"
      ],
      [
        "si",
        "mil"
      ],
      [
        "si",
        "ze_"
      ],
      [
        "⟨⟩→",
        "∅"
      ],
      [
        "----",
        "|"
      ],
      [
        "atomadic_",
        "v2_"
      ],
      [
        "paren",
        "s"
      ],
      [
        "_con",
        "sts"
      ],
      [
        "_con",
        "ftest"
      ],
      [
        "the",
        "ir"
      ],
      [
        "modu",
        "le_"
      ],
      [
        "trac",
        "t"
      ],
      [
        "trac",
        "eback"
      ],
      [
        "_pre",
        "sets"
      ],
      [
        "python",
        "_file_"
      ],
      [
        "CONFIG_",
        "EXTS"
      ],
      [
        "source_",
        "dir"
      ],
      [
        "source_",
        "path"
      ],
      [
        "source_",
        "line"
      ],
      [
        "source_",
        "subdir"
      ],
      [
        "Ar",
        "chitec"
      ],
      [
        "sha",
        "red"
      ],
      [
        "app",
        "lied"
      ],
      [
        "local",
        "ho"
      ],
      [
        "target_",
        "tier"
      ],
      [
        "target_",
        "root"
      ],
      [
        "call",
        "ers"
      ],
      [
        "')",
        "}⟫"
      ],
      [
        "(⟪{",
        "}⟫)"
      ],
      [
        ".\",\"",
        "\"]"
      ],
      [
        ".\",\"",
        "\",\"##"
      ],
      [
        "2_",
        "model"
      ],
      [
        "mis",
        "c"
      ],
      [
        "mis",
        "sing"
      ],
      [
        "run_",
        "auto"
      ],
      [
        "run_",
        "cherry"
      ],
      [
        "run_",
        "finalize"
      ],
      [
        "run_",
        "wiz"
      ],
      [
        "run_",
        "recon"
      ],
      [
        "tests",
        "_dir"
      ],
      [
        "tests",
        "_present"
      ],
      [
        "Synergy",
        "Kind"
      ],
      [
        "Synergy",
        "CandidateCard"
      ],
      [
        "DEFAULT_",
        "LANGUAG"
      ],
      [
        "(\",\"",
        ")\")"
      ],
      [
        "Con",
        "flict"
      ],
      [
        "E_",
        "EXTS"
      ],
      [
        "Emergent",
        "CandidateCard"
      ],
      [
        "RI",
        "NG_"
      ],
      [
        "Re",
        "gist"
      ],
      [
        "Re",
        "produce"
      ],
      [
        "_s",
        "plit"
      ],
      [
        "_tier",
        "s"
      ],
      [
        "ifi",
        "ed"
      ],
      [
        "par",
        "ame"
      ],
      [
        "ted",
        "Bo"
      ],
      [
        "red_",
        "segment"
      ],
      [
        "requ",
        "est"
      ],
      [
        "promp",
        "t"
      ],
      [
        "iter",
        "ations"
      ],
      [
        "list",
        "_ollama_"
      ],
      [
        "list",
        "_presets"
      ],
      [
        "low",
        "s"
      ],
      [
        "node",
        "_modules"
      ],
      [
        "_step",
        "3_api_ke"
      ],
      [
        "_step",
        "5_"
      ],
      [
        "_step",
        "2_model"
      ],
      [
        "Forge",
        "Config"
      ],
      [
        "())",
        ")"
      ],
      [
        "())",
        "}⟫"
      ],
      [
        "RO",
        "JEC"
      ],
      [
        "RO",
        "VIDE"
      ],
      [
        "Se",
        "tup"
      ],
      [
        "Se",
        "lect"
      ],
      [
        "_P",
        "YP"
      ],
      [
        "_P",
        "ROVIDE"
      ],
      [
        "min",
        "utes"
      ],
      [
        "pic",
        "k_all"
      ],
      [
        "cli_demo_",
        "args"
      ],
      [
        "_prompt_",
        "int"
      ],
      [
        "_prompt_",
        "confirm"
      ],
      [
        "('",
        "--"
      ],
      [
        "Fi",
        "leNot"
      ],
      [
        "NO",
        "TE"
      ],
      [
        "RC",
        "E_EXTS"
      ],
      [
        "Run",
        "Report"
      ],
      [
        "]⟩→",
        "∅"
      ],
      [
        "be",
        "low"
      ],
      [
        "by",
        "tes"
      ],
      [
        "ce_",
        "utf8"
      ],
      [
        "ht",
        "m"
      ],
      [
        "md",
        "x"
      ],
      [
        "sav",
        "e_config"
      ],
      [
        "te",
        "ch"
      ],
      [
        "⟧`",
        "\",\"\","
      ],
      [
        "input",
        "_files"
      ],
      [
        "\",\"\",\"",
        "-"
      ],
      [
        "comm",
        "and_"
      ],
      [
        "content",
        "_len"
      ],
      [
        "fiel",
        "d"
      ],
      [
        "exp",
        "orts"
      ],
      [
        "exp",
        "andu"
      ],
      [
        "exp",
        "licit"
      ],
      [
        "symbol",
        "s"
      ],
      [
        "symbol",
        "_name"
      ],
      [
        "pytest",
        "_summary"
      ],
      [
        "has_",
        "work"
      ],
      [
        "has_",
        "schedule"
      ],
      [
        "has_",
        "module_"
      ],
      [
        "FILE_",
        "EXTS"
      ],
      [
        "']",
        "},"
      ],
      [
        "']",
        ")},"
      ],
      [
        ")[",
        ":"
      ],
      [
        ")[",
        "⟪:"
      ],
      [
        "AS",
        "SE"
      ],
      [
        "G_",
        "OF_EXT"
      ],
      [
        "In",
        "stall"
      ],
      [
        "[]",
        ","
      ],
      [
        "[]",
        ")\",\""
      ],
      [
        "_re",
        "sp"
      ],
      [
        "_re",
        "fs"
      ],
      [
        "_re",
        "paired"
      ],
      [
        "her",
        "e"
      ],
      [
        "iv",
        "e_to"
      ],
      [
        "mar",
        "kdown"
      ],
      [
        "mar",
        "ker"
      ],
      [
        "sp",
        "ace"
      ],
      [
        "war",
        "d_imports"
      ],
      [
        "arg",
        "parse"
      ],
      [
        "detec",
        "t"
      ],
      [
        "und",
        "Error"
      ],
      [
        "und",
        "er_igno"
      ],
      [
        "merge",
        "d_signature"
      ],
      [
        "log",
        "ic"
      ],
      [
        "error",
        "s"
      ],
      [
        "artifact_",
        "size_"
      ],
      [
        "excep",
        "tions_raise"
      ],
      [
        "Argument",
        "Parser"
      ],
      [
        "Stub",
        "Find"
      ],
      [
        "_PRE",
        "FIX"
      ],
      [
        "_balance_",
        "br"
      ],
      [
        "_balance_",
        "parens"
      ],
      [
        "proposed_",
        "fix"
      ],
      [
        "proposed_",
        "summary"
      ],
      [
        "proposed_",
        "adapt"
      ],
      [
        "proposed_",
        "names"
      ],
      [
        "\":\"",
        "\","
      ],
      [
        ",\"",
        "[\",\""
      ],
      [
        ",\"",
        "(\",\")\")"
      ],
      [
        "100",
        "0"
      ],
      [
        "?\"",
        "✓\":\""
      ],
      [
        "AA",
        "AA"
      ],
      [
        "Imp",
        "orts"
      ],
      [
        "Sco",
        "utReport"
      ],
      [
        "_se",
        "man"
      ],
      [
        "base",
        "_classes"
      ],
      [
        "cer",
        "tain"
      ],
      [
        "find",
        "all"
      ],
      [
        "per",
        "form"
      ],
      [
        "pass",
        "ing"
      ],
      [
        "pass",
        "_r"
      ],
      [
        "pkg",
        "_root_"
      ],
      [
        "sa",
        "me"
      ],
      [
        "wh",
        "en"
      ],
      [
        "|----",
        "--|--------"
      ],
      [
        "stat",
        "eless"
      ],
      [
        "stat",
        "ement_count"
      ],
      [
        "gemin",
        "i"
      ],
      [
        "comp",
        "ose"
      ],
      [
        "comp",
        "lexit"
      ],
      [
        "comp",
        "onents"
      ],
      [
        "disco",
        "ver_"
      ],
      [
        "tif",
        "yResult"
      ],
      [
        "load_",
        "keys"
      ],
      [
        "_domain",
        "_of"
      ],
      [
        "viol",
        "ation_count"
      ],
      [
        "Command",
        "Card"
      ],
      [
        "Command",
        "Surface"
      ],
      [
        "Command",
        "SignatureCard"
      ],
      [
        "excer",
        "pt"
      ],
      [
        "strip_comments",
        "_and_"
      ],
      [
        "Symbol",
        "Kind"
      ],
      [
        "Symbol",
        "SignatureCard"
      ],
      [
        "Symbol",
        "Rec"
      ],
      [
        "Defaul",
        "ts"
      ],
      [
        "LAN",
        "G_OF_EXT"
      ],
      [
        "top_level",
        "_classes"
      ],
      [
        "top_level",
        "_functions"
      ],
      [
        "top_level",
        "_consts"
      ],
      [
        "Intent",
        "Signature"
      ],
      [
        "TIER",
        "_PREFIX"
      ],
      [
        "detect_",
        "synergies"
      ],
      [
        ")∨\"\"",
        "."
      ],
      [
        "crosses",
        "_tiers"
      ],
      [
        "review",
        "_mar"
      ],
      [
        "metho",
        "d"
      ],
      [
        "exported_",
        "functions"
      ],
      [
        "exported_",
        "classes"
      ],
      [
        "exported_",
        "consts"
      ],
      [
        "sibling",
        "_refs"
      ],
      [
        "):",
        "⟪{}⟫"
      ],
      [
        ")?",
        "\","
      ],
      [
        ")?",
        "\",\"\","
      ],
      [
        "ALL",
        "OW"
      ],
      [
        "ALL",
        "_SOU"
      ],
      [
        "NI",
        "FES"
      ],
      [
        "Pro",
        "vider"
      ],
      [
        "Pro",
        "ject"
      ],
      [
        "ST",
        "RY"
      ],
      [
        "Typ",
        "eScript"
      ],
      [
        "Typ",
        "edDic"
      ],
      [
        "Test",
        "s"
      ],
      [
        "Test",
        "RunReport"
      ],
      [
        "Wire",
        "Report"
      ],
      [
        "Wire",
        "Vi"
      ],
      [
        "]\",",
        "[\"["
      ],
      [
        "]:\"\"",
        "."
      ],
      [
        "__",
        "fut"
      ],
      [
        "_excer",
        "pt"
      ],
      [
        "_MA",
        "NIFES"
      ],
      [
        "br",
        "idges"
      ],
      [
        "eg",
        "g"
      ],
      [
        "jp",
        "g"
      ],
      [
        "jp",
        "eg"
      ],
      [
        "mil",
        "arit"
      ],
      [
        "osi",
        "x"
      ],
      [
        "osi",
        "tionCh"
      ],
      [
        "ran",
        "k_chains"
      ],
      [
        "sv",
        "g"
      ],
      [
        "sv",
        "n"
      ],
      [
        "shap",
        "e"
      ],
      [
        "shap",
        "ing"
      ],
      [
        "skip",
        "ped"
      ],
      [
        "val",
        "idate"
      ],
      [
        "val",
        "ues"
      ],
      [
        "web",
        "m"
      ],
      [
        "web",
        "p"
      ],
      [
        "∨\"",
        "("
      ],
      [
        "∨\"",
        "\")"
      ],
      [
        "rename",
        "_module"
      ],
      [
        "rename",
        "_seman"
      ],
      [
        "\\\")⟧",
        ".\",\"\"]"
      ],
      [
        "file_",
        "path"
      ],
      [
        "file_",
        "count"
      ],
      [
        "asci",
        "idoc"
      ],
      [
        "(\"^",
        "("
      ],
      [
        "syn",
        "c"
      ],
      [
        "is_",
        "igno"
      ],
      [
        "T_FIL",
        "E"
      ],
      [
        "T_FIL",
        "ES"
      ],
      [
        "render_tests",
        "_in"
      ],
      [
        "render_tests",
        "_conftest"
      ],
      [
        "wrapp",
        "er"
      ],
      [
        "wrapp",
        "ed_class"
      ],
      [
        "docs",
        "_root"
      ],
      [
        "Comp",
        "ose"
      ],
      [
        "Comp",
        "ositionCh"
      ],
      [
        "phase_",
        "chain"
      ],
      [
        "phase_",
        "hint"
      ],
      [
        "source_repo",
        "s"
      ],
      [
        "atomadic_forge_se",
        "ed"
      ],
      [
        "atomadic_forge_se",
        "ed_"
      ],
      [
        "Demo",
        "Result"
      ],
      [
        "Demo",
        "Pre"
      ],
      [
        "Config",
        "ure"
      ],
      [
        "parse",
        "_args"
      ],
      [
        "Anthropic",
        "Client"
      ],
      [
        "woff",
        "2"
      ],
      [
        "behavi",
        "our"
      ],
      [
        "behavi",
        "oral"
      ],
      [
        "html",
        "cov"
      ],
      [
        "http",
        "s"
      ],
      [
        "\",\"\",\"```",
        "\","
      ],
      [
        "error_",
        "kind"
      ],
      [
        "error_",
        "message"
      ],
      [
        "Import",
        "Error"
      ],
      [
        "Import",
        "Smo"
      ],
      [
        "certif",
        "y"
      ],
      [
        "certif",
        "y_package"
      ],
      [
        "every",
        "thing"
      ],
      [
        "EMITS",
        "_INI"
      ],
      [
        "EMITS",
        "_PYP"
      ],
      [
        "Gemini",
        "Client"
      ],
      [
        "Ollama",
        "Client"
      ],
      [
        "OpenAI",
        "Client"
      ],
      [
        "_root_",
        "of"
      ],
      [
        "evol",
        "ve"
      ],
      [
        "evol",
        "ve_report"
      ],
      [
        "effec",
        "ts"
      ],
      [
        "effec",
        "t_distribution"
      ],
      [
        "has_class",
        "_attr"
      ],
      [
        "default_export_",
        "kind"
      ],
      [
        "default_export_",
        "keys"
      ],
      [
        "CherryPick",
        "Manifest"
      ],
      [
        "CherryPick",
        "It"
      ],
      [
        "LANGUAG",
        "ES"
      ],
      [
        "\"'",
        "⟦"
      ],
      [
        "\"~",
        "/."
      ],
      [
        "(?",
        ":"
      ],
      [
        "(\\\"",
        "/\\\")⟧"
      ],
      [
        ")\\\"",
        "⟧"
      ],
      [
        "11",
        "434"
      ],
      [
        "200",
        "0"
      ],
      [
        ":∅",
        "⟩"
      ],
      [
        "Ad",
        "d"
      ],
      [
        "As",
        "simil"
      ],
      [
        "Cer",
        "tifyResult"
      ],
      [
        "DO",
        "C_EXTS"
      ],
      [
        "DS",
        "_Store"
      ],
      [
        "Di",
        "vide"
      ],
      [
        "EF",
        "FEC"
      ],
      [
        "ED_",
        "FILE_EXTS"
      ],
      [
        "Ell",
        "ipsis"
      ],
      [
        "Fe",
        "atureSurface"
      ],
      [
        "Fo",
        "undError"
      ],
      [
        "Fin",
        "al"
      ],
      [
        "GI",
        "STRY"
      ],
      [
        "GP",
        "T"
      ],
      [
        "Go",
        "ogle"
      ],
      [
        "Js",
        "Surface"
      ],
      [
        "Jav",
        "aScript"
      ],
      [
        "K_",
        "COMMENT_RE"
      ],
      [
        "Ke",
        "yError"
      ],
      [
        "La",
        "yout"
      ],
      [
        "Lang",
        "uage"
      ],
      [
        "Liv",
        "es"
      ],
      [
        "Ma",
        "ke"
      ],
      [
        "Mer",
        "geDec"
      ],
      [
        "Man",
        "ual"
      ],
      [
        "MAI",
        "N_EXT"
      ],
      [
        "Nex",
        "usClient"
      ],
      [
        "NE_",
        "COMMENT_RE"
      ],
      [
        "Out",
        "put"
      ],
      [
        "Pl",
        "ug"
      ],
      [
        "Ro",
        "unds"
      ],
      [
        "Res",
        "olution"
      ],
      [
        "R_MA",
        "P"
      ],
      [
        "Si",
        "milarit"
      ],
      [
        "So",
        "urces"
      ],
      [
        "Sha",
        "red"
      ],
      [
        "Sub",
        "tract"
      ],
      [
        "Th",
        "is"
      ],
      [
        "TTI",
        "CE"
      ],
      [
        "Ver",
        "ify"
      ],
      [
        "Wh",
        "at"
      ],
      [
        "Wor",
        "ker"
      ],
      [
        "\\-]",
        "+\","
      ],
      [
        "_n",
        "ormal"
      ],
      [
        "_en",
        "sure_log"
      ],
      [
        "_for",
        "ce_utf8"
      ],
      [
        "_can",
        "ned"
      ],
      [
        "_src",
        "_root_of"
      ],
      [
        "_resul",
        "t_to"
      ],
      [
        "_strip",
        "_option"
      ],
      [
        "_RE",
        "GISTRY"
      ],
      [
        "_write_",
        "meta"
      ],
      [
        "_consum",
        "er_inputs"
      ],
      [
        "_FIL",
        "E"
      ],
      [
        "_LI",
        "NE_COMMENT_RE"
      ],
      [
        "_wor",
        "ds"
      ],
      [
        "_ST",
        "RING_"
      ],
      [
        "_asci",
        "i_trajectory"
      ],
      [
        "_is_",
        "under_igno"
      ],
      [
        "__file_",
        "_"
      ],
      [
        "_BLOC",
        "K_COMMENT_RE"
      ],
      [
        "abo",
        "ve"
      ],
      [
        "car",
        "ries"
      ],
      [
        "edi",
        "tor"
      ],
      [
        "fla",
        "g"
      ],
      [
        "fol",
        "lows"
      ],
      [
        "gat",
        "es"
      ],
      [
        "gith",
        "ub"
      ],
      [
        "hard",
        "er"
      ],
      [
        "hid",
        "den"
      ],
      [
        "imin",
        "ating"
      ],
      [
        "mistr",
        "al"
      ],
      [
        "nu",
        "xt"
      ],
      [
        "over",
        "all"
      ],
      [
        "pas",
        "sed"
      ],
      [
        "ppt",
        "x"
      ],
      [
        "ration",
        "ale"
      ],
      [
        "sort",
        "ed"
      ],
      [
        "simp",
        "le"
      ],
      [
        "sign",
        "als"
      ],
      [
        "svel",
        "te"
      ],
      [
        "tas",
        "ks"
      ],
      [
        "ty_",
        "signals"
      ],
      [
        "wer",
        "e"
      ],
      [
        "wir",
        "ing"
      ],
      [
        "xls",
        "x"
      ],
      [
        "zer",
        "o"
      ],
      [
        "{}",
        "}⟫)"
      ],
      [
        "∨⟪{",
        "}⟫)"
      ],
      [
        "⟧->",
        "⟦"
      ],
      [
        "ered",
        "CommandCard"
      ],
      [
        "reas",
        "ons"
      ],
      [
        "reso",
        "lve"
      ],
      [
        "relat",
        "ive_to"
      ],
      [
        "regist",
        "er_fn"
      ],
      [
        "\",[]",
        ")]"
      ],
      [
        "instr",
        "uct"
      ],
      [
        "inser",
        "t"
      ],
      [
        "infer",
        "red"
      ],
      [
        "architec",
        "turall"
      ],
      [
        "stand",
        "ard"
      ],
      [
        "step",
        "s"
      ],
      [
        "stub",
        "_penal"
      ],
      [
        "starts",
        "with"
      ],
      [
        "enum",
        "s"
      ],
      [
        "separ",
        "ated"
      ],
      [
        "annot",
        "ations"
      ],
      [
        "coher",
        "ent"
      ],
      [
        "diff",
        "erent"
      ],
      [
        "discr",
        "iminating"
      ],
      [
        "cherr",
        "y_manifest"
      ],
      [
        "almo",
        "st"
      ],
      [
        "suggest",
        "ed_tier"
      ],
      [
        "acros",
        "s"
      ],
      [
        "d_hand",
        "ler"
      ],
      [
        "unknow",
        "n"
      ],
      [
        "unspec",
        "ified"
      ],
      [
        "files",
        "_repaired"
      ],
      [
        "urlo",
        "pen"
      ],
      [
        "er_default_",
        "fetch"
      ],
      [
        "\")∨[]",
        "))"
      ],
      [
        "as_p",
        "osix"
      ],
      [
        "(\"\"\"",
        "\","
      ],
      [
        "(\".\")",
        "∧"
      ],
      [
        "(\"`\",\"",
        "'\")"
      ],
      [
        "producer_pay",
        "load_keys"
      ],
      [
        "ure_excer",
        "pts"
      ],
      [
        "appen",
        "d"
      ],
      [
        "novel",
        "ty_signals"
      ],
      [
        "no_up",
        "ward_imports"
      ],
      [
        "heurist",
        "ic"
      ],
      [
        "verif",
        "y_and_"
      ],
      [
        "---|--------",
        "----|"
      ],
      [
        "fail",
        "ure_excerpts"
      ],
      [
        "faile",
        "d"
      ],
      [
        "confidenc",
        "e"
      ],
      [
        "sub_dir",
        "s"
      ],
      [
        "ation_comple",
        "te"
      ],
      [
        "),\"```",
        "\",\"\",\"##"
      ],
      [
        "T_LA",
        "TTICE"
      ],
      [
        "calcul",
        "ator"
      ],
      [
        "()∨\\\"",
        "("
      ],
      [
        "soft",
        "ware"
      ],
      [
        "render_synerg",
        "y_adapter"
      ],
      [
        "render_read",
        "me"
      ],
      [
        "render_registr",
        "y_module"
      ],
      [
        "render_js_re",
        "adme"
      ],
      [
        "CONVER",
        "GED"
      ],
      [
        "document",
        "ation_complete"
      ],
      [
        "posi",
        "tional"
      ],
      [
        "auto_fix",
        "able"
      ],
      [
        "tier_layout",
        "_present"
      ],
      [
        "tier_gu",
        "ess"
      ],
      [
        "fixture",
        "s"
      ],
      [
        "Extrac",
        "tedBo"
      ],
      [
        "_render_demo_mar",
        "kdown"
      ],
      [
        "traceback",
        "_excerpt"
      ],
      [
        "python_file_",
        "count"
      ],
      [
        "Architec",
        "ture"
      ],
      [
        "localho",
        "st"
      ],
      [
        "callers",
        "_of"
      ],
      [
        "run_wiz",
        "ard"
      ],
      [
        "DEFAULT_LANGUAG",
        "E"
      ],
      [
        "Conflict",
        "Resolution"
      ],
      [
        "Regist",
        "eredCommandCard"
      ],
      [
        "_split",
        "_words"
      ],
      [
        "parame",
        "ters"
      ],
      [
        "list_ollama_",
        "models"
      ],
      [
        "_step3_api_ke",
        "y"
      ],
      [
        "_step5_",
        "verify_and_"
      ],
      [
        "ROJEC",
        "T"
      ],
      [
        "_PROVIDE",
        "R_MAP"
      ],
      [
        "FileNot",
        "FoundError"
      ],
      [
        "command_",
        "modules"
      ],
      [
        "expandu",
        "ser"
      ],
      [
        "explicit",
        "ly"
      ],
      [
        "has_work",
        "er_default_fetch"
      ],
      [
        "has_schedule",
        "d_handler"
      ],
      [
        "has_module_",
        "exports"
      ],
      [
        "ASSE",
        "T_EXTS"
      ],
      [
        "_resp",
        "onder"
      ],
      [
        "artifact_size_",
        "bytes"
      ],
      [
        "exceptions_raise",
        "d"
      ],
      [
        "StubFind",
        "ing"
      ],
      [
        "_balance_br",
        "ackets"
      ],
      [
        "proposed_adapt",
        "er_name"
      ],
      [
        ",\"[\",\"",
        "]\")"
      ],
      [
        "?\"✓\":\"",
        "("
      ],
      [
        "AAAA",
        "NexusClient"
      ],
      [
        "certain",
        "ly"
      ],
      [
        "pass_r",
        "atio"
      ],
      [
        "pkg_root_",
        "for"
      ],
      [
        "|------|--------",
        "---|------------|"
      ],
      [
        "complexit",
        "y"
      ],
      [
        "components",
        "_emitted"
      ],
      [
        "discover_",
        "command_modules"
      ],
      [
        "strip_comments_and_",
        "strings"
      ],
      [
        "SymbolRec",
        "ord"
      ],
      [
        "review_mar",
        "ker"
      ],
      [
        "ALLOW",
        "ED_FILE_EXTS"
      ],
      [
        "ALL_SOU",
        "RCE_EXTS"
      ],
      [
        "TypedDic",
        "ts"
      ],
      [
        "WireVi",
        "olation"
      ],
      [
        "__fut",
        "ure__"
      ],
      [
        "_MANIFES",
        "T_FILE"
      ],
      [
        "rename_seman",
        "tic"
      ],
      [
        "is_igno",
        "red_segment"
      ],
      [
        "render_tests_in",
        "it"
      ],
      [
        "CompositionCh",
        "ain"
      ],
      [
        "DemoPre",
        "set"
      ],
      [
        "ImportSmo",
        "keReport"
      ],
      [
        "EMITS_INI",
        "T_FILES"
      ],
      [
        "EMITS_PYP",
        "ROJECT"
      ],
      [
        "has_class_attr",
        "_collections"
      ],
      [
        "CherryPickIt",
        "em"
      ],
      [
        "(\\\"/\\\")⟧",
        "/"
      ],
      [
        "Assimil",
        "ateReport"
      ],
      [
        "EFFEC",
        "T_LATTICE"
      ],
      [
        "FeatureSurface",
        "Card"
      ],
      [
        "MergeDec",
        "ision"
      ],
      [
        "Similarit",
        "yScore"
      ],
      [
        "_normal",
        "ize"
      ],
      [
        "_ensure_log",
        "_dir"
      ],
      [
        "_result_to",
        "_dict"
      ],
      [
        "_strip_option",
        "al"
      ],
      [
        "_REGISTRY",
        "_FILE"
      ],
      [
        "_STRING_",
        "RE"
      ],
      [
        "_is_under_igno",
        "red"
      ],
      [
        "editor",
        "config"
      ],
      [
        "architecturall",
        "y"
      ],
      [
        "stub_penal",
        "ty"
      ],
      [
        "discriminating",
        "_tokens"
      ],
      [
        "ExtractedBo",
        "dy"
      ],
      [
        "_step5_verify_and_",
        "save"
      ]
    ]
  }
}