{
  "version": "1.0",
  "truncation": null,
  "padding": null,
  "added_tokens": [
    {
      "id": 0,
      "content": "[PAD]",
      "single_word": false,
      "lstrip": false,
      "rstrip": false,
      "normalized": false,
      "special": true
    },
    {
      "id": 1,
      "content": "[UNK]",
      "single_word": false,
      "lstrip": false,
      "rstrip": false,
      "normalized": false,
      "special": true
    },
    {
      "id": 2,
      "content": "[BOS]",
      "single_word": false,
      "lstrip": false,
      "rstrip": false,
      "normalized": false,
      "special": true
    },
    {
      "id": 3,
      "content": "[EOS]",
      "single_word": false,
      "lstrip": false,
      "rstrip": false,
      "normalized": false,
      "special": true
    },
    {
      "id": 4,
      "content": "[MASK]",
      "single_word": false,
      "lstrip": false,
      "rstrip": false,
      "normalized": false,
      "special": true
    },
    {
      "id": 5,
      "content": "[STRUCTURAL_OPEN]",
      "single_word": false,
      "lstrip": false,
      "rstrip": false,
      "normalized": false,
      "special": true
    },
    {
      "id": 6,
      "content": "[STRUCTURAL_CLOSE]",
      "single_word": false,
      "lstrip": false,
      "rstrip": false,
      "normalized": false,
      "special": true
    }
  ],
  "normalizer": null,
  "pre_tokenizer": {
    "type": "WhitespaceSplit"
  },
  "post_processor": null,
  "decoder": null,
  "model": {
    "type": "BPE",
    "dropout": null,
    "unk_token": "[UNK]",
    "continuing_subword_prefix": null,
    "end_of_word_suffix": null,
    "fuse_unk": false,
    "byte_fallback": false,
    "ignore_merges": false,
    "vocab": {
      "[PAD]": 0,
      "[UNK]": 1,
      "[BOS]": 2,
      "[EOS]": 3,
      "[MASK]": 4,
      "[STRUCTURAL_OPEN]": 5,
      "[STRUCTURAL_CLOSE]": 6,
      "!": 7,
      "\"": 8,
      "#": 9,
      "$": 10,
      "'": 11,
      "(": 12,
      ")": 13,
      "*": 14,
      "+": 15,
      ",": 16,
      "-": 17,
      ".": 18,
      "/": 19,
      "0": 20,
      "1": 21,
      "2": 22,
      "3": 23,
      "4": 24,
      "5": 25,
      "6": 26,
      "7": 27,
      "8": 28,
      "9": 29,
      ":": 30,
      ";": 31,
      "=": 32,
      ">": 33,
      "?": 34,
      "@": 35,
      "A": 36,
      "B": 37,
      "C": 38,
      "D": 39,
      "E": 40,
      "F": 41,
      "G": 42,
      "H": 43,
      "I": 44,
      "J": 45,
      "K": 46,
      "L": 47,
      "M": 48,
      "N": 49,
      "O": 50,
      "P": 51,
      "R": 52,
      "S": 53,
      "T": 54,
      "U": 55,
      "V": 56,
      "W": 57,
      "X": 58,
      "Y": 59,
      "Z": 60,
      "[": 61,
      "\\": 62,
      "]": 63,
      "^": 64,
      "_": 65,
      "`": 66,
      "a": 67,
      "b": 68,
      "c": 69,
      "d": 70,
      "e": 71,
      "f": 72,
      "g": 73,
      "h": 74,
      "i": 75,
      "j": 76,
      "k": 77,
      "l": 78,
      "m": 79,
      "n": 80,
      "o": 81,
      "p": 82,
      "q": 83,
      "r": 84,
      "s": 85,
      "t": 86,
      "u": 87,
      "v": 88,
      "w": 89,
      "x": 90,
      "y": 91,
      "z": 92,
      "{": 93,
      "|": 94,
      "}": 95,
      "~": 96,
      "¬": 97,
      "ι": 98,
      "λ": 99,
      "π": 100,
      "σ": 101,
      "ω": 102,
      "–": 103,
      "—": 104,
      "→": 105,
      "↦": 106,
      "⇒": 107,
      "∅": 108,
      "∈": 109,
      "∉": 110,
      "∧": 111,
      "∨": 112,
      "≟": 113,
      "≠": 114,
      "≤": 115,
      "≥": 116,
      "▷": 117,
      "✓": 118,
      "⟦": 119,
      "⟧": 120,
      "⟨": 121,
      "⟩": 122,
      "⟪": 123,
      "⟫": 124,
      "er": 125,
      "on": 126,
      "re": 127,
      "at": 128,
      "\",": 129,
      "ar": 130,
      "in": 131,
      "or": 132,
      "ge": 133,
      "st": 134,
      "en": 135,
      "\",\"": 136,
      "ro": 137,
      "',": 138,
      "an": 139,
      "se": 140,
      "co": 141,
      "ut": 142,
      "di": 143,
      "de": 144,
      ":s": 145,
      "':": 146,
      "ti": 147,
      "ch": 148,
      "con": 149,
      "al": 150,
      "'.": 151,
      "su": 152,
      "ma": 153,
      "\\n": 154,
      "pro": 155,
      "ac": 156,
      "es": 157,
      "d_": 158,
      "fi": 159,
      "it": 160,
      ":_": 161,
      "un": 162,
      "ur": 163,
      "str": 164,
      "ent": 165,
      "me": 166,
      "⟩→": 167,
      "du": 168,
      "ex": 169,
      "mp": 170,
      "s:": 171,
      "ion": 172,
      "e_": 173,
      "t_": 174,
      "er_": 175,
      "\")": 176,
      "mo": 177,
      "ard": 178,
      "1π": 179,
      "age": 180,
      "for": 181,
      "as": 182,
      "ip": 183,
      "ts": 184,
      "yp": 185,
      "\"]": 186,
      "[\"": 187,
      "ec": 188,
      "che": 189,
      "js": 190,
      "typ": 191,
      "(\"": 192,
      "dat": 193,
      "ack": 194,
      "))": 195,
      "le": 196,
      "mm": 197,
      "rc": 198,
      "and": 199,
      "[s": 200,
      "er.": 201,
      "arg": 202,
      "li": 203,
      "produ": 204,
      "produc": 205,
      "card": 206,
      "lo": 207,
      "oma": 208,
      "ul": 209,
      "ackage": 210,
      "ad": 211,
      "par": 212,
      "package": 213,
      "t.": 214,
      "mer": 215,
      "s\"": 216,
      "ure": 217,
      "ap": 218,
      "no": 219,
      "t(": 220,
      "dic": 221,
      "[s]": 222,
      "he": 223,
      "na": 224,
      "out": 225,
      "ed": 226,
      "lf": 227,
      "tr": 228,
      "self": 229,
      "mmand": 230,
      "ver": 231,
      "name": 232,
      "ath": 233,
      "consu": 234,
      "\\\"": 235,
      "id": 236,
      "is": 237,
      "ort": 238,
      "json": 239,
      "can": 240,
      "est": 241,
      "sco": 242,
      "y_": 243,
      "dir": 244,
      "--": 245,
      "=\"": 246,
      "cr": 247,
      "fa": 248,
      "if": 249,
      "to": 250,
      "tar": 251,
      "targe": 252,
      "_co": 253,
      "crip": 254,
      "()": 255,
      ":i": 256,
      "path": 257,
      "s.": 258,
      "confi": 259,
      "forge": 260,
      "faul": 261,
      "ue": 262,
      "one": 263,
      "ren": 264,
      "ing": 265,
      "omadic": 266,
      "sche": 267,
      "cript": 268,
      "config": 269,
      ")\",\"": 270,
      "src": 271,
      "\",s\"": 272,
      "defaul": 273,
      "sub": 274,
      "schema": 275,
      "put": 276,
      "}⟫": 277,
      "⟪{": 278,
      "ation": 279,
      "pars": 280,
      "ner": 281,
      "sion": 282,
      "ind": 283,
      ":_⟩→": 284,
      "s:[s]": 285,
      "typer.": 286,
      "producer": 287,
      "consumer": 288,
      "atomadic": 289,
      "\"]⟧": 290,
      "card[\"": 291,
      "FI": 292,
      "None": 293,
      "ain": 294,
      "fro": 295,
      "ol": 296,
      "pl": 297,
      "pre": 298,
      "th": 299,
      "um": 300,
      "score": 301,
      "ON": 302,
      "oc": 303,
      "⟦card[\"": 304,
      "self.": 305,
      "av": 306,
      "la": 307,
      "og": 308,
      "run": 309,
      "chain": 310,
      "sul": 311,
      "args": 312,
      "\\\"\\\"": 313,
      ").": 314,
      "3ω": 315,
      "Tr": 316,
      "``": 317,
      "ed_": 318,
      "fac": 319,
      "py": 320,
      "ith": 321,
      "output": 322,
      "schema_": 323,
      "),": 324,
      "_s": 325,
      "ep": 326,
      "jec": 327,
      "ot": 328,
      "s(": 329,
      "tur": 330,
      "resul": 331,
      "version": 332,
      "T_": 333,
      "cal": 334,
      "el": 335,
      "ha": 336,
      "ig": 337,
      "ror": 338,
      "ature": 339,
      "tion": 340,
      "turn": 341,
      "cli": 342,
      "our": 343,
      "pa": 344,
      "didat": 345,
      "\\n\\n": 346,
      "rend": 347,
      "='": 348,
      "_d": 349,
      "pen": 350,
      "sy": 351,
      "arti": 352,
      "ory": 353,
      "command": 354,
      "utc": 355,
      "tier": 356,
      "name:s": 357,
      "json.": 358,
      "schema_version": 359,
      "artifac": 360,
      "**": 361,
      ":\",\"": 362,
      "TS": 363,
      "cat": 364,
      "imp": 365,
      "ke": 366,
      "lp": 367,
      "lin": 368,
      "po": 369,
      "t=": 370,
      "int": 371,
      "code": 372,
      "help": 373,
      "candidat": 374,
      "ourc": 375,
      "render_": 376,
      "CON": 377,
      "Er": 378,
      "_dir": 379,
      "fe": 380,
      "tex": 381,
      "wr": 382,
      "inv": 383,
      "root": 384,
      "demo": 385,
      "time": 386,
      "nerg": 387,
      "Error": 388,
      "'a": 389,
      "+\"": 390,
      "ai": 391,
      "bo": 392,
      "ct": 393,
      "ds": 394,
      "doc": 395,
      "sourc": 396,
      "up": 397,
      "vi": 398,
      "return": 399,
      "anif": 400,
      "fix": 401,
      "⟩→s": 402,
      "add_": 403,
      "FIG": 404,
      "import": 405,
      "CONFIG": 406,
      "anifest": 407,
      ",\",\"": 408,
      "-forge": 409,
      "Co": 410,
      "EX": 411,
      "_ap": 412,
      "dy": 413,
      "fun": 414,
      "t)": 415,
      "test": 416,
      "err": 417,
      "red": 418,
      "orche": 419,
      "del": 420,
      "url": 421,
      "model": 422,
      "producer_": 423,
      "omain": 424,
      "merge": 425,
      "atomadic-forge": 426,
      "True": 427,
      "func": 428,
      "orchestr": 429,
      "\".": 430,
      "ble": 431,
      "em": 432,
      "ic": 433,
      "md_": 434,
      "zen": 435,
      "set(": 436,
      "uto": 437,
      "date": 438,
      "ider": 439,
      "⟪{'": 440,
      "parser": 441,
      "parser.": 442,
      "frozen": 443,
      "ign": 444,
      "nergy": 445,
      "body": 446,
      "frozenset(": 447,
      "(_": 448,
      ":b": 449,
      "_o": 450,
      "_demo": 451,
      "mes": 452,
      "∅)": 453,
      "at_": 454,
      "ate": 455,
      "cho": 456,
      "projec": 457,
      "exc": 458,
      "type": 459,
      "not": 460,
      "}⟫)": 461,
      "ply": 462,
      "cli_demo": 463,
      "_dt.": 464,
      "writ": 465,
      "EXTS": 466,
      "(c": 467,
      ".ge": 468,
      "/\\n": 469,
      ":f": 470,
      ":[s]": 471,
      "=_": 472,
      "ES": 473,
      "_c": 474,
      "domain": 475,
      "fg": 476,
      "kind": 477,
      "r.": 478,
      "⟨self": 479,
      "utf": 480,
      ":s⟩": 481,
      "tier_": 482,
      "strip": 483,
      "s:i": 484,
      "ument": 485,
      "help=\"": 486,
      "feature": 487,
      "project_": 488,
      "⟨self:": 489,
      "-8": 490,
      "4_s": 491,
      "=tr": 492,
      "=True": 493,
      "Cli": 494,
      "Fal": 495,
      "Scan": 496,
      "[_": 497,
      "_ke": 498,
      "ber": 499,
      "ding": 500,
      "fin": 501,
      "gi": 502,
      "jav": 503,
      "ke_": 504,
      "ml": 505,
      "num": 506,
      "s_": 507,
      "the": 508,
      "vider": 509,
      "with": 510,
      "env": 511,
      "'.m": 512,
      "unt": 513,
      "dump": 514,
      "ascript": 515,
      "\"])": 516,
      "y_orchestr": 517,
      "target_": 518,
      "path.": 519,
      ":_⟩→s": 520,
      "from": 521,
      "prese": 522,
      "\\\"\\\"\\\"": 523,
      "```": 524,
      "hase": 525,
      "json.dump": 526,
      "Command": 527,
      "cho(": 528,
      "write_": 529,
      "utf-8": 530,
      "4_sy_orchestr": 531,
      "=true": 532,
      "=True)\",\"": 533,
      "Client": 534,
      "False": 535,
      "[_]": 536,
      "javascript": 537,
      "number": 538,
      "json.dumps(": 539,
      "4_sy_orchestration": 540,
      "##": 541,
      ".s": 542,
      "/`": 543,
      ":{": 544,
      "Ex": 545,
      "LL": 546,
      "Sy": 547,
      "_render_": 548,
      "auto": 549,
      "len": 550,
      "mith": 551,
      "nt": 552,
      "pec": 553,
      "port": 554,
      "phase": 555,
      "qu": 556,
      "s,": 557,
      "si": 558,
      "s':": 559,
      "smith": 560,
      "at(": 561,
      "enco": 562,
      "alog": 563,
      "provider": 564,
      "file": 565,
      "ur_": 566,
      "ent=": 567,
      "form": 568,
      "types": 569,
      "low": 570,
      "package_": 571,
      "----": 572,
      "_comp": 573,
      ":_⟩→_": 574,
      "producer\"]⟧": 575,
      "consumer\"]⟧": 576,
      "atomadic_": 577,
      "thon": 578,
      "⟦card[\"producer\"]⟧": 579,
      "⟦card[\"consumer\"]⟧": 580,
      "python": 581,
      "paren": 582,
      "catalog": 583,
      "line": 584,
      "time.": 585,
      "source_": 586,
      "returncode": 587,
      "function": 588,
      "final": 589,
      "encoding": 590,
      "(card": 591,
      "DI": 592,
      "E_": 593,
      "RE": 594,
      "]\",\"": 595,
      "_DI": 596,
      "a4_sy_orchestration": 597,
      "bal": 598,
      "has": 599,
      "ire": 600,
      "mer_": 601,
      "pure": 602,
      "rai": 603,
      "s=": 604,
      "smo": 605,
      "x',": 606,
      "⟨name:s": 607,
      "⟨schema_version": 608,
      "ated": 609,
      "in(": 610,
      "gener": 611,
      "stan": 612,
      "ang": 613,
      "ans": 614,
      "it(": 615,
      ":_⟩": 616,
      "modu": 617,
      "load": 618,
      "local": 619,
      "apt": 620,
      "now": 621,
      "trac": 622,
      "consumer_": 623,
      "defaults": 624,
      "default=": 625,
      "indent=": 626,
      "prefix": 627,
      "result.": 628,
      "candidate_": 629,
      "cli_demo_": 630,
      "utf-8\")": 631,
      "len(": 632,
      "format(": 633,
      "atomadic_forge": 634,
      "_DIR": 635,
      "raise": 636,
      "⟨schema_version:s": 637,
      "indent=2": 638,
      "'javascript": 639,
      ",help=\"": 640,
      "Ar": 641,
      "Card": 642,
      "DE": 643,
      "De": 644,
      "For": 645,
      "Manifest": 646,
      "Rep": 647,
      "_con": 648,
      "ad_": 649,
      "able": 650,
      "bol": 651,
      "ces": 652,
      "cur_": 653,
      "jo": 654,
      "las": 655,
      "mbol": 656,
      "open": 657,
      "oformat(": 658,
      "rst": 659,
      "⟨⟩→s": 660,
      "ary": 661,
      "secon": 662,
      "times": 663,
      "\\n\")": 664,
      "promp": 665,
      "string": 666,
      "js',": 667,
      "args.": 668,
      "parts": 669,
      "app": 670,
      "head": 671,
      "tra": 672,
      "isoformat(": 673,
      "=\"utf-8\")": 674,
      "_command": 675,
      "default_": 676,
      "typer.Ex": 677,
      "lama": 678,
      "ject": 679,
      "call": 680,
      "candidates": 681,
      "text(": 682,
      "vide": 683,
      "producer_args": 684,
      "\".jo": 685,
      "datetime.": 686,
      "parser.add_": 687,
      "_dt.datetime.": 688,
      "Commandsmith": 689,
      "LLM": 690,
      "typescript": 691,
      "encoding=\"utf-8\")": 692,
      "anscript": 693,
      "Forge": 694,
      "seconds": 695,
      "timespec": 696,
      "isoformat(timespec": 697,
      "typer.Exit(": 698,
      "\".join(": 699,
      "\"+": 700,
      "')": 701,
      "((": 702,
      "())": 703,
      "/v": 704,
      "1_": 705,
      "2_": 706,
      "=int": 707,
      "AU": 708,
      "FAU": 709,
      "LT_": 710,
      "RI": 711,
      "_re": 712,
      "_output": 713,
      "a,": 714,
      "ache": 715,
      "ist": 716,
      "ifi": 717,
      "i_ke": 718,
      "ll": 719,
      "ment": 720,
      "mis": 721,
      "manifest": 722,
      "pip": 723,
      "},": 724,
      "}',": 725,
      "repo": 726,
      "ated_": 727,
      "\",type": 728,
      "step": 729,
      "secho(": 730,
      "'.c": 731,
      "fil": 732,
      "und": 733,
      "str(": 734,
      "⟩→_": 735,
      "⟩→i": 736,
      "s:[_]": 737,
      "(\"a": 738,
      "dates": 739,
      "argument": 740,
      "ulti": 741,
      "().": 742,
      "src/": 743,
      "typer.secho(": 744,
      "FIL": 745,
      "tier:s": 746,
      "artifact": 747,
      "catch": 748,
      "text": 749,
      "invo": 750,
      "ctx": 751,
      "updates": 752,
      "err=True)\",\"": 753,
      "atomadic-forge.": 754,
      "ignature": 755,
      "at_utc": 756,
      "fg='": 757,
      "gistr": 758,
      "ke_resul": 759,
      "unt:i": 760,
      "number\")": 761,
      "Synergy": 762,
      "smoke_resul": 763,
      "generated_": 764,
      "stants": 765,
      "candidate_id": 766,
      "atomadic_forge.": 767,
      "Arg": 768,
      "DEFAU": 769,
      "jectory": 770,
      "parser.add_argument": 771,
      "/v1": 772,
      "=int,help=\"": 773,
      "\",type=int,help=\"": 774,
      "generated_at_utc": 775,
      "DEFAULT_": 776,
      "'}": 777,
      "'producer": 778,
      "'}⟫)": 779,
      "'typescript": 780,
      "(\",\"": 781,
      "(targe": 782,
      ")+\"": 783,
      "AM": 784,
      "Con": 785,
      "Emerge": 786,
      "LI": 787,
      "Log": 788,
      "NAM": 789,
      "Re": 790,
      "TI": 791,
      "_id": 792,
      "_feature": 793,
      "capt": 794,
      "d(": 795,
      "ff": 796,
      "fn": 797,
      "iz": 798,
      "lat": 799,
      "lang": 800,
      "m',": 801,
      "multi": 802,
      "pr": 803,
      "s)": 804,
      "sit": 805,
      "sha": 806,
      "ted": 807,
      "ub": 808,
      "red_": 809,
      "report": 810,
      "\",\"\",\"": 811,
      "divide": 812,
      ":s⟩→s": 813,
      "all": 814,
      "'.ts": 815,
      "proces": 816,
      "iter": 817,
      "uration": 818,
      "ext": 819,
      "exec": 820,
      "exist": 821,
      ")))": 822,
      "list": 823,
      "node": 824,
      "subtrac": 825,
      "None,": 826,
      "ollama": 827,
      "score_": 828,
      "score:f": 829,
      "self._": 830,
      "Transcript": 831,
      "T_EXTS": 832,
      "pay": 833,
      "\\n\\n##": 834,
      "synergy": 835,
      "erry": 836,
      "frozenset({": 837,
      "frozenset(⟪{": 838,
      "/\\n.": 839,
      "module": 840,
      "Report": 841,
      "trajectory": 842,
      "gistry": 843,
      "smoke_results": 844,
      "DEFAULT_CONFIG": 845,
      ")+\"\\n\")": 846,
      "Emergent": 847,
      "capture": 848,
      "execut": 849,
      "TranscriptLog": 850,
      "!=": 851,
      "'-": 852,
      "'atomadic_forge.": 853,
      "(t": 854,
      "(config": 855,
      ",indent=2": 856,
      ".0": 857,
      ".un": 858,
      ".call": 859,
      "00": 860,
      "0_": 861,
      "0:\",\"": 862,
      "3_": 863,
      ":\"": 864,
      "=False": 865,
      "An": 866,
      "CRI": 867,
      "CLI": 868,
      "LA": 869,
      "LO": 870,
      "Liter": 871,
      "NO": 872,
      "PT_EXTS": 873,
      "RO": 874,
      "St": 875,
      "Sto": 876,
      "_path": 877,
      "_root": 878,
      "_FIL": 879,
      "be": 880,
      "ce_": 881,
      "cmd_": 882,
      "duration": 883,
      "glo": 884,
      "iv": 885,
      "k_con": 886,
      "osit": 887,
      "p_": 888,
      "pic": 889,
      "qk_con": 890,
      "ry": 891,
      "s\")": 892,
      "te": 893,
      "t(\"": 894,
      "vel": 895,
      "wo": 896,
      "ys.": 897,
      "|\\n": 898,
      "∨\"": 899,
      "⟨card": 900,
      "⟨src": 901,
      "er()": 902,
      "read_": 903,
      "\",default=": 904,
      "int(": 905,
      "\",\"a": 906,
      "',\",s\"": 907,
      "ution": 908,
      "al[": 909,
      "main": 910,
      "unds": 911,
      "entry": 912,
      "mem": 913,
      "s:f": 914,
      "mo_comp": 915,
      "ass": 916,
      "))\",\"": 917,
      "rc)\",\"": 918,
      "[sys.": 919,
      "top_": 920,
      "target)": 921,
      "s.run": 922,
      "\",s\"-": 923,
      "subparser": 924,
      "subproces": 925,
      "s:[s]⟩": 926,
      "thro": 927,
      "lable": 928,
      "og_feature": 929,
      ").returncode": 930,
      "ed_cli": 931,
      "),encoding=\"utf-8\")": 932,
      "**:": 933,
      "lines": 934,
      "Error,": 935,
      "sources": 936,
      "_api_ke": 937,
      "red',": 938,
      "_omis": 939,
      "at_function": 940,
      "(cmd_": 941,
      ".get(\"": 942,
      "=_promp": 943,
      "domain_": 944,
      "project_dir": 945,
      "ml',": 946,
      "'.md": 947,
      "preset": 948,
      "write_text(": 949,
      "=true)": 950,
      "phase_omis": 951,
      "⟦card[\"producer\"]⟧,": 952,
      "a4_sy_orchestration.un": 953,
      "able,": 954,
      "default_target_": 955,
      "LLMClient": 956,
      "typer.Exit(rc)\",\"": 957,
      "\"+package": 958,
      "1_at_function": 959,
      "2_mo_comp": 960,
      "_output=False": 961,
      "ified_cli": 962,
      "pipe": 963,
      "typer.secho(f": 964,
      "updates[\"": 965,
      "fg='red',": 966,
      "SynergyScan": 967,
      "ize": 968,
      "shared_": 969,
      "payload": 970,
      "EmergentScan": 971,
      "capture_output=False": 972,
      "executable,": 973,
      "'-m',": 974,
      "'atomadic_forge.a4_sy_orchestration.un": 975,
      "0_qk_con": 976,
      "3_og_feature": 977,
      "CRIPT_EXTS": 978,
      "Literal[": 979,
      "Store": 980,
      "global": 981,
      "osites": 982,
      "|\\n|": 983,
      "[sys.executable,": 984,
      "s.run(cmd_": 985,
      "subprocess.run(cmd_": 986,
      ").returncode\",\"": 987,
      "=_prompt_": 988,
      "phase_omission": 989,
      "2_mo_composites": 990,
      "ified_cli',\",s\"": 991,
      "capture_output=False).returncode\",\"": 992,
      "'atomadic_forge.a4_sy_orchestration.unified_cli',\",s\"": 993,
      "0_qk_constants": 994,
      "\"\\n": 995,
      "'}⟫": 996,
      "(_dt.": 997,
      "(paren": 998,
      ",exist": 999,
      "->": 1000,
      ".sub": 1001,
      ".utc": 1002,
      ".up": 1003,
      ".strip": 1004,
      ".low": 1005,
      ":\",s\"": 1006,
      "=dic": 1007,
      "AL": 1008,
      "At": 1009,
      "D_DIR": 1010,
      "EN": 1011,
      "Fi": 1012,
      "GNO": 1013,
      "IGNO": 1014,
      "JS": 1015,
      "NG": 1016,
      "Path": 1017,
      "RC": 1018,
      "Run": 1019,
      "Se": 1020,
      "TE": 1021,
      "Val": 1022,
      "_P": 1023,
      "_chain": 1024,
      "_CONFIG": 1025,
      "_EXTS": 1026,
      "`src/": 1027,
      "aw": 1028,
      "are": 1029,
      "by": 1030,
      "bas": 1031,
      "back": 1032,
      "bution": 1033,
      "clas": 1034,
      "do": 1035,
      "fo": 1036,
      "g',": 1037,
      "gment": 1038,
      "ht": 1039,
      "il": 1040,
      "ired": 1041,
      "ibution": 1042,
      "kdir": 1043,
      "k=true)": 1044,
      "kdo": 1045,
      "mon": 1046,
      "min": 1047,
      "mkdir": 1048,
      "raw": 1049,
      "sp": 1050,
      "s\\n": 1051,
      "s:_": 1052,
      "tent": 1053,
      "uage": 1054,
      "ve": 1055,
      "wn": 1056,
      "wor": 1057,
      "zone": 1058,
      "⟦prese": 1059,
      "⟧`": 1060,
      "⟧\")": 1061,
      "⟨path": 1062,
      "⟨model": 1063,
      "requ": 1064,
      "attr": 1065,
      "\",DEFAULT_CONFIG": 1066,
      "input": 1067,
      "state": 1068,
      "enc": 1069,
      "rounds": 1070,
      "segment": 1071,
      "comm": 1072,
      "distr": 1073,
      "cherry": 1074,
      "content": 1075,
      "'.s": 1076,
      "'.py": 1077,
      "fiel": 1078,
      "item": 1079,
      "exit": 1080,
      "s:b": 1081,
      "\")]": 1082,
      "ts=true": 1083,
      "data": 1084,
      "args:": 1085,
      "lib": 1086,
      "t.write_text(": 1087,
      "s\"⟦": 1088,
      "apply": 1089,
      "json_": 1090,
      "scout": 1091,
      "y_env": 1092,
      "=\"seconds": 1093,
      "target": 1094,
      "target.write_text(": 1095,
      "_count:i": 1096,
      ":i⟩→i": 1097,
      "ueError": 1098,
      "None:\",\"": 1099,
      "None,\",\"": 1100,
      "plit": 1101,
      "chain[\"": 1102,
      ").isoformat(timespec": 1103,
      "output_dir": 1104,
      "igno": 1105,
      "symbol": 1106,
      "artifact)": 1107,
      "pose": 1108,
      "intent": 1109,
      "timezone": 1110,
      "ctory": 1111,
      "docstring": 1112,
      "add_parser": 1113,
      "_appen": 1114,
      "_apply": 1115,
      "⟪{'python": 1116,
      "_ok=true)": 1117,
      "s:i}": 1118,
      "project_root": 1119,
      "env',": 1120,
      "```bas": 1121,
      ":{s:i}": 1122,
      "package_prefix": 1123,
      "_comple": 1124,
      "E_NAM": 1125,
      "RED_DIR": 1126,
      "has_": 1127,
      "now(_dt.": 1128,
      "consumer_args": 1129,
      "cli_demo_returncode": 1130,
      "'javascript':": 1131,
      "ManifestStore": 1132,
      "headline": 1133,
      "_dt.datetime.now(_dt.": 1134,
      "ache',": 1135,
      "file_": 1136,
      "'}),": 1137,
      "'typescript':": 1138,
      "print(": 1139,
      "ollama_": 1140,
      "score_trajectory": 1141,
      "⟨card:_⟩→s": 1142,
      "thropic": 1143,
      "sources_dir": 1144,
      "_api_key_env": 1145,
      "default_target_score": 1146,
      "\"+package+\"": 1147,
      "Literal[(\"": 1148,
      "\"\\n\".join(": 1149,
      "(parents=true": 1150,
      ",exist_ok=true)": 1151,
      ".sub(\"": 1152,
      ".utc).isoformat(timespec": 1153,
      ".update": 1154,
      ".lower()": 1155,
      "=dict(": 1156,
      "AL_CONFIG": 1157,
      "Atomadic": 1158,
      "IGNORED_DIR": 1159,
      "JSON": 1160,
      "ValueError": 1161,
      "kdown": 1162,
      "mkdir(parents=true": 1163,
      "s:_}": 1164,
      "⟦preset.": 1165,
      "⟨model:_": 1166,
      "\",DEFAULT_CONFIG[\"": 1167,
      "distribution": 1168,
      "=\"seconds\")": 1169,
      "timezone.utc).isoformat(timespec": 1170,
      "⟪{'python':": 1171,
      "```bash": 1172,
      "_dt.datetime.now(_dt.timezone.utc).isoformat(timespec": 1173,
      "AL_CONFIG_DIR": 1174,
      "IGNORED_DIRS": 1175,
      "mkdir(parents=true,exist_ok=true)": 1176,
      "']": 1177,
      "'consumer": 1178,
      "'),": 1179,
      "'pure": 1180,
      "'atomadic-forge.": 1181,
      "'synergy": 1182,
      "(src": 1183,
      "(func": 1184,
      "(body": 1185,
      "(invo": 1186,
      ",\"": 1187,
      ",default=": 1188,
      ".\",\"": 1189,
      ".\\\"\\\"\\\"": 1190,
      ".invo": 1191,
      ".ext": 1192,
      "/a": 1193,
      "0]": 1194,
      "=config": 1195,
      "=self.": 1196,
      "=args": 1197,
      "=_dt.datetime.": 1198,
      "=subparser": 1199,
      "@app": 1200,
      "AI": 1201,
      "AS": 1202,
      "ER": 1203,
      "SRC": 1204,
      "YP": 1205,
      "Z\",": 1206,
      "['": 1207,
      "[str": 1208,
      "[list": 1209,
      "_S": 1210,
      "__": 1211,
      "_m": 1212,
      "_bal": 1213,
      "_tier:s": 1214,
      "_mem": 1215,
      "`a": 1216,
      "a:i": 1217,
      "b\",type=int,help=\"": 1218,
      "b)))": 1219,
      "dout": 1220,
      "e(": 1221,
      "echo(": 1222,
      "ffix": 1223,
      "ir": 1224,
      "ked_": 1225,
      "ly": 1226,
      "ou": 1227,
      "pt": 1228,
      "per": 1229,
      "sa": 1230,
      "s()": 1231,
      "s/`": 1232,
      "tec": 1233,
      "two": 1234,
      "tattr": 1235,
      "ug": 1236,
      "wd": 1237,
      "war": 1238,
      "ya": 1239,
      "{rc": 1240,
      "{package": 1241,
      "{\",s\"": 1242,
      "↦print(": 1243,
      "∈IGNORED_DIRS": 1244,
      "⟦package": 1245,
      "⟦result.": 1246,
      "⟨a:i": 1247,
      "error": 1248,
      "registry": 1249,
      "recomm": 1250,
      "\",help=\"": 1251,
      "\",generated_at_utc": 1252,
      "inde": 1253,
      "in_mem": 1254,
      "ory_": 1255,
      "ged": 1256,
      "gest": 1257,
      "getattr": 1258,
      "stdout": 1259,
      "endat": 1260,
      "end(": 1261,
      "ros": 1262,
      "aned": 1263,
      "ance_": 1264,
      "ses": 1265,
      "set_": 1266,
      "def": 1267,
      "detec": 1268,
      ":s⟩→": 1269,
      "cond": 1270,
      "conver": 1271,
      "alname:s": 1272,
      "align": 1273,
      "'.js": 1274,
      "'.json": 1275,
      "'.to": 1276,
      "'.js',": 1277,
      "summ": 1278,
      "suffix": 1279,
      "max": 1280,
      "propose": 1281,
      "first": 1282,
      "str(\"": 1283,
      "entory": 1284,
      "exp": 1285,
      "export": 1286,
      "er_lines": 1287,
      "\"]=_prompt_": 1288,
      "[\"@app": 1289,
      "(\"b\",type=int,help=\"": 1290,
      "level": 1291,
      "leaned": 1292,
      "log": 1293,
      "out_command": 1294,
      "y_m": 1295,
      "=\"atomadic-forge.": 1296,
      "_coun": 1297,
      "s.add_parser": 1298,
      ")\",\"[": 1299,
      "src)": 1300,
      "subcommand": 1301,
      "typer.Con": 1302,
      "typer.echo(": 1303,
      "None:\",s\"": 1304,
      "olation": 1305,
      "ply_": 1306,
      "this": 1307,
      "⟦card[\"candidate_id": 1308,
      "avai": 1309,
      "run_": 1310,
      "face": 1311,
      "pytest": 1312,
      "schema_id": 1313,
      "='seconds": 1314,
      "='Arg": 1315,
      "commands": 1316,
      "utcnow": 1317,
      "json.load": 1318,
      "json.JSON": 1319,
      "schema_version':": 1320,
      "schema_version=\"atomadic-forge.": 1321,
      "artifact_": 1322,
      "posi": 1323,
      "help='Arg": 1324,
      "inventory": 1325,
      "Error)": 1326,
      "+\"Z\",": 1327,
      "return\",\"": 1328,
      "CONFIG_FIL": 1329,
      "tests": 1330,
      "merged": 1331,
      "⟪{'schema_version':": 1332,
      "parser.set_": 1333,
      "body)+\"\\n\")": 1334,
      "body.ext": 1335,
      "excep": 1336,
      "notated": 1337,
      "cli_demo_command": 1338,
      ".get(": 1339,
      "=_head": 1340,
      "_cfg": 1341,
      "_clas": 1342,
      "kind:s": 1343,
      "tier_distribution": 1344,
      "⟨self:Commandsmith": 1345,
      "_key": 1346,
      "ke_with": 1347,
      "=True)\",\"def": 1348,
      "False,": 1349,
      "numbers\")": 1350,
      "json.dumps({\",s\"": 1351,
      "auto_apply": 1352,
      "qualname:s": 1353,
      "parent.": 1354,
      "final_": 1355,
      "(card)": 1356,
      "defaults(func": 1357,
      "cli_demo_stdout": 1358,
      "indent=2))\",\"": 1359,
      "Decode": 1360,
      "open_id": 1361,
      "args.a,": 1362,
      "args.b)))": 1363,
      "candidates=": 1364,
      "Commandsmith.": 1365,
      "isoformat(timespec=\"seconds\")": 1366,
      "')]": 1367,
      "llm": 1368,
      "str(artifact)": 1369,
      "(\"a\",type=int,help=\"": 1370,
      "().isoformat(timespec=\"seconds\")": 1371,
      "ctx:": 1372,
      "ctx.invo": 1373,
      "Argument": 1374,
      "parser.add_argument(\"b\",type=int,help=\"": 1375,
      "parser.add_argument(\"a\",type=int,help=\"": 1376,
      "/v1',": 1377,
      "/v1\",generated_at_utc": 1378,
      "latenc": 1379,
      "language": 1380,
      "multiply_": 1381,
      "divide_": 1382,
      "subtract_": 1383,
      "frozenset({'pure": 1384,
      ".callback": 1385,
      "Annotated": 1386,
      "LOC": 1387,
      "ROO": 1388,
      "Stub": 1389,
      "\",default=cur_": 1390,
      "shared_schema": 1391,
      "First": 1392,
      "Second": 1393,
      "`src/\"+package+\"": 1394,
      "work": 1395,
      "rounds_comple": 1396,
      "exited": 1397,
      "json_artifact": 1398,
      "target.write_text(json.dumps(": 1399,
      "E_NAME": 1400,
      "_api_key_env:_⟩": 1401,
      "\"\\n\".join(body)+\"\\n\")": 1402,
      "_dt.datetime.now(_dt.timezone.utc).isoformat(timespec='seconds": 1403,
      "'synergy':": 1404,
      "(body=_head": 1405,
      "(invoke_with": 1406,
      ",default=str": 1407,
      "=config.get(\"": 1408,
      "=args↦print(": 1409,
      "=_dt.datetime.utcnow": 1410,
      "=subparsers.add_parser": 1411,
      "[str]": 1412,
      "[list[str]": 1413,
      "_balance_": 1414,
      "ked_subcommand": 1415,
      "{rc}',": 1416,
      "⟦package⟧": 1417,
      "recommendat": 1418,
      "index": 1419,
      "in_memory_": 1420,
      "getattr(_": 1421,
      "end([\"@app": 1422,
      "converged": 1423,
      "summary": 1424,
      "proposed_": 1425,
      "er_lines(card)": 1426,
      "out_command=True)\",\"def": 1427,
      "typer.echo(json.dumps({\",s\"": 1428,
      "⟦card[\"candidate_id\"]⟧": 1429,
      "available": 1430,
      "json.loads(": 1431,
      "json.JSONDecode": 1432,
      "help='Args": 1433,
      "CONFIG_FILE_NAME": 1434,
      "parser.set_defaults(func": 1435,
      "body.extend([\"@app": 1436,
      "indent=2))\",\"\"])": 1437,
      "open_idx": 1438,
      "args.a,args.b)))": 1439,
      "str(artifact)]\",\"": 1440,
      "().isoformat(timespec=\"seconds\")+\"Z\",": 1441,
      "ctx.invoked_subcommand": 1442,
      "parser.add_argument(\"b\",type=int,help=\"Second": 1443,
      "parser.add_argument(\"a\",type=int,help=\"First": 1444,
      "/v1\",generated_at_utc=_dt.datetime.utcnow": 1445,
      "latency_m": 1446,
      ".callback(invoke_with": 1447,
      "Annotated[list[str]": 1448,
      "`src/\"+package+\"/a": 1449,
      "rounds_completed": 1450,
      "(body=_header_lines(card)": 1451,
      "=subparsers.add_parser(\"": 1452,
      "recommendation": 1453,
      "in_memory_pipe": 1454,
      "parser.set_defaults(func=args↦print(": 1455,
      "body.extend([\"@app.callback(invoke_with": 1456,
      "/v1\",generated_at_utc=_dt.datetime.utcnow().isoformat(timespec=\"seconds\")+\"Z\",": 1457,
      "body.extend([\"@app.callback(invoke_without_command=True)\",\"def": 1458,
      "\":\"": 1459,
      "'ts": 1460,
      "'--": 1461,
      "'run": 1462,
      "'state": 1463,
      "'{package": 1464,
      "(G": 1465,
      "(self.": 1466,
      "(s,": 1467,
      "(node": 1468,
      ")∨\"": 1469,
      "*producer_args": 1470,
      ",config": 1471,
      ",\",s\"": 1472,
      "-args": 1473,
      "-tier": 1474,
      "._": 1475,
      ".json": 1476,
      "/CONFIG_FILE_NAME": 1477,
      "1)": 1478,
      "100": 1479,
      "2σ": 1480,
      "5-tier": 1481,
      "=path.": 1482,
      "?\"": 1483,
      "AA": 1484,
      "AV": 1485,
      "Ch": 1486,
      "Dire": 1487,
      "ETS": 1488,
      "Gen": 1489,
      "HON": 1490,
      "Imp": 1491,
      "Int": 1492,
      "ITI": 1493,
      "JAV": 1494,
      "OS": 1495,
      "Open": 1496,
      "PY": 1497,
      "RES": 1498,
      "Sco": 1499,
      "Sur": 1500,
      "Signature": 1501,
      "SITI": 1502,
      "TYP": 1503,
      "THON": 1504,
      "[]": 1505,
      "[⟪": 1506,
      "[]\",\"": 1507,
      "[0]": 1508,
      "_se": 1509,
      "_to": 1510,
      "_utc": 1511,
      "_import": 1512,
      "_type": 1513,
      "_file": 1514,
      "_pure": 1515,
      "_step": 1516,
      "_posi": 1517,
      "a-": 1518,
      "ab": 1519,
      "ag": 1520,
      "ast": 1521,
      "ase": 1522,
      "adic": 1523,
      "b,": 1524,
      "bl": 1525,
      "b:i⟩→i": 1526,
      "base": 1527,
      "ci": 1528,
      "cer": 1529,
      "cros": 1530,
      "cleaned": 1531,
      "d',": 1532,
      "e:": 1533,
      "ew": 1534,
      "ever": 1535,
      "f⟧": 1536,
      "f',": 1537,
      "fli": 1538,
      "find": 1539,
      "her": 1540,
      "ies": 1541,
      "kg": 1542,
      "ken": 1543,
      "l_": 1544,
      "ler": 1545,
      "les": 1546,
      "lug": 1547,
      "of": 1548,
      "pi": 1549,
      "pas": 1550,
      "pkg": 1551,
      "ser": 1552,
      "s\",\"": 1553,
      "s',": 1554,
      "scrip": 1555,
      "signature": 1556,
      "voc": 1557,
      "wire": 1558,
      "x())": 1559,
      "yout": 1560,
      "y((": 1561,
      "you": 1562,
      "{e:": 1563,
      "⟨⟩→": 1564,
      "⟨chain": 1565,
      "⟨node": 1566,
      "⟨project_root": 1567,
      "⟫]": 1568,
      "erme": 1569,
      "erated": 1570,
      "erpt": 1571,
      "revi": 1572,
      "relat": 1573,
      "resp": 1574,
      "ator": 1575,
      "arc": 1576,
      "arkdown": 1577,
      "in-": 1578,
      "ini": 1579,
      "gemin": 1580,
      "stat": 1581,
      "stem": 1582,
      "stall": 1583,
      "\",\"re": 1584,
      "\",\"\",s\"": 1585,
      "and_": 1586,
      "anthropic": 1587,
      "any((": 1588,
      "ses:[s]": 1589,
      "comp": 1590,
      "cover": 1591,
      "count:i": 1592,
      "disco": 1593,
      "diate": 1594,
      "digest": 1595,
      "ded": 1596,
      "descrip": 1597,
      "tif": 1598,
      "chat": 1599,
      "'.g": 1600,
      "'.p": 1601,
      "'.w": 1602,
      "ace": 1603,
      "es:[s]": 1604,
      "met": 1605,
      "meth": 1606,
      "e_to": 1607,
      "e_report": 1608,
      "t_docstring": 1609,
      "\"))": 1610,
      "forwar": 1611,
      "as_posi": 1612,
      "[\"provider": 1613,
      "ect": 1614,
      "ection": 1615,
      "mment": 1616,
      "load_": 1617,
      "ulary": 1618,
      "adapt": 1619,
      "part": 1620,
      "package,": 1621,
      "package:s": 1622,
      "names": 1623,
      "out',": 1624,
      "try": 1625,
      "name,": 1626,
      "dir/": 1627,
      "_comment": 1628,
      "config.update": 1629,
      "config_file": 1630,
      "typer.Argument": 1631,
      "consumer-args": 1632,
      "olve": 1633,
      "ocstring": 1634,
      "self.write_": 1635,
      "run(\",\"": 1636,
      "output_root": 1637,
      "_size": 1638,
      "result": 1639,
      "\\n\\n```bash": 1640,
      "_domain": 1641,
      "_docstring": 1642,
      "synerg": 1643,
      "artifact.": 1644,
      "**{e:": 1645,
      "key": 1646,
      "t=self.": 1647,
      "t=len(": 1648,
      "interme": 1649,
      "violation": 1650,
      "tests_": 1651,
      "url,": 1652,
      "url':": 1653,
      "models": 1654,
      "producer_fn": 1655,
      "producer_args:": 1656,
      "atomadic-forge\"": 1657,
      "True,": 1658,
      "md_path": 1659,
      "parser=subparsers.add_parser(\"": 1660,
      "(_step": 1661,
      "excerpt": 1662,
      ".get_docstring": 1663,
      "ESCRIPT_EXTS": 1664,
      "domains": 1665,
      "kind:_": 1666,
      "tier_index": 1667,
      "strip_comment": 1668,
      "⟨self:TranscriptLog": 1669,
      "ml':": 1670,
      "'.mjs',": 1671,
      "\\\"\\\"\\\"Run": 1672,
      ".scan": 1673,
      ".sav": 1674,
      ".split": 1675,
      ":{s:_}": 1676,
      "Symbol": 1677,
      "_render_phase_omission": 1678,
      "s,smoke_results": 1679,
      "sibl": 1680,
      "file.": 1681,
      "file:s": 1682,
      "--------": 1683,
      "⟦card[\"consumer\"]⟧,": 1684,
      "⟦card[\"consumer\"]⟧.\\\"\\\"\\\"": 1685,
      "lineage": 1686,
      "source_root": 1687,
      "RE.sub(\"": 1688,
      "consumer_fn": 1689,
      "'javascript',": 1690,
      "Defaul": 1691,
      "ManifestCard": 1692,
      "openai": 1693,
      "typer.Exit(2": 1694,
      "ache/\\n.": 1695,
      "llection": 1696,
      "manifest_dir": 1697,
      "text,\",\"": 1698,
      "generated_at_utc:s": 1699,
      "Registry": 1700,
      "TIER": 1701,
      "multiply": 1702,
      "\",\"\",\"##": 1703,
      "self._turn": 1704,
      "module:s": 1705,
      ",indent=2,default=str": 1706,
      "LANG": 1707,
      "_path)": 1708,
      "_path=": 1709,
      "cmd_a": 1710,
      "cmd_b": 1711,
      "ive_to": 1712,
      "read_text(": 1713,
      "read_config_file": 1714,
      "top_n": 1715,
      "top_level": 1716,
      "typer.secho(f'producer": 1717,
      "subprocess.run(cmd_a,": 1718,
      "subprocess.run(cmd_b,": 1719,
      ".strip()": 1720,
      "ENSITI": 1721,
      "monadic": 1722,
      "raw_appen": 1723,
      "s\\n-": 1724,
      "⟧`\",s\"-": 1725,
      "scout['": 1726,
      "None,\",\")": 1727,
      "ASCRIPT_EXTS": 1728,
      "detect_": 1729,
      "alignment": 1730,
      "'.json',": 1731,
      "exported_": 1732,
      "\"]=_prompt_str(\"": 1733,
      "typer.Context,\",\"": 1734,
      "artifact_md_path": 1735,
      "except": 1736,
      "parent.mkdir(parents=true,exist_ok=true)": 1737,
      "final_score": 1738,
      "frozenset({'pure',": 1739,
      "LOCAL_CONFIG_DIR": 1740,
      "StubLLMClient": 1741,
      "_dt.datetime.now(_dt.timezone.utc).isoformat(timespec='seconds'),": 1742,
      "json.JSONDecodeError)": 1743,
      "(node)∨\"": 1744,
      "Directory": 1745,
      "Generated": 1746,
      "Intent": 1747,
      "JAVASCRIPT_EXTS": 1748,
      "OSError,": 1749,
      "PYTHON": 1750,
      "RESETS": 1751,
      "Surface": 1752,
      "TYPESCRIPT_EXTS": 1753,
      "[⟪:": 1754,
      "_token": 1755,
      "_utc':": 1756,
      "abulary": 1757,
      "ast.get_docstring": 1758,
      "vocabulary": 1759,
      "⟨node:_⟩→s": 1760,
      "review": 1761,
      "relative_to": 1762,
      "coverage": 1763,
      "description": 1764,
      "metho": 1765,
      "forwarded": 1766,
      "as_posix())": 1767,
      "[\"provider\"]": 1768,
      "config.update(_step": 1769,
      "typer.Argument(\",\"": 1770,
      "\\n\\n```bash\\n": 1771,
      "intermediate": 1772,
      ".split(\"": 1773,
      "sibling": 1774,
      "⟦card[\"consumer\"]⟧.\\\"\\\"\\\"\",\"": 1775,
      "RegistryManifestCard": 1776,
      ",indent=2,default=str),encoding=\"utf-8\")": 1777,
      "ENSITIV": 1778,
      "PYTHON_EXTS": 1779,
      "ast.get_docstring(node)∨\"": 1780,
      "\"\\\"\\\"\\\"": 1781,
      "'m": 1782,
      "'s": 1783,
      "'\",\"": 1784,
      "'produc": 1785,
      "').": 1786,
      "'model": 1787,
      "'orchestr": 1788,
      "'kind": 1789,
      "'python": 1790,
      "'main": 1791,
      "'))\",\"": 1792,
      "'ht": 1793,
      "'content": 1794,
      "'ollama_": 1795,
      "'ya": 1796,
      "'latency_m": 1797,
      "'url':": 1798,
      "(f": 1799,
      "(h": 1800,
      "(k": 1801,
      "({": 1802,
      "(doc": 1803,
      "(url": 1804,
      "((c": 1805,
      "(path.": 1806,
      "(local": 1807,
      "(prefix": 1808,
      "(updates[\"": 1809,
      "(data": 1810,
      "(s\"⟦": 1811,
      "(consumer_args": 1812,
      "(schema_version=\"atomadic-forge.": 1813,
      "(args.a,args.b)))": 1814,
      "(OSError,": 1815,
      "(description": 1816,
      ")?": 1817,
      ")∈": 1818,
      ")≥": 1819,
      ")}⟫": 1820,
      ")\\n\\n": 1821,
      "*.": 1822,
      ",v": 1823,
      ",package": 1824,
      ",domain_": 1825,
      ",max": 1826,
      ",open_idx": 1827,
      "-Z": 1828,
      "-⟦": 1829,
      "-in": 1830,
      "-not": 1831,
      "-')": 1832,
      "-fo": 1833,
      "-out',": 1834,
      ".1": 1835,
      ".v": 1836,
      ".\\n": 1837,
      ".\")": 1838,
      ".writ": 1839,
      ".exist": 1840,
      ".item": 1841,
      ".mkdir(parents=true,exist_ok=true)": 1842,
      ".registry": 1843,
      ".')]": 1844,
      "//": 1845,
      "/5": 1846,
      "/_": 1847,
      "/LOCAL_CONFIG_DIR": 1848,
      "0,": 1849,
      "0.0": 1850,
      "25": 1851,
      "2',": 1852,
      "3',": 1853,
      "4_": 1854,
      "4ι": 1855,
      "4',": 1856,
      "5)": 1857,
      "8⟫]": 1858,
      ":v": 1859,
      ":[_]": 1860,
      "=f": 1861,
      "=re": 1862,
      "=co": 1863,
      "=⟪{'": 1864,
      "=has": 1865,
      "=len(": 1866,
      "=smoke_results": 1867,
      "=run_": 1868,
      "=read_config_file": 1869,
      "=ast.get_docstring(node)∨\"": 1870,
      "?doc": 1871,
      "AG": 1872,
      "Auto": 1873,
      "ALL": 1874,
      "A-Z": 1875,
      "BAL_CONFIG_DIR": 1876,
      "CO": 1877,
      "Can": 1878,
      "EC": 1879,
      "ED": 1880,
      "EM": 1881,
      "Fo": 1882,
      "G_": 1883,
      "Gem": 1884,
      "ITS": 1885,
      "Kind": 1886,
      "KG_": 1887,
      "MA": 1888,
      "MM": 1889,
      "MP": 1890,
      "NI": 1891,
      "Not": 1892,
      "Ol": 1893,
      "Pro": 1894,
      "Package": 1895,
      "Pic": 1896,
      "PKG_": 1897,
      "ST": 1898,
      "SU": 1899,
      "Script": 1900,
      "Te": 1901,
      "Ti": 1902,
      "Typ": 1903,
      "The": 1904,
      "Test": 1905,
      "UAG": 1906,
      "Wire": 1907,
      "[import": 1908,
      "[A-Z": 1909,
      "\\\\": 1910,
      "_)": 1911,
      "_ro": 1912,
      "_de": 1913,
      "_config": 1914,
      "_la": 1915,
      "_tier": 1916,
      "_name:s": 1917,
      "_EX": 1918,
      "_url": 1919,
      "_line": 1920,
      "_fil": 1921,
      "_text": 1922,
      "_candidate_id": 1923,
      "_NAM": 1924,
      "_ass": 1925,
      "_igno": 1926,
      "_file_": 1927,
      "_first": 1928,
      "_summary": 1929,
      "_excerpt": 1930,
      "`.": 1931,
      "`⟦": 1932,
      "`\",\"": 1933,
      "`forge": 1934,
      "`run": 1935,
      "a',": 1936,
      "ach": 1937,
      "akdown": 1938,
      "br": 1939,
      "bu": 1940,
      "bre": 1941,
      "b_s": 1942,
      "bel": 1943,
      "c∈": 1944,
      "cache',": 1945,
      "ce(": 1946,
      "cwd": 1947,
      "cach": 1948,
      "der": 1949,
      "d:i": 1950,
      "eb": 1951,
      "ev": 1952,
      "e∈": 1953,
      "eCard": 1954,
      "eff": 1955,
      "fer": 1956,
      "fre": 1957,
      "fe_": 1958,
      "ful": 1959,
      "gno": 1960,
      "hex": 1961,
      "hand": 1962,
      "hap": 1963,
      "hav": 1964,
      "hig": 1965,
      "hlib": 1966,
      "h[⟪:": 1967,
      "im": 1968,
      "io": 1969,
      "ide": 1970,
      "jp": 1971,
      "ju": 1972,
      "ker": 1973,
      "kip": 1974,
      "k:v": 1975,
      "next": 1976,
      "ose": 1977,
      "ot_": 1978,
      "o:i": 1979,
      "oper": 1980,
      "pan": 1981,
      "pth": 1982,
      "ption": 1983,
      "pass": 1984,
      "ru": 1985,
      "ran": 1986,
      "s:s": 1987,
      "sent": 1988,
      "sav": 1989,
      "s),": 1990,
      "sider": 1991,
      "spec": 1992,
      "s\",\"a": 1993,
      "s']": 1994,
      "slug": 1995,
      "ss',": 1996,
      "solve": 1997,
      "shap": 1998,
      "skip": 1999,
      "t,": 2000,
      "tp": 2001,
      "tre": 2002,
      "t',": 2003,
      "tmp": 2004,
      "t:s⟩→s": 2005,
      "ude": 2006,
      "ues": 2007,
      "uct": 2008,
      "v≠": 2009,
      "venv": 2010,
      "venv',": 2011,
      "wh": 2012,
      "wer": 2013,
      "ward": 2014,
      "x':": 2015,
      "x'}⟫)": 2016,
      "xt',": 2017,
      "yel": 2018,
      "{'": 2019,
      "{exc": 2020,
      "{s:_}": 2021,
      "|--------": 2022,
      "})": 2023,
      "∅})": 2024,
      "∈re": 2025,
      "⟦chain[\"": 2026,
      "⟧\\n\\n##": 2027,
      "⟨config": 2028,
      "⟨url": 2029,
      "⟨candidate_id": 2030,
      "⟨report": 2031,
      "⟨project_dir": 2032,
      "⟨file:s": 2033,
      "erer": 2034,
      "er((c": 2035,
      "onic": 2036,
      "on_con": 2037,
      "only": 2038,
      "read": 2039,
      "repl": 2040,
      "rectory": 2041,
      "re[import": 2042,
      "resolve": 2043,
      "\",[\"": 2044,
      "\",encoding=\"utf-8\")": 2045,
      "\",src)": 2046,
      "\",1)": 2047,
      "ints": 2048,
      "instan": 2049,
      "install": 2050,
      "ort_": 2051,
      "orts": 2052,
      "ort(": 2053,
      "orary": 2054,
      "stand": 2055,
      "sts:[s]": 2056,
      "enfor": 2057,
      "encode": 2058,
      "eno:i": 2059,
      "\",\"javascript": 2060,
      "\",\"typescript": 2061,
      "role": 2062,
      "round": 2063,
      "see": 2064,
      "dis": 2065,
      "dist": 2066,
      "directory": 2067,
      "tigno": 2068,
      "chit": 2069,
      "constants": 2070,
      "consider": 2071,
      "'./": 2072,
      "'.t": 2073,
      "'.y": 2074,
      "'.mp": 2075,
      "'.wr": 2076,
      "'.wo": 2077,
      "'.ht": 2078,
      "'.env',": 2079,
      "'.ya": 2080,
      "'.jp": 2081,
      "\\n\"": 2082,
      "\\n\",1)": 2083,
      "es',": 2084,
      "d_types": 2085,
      "d_names": 2086,
      "d_lineage": 2087,
      "fig": 2088,
      "it',": 2089,
      "itted": 2090,
      "struct": 2091,
      "⟩→b": 2092,
      "⟩→∅": 2093,
      "extra": 2094,
      "mp)": 2095,
      "mp_re": 2096,
      "mpfile.": 2097,
      "mporary": 2098,
      "e__": 2099,
      "t_consider": 2100,
      "asci": 2101,
      "ypy_": 2102,
      "\"]=f": 2103,
      "ece∈": 2104,
      "js':": 2105,
      "er.\",\"": 2106,
      "er.json": 2107,
      "cards:[_]": 2108,
      "cards,smoke_results": 2109,
      "add": 2110,
      "parse": 2111,
      "package:_": 2112,
      "t.parent.mkdir(parents=true,exist_ok=true)": 2113,
      "s\"#": 2114,
      "dict": 2115,
      "ed:i": 2116,
      "transcript": 2117,
      "self_ass": 2118,
      "verb_s": 2119,
      "name∈": 2120,
      "name⟧": 2121,
      "ision": 2122,
      "isinstan": 2123,
      "json-out',": 2124,
      "scode": 2125,
      "dir:s": 2126,
      "dir:_": 2127,
      "--provider": 2128,
      "--consumer-args": 2129,
      "to_tier:s": 2130,
      "_count": 2131,
      "path:s": 2132,
      "path:_⟩→": 2133,
      "s.Co": 2134,
      "default": 2135,
      "⟪{}⟫": 2136,
      "⟪{'a": 2137,
      "⟪{}⟫)": 2138,
      ":_⟩→b": 2139,
      "producer,": 2140,
      "producer:s": 2141,
      "consumer,": 2142,
      "consumer:s": 2143,
      "FIX": 2144,
      "None)": 2145,
      "None)\",\"": 2146,
      "present": 2147,
      "score))": 2148,
      "layout": 2149,
      "laude": 2150,
      "run_id": 2151,
      "chain_coun": 2152,
      "sult": 2153,
      ").')]": 2154,
      ").as_posix())": 2155,
      "pycach": 2156,
      "_sy": 2157,
      "otonic": 2158,
      "T_FIL": 2159,
      "T_TE": 2160,
      "T_RE.sub(\"": 2161,
      "callable": 2162,
      "else": 2163,
      "el(\"": 2164,
      "ha25": 2165,
      "pair": 2166,
      "didateCard": 2167,
      "\\n\\n⟦": 2168,
      "renderer": 2169,
      "='utf-8": 2170,
      "='synergy": 2171,
      "syn": 2172,
      "sys.": 2173,
      "commands.": 2174,
      "commandsmith": 2175,
      "commands=": 2176,
      "command.')]": 2177,
      "lineno:i": 2178,
      "points": 2179,
      "help_text": 2180,
      "render_tests_": 2181,
      "feed": 2182,
      "wrapp": 2183,
      "inv=co": 2184,
      "root:_": 2185,
      "'auto": 2186,
      "'a4_sy_orchestration": 2187,
      "'a1_at_function": 2188,
      "'a3_og_feature": 2189,
      "'a2_mo_composites": 2190,
      "doc_token": 2191,
      "doc?doc": 2192,
      "upward": 2193,
      "via": 2194,
      "imports:[s]": 2195,
      "importable": 2196,
      "Comp": 2197,
      "merge_config": 2198,
      "orchestrator": 2199,
      "\".strip": 2200,
      "\".atomadic-forge\"": 2201,
      "emitted": 2202,
      "ice": 2203,
      "⟪{'available": 2204,
      "ign:b": 2205,
      "(_pan": 2206,
      "_of": 2207,
      "choice": 2208,
      "exc\",\"": 2209,
      "exc:\",\"": 2210,
      "type:": 2211,
      "(cur_": 2212,
      "(cwd": 2213,
      "_cache',": 2214,
      "_cache/\\n.": 2215,
      "tier_inventory": 2216,
      "project_defaults": 2217,
      "⟨self:ManifestStore": 2218,
      "gist": 2219,
      "gitigno": 2220,
      "unter((c": 2221,
      "path.relative_to": 2222,
      "from_tier:s": 2223,
      "```\\n\\n##": 2224,
      "```\",\"\",s\"": 2225,
      "False}⟫": 2226,
      "json.dumps(entry": 2227,
      ".sha25": 2228,
      ":{s:f": 2229,
      "_render_shared_schema": 2230,
      "_render_json_artifact": 2231,
      "_render_in_memory_pipe": 2232,
      "quired": 2233,
      "lows": 2234,
      "low',": 2235,
      "⟦card[\"consumer\"]⟧,\",\"": 2236,
      "python\",\"javascript": 2237,
      "catalog))": 2238,
      "catalog_size": 2239,
      "time.mon": 2240,
      "source_repo": 2241,
      "functions:[s]": 2242,
      "final_output": 2243,
      "finalize": 2244,
      "encoding='utf-8": 2245,
      "(cards)": 2246,
      "E_EXTS": 2247,
      "E_SU": 2248,
      "a4_sy_orchestration/`": 2249,
      "has_clas": 2250,
      "ire_pure": 2251,
      "smoke": 2252,
      "generated": 2253,
      "angler": 2254,
      "modules": 2255,
      "local_cfg": 2256,
      "result.score_trajectory": 2257,
      "atomadic_forge_se": 2258,
      "Demo": 2259,
      "Report(": 2260,
      "open(\"a": 2261,
      "parts)": 2262,
      "parts=path.": 2263,
      "default_exp": 2264,
      "candidates:[_]": 2265,
      "Forge's": 2266,
      "\".join(chain[\"": 2267,
      "\"+result.": 2268,
      "1_provider": 2269,
      "RING": 2270,
      "i_key": 2271,
      "manifest=": 2272,
      "'.cjs',": 2273,
      "str(SRC": 2274,
      "(\"a0_qk_constants": 2275,
      "typer.secho('producer": 2276,
      "fg='yel": 2277,
      "atomadic_forge.commands": 2278,
      "'})}⟫": 2279,
      "'producer':": 2280,
      "(target=self.": 2281,
      "(target.parent.mkdir(parents=true,exist_ok=true)": 2282,
      "Config": 2283,
      "Result": 2284,
      "d(⟪{'schema_version':": 2285,
      "lang_la": 2286,
      "priv": 2287,
      "report,indent=2,default=str),encoding=\"utf-8\")": 2288,
      "\",\"\",\"```bash": 2289,
      "'.ts',": 2290,
      "list_": 2291,
      "subtract": 2292,
      "score_bre": 2293,
      "self._raw_appen": 2294,
      "erryPic": 2295,
      ")+\"\\n\"))": 2296,
      "TranscriptLog._": 2297,
      "(tag": 2298,
      "(tmp)": 2299,
      "(config[\"provider\"]": 2300,
      ",indent=2),encoding=\"utf-8\")": 2301,
      ".0f⟧": 2302,
      "Anthropic": 2303,
      "LATE": 2304,
      "LOBAL_CONFIG_DIR": 2305,
      "Step": 2306,
      "_root:_": 2307,
      "befo": 2308,
      "behav": 2309,
      "duration_": 2310,
      "duration_s": 2311,
      "duration_m": 2312,
      "tempfile.": 2313,
      "∨\"(": 2314,
      "⟨src:s": 2315,
      "⟨src:s⟩→s": 2316,
      "⟨src_root:_": 2317,
      "\",\"a1_at_function": 2318,
      "\",\"a3_og_feature": 2319,
      "main`": 2320,
      "memory": 2321,
      "project_dir/LOCAL_CONFIG_DIR": 2322,
      "'.md',": 2323,
      "⟦card[\"producer\"]⟧,\",s\"": 2324,
      "1_at_functions/`": 2325,
      "typer.secho(f'consumer": 2326,
      "shared_vocabulary": 2327,
      "payload.get(": 2328,
      "'-m',\",\"": 2329,
      "3_og_features/`": 2330,
      "global_": 2331,
      "global_cfg": 2332,
      "2_mo_composites/`": 2333,
      "2_mo_composites\",\"a3_og_feature": 2334,
      "0_qk_constants':": 2335,
      "0_qk_constants/`": 2336,
      "ENT_RE.sub(\"": 2337,
      "Path(tmp)": 2338,
      "_PRESETS": 2339,
      "classes": 2340,
      "⟨path:_": 2341,
      "required": 2342,
      "require_pure": 2343,
      "inputs": 2344,
      "stateful": 2345,
      "segment∈IGNORED_DIRS": 2346,
      "'.sv": 2347,
      "'.py',": 2348,
      "field": 2349,
      "field_types": 2350,
      "lib.": 2351,
      "target:_⟩→_": 2352,
      "_count:i⟩": 2353,
      "ignore[import": 2354,
      "symbol_count": 2355,
      "docstring:s⟩": 2356,
      "_append_lineage": 2357,
      "has_self_ass": 2358,
      "headline:s": 2359,
      "default_target_score\"]=f": 2360,
      ".sub(\"^": 2361,
      ".update({": 2362,
      "ValueError(": 2363,
      "'],": 2364,
      "'consumer':": 2365,
      "'atomadic-forge.transcript": 2366,
      "(src,open_idx": 2367,
      ".\",\"-": 2368,
      "_SENSITIV": 2369,
      "__pycach": 2370,
      "e(json.dumps(entry": 2371,
      "safe_": 2372,
      "error_": 2373,
      "ses_domain": 2374,
      "suffix.lower()": 2375,
      "_count=len(": 2376,
      "commands_dir": 2377,
      "merged.update({": 2378,
      "_classes:[s]": 2379,
      "tier_distribution:{s:i}": 2380,
      "_key':": 2381,
      "_key:_": 2382,
      "candidates=candidates": 2383,
      "Commandsmith.write_": 2384,
      "ROOT": 2385,
      "ROOT_TE": 2386,
      "worktre": 2387,
      "target.write_text(json.dumps(report,indent=2,default=str),encoding=\"utf-8\")": 2388,
      "_balance_pair": 2389,
      "getattr(_producer,": 2390,
      "getattr(_consumer,": 2391,
      "⟦card[\"candidate_id\"]⟧,\",\"": 2392,
      "⟦card[\"candidate_id\"]⟧,\",s\"": 2393,
      "json.loads(artifact.": 2394,
      "open_idx:i⟩→i": 2395,
      "recommendations:[s]⟩": 2396,
      "/v1\",generated_at_utc=_dt.datetime.utcnow().isoformat(timespec=\"seconds\")+\"Z\",commands=": 2397,
      "'ts_utc':": 2398,
      "'--json-out',": 2399,
      "'run',": 2400,
      "'state',": 2401,
      "'{package}": 2402,
      "(s,_)": 2403,
      ",config))": 2404,
      ".json\"": 2405,
      "CherryPic": 2406,
      "Import": 2407,
      "OpenAI": 2408,
      "Score": 2409,
      "SignatureCard": 2410,
      "[0]:\"": 2411,
      "_type:s": 2412,
      "a-z": 2413,
      "base_url": 2414,
      "certif": 2415,
      "crosses_domain": 2416,
      "every": 2417,
      "flict": 2418,
      "finding": 2419,
      "piece∈": 2420,
      "passe": 2421,
      "s\",\"a4_sy_orchestration": 2422,
      "signatures": 2423,
      "⟨chain:_⟩→s": 2424,
      "⟨project_root:_": 2425,
      "arkdown',": 2426,
      "in-memory": 2427,
      "gemini_key": 2428,
      "\",\"rename": 2429,
      "discover": 2430,
      "digest()": 2431,
      "'.web": 2432,
      "ace(\"": 2433,
      "load_config": 2434,
      "try:\",\"": 2435,
      "dir/s\"⟦": 2436,
      "_docstring_first": 2437,
      "synergies": 2438,
      "tier_index(": 2439,
      ".save_report": 2440,
      "source_root:s⟩": 2441,
      "Default": 2442,
      "typer.Exit(2)": 2443,
      "llections.Co": 2444,
      "TIER_NAM": 2445,
      "LANGUAG": 2446,
      "_path=project_dir/LOCAL_CONFIG_DIR": 2447,
      "read_text(encoding='utf-8": 2448,
      ".strip().split(\"": 2449,
      "detect_ollama": 2450,
      "Directory(prefix": 2451,
      "review:": 2452,
      "coverage',": 2453,
      "method_names": 2454,
      "sibling_import": 2455,
      "RegistryManifestCard(schema_version=\"atomadic-forge.": 2456,
      "'producer.json": 2457,
      "'models':": 2458,
      "'orchestrate": 2459,
      "'kind':": 2460,
      "'main',": 2461,
      "'latency_ms':": 2462,
      "(f.writ": 2463,
      "(h=has": 2464,
      "(k,v": 2465,
      "(doc=ast.get_docstring(node)∨\"": 2466,
      "(updates[\"default_target_score\"]=f": 2467,
      "-⟦h[⟪:": 2468,
      "-not-fo": 2469,
      ".exists()": 2470,
      ".items()": 2471,
      ".registry/v1\",generated_at_utc=_dt.datetime.utcnow().isoformat(timespec=\"seconds\")+\"Z\",commands=": 2472,
      "/5:": 2473,
      "4_project_defaults": 2474,
      "8⟫]⟧\")": 2475,
      "=re.sub(\"^": 2476,
      "COMM": 2477,
      "CandidateCard": 2478,
      "EMITS": 2479,
      "Found": 2480,
      "Gemini": 2481,
      "MPLATE": 2482,
      "NotFound": 2483,
      "Ollama": 2484,
      "PKG_ROOT_TE": 2485,
      "Temporary": 2486,
      "Tier": 2487,
      "[A-Za-z": 2488,
      "_root_": 2489,
      "_depth": 2490,
      "_EXT": 2491,
      "_files:[s]": 2492,
      "`run`": 2493,
      "akdown:{s:f": 2494,
      "buil": 2495,
      "c∈catalog))": 2496,
      "free": 2497,
      "hexdigest()": 2498,
      "hlib.sha25": 2499,
      "jump_re": 2500,
      "ruff": 2501,
      "specifi": 2502,
      "s\",\"a2_mo_composites\",\"a3_og_feature": 2503,
      "tmp:\",\"": 2504,
      "v≠∅})": 2505,
      "{exc}',": 2506,
      "⟨candidate_id:s": 2507,
      "⟨report:_": 2508,
      "⟨project_dir:_⟩→_": 2509,
      "replace(\"": 2510,
      "resolve().": 2511,
      "enforces": 2512,
      "directory\",default=cur_": 2513,
      "constants,": 2514,
      "'.wrangler": 2515,
      "'.woff": 2516,
      "\\n\",1)[0]:\"": 2517,
      "cards,smoke_results=smoke_results": 2518,
      "verb_signature": 2519,
      "isinstance(": 2520,
      "path:_⟩→∅": 2521,
      "⟪{'a0_qk_constants':": 2522,
      "present:b": 2523,
      "chain_count_consider": 2524,
      "otonic()": 2525,
      "='synergy-')": 2526,
      "commandsmith.registry/v1\",generated_at_utc=_dt.datetime.utcnow().isoformat(timespec=\"seconds\")+\"Z\",commands=": 2527,
      "help_text:s": 2528,
      "inv=collections.Co": 2529,
      "'a4_sy_orchestration':": 2530,
      "'a1_at_functions':": 2531,
      "'a3_og_features':": 2532,
      "'a2_mo_composites':": 2533,
      "doc?doc.strip().split(\"": 2534,
      "⟪{'available':": 2535,
      "(_panel(\"": 2536,
      "(cur_score))": 2537,
      "gitignore": 2538,
      "unter((c[\"": 2539,
      "python\",\"javascript\",\"typescript": 2540,
      "time.monotonic()": 2541,
      "Report(schema_version=\"atomadic-forge.": 2542,
      "open(\"a\",encoding=\"utf-8\")": 2543,
      "default_export_": 2544,
      "(\"a0_qk_constants\",\"a1_at_function": 2545,
      "fg='yellow',": 2546,
      "lang_label": 2547,
      "private": 2548,
      "score_breakdown:{s:f": 2549,
      "self._raw_append(⟪{'schema_version':": 2550,
      "(tags_": 2551,
      "(config[\"provider\"],config))": 2552,
      "before": 2553,
      "behavi": 2554,
      "duration_ms:i": 2555,
      "tempfile.Temporary": 2556,
      "payload.get('": 2557,
      "ENT_RE.sub(\"\",src)": 2558,
      "ignore[import-not-fo": 2559,
      "has_self_assign:b": 2560,
      "'atomadic-forge.transcript/v1',": 2561,
      "(src,open_idx,\"": 2562,
      "__pycache__": 2563,
      "merged.update({k:v": 2564,
      "worktrees',": 2565,
      "_balance_pair(src,open_idx,\"": 2566,
      "json.loads(artifact.read_text(encoding='utf-8": 2567,
      "CherryPick": 2568,
      "_docstring_first_line": 2569,
      "TIER_NAMES": 2570,
      "_path=project_dir/LOCAL_CONFIG_DIR/CONFIG_FILE_NAME": 2571,
      "Directory(prefix='synergy-')": 2572,
      "RegistryManifestCard(schema_version=\"atomadic-forge.commandsmith.registry/v1\",generated_at_utc=_dt.datetime.utcnow().isoformat(timespec=\"seconds\")+\"Z\",commands=": 2573,
      "'producer.json'\",\"": 2574,
      "(f.write(json.dumps(entry": 2575,
      "(h=hashlib.sha25": 2576,
      "(k,v)∈": 2577,
      "(doc=ast.get_docstring(node)∨\"\"": 2578,
      "(updates[\"default_target_score\"]=flo": 2579,
      "-⟦h[⟪:8⟫]⟧\")": 2580,
      "COMMENT_RE.sub(\"\",src)": 2581,
      "PKG_ROOT_TEMPLATE": 2582,
      "jump_required": 2583,
      "s\",\"a2_mo_composites\",\"a3_og_features\",\"a4_sy_orchestration": 2584,
      "inv=collections.Counter((c[\"": 2585,
      "doc?doc.strip().split(\"\\n\",1)[0]:\"": 2586,
      "(\"a0_qk_constants\",\"a1_at_functions\",\"a2_mo_composites\",\"a3_og_features\",\"a4_sy_orchestration": 2587,
      "score_breakdown:{s:f}": 2588,
      "tempfile.TemporaryDirectory(prefix='synergy-')": 2589,
      "ignore[import-not-found": 2590,
      "json.loads(artifact.read_text(encoding='utf-8'))\",\"": 2591,
      "RegistryManifestCard(schema_version=\"atomadic-forge.commandsmith.registry/v1\",generated_at_utc=_dt.datetime.utcnow().isoformat(timespec=\"seconds\")+\"Z\",commands=cards,smoke_results=smoke_results": 2592,
      "(h=hashlib.sha256": 2593,
      "!s\"": 2594,
      "\"#": 2595,
      "\"Y": 2596,
      "\"~": 2597,
      "\"config": 2598,
      "\"src": 2599,
      "\"+\"": 2600,
      "\"```": 2601,
      "\"javascript": 2602,
      "\"python": 2603,
      "\"?\"": 2604,
      "\"lineage": 2605,
      "\"⟧\\n\\n##": 2606,
      "\"__pycache__": 2607,
      "'t": 2608,
      "'\\n": 2609,
      "'\")": 2610,
      "'js": 2611,
      "'package": 2612,
      "'json": 2613,
      "'to": 2614,
      "'path": 2615,
      "'forge": 2616,
      "')\",\"": 2617,
      "'src": 2618,
      "'version": 2619,
      "'turn": 2620,
      "'producer_": 2621,
      "'type": 2622,
      "'phase": 2623,
      "'app": 2624,
      "'src/": 2625,
      "'artifact": 2626,
      "'generated_at_utc": 2627,
      "'node": 2628,
      "'module": 2629,
      "'preset": 2630,
      "'phase_omission": 2631,
      "'cherry": 2632,
      "'scout": 2633,
      "'target": 2634,
      "'output_dir": 2635,
      "'env',": 2636,
      "'package_prefix": 2637,
      "'cli_demo_returncode": 2638,
      "'headline": 2639,
      "'score_trajectory": 2640,
      "'sources_dir": 2641,
      "'default_target_score": 2642,
      "''),": 2643,
      "'schema_id": 2644,
      "'artifact_": 2645,
      "'cli_demo_command": 2646,
      "'tier_distribution": 2647,
      "'cli_demo_stdout": 2648,
      "'llm": 2649,
      "'shared_schema": 2650,
      "'converged": 2651,
      "'rounds_completed": 2652,
      "'recommendation": 2653,
      "'in_memory_pipe": 2654,
      "'anthropic": 2655,
      "'met": 2656,
      "'out',": 2657,
      "'output_root": 2658,
      "'result": 2659,
      "'openai": 2660,
      "'artifact_md_path": 2661,
      "'final_score": 2662,
      "'description": 2663,
      "'').": 2664,
      "'0.0": 2665,
      "'io": 2666,
      "'venv',": 2667,
      "'role": 2668,
      "'dist": 2669,
      "'extra": 2670,
      "'finalize": 2671,
      "'duration_s": 2672,
      "'shared_vocabulary": 2673,
      "'in-memory": 2674,
      "'gemini_key": 2675,
      "'coverage',": 2676,
      "'buil": 2677,
      "'private": 2678,
      "'__pycache__": 2679,
      "'worktrees',": 2680,
      "(0": 2681,
      "(?": 2682,
      "(E": 2683,
      "(W": 2684,
      "(d": 2685,
      "(or": 2686,
      "(ex": 2687,
      "(name": 2688,
      "(args": 2689,
      "(tier": 2690,
      "(parser": 2691,
      "(with": 2692,
      "(phase": 2693,
      "(catalog": 2694,
      "(defaults": 2695,
      "(args.": 2696,
      "(s)": 2697,
      "(project_dir": 2698,
      "(global": 2699,
      "(Fi": 2700,
      "(ht": 2701,
      "(sp": 2702,
      "(scout": 2703,
      "(print(": 2704,
      "(detec": 2705,
      "(suffix": 2706,
      "(log": 2707,
      "(merged": 2708,
      "(candidates=": 2709,
      "(ctx:": 2710,
      "('--": 2711,
      "(5-tier": 2712,
      "(pkg": 2713,
      "(arc": 2714,
      "(name,": 2715,
      "(domains": 2716,
      "(self._turn": 2717,
      "(intermediate": 2718,
      "(next": 2719,
      "(skip": 2720,
      "(see": 2721,
      "(⟪{}⟫)": 2722,
      "(renderer": 2723,
      "(result.score_trajectory": 2724,
      "(atomadic_forge_se": 2725,
      "(parts=path.": 2726,
      "(manifest=": 2727,
      "(Anthropic": 2728,
      "(safe_": 2729,
      "(every": 2730,
      "(⟪{'available':": 2731,
      "(lang_label": 2732,
      "(self._raw_append(⟪{'schema_version':": 2733,
      "(!s\"": 2734,
      ")]": 2735,
      ")∨": 2736,
      ")\")": 2737,
      ")[\"": 2738,
      ")\"])": 2739,
      ")},": 2740,
      ")\",default=": 2741,
      ")\"⟧\\n\\n##": 2742,
      "*b": 2743,
      "*len(": 2744,
      "*consumer_args": 2745,
      "*100": 2746,
      "+1": 2747,
      "+b": 2748,
      "+\",": 2749,
      "+s\"": 2750,
      "+local": 2751,
      ",output": 2752,
      ",t)": 2753,
      ",_render_": 2754,
      ",defaults": 2755,
      ",project_dir": 2756,
      ",apply": 2757,
      ",source_root": 2758,
      ",top_n": 2759,
      ",on_con": 2760,
      ",global_cfg": 2761,
      "-9": 2762,
      "-]": 2763,
      "-e": 2764,
      "-k": 2765,
      "-t": 2766,
      "-se": 2767,
      "-co": 2768,
      "-age": 2769,
      "-import": 2770,
      "-apply": 2771,
      "-alignment": 2772,
      "-cache',": 2773,
      "-pass": 2774,
      "-shap": 2775,
      "-|--------": 2776,
      ".U": 2777,
      ".r": 2778,
      ".st": 2779,
      ".en": 2780,
      ".ur": 2781,
      ".ap": 2782,
      ".atomadic-forge": 2783,
      ".format(": 2784,
      ".te": 2785,
      ".Argument": 2786,
      ".index": 2787,
      ".find": 2788,
      ".key": 2789,
      ".atomadic-forge\"": 2790,
      ".read": 2791,
      "._append_lineage": 2792,
      ".hexdigest()": 2793,
      ".open(\"a\",encoding=\"utf-8\")": 2794,
      "/b": 2795,
      "/t": 2796,
      "/\")": 2797,
      "/ap": 2798,
      "/100": 2799,
      "/\".atomadic-forge\"": 2800,
      "/a4_sy_orchestration/`": 2801,
      "/\"src": 2802,
      "/.atomadic-forge\"": 2803,
      "0)": 2804,
      "0=": 2805,
      "0',": 2806,
      "0}⟫)": 2807,
      "0?\"": 2808,
      "0*100": 2809,
      "0-9": 2810,
      "11": 2811,
      "1]": 2812,
      "1',": 2813,
      "1/5:": 2814,
      "2]": 2815,
      "200": 2816,
      "3]": 2817,
      "3}": 2818,
      "3_api_ke": 2819,
      "34',": 2820,
      "4]": 2821,
      "4'}⟫": 2822,
      "40,": 2823,
      "4/5:": 2824,
      "434',": 2825,
      "5]": 2826,
      "5_": 2827,
      "5.0": 2828,
      "7B": 2829,
      "7b": 2830,
      "75.0": 2831,
      "8()": 2832,
      "8*len(": 2833,
      ":[": 2834,
      ":\\n": 2835,
      ":\\n\\n": 2836,
      ":repo": 2837,
      "://": 2838,
      ":⟪{}⟫": 2839,
      ":.0f⟧": 2840,
      ":11": 2841,
      ":200": 2842,
      ":7b": 2843,
      "=[s": 2844,
      "=arg": 2845,
      "=package": 2846,
      "=run": 2847,
      "=output": 2848,
      "=bo": 2849,
      "=url": 2850,
      "=parser.": 2851,
      "=catalog": 2852,
      "=source_": 2853,
      "=repo": 2854,
      "=domain_": 2855,
      "=s\"⟦": 2856,
      "=apply": 2857,
      "=project_root": 2858,
      "=max": 2859,
      "=log": 2860,
      "=language": 2861,
      "=json.loads(": 2862,
      "=cleaned": 2863,
      "=package,": 2864,
      "=self._turn": 2865,
      "=top_n": 2866,
      "=5)": 2867,
      "=⟪{}⟫": 2868,
      "=smoke": 2869,
      "=require_pure": 2870,
      "=doc?doc.strip().split(\"\\n\",1)[0]:\"": 2871,
      "?src": 2872,
      "?self.": 2873,
      "?parts": 2874,
      "?JAVASCRIPT_EXTS": 2875,
      "?TYPESCRIPT_EXTS": 2876,
      "Ad": 2877,
      "As": 2878,
      "Be": 2879,
      "Bo": 2880,
      "BLOC": 2881,
      "BST": 2882,
      "CE": 2883,
      "Cer": 2884,
      "C_EXTS": 2885,
      "Claude": 2886,
      "DO": 2887,
      "DS": 2888,
      "Di": 2889,
      "Do": 2890,
      "Dec": 2891,
      "Dic": 2892,
      "Duration": 2893,
      "EF": 2894,
      "ET_EXTS": 2895,
      "Fe": 2896,
      "Fin": 2897,
      "Find": 2898,
      "FES": 2899,
      "FEC": 2900,
      "FFIX": 2901,
      "F_EXT": 2902,
      "GI": 2903,
      "GED": 2904,
      "GLOBAL_CONFIG_DIR": 2905,
      "Hel": 2906,
      "If": 2907,
      "In": 2908,
      "It": 2909,
      "IDE": 2910,
      "INI": 2911,
      "Js": 2912,
      "Jav": 2913,
      "JEC": 2914,
      "K_": 2915,
      "Ke": 2916,
      "La": 2917,
      "Lang": 2918,
      "Liv": 2919,
      "LError,": 2920,
      "Ma": 2921,
      "Mer": 2922,
      "Man": 2923,
      "Multi": 2924,
      "MAI": 2925,
      "Nex": 2926,
      "NE_": 2927,
      "N_EXT": 2928,
      "OU": 2929,
      "OW": 2930,
      "Out": 2931,
      "Oper": 2932,
      "Option": 2933,
      "OF_EXT": 2934,
      "PT": 2935,
      "Pre": 2936,
      "Par": 2937,
      "Phase": 2938,
      "Pass": 2939,
      "P.get(": 2940,
      "Plug": 2941,
      "PRESETS": 2942,
      "RY": 2943,
      "R_": 2944,
      "Ro": 2945,
      "Res": 2946,
      "Rec": 2947,
      "Rout": 2948,
      "RLError,": 2949,
      "Smo": 2950,
      "Sel": 2951,
      "Sha": 2952,
      "Sourc": 2953,
      "Sub": 2954,
      "S)))": 2955,
      "SENSITIV": 2956,
      "Sim": 2957,
      "SET_EXTS": 2958,
      "Th": 2959,
      "TTI": 2960,
      "TRING": 2961,
      "Vi": 2962,
      "Ver": 2963,
      "VER": 2964,
      "VIDE": 2965,
      "Wh": 2966,
      "[m": 2967,
      "[t": 2968,
      "[\",\"": 2969,
      "[co": 2970,
      "[name": 2971,
      "[⟦card[\"producer\"]⟧,": 2972,
      "[Atomadic": 2973,
      "[language": 2974,
      "[(s,": 2975,
      "[Step": 2976,
      "[1]": 2977,
      "[:200": 2978,
      "]\\n": 2979,
      "]\")": 2980,
      "]\",s\"": 2981,
      "],\",\"": 2982,
      "]\",[\"": 2983,
      "][A-Za-z": 2984,
      "](ht": 2985,
      "].format(": 2986,
      "_f": 2987,
      "_h": 2988,
      "_n": 2989,
      "_en": 2990,
      "_\",\"": 2991,
      "_\")": 2992,
      "_name": 2993,
      "_is": 2994,
      "_can": 2995,
      "_src": 2996,
      "_producer": 2997,
      "_consumer": 2998,
      "_args": 2999,
      "_).": 3000,
      "_resul": 3001,
      "_turn": 3002,
      "_pen": 3003,
      "_up": 3004,
      "_fix": 3005,
      "_strip": 3006,
      "_target_": 3007,
      "_json.dumps(": 3008,
      "_len": 3009,
      "_catalog": 3010,
      "_consumer_": 3011,
      "_promp": 3012,
      "_call": 3013,
      "_und": 3014,
      "_all": 3015,
      "_module": 3016,
      "_trajectory": 3017,
      "_Store": 3018,
      "_wor": 3019,
      "_⟦preset.": 3020,
      "_log": 3021,
      "_RE.sub(\"": 3022,
      "_Generated": 3023,
      "_\\\\": 3024,
      "_asci": 3025,
      "_dict": 3026,
      "_functions:[s]": 3027,
      "_modules": 3028,
      "_present:b": 3029,
      "_INI": 3030,
      "_OF_EXT": 3031,
      "`atomadic-forge": 3032,
      "`⟦preset.": 3033,
      "`⟦result.": 3034,
      "`intermediate": 3035,
      "`--provider": 3036,
      "`a4_sy_orchestration/`": 3037,
      "`main`": 3038,
      "a0": 3039,
      "a1": 3040,
      "a2": 3041,
      "a3": 3042,
      "a4": 3043,
      "ay": 3044,
      "a\",\"": 3045,
      "amp": 3046,
      "abo": 3047,
      "aider": 3048,
      "a/\\n": 3049,
      "ajectory": 3050,
      "amet": 3051,
      "aScript": 3052,
      "a\\\\": 3053,
      "a*b": 3054,
      "a+b": 3055,
      "a/b": 3056,
      "b≠": 3057,
      "bmp": 3058,
      "best": 3059,
      "b:i": 3060,
      "c,": 3061,
      "ck": 3062,
      "cre": 3063,
      "car": 3064,
      "cit": 3065,
      "c\")": 3066,
      "cul": 3067,
      "cla": 3068,
      "ct=": 3069,
      "cache/\\n.": 3070,
      "css',": 3071,
      "cision": 3072,
      "c\",\"rename": 3073,
      "d)": 3074,
      "d,": 3075,
      "don": 3076,
      "den": 3077,
      "d/\\n": 3078,
      "d:[s]": 3079,
      "d'}⟫": 3080,
      "denc": 3081,
      "d\")]": 3082,
      "df',": 3083,
      "d.mkdir(parents=true,exist_ok=true)": 3084,
      "d]\\n": 3085,
      "e)": 3086,
      "eg": 3087,
      "e\",\"": 3088,
      "edi": 3089,
      "ets": 3090,
      "eed": 3091,
      "emerge": 3092,
      "e:f": 3093,
      "e:[s]": 3094,
      "e(config": 3095,
      "eback": 3096,
      "eg',": 3097,
      "e⟧\")": 3098,
      "eScript": 3099,
      "e\",\"\",\"```bash": 3100,
      "f]": 3101,
      "fut": 3102,
      "fs:[s]": 3103,
      "fol": 3104,
      "fla": 3105,
      "ftest": 3106,
      "f=self.": 3107,
      "flows": 3108,
      "f'{package}": 3109,
      "f=log": 3110,
      "ger": 3111,
      "gat": 3112,
      "ggest": 3113,
      "g)?": 3114,
      "g-in": 3115,
      "gues": 3116,
      "ground": 3117,
      "g-⟦h[⟪:8⟫]⟧\")": 3118,
      "ho": 3119,
      "hard": 3120,
      "her.": 3121,
      "hid": 3122,
      "hg',": 3123,
      "i|": 3124,
      "ico": 3125,
      "istr": 3126,
      "ile": 3127,
      "ium": 3128,
      "idate": 3129,
      "imin": 3130,
      "i/t": 3131,
      "i_trajectory": 3132,
      "ks": 3133,
      "know": 3134,
      "k_chain": 3135,
      "ker.\",\"": 3136,
      "k_all": 3137,
      "l\"": 3138,
      "ls": 3139,
      "le_": 3140,
      "lexit": 3141,
      "m∈": 3142,
      "mar": 3143,
      "man": 3144,
      "mal": 3145,
      "m(\"": 3146,
      "min(": 3147,
      "m'}⟫)": 3148,
      "mil": 3149,
      "mypy_": 3150,
      "nu": 3151,
      "n',": 3152,
      "nt.": 3153,
      "ned": 3154,
      "ng',": 3155,
      "never": 3156,
      "need": 3157,
      "o\",\"": 3158,
      "over": 3159,
      "oog": 3160,
      "osi": 3161,
      "p',": 3162,
      "p∈IGNORED_DIRS": 3163,
      "p∈re": 3164,
      "ped:i": 3165,
      "rat": 3166,
      "ration": 3167,
      "r:_⟩→": 3168,
      "rface": 3169,
      "ries": 3170,
      "rg-⟦h[⟪:8⟫]⟧\")": 3171,
      "rm(\"": 3172,
      "s}": 3173,
      "s∈": 3174,
      "sor": 3175,
      "sage": 3176,
      "s))": 3177,
      "sis": 3178,
      "sort": 3179,
      "scan": 3180,
      "sing": 3181,
      "s\"]⟧": 3182,
      "s\\n\\n": 3183,
      "simp": 3184,
      "sign": 3185,
      "s}⟫)": 3186,
      "sClient": 3187,
      "ser()": 3188,
      "s),encoding=\"utf-8\")": 3189,
      "split": 3190,
      "sof": 3191,
      "s\",\"\",\"##": 3192,
      "s_of": 3193,
      "s_count:i⟩": 3194,
      "s_count=len(": 3195,
      "so\",\"": 3196,
      "tw": 3197,
      "ty": 3198,
      "tor": 3199,
      "t:s": 3200,
      "tch": 3201,
      "tal": 3202,
      "t\\n": 3203,
      "tes": 3204,
      "ts:": 3205,
      "tas": 3206,
      "ture": 3207,
      "ty_": 3208,
      "tain": 3209,
      "tup": 3210,
      "tf',": 3211,
      "ual": 3212,
      "user": 3213,
      "usClient": 3214,
      "v',": 3215,
      "val": 3216,
      "ves": 3217,
      "ver_": 3218,
      "v2_": 3219,
      "ve_report": 3220,
      "vscode": 3221,
      "wiz": 3222,
      "w.lower()": 3223,
      "wir": 3224,
      "w)≥": 3225,
      "w∈re": 3226,
      "xls": 3227,
      "yer.": 3228,
      "y:i": 3229,
      "your": 3230,
      "y:[s]": 3231,
      "yError)": 3232,
      "yResult": 3233,
      "yScore": 3234,
      "y(config[\"provider\"],config))": 3235,
      "y-co": 3236,
      "zer": 3237,
      "ze_": 3238,
      "{}": 3239,
      "{s:b": 3240,
      "{s}": 3241,
      "{w.lower()": 3242,
      "|⟦": 3243,
      "|atomadic_": 3244,
      "|\\n\\n##": 3245,
      "|openai": 3246,
      "}⟩": 3247,
      "}}⟫": 3248,
      "–100": 3249,
      "→\".join(chain[\"": 3250,
      "∅⟩": 3251,
      "∈card[\"": 3252,
      "∈parts": 3253,
      "∧segment∈IGNORED_DIRS": 3254,
      "∨name": 3255,
      "∨\".": 3256,
      "∨segment": 3257,
      "∨⟪{}⟫)": 3258,
      "≟\"javascript": 3259,
      "≟0?\"": 3260,
      "✓\":\"": 3261,
      "⟦consumer": 3262,
      "⟦tier": 3263,
      "⟦len(": 3264,
      "⟦_dt.datetime.now(_dt.timezone.utc).isoformat(timespec": 3265,
      "⟦suffix": 3266,
      "⟦domains": 3267,
      "⟦safe_": 3268,
      "⟦e⟧\")": 3269,
      "⟧;": 3270,
      "⟧\".": 3271,
      "⟧\",s\"-": 3272,
      "⟧->": 3273,
      "⟧.\",\"": 3274,
      "⟧/ap": 3275,
      "⟧_\",\"": 3276,
      "⟧|⟦": 3277,
      "⟧⟦suffix": 3278,
      "⟨re": 3279,
      "⟨target_": 3280,
      "⟨provider": 3281,
      "⟨package_": 3282,
      "⟨source_": 3283,
      "⟨local": 3284,
      "⟨_re": 3285,
      "⟨repo": 3286,
      "⟨⟩→_": 3287,
      "⟨tier:s": 3288,
      "⟨text": 3289,
      "⟨preset": 3290,
      "⟨segment": 3291,
      "⟨qualname:s": 3292,
      "⟨language": 3293,
      "⟨stem": 3294,
      "⟨result": 3295,
      "⟨t:s⟩→s": 3296,
      "⟨producer:s": 3297,
      "⟨imports:[s]": 3298,
      "⟨from_tier:s": 3299,
      "⟨base_url": 3300,
      "⟨finding": 3301,
      "⟨over": 3302,
      "⟨r:_⟩→": 3303,
      "erent": 3304,
      "ered": 3305,
      "ers:[s]": 3306,
      "erClient": 3307,
      "er:_⟩": 3308,
      "erstand": 3309,
      "ers_of": 3310,
      "onent": 3311,
      "onding": 3312,
      "ons:[s]⟩": 3313,
      "onder": 3314,
      "onger": 3315,
      "real": 3316,
      "reas": 3317,
      "registr": 3318,
      "re_log": 3319,
      "ating": 3320,
      "at(cur_score))": 3321,
      "\",[]": 3322,
      "\",cleaned": 3323,
      "\",stem": 3324,
      "\",strip_comment": 3325,
      "\",required": 3326,
      "\",_asci": 3327,
      "arit": 3328,
      "arts": 3329,
      "arker": 3330,
      "archit": 3331,
      "init": 3332,
      "inser": 3333,
      "infer": 3334,
      "ord": 3335,
      "oral": 3336,
      "order": 3337,
      "orker": 3338,
      "ormal": 3339,
      "get_": 3340,
      "get(": 3341,
      "ges:[s]": 3342,
      "geDec": 3343,
      "st=\"": 3344,
      "stub": 3345,
      "st_size": 3346,
      "st:11": 3347,
      "stamp": 3348,
      "enum": 3349,
      "ensi": 3350,
      "ence_": 3351,
      "\",\"$": 3352,
      "\",\"-": 3353,
      "\",\"\")": 3354,
      "\",\"##": 3355,
      "\",\"phase_omission": 3356,
      "\",\"clas": 3357,
      "\",\"shared_schema": 3358,
      "\",\"in_memory_pipe": 3359,
      "\",\"wrapp": 3360,
      "\",\"```\",\"\",s\"": 3361,
      "\",\"shared_vocabulary": 3362,
      "\",\"\",stem": 3363,
      "',\",\"": 3364,
      "andu": 3365,
      "annot": 3366,
      "se,": 3367,
      "set": 3368,
      "ses_": 3369,
      "coun": 3370,
      "copi": 3371,
      "cov',": 3372,
      "utes": 3373,
      "utReport": 3374,
      "diff": 3375,
      "decision": 3376,
      "dest=\"": 3377,
      ":sourc": 3378,
      ":s⟩→_": 3379,
      "til": 3380,
      "tier.": 3381,
      "tive": 3382,
      "tic\",\"rename": 3383,
      "ch)": 3384,
      "cherr": 3385,
      "context": 3386,
      "con(targe": 3387,
      "conci": 3388,
      "consts:[s]": 3389,
      "concre": 3390,
      "conftest": 3391,
      "almo": 3392,
      "alid": 3393,
      "alone": 3394,
      "al(t": 3395,
      "als:[s]⟩": 3396,
      "al**:": 3397,
      "alues": 3398,
      "al:7b": 3399,
      "ale:[s]": 3400,
      "alty": 3401,
      "'.lo": 3402,
      "'.ad": 3403,
      "'.no": 3404,
      "'.ot": 3405,
      "'.code": 3406,
      "'.doc": 3407,
      "'.atomadic-forge": 3408,
      "'.rst": 3409,
      "'.les": 3410,
      "'.ini": 3411,
      "'.ide": 3412,
      "'.next": 3413,
      "'.venv',": 3414,
      "'.asci": 3415,
      "'.coverage',": 3416,
      "'.ruff": 3417,
      "'.gitignore": 3418,
      "'.worktrees',": 3419,
      "'.aider": 3420,
      "'.bmp": 3421,
      "'.edi": 3422,
      "'.hg',": 3423,
      "'.ico": 3424,
      "'.nu": 3425,
      "'.vscode": 3426,
      "'.xls": 3427,
      "sumes": 3428,
      "sues:[s]": 3429,
      "suggest": 3430,
      "surface": 3431,
      "sure_log": 3432,
      "may": 3433,
      "\\n-": 3434,
      "\\n```": 3435,
      "\\n.v": 3436,
      "\\n.atomadic-forge": 3437,
      "provide": 3438,
      "proves": 3439,
      "acros": 3440,
      "ess": 3441,
      "es_re": 3442,
      "d_chain": 3443,
      "d_import": 3444,
      "d_signature": 3445,
      "d_hand": 3446,
      "d_(?": 3447,
      "it.": 3448,
      "its": 3449,
      "unavailable": 3450,
      "unspecifi": 3451,
      "unknow": 3452,
      "until": 3453,
      "urren": 3454,
      "urist": 3455,
      "ursor": 3456,
      "str)": 3457,
      "str(cur_score))": 3458,
      "stronger": 3459,
      "ent,": 3460,
      "ents\\n-": 3461,
      "ent_count:i⟩": 3462,
      "⟩→f": 3463,
      "⟩→[_]": 3464,
      "dule": 3465,
      "exit(": 3466,
      "expose": 3467,
      "s:.1": 3468,
      "s://": 3469,
      "s:.0f⟧": 3470,
      "s:(s,_)": 3471,
      "s:[(s,": 3472,
      "s:∅⟩": 3473,
      "e_config": 3474,
      "e_)?": 3475,
      "t_to": 3476,
      "t_version": 3477,
      "t_distribution": 3478,
      "er_name:s": 3479,
      "er_app": 3480,
      "er_default_": 3481,
      "er_fn": 3482,
      "er_igno": 3483,
      "ard:\\n\\n": 3484,
      "force_": 3485,
      "for_sy": 3486,
      "assumes": 3487,
      "ipsis": 3488,
      "ts_utc':": 3489,
      "ts\",[\"": 3490,
      "\"]]": 3491,
      "\"]))": 3492,
      "\"]).": 3493,
      "\"],_render_": 3494,
      "[\"name": 3495,
      "ectur": 3496,
      "ect_distribution": 3497,
      "js_re": 3498,
      "typer_app": 3499,
      "(\"command": 3500,
      "(\"atomadic-forge": 3501,
      "(\"utf-8\")": 3502,
      "(\".\")": 3503,
      "(\"0.0": 3504,
      "(\"[A-Za-z": 3505,
      "(\"python\",\"javascript\",\"typescript": 3506,
      "(\"/\")": 3507,
      "(\"Sel": 3508,
      "(\"→\".join(chain[\"": 3509,
      "data,": 3510,
      "ackets": 3511,
      "))\\n\"": 3512,
      "le)\",\"[": 3513,
      "leNotFound": 3514,
      "arg-alignment": 3515,
      "lied": 3516,
      "licit": 3517,
      "produced": 3518,
      "product,": 3519,
      "produce\",\"\",\"```bash": 3520,
      "cards)": 3521,
      "lot.": 3522,
      "lopen": 3523,
      "adme": 3524,
      "add(": 3525,
      "parated": 3526,
      "paramet": 3527,
      "package:_⟩": 3528,
      "package:s⟩→s": 3529,
      "package.\\\"\\\"\\\"": 3530,
      "package⟧`\",s\"-": 3531,
      "package=package": 3532,
      "t.\"": 3533,
      "s\"Error": 3534,
      "s\"em": 3535,
      "s\"syn": 3536,
      "s\"Comp": 3537,
      "ure,": 3538,
      "ure\\n\\n": 3539,
      "ure__": 3540,
      "ure_excerpt": 3541,
      "novel": 3542,
      "no_up": 3543,
      "t(args.a,args.b)))": 3544,
      "t(0,": 3545,
      "dict)": 3546,
      "heurist": 3547,
      "out)": 3548,
      "out=config.get(\"": 3549,
      "out=5)": 3550,
      "ed:s": 3551,
      "ed\")": 3552,
      "ed(data": 3553,
      "ed=len(": 3554,
      "ed)\"⟧\\n\\n##": 3555,
      "edDic": 3556,
      "verif": 3557,
      "verdict": 3558,
      "named": 3559,
      "name':": 3560,
      "name:_": 3561,
      "name⟧`": 3562,
      "name.lower()": 3563,
      "idoc": 3564,
      "idges:[s]": 3565,
      "is_pure": 3566,
      "is_igno": 3567,
      "issues:[s]": 3568,
      "can_import": 3569,
      "est.ur": 3570,
      "y_module": 3571,
      "y_and_": 3572,
      "y_adapt": 3573,
      "y_manifest=": 3574,
      "y_package:_⟩": 3575,
      "dir:_⟩": 3576,
      "--package": 3577,
      "--preset": 3578,
      "--apply": 3579,
      "--|--------": 3580,
      "---|--------": 3581,
      "=\"A": 3582,
      "=\"atomadic_forge_se": 3583,
      "crimin": 3584,
      "fail": 3585,
      "faile": 3586,
      "ify": 3587,
      "if',": 3588,
      "to_tier": 3589,
      "total": 3590,
      "target=self.": 3591,
      "_collection": 3592,
      "(),": 3593,
      "()\",\"": 3594,
      ":i⟩": 3595,
      "path:_": 3596,
      "pathlib": 3597,
      "path:\\n": 3598,
      "s.\\\"\\\"\\\"": 3599,
      "s.get(": 3600,
      "s.\",\"-": 3601,
      "confidenc": 3602,
      "confirm(\"": 3603,
      "forged',": 3604,
      "ing\",\"": 3605,
      "schedule": 3606,
      "config)": 3607,
      "config'}⟫)": 3608,
      "config[\"provider\"]": 3609,
      "config,indent=2),encoding=\"utf-8\")": 3610,
      "config_path=project_dir/LOCAL_CONFIG_DIR/CONFIG_FILE_NAME": 3611,
      ")\",\"```\",\"\",s\"": 3612,
      ")\",\"\",cleaned": 3613,
      ")\",\"\",\"##": 3614,
      "src))": 3615,
      "src=_": 3616,
      "src_root": 3617,
      "src=config.get(\"": 3618,
      "src.exists()": 3619,
      "\",s\"forge": 3620,
      "sub_dir": 3621,
      "sub_command": 3622,
      "subdir:s": 3623,
      "schemas:[s]": 3624,
      "schema')\",\"": 3625,
      "⟪{'.py": 3626,
      "⟪{**{e:": 3627,
      "ations:i": 3628,
      "ation_comple": 3629,
      "ation\",\"\",\"```bash": 3630,
      "ations\\n\\n": 3631,
      "ation\",required": 3632,
      ":_⟩→[s]": 3633,
      "typer.Option": 3634,
      "producer⟧->": 3635,
      "atomadic.te": 3636,
      "\"]⟧\")": 3637,
      "card[\"kind": 3638,
      "None\",\"": 3639,
      "ol(config": 3640,
      "olution": 3641,
      "olve_report": 3642,
      "plan": 3643,
      "play": 3644,
      "prefer": 3645,
      "thing": 3646,
      "score=config.get(\"": 3647,
      "oc',": 3648,
      "ocation\",\"\",\"```bash": 3649,
      "self.feature": 3650,
      "self.manifest_dir": 3651,
      "self.run_id": 3652,
      "self._append_lineage": 3653,
      "self.discover": 3654,
      "av',": 3655,
      "law": 3656,
      "layer.": 3657,
      "runner": 3658,
      "run(ctx:": 3659,
      "chain:": 3660,
      "chain:_": 3661,
      "chain\"])": 3662,
      "chains,": 3663,
      "chains=": 3664,
      "chains)": 3665,
      "chains),": 3666,
      "chains_count=len(": 3667,
      "chain\"]).": 3668,
      "args\",\"": 3669,
      "args=parser.": 3670,
      "\\\"\\\"\",strip_comment": 3671,
      ").\\\"\\\"\\\"": 3672,
      ").exp": 3673,
      ").parts)": 3674,
      ").hexdigest()": 3675,
      ").replace(\"": 3676,
      "Trajectory": 3677,
      "ed_tier:s": 3678,
      "ed_clas": 3679,
      "ed_|atomadic_": 3680,
      "py\"": 3681,
      "py[co": 3682,
      "ithub": 3683,
      "output:s": 3684,
      "outputs:[s]": 3685,
      "output_files:[s]": 3686,
      "output)\",\"```\",\"\",s\"": 3687,
      "),result.": 3688,
      "),tier_inventory": 3689,
      "),candidates=candidates": 3690,
      "),chain_count_consider": 3691,
      "),\"```": 3692,
      "_split": 3693,
      "_sensi": 3694,
      "s())": 3695,
      "s(catalog": 3696,
      "s(local_cfg": 3697,
      "s(dest=\"": 3698,
      "s(cards)": 3699,
      "s(src))": 3700,
      "s(chains,": 3701,
      "result)": 3702,
      "version(\"atomadic-forge": 3703,
      "T_LA": 3704,
      "calcul": 3705,
      "eless": 3706,
      "atureSurface": 3707,
      "tional": 3708,
      "tions_": 3709,
      "tionCh": 3710,
      "clients\\n-": 3711,
      "paired": 3712,
      "\\n\\n#": 3713,
      "\\n\\n>": 3714,
      "\\n\\nfrom": 3715,
      "\\n\\n_Generated": 3716,
      "pend": 3717,
      "sys\\n": 3718,
      "command;": 3719,
      "commands,": 3720,
      "commands:[_]": 3721,
      "tier:": 3722,
      "tier\"]": 3723,
      "tiers:[s]": 3724,
      "tiers:i": 3725,
      "schema_version')": 3726,
      "**LLM": 3727,
      "**⟦result.": 3728,
      "**Package": 3729,
      "**upward": 3730,
      "**\"+result.": 3731,
      "**Duration": 3732,
      "**Fin": 3733,
      "**Ro": 3734,
      "**Trajectory": 3735,
      "imports": 3736,
      "keReport": 3737,
      "t=path.": 3738,
      "t=target": 3739,
      "int:s⟩": 3740,
      "intent=": 3741,
      "int(\"Sel": 3742,
      "code:": 3743,
      "render_package_": 3744,
      "render_synerg": 3745,
      "render_read": 3746,
      "render_gitignore": 3747,
      "render_registr": 3748,
      "render_js_re": 3749,
      "CONVER": 3750,
      "_dir:s": 3751,
      "few": 3752,
      "fetch": 3753,
      "text)": 3754,
      "inv)))": 3755,
      "invalid": 3756,
      "invocation\",\"\",\"```bash": 3757,
      "inv),tier_inventory": 3758,
      "root:s": 3759,
      "root,package": 3760,
      "demo_m": 3761,
      "demo/v1',": 3762,
      "timestamp": 3763,
      "timeout=5)": 3764,
      "'a2',": 3765,
      "'a3',": 3766,
      "'a0',": 3767,
      "'a1',": 3768,
      "'a4'}⟫": 3769,
      "dswith": 3770,
      "document": 3771,
      "docs_": 3772,
      "docs(cards)": 3773,
      "return_type:s": 3774,
      "fix:s⟩": 3775,
      "fixture": 3776,
      "add_parser.add_argument(\"b\",type=int,help=\"Second": 3777,
      "add_parser.add_argument(\"a\",type=int,help=\"First": 3778,
      "add_parser.set_defaults(func=args↦print(": 3779,
      "imported:s": 3780,
      "CONFIG_EXTS": 3781,
      "test_cache',": 3782,
      "test-pass": 3783,
      "tests.\\\"\\\"\\\"": 3784,
      "url:s": 3785,
      "url.r": 3786,
      "url=s\"⟦": 3787,
      "model:s": 3788,
      "model':": 3789,
      "models,": 3790,
      "models=": 3791,
      "model(config[\"provider\"],config))": 3792,
      "merge\",\"rename": 3793,
      "merged_signature": 3794,
      "atomadic-forge').": 3795,
      "True}⟫": 3796,
      "func(args": 3797,
      "ement_count:i⟩": 3798,
      "ic.\",\"": 3799,
      "ic\\n-": 3800,
      "⟪{'provider": 3801,
      "⟪{'json_artifact": 3802,
      "parser.exit(": 3803,
      "body:s": 3804,
      "frozenset(),": 3805,
      "(__file_": 3806,
      "(_,t)": 3807,
      "(_PRESETS": 3808,
      "(_SENSITIV": 3809,
      "(_force_": 3810,
      ":b⟩": 3811,
      "_option": 3812,
      "message": 3813,
      "ateReport": 3814,
      "project:s": 3815,
      "exc)": 3816,
      "(cleaned": 3817,
      "/\\n*.": 3818,
      "/\\nvenv": 3819,
      "/\\n```\\n\\n##": 3820,
      "/\\nbuil": 3821,
      "=_step": 3822,
      "=_BLOC": 3823,
      "ES)∨": 3824,
      "ES∨name": 3825,
      "_curren": 3826,
      "domain:s": 3827,
      "domain\"]": 3828,
      "domains:[s]": 3829,
      "domain(s)": 3830,
      "fg',": 3831,
      "kind,": 3832,
      "kind:s⟩→s": 3833,
      "kind⟧\".": 3834,
      "r.preset": 3835,
      "r.cli_demo_returncode": 3836,
      "r.headline": 3837,
      "r.score_trajectory": 3838,
      "r.cli_demo_command": 3839,
      "r.cli_demo_stdout": 3840,
      "r.converged": 3841,
      "r.rounds_completed": 3842,
      "r.package,": 3843,
      "r.output_root": 3844,
      "r.artifact_md_path": 3845,
      "r.final_score": 3846,
      "r.duration_s": 3847,
      "utf8()": 3848,
      "tier_layout": 3849,
      "tier_inv=collections.Counter((c[\"": 3850,
      "tier_gues": 3851,
      "tier_inv)))": 3852,
      "strip(\"/\")": 3853,
      "strip(),": 3854,
      "s:i⟩": 3855,
      "features)": 3856,
      "feature_count:i": 3857,
      "feature_count=len(": 3858,
      "⟨self:LLMClient": 3859,
      "⟨self:SynergyScan": 3860,
      "⟨self:EmergentScan": 3861,
      "⟨self:StubLLMClient": 3862,
      "find_chain": 3863,
      "ml'}⟫": 3864,
      "ml'}),": 3865,
      "mlcov',": 3866,
      "s_attr": 3867,
      "s_and_": 3868,
      "s_emitted": 3869,
      "s_rat": 3870,
      "their": 3871,
      "vider]\",[\"": 3872,
      "with(\".\")": 3873,
      "'.mypy_": 3874,
      "'.mjs':": 3875,
      "'.markdown',": 3876,
      "target_tier:s": 3877,
      "target_score:f": 3878,
      "target_dir/s\"⟦": 3879,
      "target_root:s": 3880,
      "path.write_text(": 3881,
      "path.read_text(": 3882,
      "path.open(\"a\",encoding=\"utf-8\")": 3883,
      "path.inser": 3884,
      "from_tier": 3885,
      "presets": 3886,
      "\\\"\\\"\\\"Phase": 3887,
      "```\",_asci": 3888,
      "CommandCard": 3889,
      "CommandSurface": 3890,
      "CommandSignatureCard": 3891,
      "write_met": 3892,
      "=true,help=\"": 3893,
      "json.dumps(config,indent=2),encoding=\"utf-8\")": 3894,
      "/`main`": 3895,
      ":{s:s": 3896,
      "Exit": 3897,
      "Extrac": 3898,
      "_render_demo_m": 3899,
      "auto)": 3900,
      "auto/v1',": 3901,
      "auto\"))": 3902,
      "auto=bo": 3903,
      "auto_fix": 3904,
      "auto\",\"```\",\"\",s\"": 3905,
      "phase_h": 3906,
      "phase).\\\"\\\"\\\"": 3907,
      "s,require_pure": 3908,
      "simil": 3909,
      "size_": 3910,
      "at(raw": 3911,
      "provider\",default=": 3912,
      "file:_⟩→_": 3913,
      "file.\",\"-": 3914,
      "form\")": 3915,
      "lower": 3916,
      "low._": 3917,
      "package_name,": 3918,
      "package_name:_": 3919,
      "package_version(\"atomadic-forge": 3920,
      "package_root,package": 3921,
      "----|\\n|": 3922,
      "------|--------": 3923,
      "⟦card[\"consumer\"]⟧],\",\"": 3924,
      "python_file_": 3925,
      "parens": 3926,
      "parent\\n": 3927,
      "catalog=catalog": 3928,
      "catalog),chain_count_consider": 3929,
      "line:i": 3930,
      "source_dir:s": 3931,
      "source_subdir:s": 3932,
      "source_file:_⟩→_": 3933,
      "source_line:i": 3934,
      "functions": 3935,
      "functions\\n-": 3936,
      "function\",\"clas": 3937,
      "final,": 3938,
      "final=run_": 3939,
      "(card))": 3940,
      "(cards=": 3941,
      "(cards,smoke_results": 3942,
      "(cards),encoding=\"utf-8\")": 3943,
      "REFIX": 3944,
      "REGI": 3945,
      "pure:b⟩": 3946,
      "s=parser.add_": 3947,
      "s=int(": 3948,
      "s=max": 3949,
      "s=(\"command": 3950,
      "s=⟪{'json_artifact": 3951,
      "⟨name:s⟩": 3952,
      "⟨name:s⟩→_": 3953,
      "answer": 3954,
      "module_": 3955,
      "local.items()": 3956,
      "local_path=project_dir/LOCAL_CONFIG_DIR/CONFIG_FILE_NAME": 3957,
      "localho": 3958,
      "tract": 3959,
      "traceback": 3960,
      "consumer_args:": 3961,
      "defaults)": 3962,
      "defaults:_⟩→_": 3963,
      "prefix)": 3964,
      "prefix\",default=cur_": 3965,
      "prefix=config.get(\"": 3966,
      "result.cli_demo_command": 3967,
      "candidate_count:i": 3968,
      "candidate_coun": 3969,
      "cli_demo_args:": 3970,
      "len(cherry": 3971,
      "len(content": 3972,
      "len(w)≥": 3973,
      "raised:[s]": 3974,
      "'javascript'": 3975,
      "Archit": 3976,
      "_consts:[s]": 3977,
      "able:i": 3978,
      "cur_out=config.get(\"": 3979,
      "cur_src=config.get(\"": 3980,
      "cur_score=config.get(\"": 3981,
      "cur_auto=bo": 3982,
      "cur_prefix=config.get(\"": 3983,
      "prompt:s⟩→s": 3984,
      "prompt.\"": 3985,
      "strings": 3986,
      "parts))": 3987,
      "parts=cleaned": 3988,
      "parts?parts": 3989,
      "app()": 3990,
      "calls": 3991,
      "callers_of": 3992,
      "candidates),candidates=candidates": 3993,
      "encoding=\"utf-8\")))": 3994,
      "Forge\\n\\n```bash\\n": 3995,
      "ForgeConfig": 3996,
      "Forge](ht": 3997,
      "\".join((s\"⟦": 3998,
      "\".join(result.cli_demo_command": 3999,
      "')}⟫": 4000,
      "((json.loads(": 4001,
      "((path.relative_to": 4002,
      "((parts=path.": 4003,
      "((TIER_NAMES": 4004,
      "((package_version(\"atomadic-forge": 4005,
      "()))": 4006,
      "()).hexdigest()": 4007,
      "2_model(config[\"provider\"],config))": 4008,
      "_rel_": 4009,
      "_refs:[s]": 4010,
      "_recon(targe": 4011,
      "llipsis": 4012,
      "misc\")": 4013,
      "missing": 4014,
      "manifest,indent=2),encoding=\"utf-8\")": 4015,
      "manifest(cards,smoke_results": 4016,
      "repo:s": 4017,
      "reposit": 4018,
      "steps": 4019,
      "'.cache',": 4020,
      "'.css',": 4021,
      "'.cjs':": 4022,
      "'.claude": 4023,
      "'.cursor": 4024,
      "'.cfg',": 4025,
      "files_re": 4026,
      "understand": 4027,
      "str(path.relative_to": 4028,
      "str(result)": 4029,
      "s:[_]⟩": 4030,
      "s:[_]⟩→i": 4031,
      "().replace(\"": 4032,
      "().st_size": 4033,
      "src/⟦package⟧": 4034,
      "text∨\"": 4035,
      "updates)": 4036,
      "updates=⟪{}⟫": 4037,
      "SynergyKind": 4038,
      "SynergyCandidateCard": 4039,
      "smoke_results:": 4040,
      "DEFAULT_LANGUAG": 4041,
      "'typescript'": 4042,
      "'typescript',": 4043,
      "(\",\")\")": 4044,
      "(target,": 4045,
      "(target=target": 4046,
      "Conflict": 4047,
      "LINE_": 4048,
      "Regist": 4049,
      "Reproduce\",\"\",\"```bash": 4050,
      "_id':": 4051,
      "_features:∅⟩": 4052,
      "s)]": 4053,
      "shared": 4054,
      "tedBo": 4055,
      "red_segment": 4056,
      "\",\"\",\"-": 4057,
      "\",\"\",\"```\",_asci": 4058,
      "divide\",help=\"": 4059,
      "divide(args.a,args.b)))": 4060,
      "all:f": 4061,
      "ally-co": 4062,
      "all(\"[A-Za-z": 4063,
      "'.ts':": 4064,
      "'.tsx',": 4065,
      "'.ts'}⟫": 4066,
      "'.tsx':": 4067,
      "'.tsx'}⟫)": 4068,
      "process": 4069,
      "iterations:i": 4070,
      "ext,\"": 4071,
      "list(_PRESETS": 4072,
      "subtract(args.a,args.b)))": 4073,
      "self._chains_count=len(": 4074,
      "self._calls": 4075,
      "payload_": 4076,
      "synergy.scan": 4077,
      "frozenset({'.js',": 4078,
      "frozenset({'.ts',": 4079,
      "frozenset({'.py',": 4080,
      "frozenset(⟪{'.py": 4081,
      "frozenset(⟪{'.js',": 4082,
      "frozenset(⟪{'.g": 4083,
      "frozenset(⟪{'.json',": 4084,
      "frozenset(⟪{'.ht": 4085,
      "frozenset(⟪{'.ts',": 4086,
      "frozenset(⟪{'.md',": 4087,
      "/\\n.pytest": 4088,
      "/\\n.ide": 4089,
      "/\\n.venv": 4090,
      "/\\n.DS": 4091,
      "smoke_results:_⟩→_": 4092,
      "smoke_results=smoke": 4093,
      "DEFAULT_CONFIG)": 4094,
      "EmergentCandidateCard": 4095
    },
    "merges": [
      [
        "e",
        "r"
      ],
      [
        "o",
        "n"
      ],
      [
        "r",
        "e"
      ],
      [
        "a",
        "t"
      ],
      [
        "\"",
        ","
      ],
      [
        "a",
        "r"
      ],
      [
        "i",
        "n"
      ],
      [
        "o",
        "r"
      ],
      [
        "g",
        "e"
      ],
      [
        "s",
        "t"
      ],
      [
        "e",
        "n"
      ],
      [
        "\",",
        "\""
      ],
      [
        "r",
        "o"
      ],
      [
        "'",
        ","
      ],
      [
        "a",
        "n"
      ],
      [
        "s",
        "e"
      ],
      [
        "c",
        "o"
      ],
      [
        "u",
        "t"
      ],
      [
        "d",
        "i"
      ],
      [
        "d",
        "e"
      ],
      [
        ":",
        "s"
      ],
      [
        "'",
        ":"
      ],
      [
        "t",
        "i"
      ],
      [
        "c",
        "h"
      ],
      [
        "c",
        "on"
      ],
      [
        "a",
        "l"
      ],
      [
        "'",
        "."
      ],
      [
        "s",
        "u"
      ],
      [
        "m",
        "a"
      ],
      [
        "\\",
        "n"
      ],
      [
        "p",
        "ro"
      ],
      [
        "a",
        "c"
      ],
      [
        "e",
        "s"
      ],
      [
        "d",
        "_"
      ],
      [
        "f",
        "i"
      ],
      [
        "i",
        "t"
      ],
      [
        ":",
        "_"
      ],
      [
        "u",
        "n"
      ],
      [
        "u",
        "r"
      ],
      [
        "st",
        "r"
      ],
      [
        "en",
        "t"
      ],
      [
        "m",
        "e"
      ],
      [
        "⟩",
        "→"
      ],
      [
        "d",
        "u"
      ],
      [
        "e",
        "x"
      ],
      [
        "m",
        "p"
      ],
      [
        "s",
        ":"
      ],
      [
        "i",
        "on"
      ],
      [
        "e",
        "_"
      ],
      [
        "t",
        "_"
      ],
      [
        "er",
        "_"
      ],
      [
        "\"",
        ")"
      ],
      [
        "m",
        "o"
      ],
      [
        "ar",
        "d"
      ],
      [
        "1",
        "π"
      ],
      [
        "a",
        "ge"
      ],
      [
        "f",
        "or"
      ],
      [
        "a",
        "s"
      ],
      [
        "i",
        "p"
      ],
      [
        "t",
        "s"
      ],
      [
        "y",
        "p"
      ],
      [
        "\"",
        "]"
      ],
      [
        "[",
        "\""
      ],
      [
        "e",
        "c"
      ],
      [
        "ch",
        "e"
      ],
      [
        "j",
        "s"
      ],
      [
        "t",
        "yp"
      ],
      [
        "(",
        "\""
      ],
      [
        "d",
        "at"
      ],
      [
        "ac",
        "k"
      ],
      [
        ")",
        ")"
      ],
      [
        "l",
        "e"
      ],
      [
        "m",
        "m"
      ],
      [
        "r",
        "c"
      ],
      [
        "an",
        "d"
      ],
      [
        "[",
        "s"
      ],
      [
        "er",
        "."
      ],
      [
        "ar",
        "g"
      ],
      [
        "l",
        "i"
      ],
      [
        "pro",
        "du"
      ],
      [
        "produ",
        "c"
      ],
      [
        "c",
        "ard"
      ],
      [
        "l",
        "o"
      ],
      [
        "o",
        "ma"
      ],
      [
        "u",
        "l"
      ],
      [
        "ack",
        "age"
      ],
      [
        "a",
        "d"
      ],
      [
        "p",
        "ar"
      ],
      [
        "p",
        "ackage"
      ],
      [
        "t",
        "."
      ],
      [
        "m",
        "er"
      ],
      [
        "s",
        "\""
      ],
      [
        "u",
        "re"
      ],
      [
        "a",
        "p"
      ],
      [
        "n",
        "o"
      ],
      [
        "t",
        "("
      ],
      [
        "di",
        "c"
      ],
      [
        "[s",
        "]"
      ],
      [
        "h",
        "e"
      ],
      [
        "n",
        "a"
      ],
      [
        "o",
        "ut"
      ],
      [
        "e",
        "d"
      ],
      [
        "l",
        "f"
      ],
      [
        "t",
        "r"
      ],
      [
        "se",
        "lf"
      ],
      [
        "mm",
        "and"
      ],
      [
        "v",
        "er"
      ],
      [
        "na",
        "me"
      ],
      [
        "at",
        "h"
      ],
      [
        "con",
        "su"
      ],
      [
        "\\",
        "\""
      ],
      [
        "i",
        "d"
      ],
      [
        "i",
        "s"
      ],
      [
        "or",
        "t"
      ],
      [
        "js",
        "on"
      ],
      [
        "c",
        "an"
      ],
      [
        "e",
        "st"
      ],
      [
        "s",
        "co"
      ],
      [
        "y",
        "_"
      ],
      [
        "di",
        "r"
      ],
      [
        "-",
        "-"
      ],
      [
        "=",
        "\""
      ],
      [
        "c",
        "r"
      ],
      [
        "f",
        "a"
      ],
      [
        "i",
        "f"
      ],
      [
        "t",
        "o"
      ],
      [
        "t",
        "ar"
      ],
      [
        "tar",
        "ge"
      ],
      [
        "_",
        "co"
      ],
      [
        "cr",
        "ip"
      ],
      [
        "(",
        ")"
      ],
      [
        ":",
        "i"
      ],
      [
        "p",
        "ath"
      ],
      [
        "s",
        "."
      ],
      [
        "con",
        "fi"
      ],
      [
        "for",
        "ge"
      ],
      [
        "fa",
        "ul"
      ],
      [
        "u",
        "e"
      ],
      [
        "on",
        "e"
      ],
      [
        "re",
        "n"
      ],
      [
        "in",
        "g"
      ],
      [
        "oma",
        "dic"
      ],
      [
        "s",
        "che"
      ],
      [
        "crip",
        "t"
      ],
      [
        "confi",
        "g"
      ],
      [
        ")",
        "\",\""
      ],
      [
        "s",
        "rc"
      ],
      [
        "\",",
        "s\""
      ],
      [
        "de",
        "faul"
      ],
      [
        "su",
        "b"
      ],
      [
        "sche",
        "ma"
      ],
      [
        "p",
        "ut"
      ],
      [
        "}",
        "⟫"
      ],
      [
        "⟪",
        "{"
      ],
      [
        "at",
        "ion"
      ],
      [
        "par",
        "s"
      ],
      [
        "n",
        "er"
      ],
      [
        "s",
        "ion"
      ],
      [
        "in",
        "d"
      ],
      [
        ":_",
        "⟩→"
      ],
      [
        "s:",
        "[s]"
      ],
      [
        "typ",
        "er."
      ],
      [
        "produc",
        "er"
      ],
      [
        "consu",
        "mer"
      ],
      [
        "at",
        "omadic"
      ],
      [
        "\"]",
        "⟧"
      ],
      [
        "card",
        "[\""
      ],
      [
        "F",
        "I"
      ],
      [
        "N",
        "one"
      ],
      [
        "a",
        "in"
      ],
      [
        "f",
        "ro"
      ],
      [
        "o",
        "l"
      ],
      [
        "p",
        "l"
      ],
      [
        "p",
        "re"
      ],
      [
        "t",
        "h"
      ],
      [
        "u",
        "m"
      ],
      [
        "sco",
        "re"
      ],
      [
        "O",
        "N"
      ],
      [
        "o",
        "c"
      ],
      [
        "⟦",
        "card[\""
      ],
      [
        "self",
        "."
      ],
      [
        "a",
        "v"
      ],
      [
        "l",
        "a"
      ],
      [
        "o",
        "g"
      ],
      [
        "r",
        "un"
      ],
      [
        "ch",
        "ain"
      ],
      [
        "su",
        "l"
      ],
      [
        "arg",
        "s"
      ],
      [
        "\\\"",
        "\\\""
      ],
      [
        ")",
        "."
      ],
      [
        "3",
        "ω"
      ],
      [
        "T",
        "r"
      ],
      [
        "`",
        "`"
      ],
      [
        "e",
        "d_"
      ],
      [
        "f",
        "ac"
      ],
      [
        "p",
        "y"
      ],
      [
        "it",
        "h"
      ],
      [
        "out",
        "put"
      ],
      [
        "schema",
        "_"
      ],
      [
        ")",
        ","
      ],
      [
        "_",
        "s"
      ],
      [
        "e",
        "p"
      ],
      [
        "j",
        "ec"
      ],
      [
        "o",
        "t"
      ],
      [
        "s",
        "("
      ],
      [
        "t",
        "ur"
      ],
      [
        "re",
        "sul"
      ],
      [
        "ver",
        "sion"
      ],
      [
        "T",
        "_"
      ],
      [
        "c",
        "al"
      ],
      [
        "e",
        "l"
      ],
      [
        "h",
        "a"
      ],
      [
        "i",
        "g"
      ],
      [
        "r",
        "or"
      ],
      [
        "at",
        "ure"
      ],
      [
        "ti",
        "on"
      ],
      [
        "tur",
        "n"
      ],
      [
        "c",
        "li"
      ],
      [
        "o",
        "ur"
      ],
      [
        "p",
        "a"
      ],
      [
        "di",
        "dat"
      ],
      [
        "\\n",
        "\\n"
      ],
      [
        "ren",
        "d"
      ],
      [
        "=",
        "'"
      ],
      [
        "_",
        "d"
      ],
      [
        "p",
        "en"
      ],
      [
        "s",
        "y"
      ],
      [
        "ar",
        "ti"
      ],
      [
        "or",
        "y"
      ],
      [
        "co",
        "mmand"
      ],
      [
        "ut",
        "c"
      ],
      [
        "ti",
        "er"
      ],
      [
        "name",
        ":s"
      ],
      [
        "json",
        "."
      ],
      [
        "schema_",
        "version"
      ],
      [
        "arti",
        "fac"
      ],
      [
        "*",
        "*"
      ],
      [
        ":",
        "\",\""
      ],
      [
        "T",
        "S"
      ],
      [
        "c",
        "at"
      ],
      [
        "i",
        "mp"
      ],
      [
        "k",
        "e"
      ],
      [
        "l",
        "p"
      ],
      [
        "l",
        "in"
      ],
      [
        "p",
        "o"
      ],
      [
        "t",
        "="
      ],
      [
        "in",
        "t"
      ],
      [
        "co",
        "de"
      ],
      [
        "he",
        "lp"
      ],
      [
        "can",
        "didat"
      ],
      [
        "our",
        "c"
      ],
      [
        "rend",
        "er_"
      ],
      [
        "C",
        "ON"
      ],
      [
        "E",
        "r"
      ],
      [
        "_",
        "dir"
      ],
      [
        "f",
        "e"
      ],
      [
        "t",
        "ex"
      ],
      [
        "w",
        "r"
      ],
      [
        "in",
        "v"
      ],
      [
        "ro",
        "ot"
      ],
      [
        "de",
        "mo"
      ],
      [
        "ti",
        "me"
      ],
      [
        "ner",
        "g"
      ],
      [
        "Er",
        "ror"
      ],
      [
        "'",
        "a"
      ],
      [
        "+",
        "\""
      ],
      [
        "a",
        "i"
      ],
      [
        "b",
        "o"
      ],
      [
        "c",
        "t"
      ],
      [
        "d",
        "s"
      ],
      [
        "d",
        "oc"
      ],
      [
        "s",
        "ourc"
      ],
      [
        "u",
        "p"
      ],
      [
        "v",
        "i"
      ],
      [
        "re",
        "turn"
      ],
      [
        "an",
        "if"
      ],
      [
        "fi",
        "x"
      ],
      [
        "⟩→",
        "s"
      ],
      [
        "ad",
        "d_"
      ],
      [
        "FI",
        "G"
      ],
      [
        "imp",
        "ort"
      ],
      [
        "CON",
        "FIG"
      ],
      [
        "anif",
        "est"
      ],
      [
        ",",
        "\",\""
      ],
      [
        "-",
        "forge"
      ],
      [
        "C",
        "o"
      ],
      [
        "E",
        "X"
      ],
      [
        "_",
        "ap"
      ],
      [
        "d",
        "y"
      ],
      [
        "f",
        "un"
      ],
      [
        "t",
        ")"
      ],
      [
        "t",
        "est"
      ],
      [
        "er",
        "r"
      ],
      [
        "re",
        "d"
      ],
      [
        "or",
        "che"
      ],
      [
        "de",
        "l"
      ],
      [
        "ur",
        "l"
      ],
      [
        "mo",
        "del"
      ],
      [
        "produc",
        "er_"
      ],
      [
        "oma",
        "in"
      ],
      [
        "mer",
        "ge"
      ],
      [
        "atomadic",
        "-forge"
      ],
      [
        "Tr",
        "ue"
      ],
      [
        "fun",
        "c"
      ],
      [
        "orche",
        "str"
      ],
      [
        "\"",
        "."
      ],
      [
        "b",
        "le"
      ],
      [
        "e",
        "m"
      ],
      [
        "i",
        "c"
      ],
      [
        "m",
        "d_"
      ],
      [
        "z",
        "en"
      ],
      [
        "se",
        "t("
      ],
      [
        "ut",
        "o"
      ],
      [
        "dat",
        "e"
      ],
      [
        "id",
        "er"
      ],
      [
        "⟪{",
        "'"
      ],
      [
        "pars",
        "er"
      ],
      [
        "pars",
        "er."
      ],
      [
        "fro",
        "zen"
      ],
      [
        "ig",
        "n"
      ],
      [
        "nerg",
        "y"
      ],
      [
        "bo",
        "dy"
      ],
      [
        "frozen",
        "set("
      ],
      [
        "(",
        "_"
      ],
      [
        ":",
        "b"
      ],
      [
        "_",
        "o"
      ],
      [
        "_",
        "demo"
      ],
      [
        "m",
        "es"
      ],
      [
        "∅",
        ")"
      ],
      [
        "at",
        "_"
      ],
      [
        "at",
        "e"
      ],
      [
        "ch",
        "o"
      ],
      [
        "pro",
        "jec"
      ],
      [
        "ex",
        "c"
      ],
      [
        "typ",
        "e"
      ],
      [
        "no",
        "t"
      ],
      [
        "}⟫",
        ")"
      ],
      [
        "pl",
        "y"
      ],
      [
        "cli",
        "_demo"
      ],
      [
        "_d",
        "t."
      ],
      [
        "wr",
        "it"
      ],
      [
        "EX",
        "TS"
      ],
      [
        "(",
        "c"
      ],
      [
        ".",
        "ge"
      ],
      [
        "/",
        "\\n"
      ],
      [
        ":",
        "f"
      ],
      [
        ":",
        "[s]"
      ],
      [
        "=",
        "_"
      ],
      [
        "E",
        "S"
      ],
      [
        "_",
        "c"
      ],
      [
        "d",
        "omain"
      ],
      [
        "f",
        "g"
      ],
      [
        "k",
        "ind"
      ],
      [
        "r",
        "."
      ],
      [
        "⟨",
        "self"
      ],
      [
        "ut",
        "f"
      ],
      [
        ":s",
        "⟩"
      ],
      [
        "ti",
        "er_"
      ],
      [
        "str",
        "ip"
      ],
      [
        "s:",
        "i"
      ],
      [
        "um",
        "ent"
      ],
      [
        "help",
        "=\""
      ],
      [
        "fe",
        "ature"
      ],
      [
        "projec",
        "t_"
      ],
      [
        "⟨self",
        ":"
      ],
      [
        "-",
        "8"
      ],
      [
        "4",
        "_s"
      ],
      [
        "=",
        "tr"
      ],
      [
        "=",
        "True"
      ],
      [
        "C",
        "li"
      ],
      [
        "F",
        "al"
      ],
      [
        "S",
        "can"
      ],
      [
        "[",
        "_"
      ],
      [
        "_",
        "ke"
      ],
      [
        "b",
        "er"
      ],
      [
        "d",
        "ing"
      ],
      [
        "f",
        "in"
      ],
      [
        "g",
        "i"
      ],
      [
        "j",
        "av"
      ],
      [
        "k",
        "e_"
      ],
      [
        "m",
        "l"
      ],
      [
        "n",
        "um"
      ],
      [
        "s",
        "_"
      ],
      [
        "t",
        "he"
      ],
      [
        "v",
        "ider"
      ],
      [
        "w",
        "ith"
      ],
      [
        "en",
        "v"
      ],
      [
        "'.",
        "m"
      ],
      [
        "un",
        "t"
      ],
      [
        "du",
        "mp"
      ],
      [
        "as",
        "cript"
      ],
      [
        "\"]",
        ")"
      ],
      [
        "y_",
        "orchestr"
      ],
      [
        "targe",
        "t_"
      ],
      [
        "path",
        "."
      ],
      [
        ":_⟩→",
        "s"
      ],
      [
        "fro",
        "m"
      ],
      [
        "pre",
        "se"
      ],
      [
        "\\\"\\\"",
        "\\\""
      ],
      [
        "``",
        "`"
      ],
      [
        "ha",
        "se"
      ],
      [
        "json.",
        "dump"
      ],
      [
        "Co",
        "mmand"
      ],
      [
        "cho",
        "("
      ],
      [
        "writ",
        "e_"
      ],
      [
        "utf",
        "-8"
      ],
      [
        "4_s",
        "y_orchestr"
      ],
      [
        "=tr",
        "ue"
      ],
      [
        "=True",
        ")\",\""
      ],
      [
        "Cli",
        "ent"
      ],
      [
        "Fal",
        "se"
      ],
      [
        "[_",
        "]"
      ],
      [
        "jav",
        "ascript"
      ],
      [
        "num",
        "ber"
      ],
      [
        "json.dump",
        "s("
      ],
      [
        "4_sy_orchestr",
        "ation"
      ],
      [
        "#",
        "#"
      ],
      [
        ".",
        "s"
      ],
      [
        "/",
        "`"
      ],
      [
        ":",
        "{"
      ],
      [
        "E",
        "x"
      ],
      [
        "L",
        "L"
      ],
      [
        "S",
        "y"
      ],
      [
        "_",
        "render_"
      ],
      [
        "a",
        "uto"
      ],
      [
        "l",
        "en"
      ],
      [
        "m",
        "ith"
      ],
      [
        "n",
        "t"
      ],
      [
        "p",
        "ec"
      ],
      [
        "p",
        "ort"
      ],
      [
        "p",
        "hase"
      ],
      [
        "q",
        "u"
      ],
      [
        "s",
        ","
      ],
      [
        "s",
        "i"
      ],
      [
        "s",
        "':"
      ],
      [
        "s",
        "mith"
      ],
      [
        "at",
        "("
      ],
      [
        "en",
        "co"
      ],
      [
        "al",
        "og"
      ],
      [
        "pro",
        "vider"
      ],
      [
        "fi",
        "le"
      ],
      [
        "ur",
        "_"
      ],
      [
        "ent",
        "="
      ],
      [
        "for",
        "m"
      ],
      [
        "typ",
        "es"
      ],
      [
        "lo",
        "w"
      ],
      [
        "package",
        "_"
      ],
      [
        "--",
        "--"
      ],
      [
        "_co",
        "mp"
      ],
      [
        ":_⟩→",
        "_"
      ],
      [
        "producer",
        "\"]⟧"
      ],
      [
        "consumer",
        "\"]⟧"
      ],
      [
        "atomadic",
        "_"
      ],
      [
        "th",
        "on"
      ],
      [
        "⟦card[\"",
        "producer\"]⟧"
      ],
      [
        "⟦card[\"",
        "consumer\"]⟧"
      ],
      [
        "py",
        "thon"
      ],
      [
        "pa",
        "ren"
      ],
      [
        "cat",
        "alog"
      ],
      [
        "lin",
        "e"
      ],
      [
        "time",
        "."
      ],
      [
        "sourc",
        "e_"
      ],
      [
        "return",
        "code"
      ],
      [
        "func",
        "tion"
      ],
      [
        "fin",
        "al"
      ],
      [
        "enco",
        "ding"
      ],
      [
        "(",
        "card"
      ],
      [
        "D",
        "I"
      ],
      [
        "E",
        "_"
      ],
      [
        "R",
        "E"
      ],
      [
        "]",
        "\",\""
      ],
      [
        "_",
        "DI"
      ],
      [
        "a",
        "4_sy_orchestration"
      ],
      [
        "b",
        "al"
      ],
      [
        "h",
        "as"
      ],
      [
        "i",
        "re"
      ],
      [
        "m",
        "er_"
      ],
      [
        "p",
        "ure"
      ],
      [
        "r",
        "ai"
      ],
      [
        "s",
        "="
      ],
      [
        "s",
        "mo"
      ],
      [
        "x",
        "',"
      ],
      [
        "⟨",
        "name:s"
      ],
      [
        "⟨",
        "schema_version"
      ],
      [
        "at",
        "ed"
      ],
      [
        "in",
        "("
      ],
      [
        "ge",
        "ner"
      ],
      [
        "st",
        "an"
      ],
      [
        "an",
        "g"
      ],
      [
        "an",
        "s"
      ],
      [
        "it",
        "("
      ],
      [
        ":_",
        "⟩"
      ],
      [
        "mo",
        "du"
      ],
      [
        "lo",
        "ad"
      ],
      [
        "lo",
        "cal"
      ],
      [
        "ap",
        "t"
      ],
      [
        "no",
        "w"
      ],
      [
        "tr",
        "ac"
      ],
      [
        "consu",
        "mer_"
      ],
      [
        "defaul",
        "ts"
      ],
      [
        "defaul",
        "t="
      ],
      [
        "ind",
        "ent="
      ],
      [
        "pre",
        "fix"
      ],
      [
        "resul",
        "t."
      ],
      [
        "candidat",
        "e_"
      ],
      [
        "cli_demo",
        "_"
      ],
      [
        "utf-8",
        "\")"
      ],
      [
        "len",
        "("
      ],
      [
        "form",
        "at("
      ],
      [
        "atomadic_",
        "forge"
      ],
      [
        "_DI",
        "R"
      ],
      [
        "rai",
        "se"
      ],
      [
        "⟨schema_version",
        ":s"
      ],
      [
        "indent=",
        "2"
      ],
      [
        "'",
        "javascript"
      ],
      [
        ",",
        "help=\""
      ],
      [
        "A",
        "r"
      ],
      [
        "C",
        "ard"
      ],
      [
        "D",
        "E"
      ],
      [
        "D",
        "e"
      ],
      [
        "F",
        "or"
      ],
      [
        "M",
        "anifest"
      ],
      [
        "R",
        "ep"
      ],
      [
        "_",
        "con"
      ],
      [
        "a",
        "d_"
      ],
      [
        "a",
        "ble"
      ],
      [
        "b",
        "ol"
      ],
      [
        "c",
        "es"
      ],
      [
        "c",
        "ur_"
      ],
      [
        "j",
        "o"
      ],
      [
        "l",
        "as"
      ],
      [
        "m",
        "bol"
      ],
      [
        "o",
        "pen"
      ],
      [
        "o",
        "format("
      ],
      [
        "r",
        "st"
      ],
      [
        "⟨",
        "⟩→s"
      ],
      [
        "ar",
        "y"
      ],
      [
        "se",
        "con"
      ],
      [
        "ti",
        "mes"
      ],
      [
        "\\n",
        "\")"
      ],
      [
        "pro",
        "mp"
      ],
      [
        "str",
        "ing"
      ],
      [
        "js",
        "',"
      ],
      [
        "arg",
        "s."
      ],
      [
        "par",
        "ts"
      ],
      [
        "ap",
        "p"
      ],
      [
        "he",
        "ad"
      ],
      [
        "tr",
        "a"
      ],
      [
        "is",
        "oformat("
      ],
      [
        "=\"",
        "utf-8\")"
      ],
      [
        "_co",
        "mmand"
      ],
      [
        "defaul",
        "t_"
      ],
      [
        "typer.",
        "Ex"
      ],
      [
        "la",
        "ma"
      ],
      [
        "jec",
        "t"
      ],
      [
        "cal",
        "l"
      ],
      [
        "candidat",
        "es"
      ],
      [
        "tex",
        "t("
      ],
      [
        "vi",
        "de"
      ],
      [
        "producer_",
        "args"
      ],
      [
        "\".",
        "jo"
      ],
      [
        "date",
        "time."
      ],
      [
        "parser.",
        "add_"
      ],
      [
        "_dt.",
        "datetime."
      ],
      [
        "Command",
        "smith"
      ],
      [
        "LL",
        "M"
      ],
      [
        "types",
        "cript"
      ],
      [
        "encoding",
        "=\"utf-8\")"
      ],
      [
        "ans",
        "cript"
      ],
      [
        "For",
        "ge"
      ],
      [
        "secon",
        "ds"
      ],
      [
        "times",
        "pec"
      ],
      [
        "isoformat(",
        "timespec"
      ],
      [
        "typer.Ex",
        "it("
      ],
      [
        "\".jo",
        "in("
      ],
      [
        "\"",
        "+"
      ],
      [
        "'",
        ")"
      ],
      [
        "(",
        "("
      ],
      [
        "(",
        "))"
      ],
      [
        "/",
        "v"
      ],
      [
        "1",
        "_"
      ],
      [
        "2",
        "_"
      ],
      [
        "=",
        "int"
      ],
      [
        "A",
        "U"
      ],
      [
        "F",
        "AU"
      ],
      [
        "L",
        "T_"
      ],
      [
        "R",
        "I"
      ],
      [
        "_",
        "re"
      ],
      [
        "_",
        "output"
      ],
      [
        "a",
        ","
      ],
      [
        "a",
        "che"
      ],
      [
        "i",
        "st"
      ],
      [
        "i",
        "fi"
      ],
      [
        "i",
        "_ke"
      ],
      [
        "l",
        "l"
      ],
      [
        "m",
        "ent"
      ],
      [
        "m",
        "is"
      ],
      [
        "m",
        "anifest"
      ],
      [
        "p",
        "ip"
      ],
      [
        "}",
        ","
      ],
      [
        "}",
        "',"
      ],
      [
        "re",
        "po"
      ],
      [
        "at",
        "ed_"
      ],
      [
        "\",",
        "type"
      ],
      [
        "st",
        "ep"
      ],
      [
        "se",
        "cho("
      ],
      [
        "'.",
        "c"
      ],
      [
        "fi",
        "l"
      ],
      [
        "un",
        "d"
      ],
      [
        "str",
        "("
      ],
      [
        "⟩→",
        "_"
      ],
      [
        "⟩→",
        "i"
      ],
      [
        "s:",
        "[_]"
      ],
      [
        "(\"",
        "a"
      ],
      [
        "dat",
        "es"
      ],
      [
        "arg",
        "ument"
      ],
      [
        "ul",
        "ti"
      ],
      [
        "()",
        "."
      ],
      [
        "src",
        "/"
      ],
      [
        "typer.",
        "secho("
      ],
      [
        "FI",
        "L"
      ],
      [
        "tier",
        ":s"
      ],
      [
        "artifac",
        "t"
      ],
      [
        "cat",
        "ch"
      ],
      [
        "tex",
        "t"
      ],
      [
        "inv",
        "o"
      ],
      [
        "ct",
        "x"
      ],
      [
        "up",
        "dates"
      ],
      [
        "err",
        "=True)\",\""
      ],
      [
        "atomadic-forge",
        "."
      ],
      [
        "ign",
        "ature"
      ],
      [
        "at_",
        "utc"
      ],
      [
        "fg",
        "='"
      ],
      [
        "gi",
        "str"
      ],
      [
        "ke_",
        "resul"
      ],
      [
        "unt",
        ":i"
      ],
      [
        "number",
        "\")"
      ],
      [
        "Sy",
        "nergy"
      ],
      [
        "smo",
        "ke_resul"
      ],
      [
        "gener",
        "ated_"
      ],
      [
        "stan",
        "ts"
      ],
      [
        "candidate_",
        "id"
      ],
      [
        "atomadic_forge",
        "."
      ],
      [
        "Ar",
        "g"
      ],
      [
        "DE",
        "FAU"
      ],
      [
        "ject",
        "ory"
      ],
      [
        "parser.add_",
        "argument"
      ],
      [
        "/v",
        "1"
      ],
      [
        "=int",
        ",help=\""
      ],
      [
        "\",type",
        "=int,help=\""
      ],
      [
        "generated_",
        "at_utc"
      ],
      [
        "DEFAU",
        "LT_"
      ],
      [
        "'",
        "}"
      ],
      [
        "'",
        "producer"
      ],
      [
        "'",
        "}⟫)"
      ],
      [
        "'",
        "typescript"
      ],
      [
        "(",
        "\",\""
      ],
      [
        "(",
        "targe"
      ],
      [
        ")",
        "+\""
      ],
      [
        "A",
        "M"
      ],
      [
        "C",
        "on"
      ],
      [
        "E",
        "merge"
      ],
      [
        "L",
        "I"
      ],
      [
        "L",
        "og"
      ],
      [
        "N",
        "AM"
      ],
      [
        "R",
        "e"
      ],
      [
        "T",
        "I"
      ],
      [
        "_",
        "id"
      ],
      [
        "_",
        "feature"
      ],
      [
        "c",
        "apt"
      ],
      [
        "d",
        "("
      ],
      [
        "f",
        "f"
      ],
      [
        "f",
        "n"
      ],
      [
        "i",
        "z"
      ],
      [
        "l",
        "at"
      ],
      [
        "l",
        "ang"
      ],
      [
        "m",
        "',"
      ],
      [
        "m",
        "ulti"
      ],
      [
        "p",
        "r"
      ],
      [
        "s",
        ")"
      ],
      [
        "s",
        "it"
      ],
      [
        "s",
        "ha"
      ],
      [
        "t",
        "ed"
      ],
      [
        "u",
        "b"
      ],
      [
        "re",
        "d_"
      ],
      [
        "re",
        "port"
      ],
      [
        "\",\"",
        "\",\""
      ],
      [
        "di",
        "vide"
      ],
      [
        ":s",
        "⟩→s"
      ],
      [
        "al",
        "l"
      ],
      [
        "'.",
        "ts"
      ],
      [
        "pro",
        "ces"
      ],
      [
        "it",
        "er"
      ],
      [
        "ur",
        "ation"
      ],
      [
        "ex",
        "t"
      ],
      [
        "ex",
        "ec"
      ],
      [
        "ex",
        "ist"
      ],
      [
        "))",
        ")"
      ],
      [
        "li",
        "st"
      ],
      [
        "no",
        "de"
      ],
      [
        "sub",
        "trac"
      ],
      [
        "None",
        ","
      ],
      [
        "ol",
        "lama"
      ],
      [
        "score",
        "_"
      ],
      [
        "score",
        ":f"
      ],
      [
        "self.",
        "_"
      ],
      [
        "Tr",
        "anscript"
      ],
      [
        "T_",
        "EXTS"
      ],
      [
        "pa",
        "y"
      ],
      [
        "\\n\\n",
        "##"
      ],
      [
        "sy",
        "nergy"
      ],
      [
        "err",
        "y"
      ],
      [
        "frozenset(",
        "{"
      ],
      [
        "frozenset(",
        "⟪{"
      ],
      [
        "/\\n",
        "."
      ],
      [
        "modu",
        "le"
      ],
      [
        "Rep",
        "ort"
      ],
      [
        "tra",
        "jectory"
      ],
      [
        "gistr",
        "y"
      ],
      [
        "smoke_resul",
        "ts"
      ],
      [
        "DEFAULT_",
        "CONFIG"
      ],
      [
        ")+\"",
        "\\n\")"
      ],
      [
        "Emerge",
        "nt"
      ],
      [
        "capt",
        "ure"
      ],
      [
        "exec",
        "ut"
      ],
      [
        "Transcript",
        "Log"
      ],
      [
        "!",
        "="
      ],
      [
        "'",
        "-"
      ],
      [
        "'",
        "atomadic_forge."
      ],
      [
        "(",
        "t"
      ],
      [
        "(",
        "config"
      ],
      [
        ",",
        "indent=2"
      ],
      [
        ".",
        "0"
      ],
      [
        ".",
        "un"
      ],
      [
        ".",
        "call"
      ],
      [
        "0",
        "0"
      ],
      [
        "0",
        "_"
      ],
      [
        "0",
        ":\",\""
      ],
      [
        "3",
        "_"
      ],
      [
        ":",
        "\""
      ],
      [
        "=",
        "False"
      ],
      [
        "A",
        "n"
      ],
      [
        "C",
        "RI"
      ],
      [
        "C",
        "LI"
      ],
      [
        "L",
        "A"
      ],
      [
        "L",
        "O"
      ],
      [
        "L",
        "iter"
      ],
      [
        "N",
        "O"
      ],
      [
        "P",
        "T_EXTS"
      ],
      [
        "R",
        "O"
      ],
      [
        "S",
        "t"
      ],
      [
        "S",
        "to"
      ],
      [
        "_",
        "path"
      ],
      [
        "_",
        "root"
      ],
      [
        "_",
        "FIL"
      ],
      [
        "b",
        "e"
      ],
      [
        "c",
        "e_"
      ],
      [
        "c",
        "md_"
      ],
      [
        "d",
        "uration"
      ],
      [
        "g",
        "lo"
      ],
      [
        "i",
        "v"
      ],
      [
        "k",
        "_con"
      ],
      [
        "o",
        "sit"
      ],
      [
        "p",
        "_"
      ],
      [
        "p",
        "ic"
      ],
      [
        "q",
        "k_con"
      ],
      [
        "r",
        "y"
      ],
      [
        "s",
        "\")"
      ],
      [
        "t",
        "e"
      ],
      [
        "t",
        "(\""
      ],
      [
        "v",
        "el"
      ],
      [
        "w",
        "o"
      ],
      [
        "y",
        "s."
      ],
      [
        "|",
        "\\n"
      ],
      [
        "∨",
        "\""
      ],
      [
        "⟨",
        "card"
      ],
      [
        "⟨",
        "src"
      ],
      [
        "er",
        "()"
      ],
      [
        "re",
        "ad_"
      ],
      [
        "\",",
        "default="
      ],
      [
        "in",
        "t("
      ],
      [
        "\",\"",
        "a"
      ],
      [
        "',",
        "\",s\""
      ],
      [
        "ut",
        "ion"
      ],
      [
        "al",
        "["
      ],
      [
        "ma",
        "in"
      ],
      [
        "un",
        "ds"
      ],
      [
        "ent",
        "ry"
      ],
      [
        "me",
        "m"
      ],
      [
        "s:",
        "f"
      ],
      [
        "mo",
        "_comp"
      ],
      [
        "as",
        "s"
      ],
      [
        "))",
        "\",\""
      ],
      [
        "rc",
        ")\",\""
      ],
      [
        "[s",
        "ys."
      ],
      [
        "to",
        "p_"
      ],
      [
        "targe",
        "t)"
      ],
      [
        "s.",
        "run"
      ],
      [
        "\",s\"",
        "-"
      ],
      [
        "sub",
        "parser"
      ],
      [
        "sub",
        "proces"
      ],
      [
        "s:[s]",
        "⟩"
      ],
      [
        "th",
        "ro"
      ],
      [
        "la",
        "ble"
      ],
      [
        "og",
        "_feature"
      ],
      [
        ").",
        "returncode"
      ],
      [
        "ed_",
        "cli"
      ],
      [
        "),",
        "encoding=\"utf-8\")"
      ],
      [
        "**",
        ":"
      ],
      [
        "lin",
        "es"
      ],
      [
        "Error",
        ","
      ],
      [
        "sourc",
        "es"
      ],
      [
        "_ap",
        "i_ke"
      ],
      [
        "red",
        "',"
      ],
      [
        "_o",
        "mis"
      ],
      [
        "at_",
        "function"
      ],
      [
        "(c",
        "md_"
      ],
      [
        ".ge",
        "t(\""
      ],
      [
        "=_",
        "promp"
      ],
      [
        "domain",
        "_"
      ],
      [
        "project_",
        "dir"
      ],
      [
        "ml",
        "',"
      ],
      [
        "'.m",
        "d"
      ],
      [
        "prese",
        "t"
      ],
      [
        "write_",
        "text("
      ],
      [
        "=true",
        ")"
      ],
      [
        "phase",
        "_omis"
      ],
      [
        "⟦card[\"producer\"]⟧",
        ","
      ],
      [
        "a4_sy_orchestration",
        ".un"
      ],
      [
        "able",
        ","
      ],
      [
        "default_",
        "target_"
      ],
      [
        "LLM",
        "Client"
      ],
      [
        "typer.Exit(",
        "rc)\",\""
      ],
      [
        "\"+",
        "package"
      ],
      [
        "1_",
        "at_function"
      ],
      [
        "2_",
        "mo_comp"
      ],
      [
        "_output",
        "=False"
      ],
      [
        "ifi",
        "ed_cli"
      ],
      [
        "pip",
        "e"
      ],
      [
        "typer.secho(",
        "f"
      ],
      [
        "updates",
        "[\""
      ],
      [
        "fg='",
        "red',"
      ],
      [
        "Synergy",
        "Scan"
      ],
      [
        "iz",
        "e"
      ],
      [
        "sha",
        "red_"
      ],
      [
        "pay",
        "load"
      ],
      [
        "Emergent",
        "Scan"
      ],
      [
        "capture",
        "_output=False"
      ],
      [
        "execut",
        "able,"
      ],
      [
        "'-",
        "m',"
      ],
      [
        "'atomadic_forge.",
        "a4_sy_orchestration.un"
      ],
      [
        "0_",
        "qk_con"
      ],
      [
        "3_",
        "og_feature"
      ],
      [
        "CRI",
        "PT_EXTS"
      ],
      [
        "Liter",
        "al["
      ],
      [
        "Sto",
        "re"
      ],
      [
        "glo",
        "bal"
      ],
      [
        "osit",
        "es"
      ],
      [
        "|\\n",
        "|"
      ],
      [
        "[sys.",
        "executable,"
      ],
      [
        "s.run",
        "(cmd_"
      ],
      [
        "subproces",
        "s.run(cmd_"
      ],
      [
        ").returncode",
        "\",\""
      ],
      [
        "=_promp",
        "t_"
      ],
      [
        "phase_omis",
        "sion"
      ],
      [
        "2_mo_comp",
        "osites"
      ],
      [
        "ified_cli",
        "',\",s\""
      ],
      [
        "capture_output=False",
        ").returncode\",\""
      ],
      [
        "'atomadic_forge.a4_sy_orchestration.un",
        "ified_cli',\",s\""
      ],
      [
        "0_qk_con",
        "stants"
      ],
      [
        "\"",
        "\\n"
      ],
      [
        "'",
        "}⟫"
      ],
      [
        "(",
        "_dt."
      ],
      [
        "(",
        "paren"
      ],
      [
        ",",
        "exist"
      ],
      [
        "-",
        ">"
      ],
      [
        ".",
        "sub"
      ],
      [
        ".",
        "utc"
      ],
      [
        ".",
        "up"
      ],
      [
        ".",
        "strip"
      ],
      [
        ".",
        "low"
      ],
      [
        ":",
        "\",s\""
      ],
      [
        "=",
        "dic"
      ],
      [
        "A",
        "L"
      ],
      [
        "A",
        "t"
      ],
      [
        "D",
        "_DIR"
      ],
      [
        "E",
        "N"
      ],
      [
        "F",
        "i"
      ],
      [
        "G",
        "NO"
      ],
      [
        "I",
        "GNO"
      ],
      [
        "J",
        "S"
      ],
      [
        "N",
        "G"
      ],
      [
        "P",
        "ath"
      ],
      [
        "R",
        "C"
      ],
      [
        "R",
        "un"
      ],
      [
        "S",
        "e"
      ],
      [
        "T",
        "E"
      ],
      [
        "V",
        "al"
      ],
      [
        "_",
        "P"
      ],
      [
        "_",
        "chain"
      ],
      [
        "_",
        "CONFIG"
      ],
      [
        "_",
        "EXTS"
      ],
      [
        "`",
        "src/"
      ],
      [
        "a",
        "w"
      ],
      [
        "a",
        "re"
      ],
      [
        "b",
        "y"
      ],
      [
        "b",
        "as"
      ],
      [
        "b",
        "ack"
      ],
      [
        "b",
        "ution"
      ],
      [
        "c",
        "las"
      ],
      [
        "d",
        "o"
      ],
      [
        "f",
        "o"
      ],
      [
        "g",
        "',"
      ],
      [
        "g",
        "ment"
      ],
      [
        "h",
        "t"
      ],
      [
        "i",
        "l"
      ],
      [
        "i",
        "red"
      ],
      [
        "i",
        "bution"
      ],
      [
        "k",
        "dir"
      ],
      [
        "k",
        "=true)"
      ],
      [
        "k",
        "do"
      ],
      [
        "m",
        "on"
      ],
      [
        "m",
        "in"
      ],
      [
        "m",
        "kdir"
      ],
      [
        "r",
        "aw"
      ],
      [
        "s",
        "p"
      ],
      [
        "s",
        "\\n"
      ],
      [
        "s",
        ":_"
      ],
      [
        "t",
        "ent"
      ],
      [
        "u",
        "age"
      ],
      [
        "v",
        "e"
      ],
      [
        "w",
        "n"
      ],
      [
        "w",
        "or"
      ],
      [
        "z",
        "one"
      ],
      [
        "⟦",
        "prese"
      ],
      [
        "⟧",
        "`"
      ],
      [
        "⟧",
        "\")"
      ],
      [
        "⟨",
        "path"
      ],
      [
        "⟨",
        "model"
      ],
      [
        "re",
        "qu"
      ],
      [
        "at",
        "tr"
      ],
      [
        "\",",
        "DEFAULT_CONFIG"
      ],
      [
        "in",
        "put"
      ],
      [
        "st",
        "ate"
      ],
      [
        "en",
        "c"
      ],
      [
        "ro",
        "unds"
      ],
      [
        "se",
        "gment"
      ],
      [
        "co",
        "mm"
      ],
      [
        "di",
        "str"
      ],
      [
        "ch",
        "erry"
      ],
      [
        "con",
        "tent"
      ],
      [
        "'.",
        "s"
      ],
      [
        "'.",
        "py"
      ],
      [
        "fi",
        "el"
      ],
      [
        "it",
        "em"
      ],
      [
        "ex",
        "it"
      ],
      [
        "s:",
        "b"
      ],
      [
        "\")",
        "]"
      ],
      [
        "ts",
        "=true"
      ],
      [
        "dat",
        "a"
      ],
      [
        "arg",
        "s:"
      ],
      [
        "li",
        "b"
      ],
      [
        "t.",
        "write_text("
      ],
      [
        "s\"",
        "⟦"
      ],
      [
        "ap",
        "ply"
      ],
      [
        "json",
        "_"
      ],
      [
        "sco",
        "ut"
      ],
      [
        "y_",
        "env"
      ],
      [
        "=\"",
        "seconds"
      ],
      [
        "targe",
        "t"
      ],
      [
        "targe",
        "t.write_text("
      ],
      [
        "_co",
        "unt:i"
      ],
      [
        ":i",
        "⟩→i"
      ],
      [
        "ue",
        "Error"
      ],
      [
        "None",
        ":\",\""
      ],
      [
        "None",
        ",\",\""
      ],
      [
        "pl",
        "it"
      ],
      [
        "chain",
        "[\""
      ],
      [
        ").",
        "isoformat(timespec"
      ],
      [
        "output",
        "_dir"
      ],
      [
        "ig",
        "no"
      ],
      [
        "sy",
        "mbol"
      ],
      [
        "artifac",
        "t)"
      ],
      [
        "po",
        "se"
      ],
      [
        "int",
        "ent"
      ],
      [
        "time",
        "zone"
      ],
      [
        "ct",
        "ory"
      ],
      [
        "doc",
        "string"
      ],
      [
        "add_",
        "parser"
      ],
      [
        "_ap",
        "pen"
      ],
      [
        "_ap",
        "ply"
      ],
      [
        "⟪{'",
        "python"
      ],
      [
        "_o",
        "k=true)"
      ],
      [
        "s:i",
        "}"
      ],
      [
        "project_",
        "root"
      ],
      [
        "env",
        "',"
      ],
      [
        "```",
        "bas"
      ],
      [
        ":{",
        "s:i}"
      ],
      [
        "package_",
        "prefix"
      ],
      [
        "_comp",
        "le"
      ],
      [
        "E_",
        "NAM"
      ],
      [
        "RE",
        "D_DIR"
      ],
      [
        "has",
        "_"
      ],
      [
        "now",
        "(_dt."
      ],
      [
        "consumer_",
        "args"
      ],
      [
        "cli_demo_",
        "returncode"
      ],
      [
        "'javascript",
        "':"
      ],
      [
        "Manifest",
        "Store"
      ],
      [
        "head",
        "line"
      ],
      [
        "_dt.datetime.",
        "now(_dt."
      ],
      [
        "ache",
        "',"
      ],
      [
        "fil",
        "e_"
      ],
      [
        "'}",
        "),"
      ],
      [
        "'typescript",
        "':"
      ],
      [
        "pr",
        "int("
      ],
      [
        "ollama",
        "_"
      ],
      [
        "score_",
        "trajectory"
      ],
      [
        "⟨card",
        ":_⟩→s"
      ],
      [
        "thro",
        "pic"
      ],
      [
        "sources",
        "_dir"
      ],
      [
        "_api_ke",
        "y_env"
      ],
      [
        "default_target_",
        "score"
      ],
      [
        "\"+package",
        "+\""
      ],
      [
        "Literal[",
        "(\""
      ],
      [
        "\"\\n",
        "\".join("
      ],
      [
        "(paren",
        "ts=true"
      ],
      [
        ",exist",
        "_ok=true)"
      ],
      [
        ".sub",
        "(\""
      ],
      [
        ".utc",
        ").isoformat(timespec"
      ],
      [
        ".up",
        "date"
      ],
      [
        ".low",
        "er()"
      ],
      [
        "=dic",
        "t("
      ],
      [
        "AL",
        "_CONFIG"
      ],
      [
        "At",
        "omadic"
      ],
      [
        "IGNO",
        "RED_DIR"
      ],
      [
        "JS",
        "ON"
      ],
      [
        "Val",
        "ueError"
      ],
      [
        "kdo",
        "wn"
      ],
      [
        "mkdir",
        "(parents=true"
      ],
      [
        "s:_",
        "}"
      ],
      [
        "⟦prese",
        "t."
      ],
      [
        "⟨model",
        ":_"
      ],
      [
        "\",DEFAULT_CONFIG",
        "[\""
      ],
      [
        "distr",
        "ibution"
      ],
      [
        "=\"seconds",
        "\")"
      ],
      [
        "timezone",
        ".utc).isoformat(timespec"
      ],
      [
        "⟪{'python",
        "':"
      ],
      [
        "```bas",
        "h"
      ],
      [
        "_dt.datetime.now(_dt.",
        "timezone.utc).isoformat(timespec"
      ],
      [
        "AL_CONFIG",
        "_DIR"
      ],
      [
        "IGNORED_DIR",
        "S"
      ],
      [
        "mkdir(parents=true",
        ",exist_ok=true)"
      ],
      [
        "'",
        "]"
      ],
      [
        "'",
        "consumer"
      ],
      [
        "'",
        "),"
      ],
      [
        "'",
        "pure"
      ],
      [
        "'",
        "atomadic-forge."
      ],
      [
        "'",
        "synergy"
      ],
      [
        "(",
        "src"
      ],
      [
        "(",
        "func"
      ],
      [
        "(",
        "body"
      ],
      [
        "(",
        "invo"
      ],
      [
        ",",
        "\""
      ],
      [
        ",",
        "default="
      ],
      [
        ".",
        "\",\""
      ],
      [
        ".",
        "\\\"\\\"\\\""
      ],
      [
        ".",
        "invo"
      ],
      [
        ".",
        "ext"
      ],
      [
        "/",
        "a"
      ],
      [
        "0",
        "]"
      ],
      [
        "=",
        "config"
      ],
      [
        "=",
        "self."
      ],
      [
        "=",
        "args"
      ],
      [
        "=",
        "_dt.datetime."
      ],
      [
        "=",
        "subparser"
      ],
      [
        "@",
        "app"
      ],
      [
        "A",
        "I"
      ],
      [
        "A",
        "S"
      ],
      [
        "E",
        "R"
      ],
      [
        "S",
        "RC"
      ],
      [
        "Y",
        "P"
      ],
      [
        "Z",
        "\","
      ],
      [
        "[",
        "'"
      ],
      [
        "[",
        "str"
      ],
      [
        "[",
        "list"
      ],
      [
        "_",
        "S"
      ],
      [
        "_",
        "_"
      ],
      [
        "_",
        "m"
      ],
      [
        "_",
        "bal"
      ],
      [
        "_",
        "tier:s"
      ],
      [
        "_",
        "mem"
      ],
      [
        "`",
        "a"
      ],
      [
        "a",
        ":i"
      ],
      [
        "b",
        "\",type=int,help=\""
      ],
      [
        "b",
        ")))"
      ],
      [
        "d",
        "out"
      ],
      [
        "e",
        "("
      ],
      [
        "e",
        "cho("
      ],
      [
        "f",
        "fix"
      ],
      [
        "i",
        "r"
      ],
      [
        "k",
        "ed_"
      ],
      [
        "l",
        "y"
      ],
      [
        "o",
        "u"
      ],
      [
        "p",
        "t"
      ],
      [
        "p",
        "er"
      ],
      [
        "s",
        "a"
      ],
      [
        "s",
        "()"
      ],
      [
        "s",
        "/`"
      ],
      [
        "t",
        "ec"
      ],
      [
        "t",
        "wo"
      ],
      [
        "t",
        "attr"
      ],
      [
        "u",
        "g"
      ],
      [
        "w",
        "d"
      ],
      [
        "w",
        "ar"
      ],
      [
        "y",
        "a"
      ],
      [
        "{",
        "rc"
      ],
      [
        "{",
        "package"
      ],
      [
        "{",
        "\",s\""
      ],
      [
        "↦",
        "print("
      ],
      [
        "∈",
        "IGNORED_DIRS"
      ],
      [
        "⟦",
        "package"
      ],
      [
        "⟦",
        "result."
      ],
      [
        "⟨",
        "a:i"
      ],
      [
        "er",
        "ror"
      ],
      [
        "re",
        "gistry"
      ],
      [
        "re",
        "comm"
      ],
      [
        "\",",
        "help=\""
      ],
      [
        "\",",
        "generated_at_utc"
      ],
      [
        "in",
        "de"
      ],
      [
        "in",
        "_mem"
      ],
      [
        "or",
        "y_"
      ],
      [
        "ge",
        "d"
      ],
      [
        "ge",
        "st"
      ],
      [
        "ge",
        "tattr"
      ],
      [
        "st",
        "dout"
      ],
      [
        "en",
        "dat"
      ],
      [
        "en",
        "d("
      ],
      [
        "ro",
        "s"
      ],
      [
        "an",
        "ed"
      ],
      [
        "an",
        "ce_"
      ],
      [
        "se",
        "s"
      ],
      [
        "se",
        "t_"
      ],
      [
        "de",
        "f"
      ],
      [
        "de",
        "tec"
      ],
      [
        ":s",
        "⟩→"
      ],
      [
        "con",
        "d"
      ],
      [
        "con",
        "ver"
      ],
      [
        "al",
        "name:s"
      ],
      [
        "al",
        "ign"
      ],
      [
        "'.",
        "js"
      ],
      [
        "'.",
        "json"
      ],
      [
        "'.",
        "to"
      ],
      [
        "'.",
        "js',"
      ],
      [
        "su",
        "mm"
      ],
      [
        "su",
        "ffix"
      ],
      [
        "ma",
        "x"
      ],
      [
        "pro",
        "pose"
      ],
      [
        "fi",
        "rst"
      ],
      [
        "str",
        "(\""
      ],
      [
        "ent",
        "ory"
      ],
      [
        "ex",
        "p"
      ],
      [
        "ex",
        "port"
      ],
      [
        "er_",
        "lines"
      ],
      [
        "\"]",
        "=_prompt_"
      ],
      [
        "[\"",
        "@app"
      ],
      [
        "(\"",
        "b\",type=int,help=\""
      ],
      [
        "le",
        "vel"
      ],
      [
        "le",
        "aned"
      ],
      [
        "lo",
        "g"
      ],
      [
        "out",
        "_command"
      ],
      [
        "y_",
        "m"
      ],
      [
        "=\"",
        "atomadic-forge."
      ],
      [
        "_co",
        "un"
      ],
      [
        "s.",
        "add_parser"
      ],
      [
        ")\",\"",
        "["
      ],
      [
        "src",
        ")"
      ],
      [
        "sub",
        "command"
      ],
      [
        "typer.",
        "Con"
      ],
      [
        "typer.",
        "echo("
      ],
      [
        "None",
        ":\",s\""
      ],
      [
        "ol",
        "ation"
      ],
      [
        "pl",
        "y_"
      ],
      [
        "th",
        "is"
      ],
      [
        "⟦card[\"",
        "candidate_id"
      ],
      [
        "av",
        "ai"
      ],
      [
        "run",
        "_"
      ],
      [
        "fac",
        "e"
      ],
      [
        "py",
        "test"
      ],
      [
        "schema_",
        "id"
      ],
      [
        "='",
        "seconds"
      ],
      [
        "='",
        "Arg"
      ],
      [
        "command",
        "s"
      ],
      [
        "utc",
        "now"
      ],
      [
        "json.",
        "load"
      ],
      [
        "json.",
        "JSON"
      ],
      [
        "schema_version",
        "':"
      ],
      [
        "schema_version",
        "=\"atomadic-forge."
      ],
      [
        "artifac",
        "t_"
      ],
      [
        "po",
        "si"
      ],
      [
        "help",
        "='Arg"
      ],
      [
        "inv",
        "entory"
      ],
      [
        "Error",
        ")"
      ],
      [
        "+\"",
        "Z\","
      ],
      [
        "return",
        "\",\""
      ],
      [
        "CONFIG",
        "_FIL"
      ],
      [
        "test",
        "s"
      ],
      [
        "merge",
        "d"
      ],
      [
        "⟪{'",
        "schema_version':"
      ],
      [
        "parser.",
        "set_"
      ],
      [
        "body",
        ")+\"\\n\")"
      ],
      [
        "body",
        ".ext"
      ],
      [
        "exc",
        "ep"
      ],
      [
        "not",
        "ated"
      ],
      [
        "cli_demo",
        "_command"
      ],
      [
        ".ge",
        "t("
      ],
      [
        "=_",
        "head"
      ],
      [
        "_c",
        "fg"
      ],
      [
        "_c",
        "las"
      ],
      [
        "kind",
        ":s"
      ],
      [
        "tier_",
        "distribution"
      ],
      [
        "⟨self:",
        "Commandsmith"
      ],
      [
        "_ke",
        "y"
      ],
      [
        "ke_",
        "with"
      ],
      [
        "=True)\",\"",
        "def"
      ],
      [
        "False",
        ","
      ],
      [
        "number",
        "s\")"
      ],
      [
        "json.dumps(",
        "{\",s\""
      ],
      [
        "auto",
        "_apply"
      ],
      [
        "qu",
        "alname:s"
      ],
      [
        "paren",
        "t."
      ],
      [
        "final",
        "_"
      ],
      [
        "(card",
        ")"
      ],
      [
        "defaults",
        "(func"
      ],
      [
        "cli_demo_",
        "stdout"
      ],
      [
        "indent=2",
        "))\",\""
      ],
      [
        "De",
        "code"
      ],
      [
        "open",
        "_id"
      ],
      [
        "args.",
        "a,"
      ],
      [
        "args.",
        "b)))"
      ],
      [
        "candidates",
        "="
      ],
      [
        "Commandsmith",
        "."
      ],
      [
        "isoformat(timespec",
        "=\"seconds\")"
      ],
      [
        "')",
        "]"
      ],
      [
        "ll",
        "m"
      ],
      [
        "str(",
        "artifact)"
      ],
      [
        "(\"a",
        "\",type=int,help=\""
      ],
      [
        "().",
        "isoformat(timespec=\"seconds\")"
      ],
      [
        "ctx",
        ":"
      ],
      [
        "ctx",
        ".invo"
      ],
      [
        "Arg",
        "ument"
      ],
      [
        "parser.add_argument",
        "(\"b\",type=int,help=\""
      ],
      [
        "parser.add_argument",
        "(\"a\",type=int,help=\""
      ],
      [
        "/v1",
        "',"
      ],
      [
        "/v1",
        "\",generated_at_utc"
      ],
      [
        "lat",
        "enc"
      ],
      [
        "lang",
        "uage"
      ],
      [
        "multi",
        "ply_"
      ],
      [
        "divide",
        "_"
      ],
      [
        "subtrac",
        "t_"
      ],
      [
        "frozenset({",
        "'pure"
      ],
      [
        ".call",
        "back"
      ],
      [
        "An",
        "notated"
      ],
      [
        "LO",
        "C"
      ],
      [
        "RO",
        "O"
      ],
      [
        "St",
        "ub"
      ],
      [
        "\",default=",
        "cur_"
      ],
      [
        "shared_",
        "schema"
      ],
      [
        "Fi",
        "rst"
      ],
      [
        "Se",
        "cond"
      ],
      [
        "`src/",
        "\"+package+\""
      ],
      [
        "wor",
        "k"
      ],
      [
        "rounds",
        "_comple"
      ],
      [
        "exit",
        "ed"
      ],
      [
        "json_",
        "artifact"
      ],
      [
        "target.write_text(",
        "json.dumps("
      ],
      [
        "E_NAM",
        "E"
      ],
      [
        "_api_key_env",
        ":_⟩"
      ],
      [
        "\"\\n\".join(",
        "body)+\"\\n\")"
      ],
      [
        "_dt.datetime.now(_dt.timezone.utc).isoformat(timespec",
        "='seconds"
      ],
      [
        "'synergy",
        "':"
      ],
      [
        "(body",
        "=_head"
      ],
      [
        "(invo",
        "ke_with"
      ],
      [
        ",default=",
        "str"
      ],
      [
        "=config",
        ".get(\""
      ],
      [
        "=args",
        "↦print("
      ],
      [
        "=_dt.datetime.",
        "utcnow"
      ],
      [
        "=subparser",
        "s.add_parser"
      ],
      [
        "[str",
        "]"
      ],
      [
        "[list",
        "[str]"
      ],
      [
        "_bal",
        "ance_"
      ],
      [
        "ked_",
        "subcommand"
      ],
      [
        "{rc",
        "}',"
      ],
      [
        "⟦package",
        "⟧"
      ],
      [
        "recomm",
        "endat"
      ],
      [
        "inde",
        "x"
      ],
      [
        "in_mem",
        "ory_"
      ],
      [
        "getattr",
        "(_"
      ],
      [
        "end(",
        "[\"@app"
      ],
      [
        "conver",
        "ged"
      ],
      [
        "summ",
        "ary"
      ],
      [
        "propose",
        "d_"
      ],
      [
        "er_lines",
        "(card)"
      ],
      [
        "out_command",
        "=True)\",\"def"
      ],
      [
        "typer.echo(",
        "json.dumps({\",s\""
      ],
      [
        "⟦card[\"candidate_id",
        "\"]⟧"
      ],
      [
        "avai",
        "lable"
      ],
      [
        "json.load",
        "s("
      ],
      [
        "json.JSON",
        "Decode"
      ],
      [
        "help='Arg",
        "s"
      ],
      [
        "CONFIG_FIL",
        "E_NAME"
      ],
      [
        "parser.set_",
        "defaults(func"
      ],
      [
        "body.ext",
        "end([\"@app"
      ],
      [
        "indent=2))\",\"",
        "\"])"
      ],
      [
        "open_id",
        "x"
      ],
      [
        "args.a,",
        "args.b)))"
      ],
      [
        "str(artifact)",
        "]\",\""
      ],
      [
        "().isoformat(timespec=\"seconds\")",
        "+\"Z\","
      ],
      [
        "ctx.invo",
        "ked_subcommand"
      ],
      [
        "parser.add_argument(\"b\",type=int,help=\"",
        "Second"
      ],
      [
        "parser.add_argument(\"a\",type=int,help=\"",
        "First"
      ],
      [
        "/v1\",generated_at_utc",
        "=_dt.datetime.utcnow"
      ],
      [
        "latenc",
        "y_m"
      ],
      [
        ".callback",
        "(invoke_with"
      ],
      [
        "Annotated",
        "[list[str]"
      ],
      [
        "`src/\"+package+\"",
        "/a"
      ],
      [
        "rounds_comple",
        "ted"
      ],
      [
        "(body=_head",
        "er_lines(card)"
      ],
      [
        "=subparsers.add_parser",
        "(\""
      ],
      [
        "recommendat",
        "ion"
      ],
      [
        "in_memory_",
        "pipe"
      ],
      [
        "parser.set_defaults(func",
        "=args↦print("
      ],
      [
        "body.extend([\"@app",
        ".callback(invoke_with"
      ],
      [
        "/v1\",generated_at_utc=_dt.datetime.utcnow",
        "().isoformat(timespec=\"seconds\")+\"Z\","
      ],
      [
        "body.extend([\"@app.callback(invoke_with",
        "out_command=True)\",\"def"
      ],
      [
        "\"",
        ":\""
      ],
      [
        "'",
        "ts"
      ],
      [
        "'",
        "--"
      ],
      [
        "'",
        "run"
      ],
      [
        "'",
        "state"
      ],
      [
        "'",
        "{package"
      ],
      [
        "(",
        "G"
      ],
      [
        "(",
        "self."
      ],
      [
        "(",
        "s,"
      ],
      [
        "(",
        "node"
      ],
      [
        ")",
        "∨\""
      ],
      [
        "*",
        "producer_args"
      ],
      [
        ",",
        "config"
      ],
      [
        ",",
        "\",s\""
      ],
      [
        "-",
        "args"
      ],
      [
        "-",
        "tier"
      ],
      [
        ".",
        "_"
      ],
      [
        ".",
        "json"
      ],
      [
        "/",
        "CONFIG_FILE_NAME"
      ],
      [
        "1",
        ")"
      ],
      [
        "1",
        "00"
      ],
      [
        "2",
        "σ"
      ],
      [
        "5",
        "-tier"
      ],
      [
        "=",
        "path."
      ],
      [
        "?",
        "\""
      ],
      [
        "A",
        "A"
      ],
      [
        "A",
        "V"
      ],
      [
        "C",
        "h"
      ],
      [
        "D",
        "ire"
      ],
      [
        "E",
        "TS"
      ],
      [
        "G",
        "en"
      ],
      [
        "H",
        "ON"
      ],
      [
        "I",
        "mp"
      ],
      [
        "I",
        "nt"
      ],
      [
        "I",
        "TI"
      ],
      [
        "J",
        "AV"
      ],
      [
        "O",
        "S"
      ],
      [
        "O",
        "pen"
      ],
      [
        "P",
        "Y"
      ],
      [
        "R",
        "ES"
      ],
      [
        "S",
        "co"
      ],
      [
        "S",
        "ur"
      ],
      [
        "S",
        "ignature"
      ],
      [
        "S",
        "ITI"
      ],
      [
        "T",
        "YP"
      ],
      [
        "T",
        "HON"
      ],
      [
        "[",
        "]"
      ],
      [
        "[",
        "⟪"
      ],
      [
        "[",
        "]\",\""
      ],
      [
        "[",
        "0]"
      ],
      [
        "_",
        "se"
      ],
      [
        "_",
        "to"
      ],
      [
        "_",
        "utc"
      ],
      [
        "_",
        "import"
      ],
      [
        "_",
        "type"
      ],
      [
        "_",
        "file"
      ],
      [
        "_",
        "pure"
      ],
      [
        "_",
        "step"
      ],
      [
        "_",
        "posi"
      ],
      [
        "a",
        "-"
      ],
      [
        "a",
        "b"
      ],
      [
        "a",
        "g"
      ],
      [
        "a",
        "st"
      ],
      [
        "a",
        "se"
      ],
      [
        "a",
        "dic"
      ],
      [
        "b",
        ","
      ],
      [
        "b",
        "l"
      ],
      [
        "b",
        ":i⟩→i"
      ],
      [
        "b",
        "ase"
      ],
      [
        "c",
        "i"
      ],
      [
        "c",
        "er"
      ],
      [
        "c",
        "ros"
      ],
      [
        "c",
        "leaned"
      ],
      [
        "d",
        "',"
      ],
      [
        "e",
        ":"
      ],
      [
        "e",
        "w"
      ],
      [
        "e",
        "ver"
      ],
      [
        "f",
        "⟧"
      ],
      [
        "f",
        "',"
      ],
      [
        "f",
        "li"
      ],
      [
        "f",
        "ind"
      ],
      [
        "h",
        "er"
      ],
      [
        "i",
        "es"
      ],
      [
        "k",
        "g"
      ],
      [
        "k",
        "en"
      ],
      [
        "l",
        "_"
      ],
      [
        "l",
        "er"
      ],
      [
        "l",
        "es"
      ],
      [
        "l",
        "ug"
      ],
      [
        "o",
        "f"
      ],
      [
        "p",
        "i"
      ],
      [
        "p",
        "as"
      ],
      [
        "p",
        "kg"
      ],
      [
        "s",
        "er"
      ],
      [
        "s",
        "\",\""
      ],
      [
        "s",
        "',"
      ],
      [
        "s",
        "crip"
      ],
      [
        "s",
        "ignature"
      ],
      [
        "v",
        "oc"
      ],
      [
        "w",
        "ire"
      ],
      [
        "x",
        "())"
      ],
      [
        "y",
        "out"
      ],
      [
        "y",
        "(("
      ],
      [
        "y",
        "ou"
      ],
      [
        "{",
        "e:"
      ],
      [
        "⟨",
        "⟩→"
      ],
      [
        "⟨",
        "chain"
      ],
      [
        "⟨",
        "node"
      ],
      [
        "⟨",
        "project_root"
      ],
      [
        "⟫",
        "]"
      ],
      [
        "er",
        "me"
      ],
      [
        "er",
        "ated"
      ],
      [
        "er",
        "pt"
      ],
      [
        "re",
        "vi"
      ],
      [
        "re",
        "lat"
      ],
      [
        "re",
        "sp"
      ],
      [
        "at",
        "or"
      ],
      [
        "ar",
        "c"
      ],
      [
        "ar",
        "kdown"
      ],
      [
        "in",
        "-"
      ],
      [
        "in",
        "i"
      ],
      [
        "ge",
        "min"
      ],
      [
        "st",
        "at"
      ],
      [
        "st",
        "em"
      ],
      [
        "st",
        "all"
      ],
      [
        "\",\"",
        "re"
      ],
      [
        "\",\"",
        "\",s\""
      ],
      [
        "an",
        "d_"
      ],
      [
        "an",
        "thropic"
      ],
      [
        "an",
        "y(("
      ],
      [
        "se",
        "s:[s]"
      ],
      [
        "co",
        "mp"
      ],
      [
        "co",
        "ver"
      ],
      [
        "co",
        "unt:i"
      ],
      [
        "di",
        "sco"
      ],
      [
        "di",
        "ate"
      ],
      [
        "di",
        "gest"
      ],
      [
        "de",
        "d"
      ],
      [
        "de",
        "scrip"
      ],
      [
        "ti",
        "f"
      ],
      [
        "ch",
        "at"
      ],
      [
        "'.",
        "g"
      ],
      [
        "'.",
        "p"
      ],
      [
        "'.",
        "w"
      ],
      [
        "ac",
        "e"
      ],
      [
        "es",
        ":[s]"
      ],
      [
        "me",
        "t"
      ],
      [
        "me",
        "th"
      ],
      [
        "e_",
        "to"
      ],
      [
        "e_",
        "report"
      ],
      [
        "t_",
        "docstring"
      ],
      [
        "\")",
        ")"
      ],
      [
        "for",
        "war"
      ],
      [
        "as",
        "_posi"
      ],
      [
        "[\"",
        "provider"
      ],
      [
        "ec",
        "t"
      ],
      [
        "ec",
        "tion"
      ],
      [
        "mm",
        "ent"
      ],
      [
        "lo",
        "ad_"
      ],
      [
        "ul",
        "ary"
      ],
      [
        "ad",
        "apt"
      ],
      [
        "par",
        "t"
      ],
      [
        "package",
        ","
      ],
      [
        "package",
        ":s"
      ],
      [
        "na",
        "mes"
      ],
      [
        "out",
        "',"
      ],
      [
        "tr",
        "y"
      ],
      [
        "name",
        ","
      ],
      [
        "dir",
        "/"
      ],
      [
        "_co",
        "mment"
      ],
      [
        "config",
        ".update"
      ],
      [
        "config",
        "_file"
      ],
      [
        "typer.",
        "Argument"
      ],
      [
        "consumer",
        "-args"
      ],
      [
        "ol",
        "ve"
      ],
      [
        "oc",
        "string"
      ],
      [
        "self.",
        "write_"
      ],
      [
        "run",
        "(\",\""
      ],
      [
        "output",
        "_root"
      ],
      [
        "_s",
        "ize"
      ],
      [
        "resul",
        "t"
      ],
      [
        "\\n\\n",
        "```bash"
      ],
      [
        "_d",
        "omain"
      ],
      [
        "_d",
        "ocstring"
      ],
      [
        "sy",
        "nerg"
      ],
      [
        "artifac",
        "t."
      ],
      [
        "**",
        "{e:"
      ],
      [
        "ke",
        "y"
      ],
      [
        "t=",
        "self."
      ],
      [
        "t=",
        "len("
      ],
      [
        "int",
        "erme"
      ],
      [
        "vi",
        "olation"
      ],
      [
        "test",
        "s_"
      ],
      [
        "url",
        ","
      ],
      [
        "url",
        "':"
      ],
      [
        "model",
        "s"
      ],
      [
        "producer_",
        "fn"
      ],
      [
        "producer_",
        "args:"
      ],
      [
        "atomadic-forge",
        "\""
      ],
      [
        "True",
        ","
      ],
      [
        "md_",
        "path"
      ],
      [
        "parser",
        "=subparsers.add_parser(\""
      ],
      [
        "(_",
        "step"
      ],
      [
        "exc",
        "erpt"
      ],
      [
        ".ge",
        "t_docstring"
      ],
      [
        "ES",
        "CRIPT_EXTS"
      ],
      [
        "domain",
        "s"
      ],
      [
        "kind",
        ":_"
      ],
      [
        "tier_",
        "index"
      ],
      [
        "strip",
        "_comment"
      ],
      [
        "⟨self:",
        "TranscriptLog"
      ],
      [
        "ml",
        "':"
      ],
      [
        "'.m",
        "js',"
      ],
      [
        "\\\"\\\"\\\"",
        "Run"
      ],
      [
        ".s",
        "can"
      ],
      [
        ".s",
        "av"
      ],
      [
        ".s",
        "plit"
      ],
      [
        ":{",
        "s:_}"
      ],
      [
        "Sy",
        "mbol"
      ],
      [
        "_render_",
        "phase_omission"
      ],
      [
        "s,",
        "smoke_results"
      ],
      [
        "si",
        "bl"
      ],
      [
        "file",
        "."
      ],
      [
        "file",
        ":s"
      ],
      [
        "----",
        "----"
      ],
      [
        "⟦card[\"consumer\"]⟧",
        ","
      ],
      [
        "⟦card[\"consumer\"]⟧",
        ".\\\"\\\"\\\""
      ],
      [
        "line",
        "age"
      ],
      [
        "source_",
        "root"
      ],
      [
        "RE",
        ".sub(\""
      ],
      [
        "consumer_",
        "fn"
      ],
      [
        "'javascript",
        "',"
      ],
      [
        "De",
        "faul"
      ],
      [
        "Manifest",
        "Card"
      ],
      [
        "open",
        "ai"
      ],
      [
        "typer.Exit(",
        "2"
      ],
      [
        "ache",
        "/\\n."
      ],
      [
        "ll",
        "ection"
      ],
      [
        "manifest",
        "_dir"
      ],
      [
        "text",
        ",\",\""
      ],
      [
        "generated_at_utc",
        ":s"
      ],
      [
        "Re",
        "gistry"
      ],
      [
        "TI",
        "ER"
      ],
      [
        "multi",
        "ply"
      ],
      [
        "\",\"\",\"",
        "##"
      ],
      [
        "self._",
        "turn"
      ],
      [
        "module",
        ":s"
      ],
      [
        ",indent=2",
        ",default=str"
      ],
      [
        "LA",
        "NG"
      ],
      [
        "_path",
        ")"
      ],
      [
        "_path",
        "="
      ],
      [
        "cmd_",
        "a"
      ],
      [
        "cmd_",
        "b"
      ],
      [
        "iv",
        "e_to"
      ],
      [
        "read_",
        "text("
      ],
      [
        "read_",
        "config_file"
      ],
      [
        "top_",
        "n"
      ],
      [
        "top_",
        "level"
      ],
      [
        "typer.secho(f",
        "'producer"
      ],
      [
        "subprocess.run(cmd_",
        "a,"
      ],
      [
        "subprocess.run(cmd_",
        "b,"
      ],
      [
        ".strip",
        "()"
      ],
      [
        "EN",
        "SITI"
      ],
      [
        "mon",
        "adic"
      ],
      [
        "raw",
        "_appen"
      ],
      [
        "s\\n",
        "-"
      ],
      [
        "⟧`",
        "\",s\"-"
      ],
      [
        "scout",
        "['"
      ],
      [
        "None,\",\"",
        ")"
      ],
      [
        "AS",
        "CRIPT_EXTS"
      ],
      [
        "detec",
        "t_"
      ],
      [
        "align",
        "ment"
      ],
      [
        "'.json",
        "',"
      ],
      [
        "export",
        "ed_"
      ],
      [
        "\"]=_prompt_",
        "str(\""
      ],
      [
        "typer.Con",
        "text,\",\""
      ],
      [
        "artifact_",
        "md_path"
      ],
      [
        "excep",
        "t"
      ],
      [
        "parent.",
        "mkdir(parents=true,exist_ok=true)"
      ],
      [
        "final_",
        "score"
      ],
      [
        "frozenset({'pure",
        "',"
      ],
      [
        "LOC",
        "AL_CONFIG_DIR"
      ],
      [
        "Stub",
        "LLMClient"
      ],
      [
        "_dt.datetime.now(_dt.timezone.utc).isoformat(timespec='seconds",
        "'),"
      ],
      [
        "json.JSONDecode",
        "Error)"
      ],
      [
        "(node",
        ")∨\""
      ],
      [
        "Dire",
        "ctory"
      ],
      [
        "Gen",
        "erated"
      ],
      [
        "Int",
        "ent"
      ],
      [
        "JAV",
        "ASCRIPT_EXTS"
      ],
      [
        "OS",
        "Error,"
      ],
      [
        "PY",
        "THON"
      ],
      [
        "RES",
        "ETS"
      ],
      [
        "Sur",
        "face"
      ],
      [
        "TYP",
        "ESCRIPT_EXTS"
      ],
      [
        "[⟪",
        ":"
      ],
      [
        "_to",
        "ken"
      ],
      [
        "_utc",
        "':"
      ],
      [
        "ab",
        "ulary"
      ],
      [
        "ast",
        ".get_docstring"
      ],
      [
        "voc",
        "abulary"
      ],
      [
        "⟨node",
        ":_⟩→s"
      ],
      [
        "revi",
        "ew"
      ],
      [
        "relat",
        "ive_to"
      ],
      [
        "cover",
        "age"
      ],
      [
        "descrip",
        "tion"
      ],
      [
        "meth",
        "o"
      ],
      [
        "forwar",
        "ded"
      ],
      [
        "as_posi",
        "x())"
      ],
      [
        "[\"provider",
        "\"]"
      ],
      [
        "config.update",
        "(_step"
      ],
      [
        "typer.Argument",
        "(\",\""
      ],
      [
        "\\n\\n```bash",
        "\\n"
      ],
      [
        "interme",
        "diate"
      ],
      [
        ".split",
        "(\""
      ],
      [
        "sibl",
        "ing"
      ],
      [
        "⟦card[\"consumer\"]⟧.\\\"\\\"\\\"",
        "\",\""
      ],
      [
        "Registry",
        "ManifestCard"
      ],
      [
        ",indent=2,default=str",
        "),encoding=\"utf-8\")"
      ],
      [
        "ENSITI",
        "V"
      ],
      [
        "PYTHON",
        "_EXTS"
      ],
      [
        "ast.get_docstring",
        "(node)∨\""
      ],
      [
        "\"",
        "\\\"\\\"\\\""
      ],
      [
        "'",
        "m"
      ],
      [
        "'",
        "s"
      ],
      [
        "'",
        "\",\""
      ],
      [
        "'",
        "produc"
      ],
      [
        "'",
        ")."
      ],
      [
        "'",
        "model"
      ],
      [
        "'",
        "orchestr"
      ],
      [
        "'",
        "kind"
      ],
      [
        "'",
        "python"
      ],
      [
        "'",
        "main"
      ],
      [
        "'",
        "))\",\""
      ],
      [
        "'",
        "ht"
      ],
      [
        "'",
        "content"
      ],
      [
        "'",
        "ollama_"
      ],
      [
        "'",
        "ya"
      ],
      [
        "'",
        "latency_m"
      ],
      [
        "'",
        "url':"
      ],
      [
        "(",
        "f"
      ],
      [
        "(",
        "h"
      ],
      [
        "(",
        "k"
      ],
      [
        "(",
        "{"
      ],
      [
        "(",
        "doc"
      ],
      [
        "(",
        "url"
      ],
      [
        "(",
        "(c"
      ],
      [
        "(",
        "path."
      ],
      [
        "(",
        "local"
      ],
      [
        "(",
        "prefix"
      ],
      [
        "(",
        "updates[\""
      ],
      [
        "(",
        "data"
      ],
      [
        "(",
        "s\"⟦"
      ],
      [
        "(",
        "consumer_args"
      ],
      [
        "(",
        "schema_version=\"atomadic-forge."
      ],
      [
        "(",
        "args.a,args.b)))"
      ],
      [
        "(",
        "OSError,"
      ],
      [
        "(",
        "description"
      ],
      [
        ")",
        "?"
      ],
      [
        ")",
        "∈"
      ],
      [
        ")",
        "≥"
      ],
      [
        ")",
        "}⟫"
      ],
      [
        ")",
        "\\n\\n"
      ],
      [
        "*",
        "."
      ],
      [
        ",",
        "v"
      ],
      [
        ",",
        "package"
      ],
      [
        ",",
        "domain_"
      ],
      [
        ",",
        "max"
      ],
      [
        ",",
        "open_idx"
      ],
      [
        "-",
        "Z"
      ],
      [
        "-",
        "⟦"
      ],
      [
        "-",
        "in"
      ],
      [
        "-",
        "not"
      ],
      [
        "-",
        "')"
      ],
      [
        "-",
        "fo"
      ],
      [
        "-",
        "out',"
      ],
      [
        ".",
        "1"
      ],
      [
        ".",
        "v"
      ],
      [
        ".",
        "\\n"
      ],
      [
        ".",
        "\")"
      ],
      [
        ".",
        "writ"
      ],
      [
        ".",
        "exist"
      ],
      [
        ".",
        "item"
      ],
      [
        ".",
        "mkdir(parents=true,exist_ok=true)"
      ],
      [
        ".",
        "registry"
      ],
      [
        ".",
        "')]"
      ],
      [
        "/",
        "/"
      ],
      [
        "/",
        "5"
      ],
      [
        "/",
        "_"
      ],
      [
        "/",
        "LOCAL_CONFIG_DIR"
      ],
      [
        "0",
        ","
      ],
      [
        "0",
        ".0"
      ],
      [
        "2",
        "5"
      ],
      [
        "2",
        "',"
      ],
      [
        "3",
        "',"
      ],
      [
        "4",
        "_"
      ],
      [
        "4",
        "ι"
      ],
      [
        "4",
        "',"
      ],
      [
        "5",
        ")"
      ],
      [
        "8",
        "⟫]"
      ],
      [
        ":",
        "v"
      ],
      [
        ":",
        "[_]"
      ],
      [
        "=",
        "f"
      ],
      [
        "=",
        "re"
      ],
      [
        "=",
        "co"
      ],
      [
        "=",
        "⟪{'"
      ],
      [
        "=",
        "has"
      ],
      [
        "=",
        "len("
      ],
      [
        "=",
        "smoke_results"
      ],
      [
        "=",
        "run_"
      ],
      [
        "=",
        "read_config_file"
      ],
      [
        "=",
        "ast.get_docstring(node)∨\""
      ],
      [
        "?",
        "doc"
      ],
      [
        "A",
        "G"
      ],
      [
        "A",
        "uto"
      ],
      [
        "A",
        "LL"
      ],
      [
        "A",
        "-Z"
      ],
      [
        "B",
        "AL_CONFIG_DIR"
      ],
      [
        "C",
        "O"
      ],
      [
        "C",
        "an"
      ],
      [
        "E",
        "C"
      ],
      [
        "E",
        "D"
      ],
      [
        "E",
        "M"
      ],
      [
        "F",
        "o"
      ],
      [
        "G",
        "_"
      ],
      [
        "G",
        "em"
      ],
      [
        "I",
        "TS"
      ],
      [
        "K",
        "ind"
      ],
      [
        "K",
        "G_"
      ],
      [
        "M",
        "A"
      ],
      [
        "M",
        "M"
      ],
      [
        "M",
        "P"
      ],
      [
        "N",
        "I"
      ],
      [
        "N",
        "ot"
      ],
      [
        "O",
        "l"
      ],
      [
        "P",
        "ro"
      ],
      [
        "P",
        "ackage"
      ],
      [
        "P",
        "ic"
      ],
      [
        "P",
        "KG_"
      ],
      [
        "S",
        "T"
      ],
      [
        "S",
        "U"
      ],
      [
        "S",
        "cript"
      ],
      [
        "T",
        "e"
      ],
      [
        "T",
        "i"
      ],
      [
        "T",
        "yp"
      ],
      [
        "T",
        "he"
      ],
      [
        "T",
        "est"
      ],
      [
        "U",
        "AG"
      ],
      [
        "W",
        "ire"
      ],
      [
        "[",
        "import"
      ],
      [
        "[",
        "A-Z"
      ],
      [
        "\\",
        "\\"
      ],
      [
        "_",
        ")"
      ],
      [
        "_",
        "ro"
      ],
      [
        "_",
        "de"
      ],
      [
        "_",
        "config"
      ],
      [
        "_",
        "la"
      ],
      [
        "_",
        "tier"
      ],
      [
        "_",
        "name:s"
      ],
      [
        "_",
        "EX"
      ],
      [
        "_",
        "url"
      ],
      [
        "_",
        "line"
      ],
      [
        "_",
        "fil"
      ],
      [
        "_",
        "text"
      ],
      [
        "_",
        "candidate_id"
      ],
      [
        "_",
        "NAM"
      ],
      [
        "_",
        "ass"
      ],
      [
        "_",
        "igno"
      ],
      [
        "_",
        "file_"
      ],
      [
        "_",
        "first"
      ],
      [
        "_",
        "summary"
      ],
      [
        "_",
        "excerpt"
      ],
      [
        "`",
        "."
      ],
      [
        "`",
        "⟦"
      ],
      [
        "`",
        "\",\""
      ],
      [
        "`",
        "forge"
      ],
      [
        "`",
        "run"
      ],
      [
        "a",
        "',"
      ],
      [
        "a",
        "ch"
      ],
      [
        "a",
        "kdown"
      ],
      [
        "b",
        "r"
      ],
      [
        "b",
        "u"
      ],
      [
        "b",
        "re"
      ],
      [
        "b",
        "_s"
      ],
      [
        "b",
        "el"
      ],
      [
        "c",
        "∈"
      ],
      [
        "c",
        "ache',"
      ],
      [
        "c",
        "e("
      ],
      [
        "c",
        "wd"
      ],
      [
        "c",
        "ach"
      ],
      [
        "d",
        "er"
      ],
      [
        "d",
        ":i"
      ],
      [
        "e",
        "b"
      ],
      [
        "e",
        "v"
      ],
      [
        "e",
        "∈"
      ],
      [
        "e",
        "Card"
      ],
      [
        "e",
        "ff"
      ],
      [
        "f",
        "er"
      ],
      [
        "f",
        "re"
      ],
      [
        "f",
        "e_"
      ],
      [
        "f",
        "ul"
      ],
      [
        "g",
        "no"
      ],
      [
        "h",
        "ex"
      ],
      [
        "h",
        "and"
      ],
      [
        "h",
        "ap"
      ],
      [
        "h",
        "av"
      ],
      [
        "h",
        "ig"
      ],
      [
        "h",
        "lib"
      ],
      [
        "h",
        "[⟪:"
      ],
      [
        "i",
        "m"
      ],
      [
        "i",
        "o"
      ],
      [
        "i",
        "de"
      ],
      [
        "j",
        "p"
      ],
      [
        "j",
        "u"
      ],
      [
        "k",
        "er"
      ],
      [
        "k",
        "ip"
      ],
      [
        "k",
        ":v"
      ],
      [
        "n",
        "ext"
      ],
      [
        "o",
        "se"
      ],
      [
        "o",
        "t_"
      ],
      [
        "o",
        ":i"
      ],
      [
        "o",
        "per"
      ],
      [
        "p",
        "an"
      ],
      [
        "p",
        "th"
      ],
      [
        "p",
        "tion"
      ],
      [
        "p",
        "ass"
      ],
      [
        "r",
        "u"
      ],
      [
        "r",
        "an"
      ],
      [
        "s",
        ":s"
      ],
      [
        "s",
        "ent"
      ],
      [
        "s",
        "av"
      ],
      [
        "s",
        "),"
      ],
      [
        "s",
        "ider"
      ],
      [
        "s",
        "pec"
      ],
      [
        "s",
        "\",\"a"
      ],
      [
        "s",
        "']"
      ],
      [
        "s",
        "lug"
      ],
      [
        "s",
        "s',"
      ],
      [
        "s",
        "olve"
      ],
      [
        "s",
        "hap"
      ],
      [
        "s",
        "kip"
      ],
      [
        "t",
        ","
      ],
      [
        "t",
        "p"
      ],
      [
        "t",
        "re"
      ],
      [
        "t",
        "',"
      ],
      [
        "t",
        "mp"
      ],
      [
        "t",
        ":s⟩→s"
      ],
      [
        "u",
        "de"
      ],
      [
        "u",
        "es"
      ],
      [
        "u",
        "ct"
      ],
      [
        "v",
        "≠"
      ],
      [
        "v",
        "env"
      ],
      [
        "v",
        "env',"
      ],
      [
        "w",
        "h"
      ],
      [
        "w",
        "er"
      ],
      [
        "w",
        "ard"
      ],
      [
        "x",
        "':"
      ],
      [
        "x",
        "'}⟫)"
      ],
      [
        "x",
        "t',"
      ],
      [
        "y",
        "el"
      ],
      [
        "{",
        "'"
      ],
      [
        "{",
        "exc"
      ],
      [
        "{",
        "s:_}"
      ],
      [
        "|",
        "--------"
      ],
      [
        "}",
        ")"
      ],
      [
        "∅",
        "})"
      ],
      [
        "∈",
        "re"
      ],
      [
        "⟦",
        "chain[\""
      ],
      [
        "⟧",
        "\\n\\n##"
      ],
      [
        "⟨",
        "config"
      ],
      [
        "⟨",
        "url"
      ],
      [
        "⟨",
        "candidate_id"
      ],
      [
        "⟨",
        "report"
      ],
      [
        "⟨",
        "project_dir"
      ],
      [
        "⟨",
        "file:s"
      ],
      [
        "er",
        "er"
      ],
      [
        "er",
        "((c"
      ],
      [
        "on",
        "ic"
      ],
      [
        "on",
        "_con"
      ],
      [
        "on",
        "ly"
      ],
      [
        "re",
        "ad"
      ],
      [
        "re",
        "pl"
      ],
      [
        "re",
        "ctory"
      ],
      [
        "re",
        "[import"
      ],
      [
        "re",
        "solve"
      ],
      [
        "\",",
        "[\""
      ],
      [
        "\",",
        "encoding=\"utf-8\")"
      ],
      [
        "\",",
        "src)"
      ],
      [
        "\",",
        "1)"
      ],
      [
        "in",
        "ts"
      ],
      [
        "in",
        "stan"
      ],
      [
        "in",
        "stall"
      ],
      [
        "or",
        "t_"
      ],
      [
        "or",
        "ts"
      ],
      [
        "or",
        "t("
      ],
      [
        "or",
        "ary"
      ],
      [
        "st",
        "and"
      ],
      [
        "st",
        "s:[s]"
      ],
      [
        "en",
        "for"
      ],
      [
        "en",
        "code"
      ],
      [
        "en",
        "o:i"
      ],
      [
        "\",\"",
        "javascript"
      ],
      [
        "\",\"",
        "typescript"
      ],
      [
        "ro",
        "le"
      ],
      [
        "ro",
        "und"
      ],
      [
        "se",
        "e"
      ],
      [
        "di",
        "s"
      ],
      [
        "di",
        "st"
      ],
      [
        "di",
        "rectory"
      ],
      [
        "ti",
        "gno"
      ],
      [
        "ch",
        "it"
      ],
      [
        "con",
        "stants"
      ],
      [
        "con",
        "sider"
      ],
      [
        "'.",
        "/"
      ],
      [
        "'.",
        "t"
      ],
      [
        "'.",
        "y"
      ],
      [
        "'.",
        "mp"
      ],
      [
        "'.",
        "wr"
      ],
      [
        "'.",
        "wo"
      ],
      [
        "'.",
        "ht"
      ],
      [
        "'.",
        "env',"
      ],
      [
        "'.",
        "ya"
      ],
      [
        "'.",
        "jp"
      ],
      [
        "\\n",
        "\""
      ],
      [
        "\\n",
        "\",1)"
      ],
      [
        "es",
        "',"
      ],
      [
        "d_",
        "types"
      ],
      [
        "d_",
        "names"
      ],
      [
        "d_",
        "lineage"
      ],
      [
        "fi",
        "g"
      ],
      [
        "it",
        "',"
      ],
      [
        "it",
        "ted"
      ],
      [
        "str",
        "uct"
      ],
      [
        "⟩→",
        "b"
      ],
      [
        "⟩→",
        "∅"
      ],
      [
        "ex",
        "tra"
      ],
      [
        "mp",
        ")"
      ],
      [
        "mp",
        "_re"
      ],
      [
        "mp",
        "file."
      ],
      [
        "mp",
        "orary"
      ],
      [
        "e_",
        "_"
      ],
      [
        "t_",
        "consider"
      ],
      [
        "as",
        "ci"
      ],
      [
        "yp",
        "y_"
      ],
      [
        "\"]",
        "=f"
      ],
      [
        "ec",
        "e∈"
      ],
      [
        "js",
        "':"
      ],
      [
        "er.",
        "\",\""
      ],
      [
        "er.",
        "json"
      ],
      [
        "card",
        "s:[_]"
      ],
      [
        "card",
        "s,smoke_results"
      ],
      [
        "ad",
        "d"
      ],
      [
        "par",
        "se"
      ],
      [
        "package",
        ":_"
      ],
      [
        "t.",
        "parent.mkdir(parents=true,exist_ok=true)"
      ],
      [
        "s\"",
        "#"
      ],
      [
        "dic",
        "t"
      ],
      [
        "ed",
        ":i"
      ],
      [
        "tr",
        "anscript"
      ],
      [
        "self",
        "_ass"
      ],
      [
        "ver",
        "b_s"
      ],
      [
        "name",
        "∈"
      ],
      [
        "name",
        "⟧"
      ],
      [
        "is",
        "ion"
      ],
      [
        "is",
        "instan"
      ],
      [
        "json",
        "-out',"
      ],
      [
        "sco",
        "de"
      ],
      [
        "dir",
        ":s"
      ],
      [
        "dir",
        ":_"
      ],
      [
        "--",
        "provider"
      ],
      [
        "--",
        "consumer-args"
      ],
      [
        "to",
        "_tier:s"
      ],
      [
        "_co",
        "unt"
      ],
      [
        "path",
        ":s"
      ],
      [
        "path",
        ":_⟩→"
      ],
      [
        "s.",
        "Co"
      ],
      [
        "defaul",
        "t"
      ],
      [
        "⟪{",
        "}⟫"
      ],
      [
        "⟪{",
        "'a"
      ],
      [
        "⟪{",
        "}⟫)"
      ],
      [
        ":_⟩→",
        "b"
      ],
      [
        "producer",
        ","
      ],
      [
        "producer",
        ":s"
      ],
      [
        "consumer",
        ","
      ],
      [
        "consumer",
        ":s"
      ],
      [
        "FI",
        "X"
      ],
      [
        "None",
        ")"
      ],
      [
        "None",
        ")\",\""
      ],
      [
        "pre",
        "sent"
      ],
      [
        "score",
        "))"
      ],
      [
        "la",
        "yout"
      ],
      [
        "la",
        "ude"
      ],
      [
        "run",
        "_id"
      ],
      [
        "chain",
        "_coun"
      ],
      [
        "sul",
        "t"
      ],
      [
        ").",
        "')]"
      ],
      [
        ").",
        "as_posix())"
      ],
      [
        "py",
        "cach"
      ],
      [
        "_s",
        "y"
      ],
      [
        "ot",
        "onic"
      ],
      [
        "T_",
        "FIL"
      ],
      [
        "T_",
        "TE"
      ],
      [
        "T_",
        "RE.sub(\""
      ],
      [
        "cal",
        "lable"
      ],
      [
        "el",
        "se"
      ],
      [
        "el",
        "(\""
      ],
      [
        "ha",
        "25"
      ],
      [
        "pa",
        "ir"
      ],
      [
        "didat",
        "eCard"
      ],
      [
        "\\n\\n",
        "⟦"
      ],
      [
        "rend",
        "erer"
      ],
      [
        "='",
        "utf-8"
      ],
      [
        "='",
        "synergy"
      ],
      [
        "sy",
        "n"
      ],
      [
        "sy",
        "s."
      ],
      [
        "command",
        "s."
      ],
      [
        "command",
        "smith"
      ],
      [
        "command",
        "s="
      ],
      [
        "command",
        ".')]"
      ],
      [
        "lin",
        "eno:i"
      ],
      [
        "po",
        "ints"
      ],
      [
        "help",
        "_text"
      ],
      [
        "render_",
        "tests_"
      ],
      [
        "fe",
        "ed"
      ],
      [
        "wr",
        "app"
      ],
      [
        "inv",
        "=co"
      ],
      [
        "root",
        ":_"
      ],
      [
        "'a",
        "uto"
      ],
      [
        "'a",
        "4_sy_orchestration"
      ],
      [
        "'a",
        "1_at_function"
      ],
      [
        "'a",
        "3_og_feature"
      ],
      [
        "'a",
        "2_mo_composites"
      ],
      [
        "doc",
        "_token"
      ],
      [
        "doc",
        "?doc"
      ],
      [
        "up",
        "ward"
      ],
      [
        "vi",
        "a"
      ],
      [
        "import",
        "s:[s]"
      ],
      [
        "import",
        "able"
      ],
      [
        "Co",
        "mp"
      ],
      [
        "merge",
        "_config"
      ],
      [
        "orchestr",
        "ator"
      ],
      [
        "\".",
        "strip"
      ],
      [
        "\".",
        "atomadic-forge\""
      ],
      [
        "em",
        "itted"
      ],
      [
        "ic",
        "e"
      ],
      [
        "⟪{'",
        "available"
      ],
      [
        "ign",
        ":b"
      ],
      [
        "(_",
        "pan"
      ],
      [
        "_o",
        "f"
      ],
      [
        "cho",
        "ice"
      ],
      [
        "exc",
        "\",\""
      ],
      [
        "exc",
        ":\",\""
      ],
      [
        "type",
        ":"
      ],
      [
        "(c",
        "ur_"
      ],
      [
        "(c",
        "wd"
      ],
      [
        "_c",
        "ache',"
      ],
      [
        "_c",
        "ache/\\n."
      ],
      [
        "tier_",
        "inventory"
      ],
      [
        "project_",
        "defaults"
      ],
      [
        "⟨self:",
        "ManifestStore"
      ],
      [
        "gi",
        "st"
      ],
      [
        "gi",
        "tigno"
      ],
      [
        "unt",
        "er((c"
      ],
      [
        "path.",
        "relative_to"
      ],
      [
        "from",
        "_tier:s"
      ],
      [
        "```",
        "\\n\\n##"
      ],
      [
        "```",
        "\",\"\",s\""
      ],
      [
        "False",
        "}⟫"
      ],
      [
        "json.dumps(",
        "entry"
      ],
      [
        ".s",
        "ha25"
      ],
      [
        ":{",
        "s:f"
      ],
      [
        "_render_",
        "shared_schema"
      ],
      [
        "_render_",
        "json_artifact"
      ],
      [
        "_render_",
        "in_memory_pipe"
      ],
      [
        "qu",
        "ired"
      ],
      [
        "low",
        "s"
      ],
      [
        "low",
        "',"
      ],
      [
        "⟦card[\"consumer\"]⟧",
        ",\",\""
      ],
      [
        "python",
        "\",\"javascript"
      ],
      [
        "catalog",
        "))"
      ],
      [
        "catalog",
        "_size"
      ],
      [
        "time.",
        "mon"
      ],
      [
        "source_",
        "repo"
      ],
      [
        "function",
        "s:[s]"
      ],
      [
        "final",
        "_output"
      ],
      [
        "final",
        "ize"
      ],
      [
        "encoding",
        "='utf-8"
      ],
      [
        "(card",
        "s)"
      ],
      [
        "E_",
        "EXTS"
      ],
      [
        "E_",
        "SU"
      ],
      [
        "a4_sy_orchestration",
        "/`"
      ],
      [
        "has",
        "_clas"
      ],
      [
        "ire",
        "_pure"
      ],
      [
        "smo",
        "ke"
      ],
      [
        "gener",
        "ated"
      ],
      [
        "ang",
        "ler"
      ],
      [
        "modu",
        "les"
      ],
      [
        "local",
        "_cfg"
      ],
      [
        "result.",
        "score_trajectory"
      ],
      [
        "atomadic_forge",
        "_se"
      ],
      [
        "De",
        "mo"
      ],
      [
        "Rep",
        "ort("
      ],
      [
        "open",
        "(\"a"
      ],
      [
        "parts",
        ")"
      ],
      [
        "parts",
        "=path."
      ],
      [
        "default_",
        "exp"
      ],
      [
        "candidates",
        ":[_]"
      ],
      [
        "Forge",
        "'s"
      ],
      [
        "\".join(",
        "chain[\""
      ],
      [
        "\"+",
        "result."
      ],
      [
        "1_",
        "provider"
      ],
      [
        "RI",
        "NG"
      ],
      [
        "i_ke",
        "y"
      ],
      [
        "manifest",
        "="
      ],
      [
        "'.c",
        "js',"
      ],
      [
        "str(",
        "SRC"
      ],
      [
        "(\"a",
        "0_qk_constants"
      ],
      [
        "typer.secho(",
        "'producer"
      ],
      [
        "fg='",
        "yel"
      ],
      [
        "atomadic_forge.",
        "commands"
      ],
      [
        "'}",
        ")}⟫"
      ],
      [
        "'producer",
        "':"
      ],
      [
        "(targe",
        "t=self."
      ],
      [
        "(targe",
        "t.parent.mkdir(parents=true,exist_ok=true)"
      ],
      [
        "Con",
        "fig"
      ],
      [
        "Re",
        "sult"
      ],
      [
        "d(",
        "⟪{'schema_version':"
      ],
      [
        "lang",
        "_la"
      ],
      [
        "pr",
        "iv"
      ],
      [
        "report",
        ",indent=2,default=str),encoding=\"utf-8\")"
      ],
      [
        "\",\"\",\"",
        "```bash"
      ],
      [
        "'.ts",
        "',"
      ],
      [
        "list",
        "_"
      ],
      [
        "subtrac",
        "t"
      ],
      [
        "score_",
        "bre"
      ],
      [
        "self._",
        "raw_appen"
      ],
      [
        "erry",
        "Pic"
      ],
      [
        ")+\"\\n\")",
        ")"
      ],
      [
        "TranscriptLog",
        "._"
      ],
      [
        "(t",
        "ag"
      ],
      [
        "(t",
        "mp)"
      ],
      [
        "(config",
        "[\"provider\"]"
      ],
      [
        ",indent=2",
        "),encoding=\"utf-8\")"
      ],
      [
        ".0",
        "f⟧"
      ],
      [
        "An",
        "thropic"
      ],
      [
        "LA",
        "TE"
      ],
      [
        "LO",
        "BAL_CONFIG_DIR"
      ],
      [
        "St",
        "ep"
      ],
      [
        "_root",
        ":_"
      ],
      [
        "be",
        "fo"
      ],
      [
        "be",
        "hav"
      ],
      [
        "duration",
        "_"
      ],
      [
        "duration",
        "_s"
      ],
      [
        "duration",
        "_m"
      ],
      [
        "te",
        "mpfile."
      ],
      [
        "∨\"",
        "("
      ],
      [
        "⟨src",
        ":s"
      ],
      [
        "⟨src",
[...]
