{
  "version": "1.0",
  "truncation": null,
  "padding": null,
  "added_tokens": [
    {
      "id": 0,
      "content": "[PAD]",
      "single_word": false,
      "lstrip": false,
      "rstrip": false,
      "normalized": false,
      "special": true
    },
    {
      "id": 1,
      "content": "[UNK]",
      "single_word": false,
      "lstrip": false,
      "rstrip": false,
      "normalized": false,
      "special": true
    },
    {
      "id": 2,
      "content": "[BOS]",
      "single_word": false,
      "lstrip": false,
      "rstrip": false,
      "normalized": false,
      "special": true
    },
    {
      "id": 3,
      "content": "[EOS]",
      "single_word": false,
      "lstrip": false,
      "rstrip": false,
      "normalized": false,
      "special": true
    },
    {
      "id": 4,
      "content": "[MASK]",
      "single_word": false,
      "lstrip": false,
      "rstrip": false,
      "normalized": false,
      "special": true
    },
    {
      "id": 5,
      "content": "[STRUCTURAL_OPEN]",
      "single_word": false,
      "lstrip": false,
      "rstrip": false,
      "normalized": false,
      "special": true
    },
    {
      "id": 6,
      "content": "[STRUCTURAL_CLOSE]",
      "single_word": false,
      "lstrip": false,
      "rstrip": false,
      "normalized": false,
      "special": true
    }
  ],
  "normalizer": null,
  "pre_tokenizer": {
    "type": "WhitespaceSplit"
  },
  "post_processor": null,
  "decoder": null,
  "model": {
    "type": "BPE",
    "dropout": null,
    "unk_token": "[UNK]",
    "continuing_subword_prefix": null,
    "end_of_word_suffix": null,
    "fuse_unk": false,
    "byte_fallback": false,
    "ignore_merges": false,
    "vocab": {
      "[PAD]": 0,
      "[UNK]": 1,
      "[BOS]": 2,
      "[EOS]": 3,
      "[MASK]": 4,
      "[STRUCTURAL_OPEN]": 5,
      "[STRUCTURAL_CLOSE]": 6,
      "!": 7,
      "\"": 8,
      "#": 9,
      "$": 10,
      "'": 11,
      "(": 12,
      ")": 13,
      "*": 14,
      "+": 15,
      ",": 16,
      "-": 17,
      ".": 18,
      "/": 19,
      "0": 20,
      "1": 21,
      "2": 22,
      "3": 23,
      "4": 24,
      "5": 25,
      "7": 26,
      "8": 27,
      "9": 28,
      ":": 29,
      ";": 30,
      "=": 31,
      ">": 32,
      "?": 33,
      "@": 34,
      "A": 35,
      "B": 36,
      "C": 37,
      "D": 38,
      "E": 39,
      "F": 40,
      "G": 41,
      "H": 42,
      "I": 43,
      "J": 44,
      "K": 45,
      "L": 46,
      "M": 47,
      "N": 48,
      "O": 49,
      "P": 50,
      "R": 51,
      "S": 52,
      "T": 53,
      "U": 54,
      "V": 55,
      "W": 56,
      "X": 57,
      "Y": 58,
      "Z": 59,
      "[": 60,
      "\\": 61,
      "]": 62,
      "^": 63,
      "_": 64,
      "`": 65,
      "a": 66,
      "b": 67,
      "c": 68,
      "d": 69,
      "e": 70,
      "f": 71,
      "g": 72,
      "h": 73,
      "i": 74,
      "j": 75,
      "k": 76,
      "l": 77,
      "m": 78,
      "n": 79,
      "o": 80,
      "p": 81,
      "q": 82,
      "r": 83,
      "s": 84,
      "t": 85,
      "u": 86,
      "v": 87,
      "w": 88,
      "x": 89,
      "y": 90,
      "z": 91,
      "{": 92,
      "|": 93,
      "}": 94,
      "~": 95,
      "¬": 96,
      "ι": 97,
      "λ": 98,
      "π": 99,
      "σ": 100,
      "ω": 101,
      "—": 102,
      "→": 103,
      "↦": 104,
      "⇒": 105,
      "∅": 106,
      "∈": 107,
      "∉": 108,
      "∧": 109,
      "∨": 110,
      "≟": 111,
      "≠": 112,
      "≤": 113,
      "≥": 114,
      "▷": 115,
      "✓": 116,
      "⟦": 117,
      "⟧": 118,
      "⟨": 119,
      "⟩": 120,
      "er": 121,
      "\",": 122,
      "re": 123,
      "on": 124,
      "in": 125,
      "ar": 126,
      "at": 127,
      "\",\"": 128,
      "or": 129,
      "st": 130,
      "ge": 131,
      "ro": 132,
      "en": 133,
      ":s": 134,
      "an": 135,
      "se": 136,
      "\\n": 137,
      "co": 138,
      "su": 139,
      "al": 140,
      "di": 141,
      "ti": 142,
      "ac": 143,
      "de": 144,
      "pro": 145,
      "s:": 146,
      "te": 147,
      "con": 148,
      "d_": 149,
      "ch": 150,
      "du": 151,
      "ut": 152,
      "ma": 153,
      ":_": 154,
      "le": 155,
      "mp": 156,
      "fi": 157,
      "un": 158,
      "me": 159,
      "ent": 160,
      "⟩→": 161,
      "rc": 162,
      "\")": 163,
      "er_": 164,
      "str": 165,
      "age": 166,
      "1π": 167,
      "ate": 168,
      "ack": 169,
      "mo": 170,
      "ort": 171,
      "[s": 172,
      "as": 173,
      "it": 174,
      "er.": 175,
      "si": 176,
      "arg": 177,
      "s\"": 178,
      "yp": 179,
      "ard": 180,
      "ackage": 181,
      "ame": 182,
      "par": 183,
      "ct": 184,
      "ex": 185,
      "package": 186,
      "produ": 187,
      "do": 188,
      "name": 189,
      "typ": 190,
      "produc": 191,
      "he": 192,
      "\\\"": 193,
      "[s]": 194,
      "))": 195,
      "mer": 196,
      "\"]": 197,
      "[\"": 198,
      "for": 199,
      "(\"": 200,
      "li": 201,
      "and": 202,
      "lo": 203,
      "mm": 204,
      "ad": 205,
      "card": 206,
      "no": 207,
      "consu": 208,
      "--": 209,
      "lt": 210,
      "ure": 211,
      "',": 212,
      "s(": 213,
      "ing": 214,
      "get": 215,
      "che": 216,
      "mport": 217,
      ":i": 218,
      "s.": 219,
      "s:[s]": 220,
      ")\",\"": 221,
      "e_": 222,
      "import": 223,
      "tr": 224,
      "vi": 225,
      "\",s\"": 226,
      "ati": 227,
      "sub": 228,
      "to": 229,
      "ath": 230,
      "ip": 231,
      "pars": 232,
      "mmand": 233,
      "_co": 234,
      "ap": 235,
      "ur": 236,
      "⟩→s": 237,
      "typer.": 238,
      "\\\"\\\"": 239,
      "ation": 240,
      "=\"": 241,
      "``": 242,
      "src": 243,
      "um": 244,
      "ver": 245,
      "out": 246,
      "ue": 247,
      "dic": 248,
      "test": 249,
      "producer": 250,
      "\"]⟧": 251,
      "card[\"": 252,
      "consumer": 253,
      "is": 254,
      "ner": 255,
      "y_": 256,
      "⟦card[\"": 257,
      "one": 258,
      "int": 259,
      "doc": 260,
      ").": 261,
      "ain": 262,
      "can": 263,
      "path": 264,
      "dir": 265,
      "confi": 266,
      "None": 267,
      "if": 268,
      "nt": 269,
      "def": 270,
      "madic": 271,
      "args": 272,
      "config": 273,
      "bo": 274,
      "sche": 275,
      "forge": 276,
      ":\",\"": 277,
      "date": 278,
      "js": 279,
      "put": 280,
      "tar": 281,
      "tier": 282,
      "tion": 283,
      "act": 284,
      "chain": 285,
      "main": 286,
      "schema": 287,
      "target": 288,
      "cal": 289,
      "es": 290,
      "ke": 291,
      "la": 292,
      "\\n\\n": 293,
      "dule": 294,
      "json": 295,
      "are": 296,
      "ect": 297,
      "lp": 298,
      "pl": 299,
      "ind": 300,
      "module": 301,
      "sion": 302,
      "name:s": 303,
      "ai": 304,
      "ep": 305,
      "lin": 306,
      "og": 307,
      "ot": 308,
      "omadic": 309,
      "pre": 310,
      "run": 311,
      "s_": 312,
      "atomadic": 313,
      "help": 314,
      "3ω": 315,
      "_s": 316,
      "au": 317,
      "el": 318,
      "id": 319,
      "ject": 320,
      "lf": 321,
      "po": 322,
      "ts": 323,
      "inv": 324,
      "root": 325,
      "self": 326,
      "tif": 327,
      "file": 328,
      "defau": 329,
      "default": 330,
      "ou": 331,
      "th": 332,
      "xt": 333,
      "ature": 334,
      "sult": 335,
      "add_": 336,
      "schema_": 337,
      "\".": 338,
      "**": 339,
      ",\",\"": 340,
      "='": 341,
      "FI": 342,
      "Tr": 343,
      "cat": 344,
      "dy": 345,
      "der": 346,
      "ed": 347,
      "ite": 348,
      "tur": 349,
      "\",\"\",\"": 350,
      "ory": 351,
      "core": 352,
      "text": 353,
      "domain": 354,
      "producer_": 355,
      "merge": 356,
      "not": 357,
      "output": 358,
      "turn": 359,
      "ON": 360,
      "_re": 361,
      "cli": 362,
      "ec": 363,
      "gn": 364,
      "result": 365,
      "command": 366,
      "ith": 367,
      "type": 368,
      "parser": 369,
      "parser.": 370,
      "version": 371,
      "body": 372,
      "()": 373,
      "(_": 374,
      ":b": 375,
      "_root": 376,
      "ble": 377,
      "der_": 378,
      "fun": 379,
      "ire": 380,
      "ol": 381,
      "ror": 382,
      "artif": 383,
      "set": 384,
      "code": 385,
      "didate": 386,
      "cho": 387,
      "exc": 388,
      "\\\"\\\"\\\"": 389,
      "```": 390,
      "func": 391,
      "artifact": 392,
      "':": 393,
      "/\\n": 394,
      "Co": 395,
      "_dir": 396,
      "ase": 397,
      "fe": 398,
      "fro": 399,
      "md_": 400,
      "num": 401,
      "nder_": 402,
      "py": 403,
      "pen": 404,
      "s=": 405,
      "sy": 406,
      "the": 407,
      "ul": 408,
      "gener": 409,
      ":s⟩": 410,
      "s:i": 411,
      "unt": 412,
      "⟩→_": 413,
      "ument": 414,
      "json.": 415,
      "line": 416,
      "help=\"": 417,
      "ourc": 418,
      "schema_version": 419,
      "from": 420,
      "generate": 421,
      "\"\\n": 422,
      "((": 423,
      "=Tr": 424,
      "Cli": 425,
      "ES": 426,
      "[_": 427,
      "_c": 428,
      "ber": 429,
      "cr": 430,
      "cmd_": 431,
      "fg": 432,
      "sourc": 433,
      "return": 434,
      "orche": 435,
      "project": 436,
      "string": 437,
      "strip": 438,
      "ue)\",\"": 439,
      "nerg": 440,
      "candidate": 441,
      "cho(": 442,
      "number": 443,
      "=True)\",\"": 444,
      "Client": 445,
      "orchestr": 446,
      "##": 447,
      "),": 448,
      "/`": 449,
      ":f": 450,
      "CON": 451,
      "Er": 452,
      "Ex": 453,
      "G_": 454,
      "_id": 455,
      "a4": 456,
      "av": 457,
      "be": 458,
      "jo": 459,
      "⟨name:s": 460,
      "alog": 461,
      "tier_": 462,
      "demo": 463,
      "provi": 464,
      "----": 465,
      "_count": 466,
      "producer\"]⟧": 467,
      "consumer\"]⟧": 468,
      "⟦card[\"producer\"]⟧": 469,
      "⟦card[\"consumer\"]⟧": 470,
      "docstring": 471,
      "atomadic_": 472,
      "\".jo": 473,
      "catalog": 474,
      "[_]": 475,
      "crip": 476,
      "source_": 477,
      "nergy": 478,
      "Error": 479,
      "\".join": 480,
      ":{": 481,
      "=_": 482,
      "For": 483,
      "LL": 484,
      "]\",\"": 485,
      "_o": 486,
      "_ke": 487,
      "able": 488,
      "bal": 489,
      "em": 490,
      "ic": 491,
      "las": 492,
      "mer_": 493,
      "port": 494,
      "pare": 495,
      "qu": 496,
      "rai": 497,
      "score": 498,
      "with": 499,
      "⟨⟩→s": 500,
      "⟨schema_version": 501,
      "err": 502,
      "red": 503,
      "del": 504,
      ":_⟩": 505,
      ":_⟩→s": 506,
      "model": 507,
      "it(": 508,
      "package⟧": 509,
      "low": 510,
      "consumer_": 511,
      "y_orchestr": 512,
      "run(": 513,
      "_sy_orchestr": 514,
      "result.": 515,
      "generated_": 516,
      "CONFI": 517,
      "a4_sy_orchestr": 518,
      "provider": 519,
      "atomadic_forge": 520,
      "cript": 521,
      "Forge": 522,
      "raise": 523,
      "⟨schema_version:s": 524,
      "a4_sy_orchestration": 525,
      "\"+": 526,
      ",help=\"": 527,
      "=int": 528,
      "Ar": 529,
      "DI": 530,
      "E_": 531,
      "Scan": 532,
      "_ap": 533,
      "ces": 534,
      "ds": 535,
      "ding": 536,
      "est": 537,
      "ed_": 538,
      "hase": 539,
      "ist": 540,
      "ment": 541,
      "rst": 542,
      "up": 543,
      "wr": 544,
      "∅)": 545,
      "⟦package⟧": 546,
      "ace": 547,
      "s:[_]": 548,
      "dump": 549,
      "utf": 550,
      "ated": 551,
      "args.": 552,
      "parts": 553,
      "local": 554,
      "ure_": 555,
      "true": 556,
      "apt": 557,
      "typer.Ex": 558,
      "path.": 559,
      "call": 560,
      "preset": 561,
      "invo": 562,
      "self.": 563,
      "producer_args": 564,
      "parser.add_": 565,
      "function": 566,
      "json.dump": 567,
      "\".join(": 568,
      "LLM": 569,
      "parent": 570,
      "CONFIG_": 571,
      "DIR": 572,
      "typer.Exit(": 573,
      "json.dumps(": 574,
      "().": 575,
      "-8": 576,
      ".get": 577,
      ":[s]": 578,
      "=2": 579,
      "AM": 580,
      "ER": 581,
      "NAM": 582,
      "RE": 583,
      "Rep": 584,
      "Sy": 585,
      "_demo": 586,
      "_docstring": 587,
      "a,": 588,
      "ay": 589,
      "has": 590,
      "ifi": 591,
      "phase": 592,
      "s,": 593,
      "sp": 594,
      "\",type": 595,
      "repo": 596,
      "render_": 597,
      "ary": 598,
      "at_": 599,
      "stan": 600,
      "enco": 601,
      "secho(": 602,
      "dict": 603,
      "tipl": 604,
      "s:f": 605,
      "ted": 606,
      "fix": 607,
      "ent=2": 608,
      "⟩→i": 609,
      "sign": 610,
      "argument": 611,
      "ctx": 612,
      "load": 613,
      "node": 614,
      "tract": 615,
      "vide": 616,
      "app": 617,
      "typer.secho(": 618,
      "tests": 619,
      "tier:s": 620,
      "indent=2": 621,
      "mergent": 622,
      "cli_demo": 623,
      "Command": 624,
      "feature": 625,
      "ultipl": 626,
      "fg='": 627,
      "number\")": 628,
      "_count:i": 629,
      "err=True)\",\"": 630,
      "atomadic_forge.": 631,
      "=int,help=\"": 632,
      "Arg": 633,
      "utf-8": 634,
      "parser.add_argument": 635,
      "Report": 636,
      "\",type=int,help=\"": 637,
      "encoding": 638,
      "parser.add_argument(\"": 639,
      "')": 640,
      "'producer": 641,
      "-forge": 642,
      ".s": 643,
      ":\"": 644,
      "Card": 645,
      "Emergent": 646,
      "LI": 647,
      "TI": 648,
      "TS": 649,
      "T_": 650,
      "_con": 651,
      "_path": 652,
      "_file": 653,
      "_text": 654,
      "ad_": 655,
      "capt": 656,
      "fn": 657,
      "ig": 658,
      "ign": 659,
      "i_ke": 660,
      "mbo": 661,
      "multipl": 662,
      "open": 663,
      "pay": 664,
      "s\",\"": 665,
      "∨\"": 666,
      "⟨self": 667,
      "rel": 668,
      "report": 669,
      "step": 670,
      "env": 671,
      ":s⟩→s": 672,
      "ang": 673,
      "divide": 674,
      "time": 675,
      "proces": 676,
      ":_⟩→_": 677,
      "mpo": 678,
      "str(": 679,
      "iter": 680,
      "exec": 681,
      "package_": 682,
      "head": 683,
      ")))": 684,
      "\"])": 685,
      "list": 686,
      "subtract": 687,
      "_command": 688,
      "src/": 689,
      "\\n\\n##": 690,
      "plit": 691,
      "atomadic-forge": 692,
      "/\\n.": 693,
      "\"\\n\".join(": 694,
      "write": 695,
      "mbol": 696,
      "⟨self:": 697,
      "!=": 698,
      "'-": 699,
      "'atomadic_forge.": 700,
      "+\"": 701,
      ",\"": 702,
      ".un": 703,
      ".ex": 704,
      ".strip": 705,
      ".call": 706,
      ".write": 707,
      "0:\",\"": 708,
      "1_": 709,
      "2_": 710,
      "=F": 711,
      "Con": 712,
      "CLI": 713,
      "EN": 714,
      "LO": 715,
      "Liter": 716,
      "Man": 717,
      "Path": 718,
      "Se": 719,
      "[(\"": 720,
      "_chain": 721,
      "_module": 722,
      "aject": 723,
      "bas": 724,
      "fo": 725,
      "fin": 726,
      "glo": 727,
      "ke_": 728,
      "kind": 729,
      "len": 730,
      "lang": 731,
      "m',": 732,
      "pr": 733,
      "pure": 734,
      "pip": 735,
      "sh": 736,
      "ser": 737,
      "s\")": 738,
      "s/`": 739,
      "ub": 740,
      "ve": 741,
      "ys.": 742,
      "|\\n": 743,
      "}',": 744,
      "⟨src": 745,
      "input": 746,
      "stem": 747,
      "end": 748,
      "se).": 749,
      "all": 750,
      "al[(\"": 751,
      "alse).": 752,
      "utc": 753,
      "utable": 754,
      "rc)\",\"": 755,
      "[sys.": 756,
      "part": 757,
      "))\",\"": 758,
      "',\",s\"": 759,
      "s()": 760,
      "s.run(": 761,
      "s:[s]⟩": 762,
      "\",s\"-": 763,
      "subparser": 764,
      "subproces": 765,
      "=\"utf-8": 766,
      "ifest": 767,
      "lama": 768,
      "**:": 769,
      "domain_": 770,
      "output=F": 771,
      "cli',\",s\"": 772,
      "code\",\"": 773,
      "```bas": 774,
      "synergy": 775,
      "cmd_b": 776,
      "returncode\",\"": 777,
      "project_dir": 778,
      "candidate_id": 779,
      "⟦card[\"producer\"]⟧,": 780,
      "quire": 781,
      "red',": 782,
      "a4_sy_orchestration.un": 783,
      "\"+package": 784,
      "_api_ke": 785,
      "ed_cli',\",s\"": 786,
      "ure_output=F": 787,
      "LLMClient": 788,
      "typer.Exit(rc)\",\"": 789,
      "ified_cli',\",s\"": 790,
      "stants": 791,
      "typer.secho(f": 792,
      "fg='red',": 793,
      "encoding=\"utf-8": 794,
      "EmergentScan": 795,
      "capture_output=F": 796,
      "payload": 797,
      "executable": 798,
      "'-m',": 799,
      "'atomadic_forge.a4_sy_orchestration.un": 800,
      "Literal[(\"": 801,
      "ajectory": 802,
      "global": 803,
      "len(": 804,
      "|\\n|": 805,
      "alse).returncode\",\"": 806,
      "[sys.executable": 807,
      "subprocess.run(": 808,
      "```bash": 809,
      "encoding=\"utf-8\")": 810,
      "capture_output=False).returncode\",\"": 811,
      "'atomadic_forge.a4_sy_orchestration.unified_cli',\",s\"": 812,
      "[sys.executable,": 813,
      "(args.": 814,
      "(json.dumps(": 815,
      ")+": 816,
      ",default": 817,
      ".sub": 818,
      ".\\\"\\\"\\\"": 819,
      ".up": 820,
      "0]": 821,
      ":\",s\"": 822,
      "=re": 823,
      "=true": 824,
      "=self.": 825,
      "AL": 826,
      "Ato": 827,
      "D_": 828,
      "NO": 829,
      "RC": 830,
      "Re": 831,
      "Run": 832,
      "_S": 833,
      "__": 834,
      "_default": 835,
      "_CONFIG_": 836,
      "_tier:s": 837,
      "_feature": 838,
      "`src/": 839,
      "a0": 840,
      "a3": 841,
      "ast": 842,
      "back": 843,
      "cle": 844,
      "ce_": 845,
      "clas": 846,
      "gment": 847,
      "min": 848,
      "mis": 849,
      "mith": 850,
      "p_": 851,
      "pas": 852,
      "ration": 853,
      "s\\n": 854,
      "smo": 855,
      "smith": 856,
      "t.": 857,
      "tw": 858,
      "uage": 859,
      "wor": 860,
      "x(": 861,
      "ze": 862,
      "⟦preset": 863,
      "⟨card": 864,
      "⟨model": 865,
      "er()": 866,
      "attr": 867,
      "roun": 868,
      "segment": 869,
      "alue": 870,
      "s:_": 871,
      "s:b": 872,
      "uto": 873,
      "mple": 874,
      "fiel": 875,
      "first": 876,
      "⟩→b": 877,
      "\")]": 878,
      "args:": 879,
      "exp": 880,
      "name⟧": 881,
      ":i⟩→i": 882,
      "trajectory": 883,
      "top_": 884,
      "url": 885,
      "y_env": 886,
      "int(": 887,
      "intent": 888,
      "path:_": 889,
      "None:\",\"": 890,
      "None,\",\"": 891,
      "target)": 892,
      "pose": 893,
      "add_parser": 894,
      "FIL": 895,
      "catch": 896,
      "_render_": 897,
      "_root:_": 898,
      "pytest": 899,
      "s:i}": 900,
      "\"\\n\")": 901,
      "_clas": 902,
      "),encoding=\"utf-8\")": 903,
      ":{s:i}": 904,
      "score_": 905,
      "consumer_args": 906,
      "E_NAM": 907,
      "ER_": 908,
      "Synergy": 909,
      "dict(": 910,
      "signature": 911,
      "Commandsmith": 912,
      "igno": 913,
      "mposi": 914,
      "plit(\"": 915,
      "Manifest": 916,
      "final": 917,
      "print(": 918,
      "\"+package+\"": 919,
      "_api_key_env": 920,
      ")+\"\\n\")": 921,
      ".sub(\"": 922,
      ".update": 923,
      "AL_CONFIG_": 924,
      "Atomadic": 925,
      "_defaults(": 926,
      "⟦preset.": 927,
      "⟨model:_": 928,
      "AL_CONFIG_DIR": 929,
      "'consumer": 930,
      "'synergy": 931,
      "(\",\"": 932,
      "([\"": 933,
      "(src": 934,
      "(config": 935,
      "(target": 936,
      "(body": 937,
      "(invo": 938,
      "(parent": 939,
      "(node": 940,
      ")[": 941,
      ")]\",\"": 942,
      ")∨\"": 943,
      ",ex": 944,
      ",indent=2": 945,
      "->": 946,
      ".0": 947,
      ".m": 948,
      ".\")": 949,
      ".low": 950,
      ".invo": 951,
      "=str": 952,
      "=args": 953,
      "=subparser": 954,
      "=dict(": 955,
      "@app": 956,
      "An": 957,
      "De": 958,
      "EX": 959,
      "Fi": 960,
      "Gen": 961,
      "GNO": 962,
      "IGNO": 963,
      "LA": 964,
      "PR": 965,
      "RI": 966,
      "St": 967,
      "SRC": 968,
      "TE": 969,
      "UL": 970,
      "Value": 971,
      "[str": 972,
      "[list": 973,
      "_m": 974,
      "_q": 975,
      "_si": 976,
      "_og": 977,
      "_bal": 978,
      "_parser.add_argument(\"": 979,
      "a:i": 980,
      "avi": 981,
      "a\",type=int,help=\"": 982,
      "a1_": 983,
      "a2_": 984,
      "auto": 985,
      "bu": 986,
      "bel": 987,
      "base": 988,
      "b\",type=int,help=\"": 989,
      "b)))": 990,
      "cw": 991,
      "cer": 992,
      "dat": 993,
      "ever": 994,
      "echo(": 995,
      "ff": 996,
      "face": 997,
      "gi": 998,
      "havi": 999,
      "kdir": 1000,
      "k_con": 1001,
      "k=true": 1002,
      "ly": 1003,
      "per": 1004,
      "pic": 1005,
      "ry": 1006,
      "s)": 1007,
      "ss": 1008,
      "tmp": 1009,
      "tend": 1010,
      "ug": 1011,
      "vel": 1012,
      "wn": 1013,
      "war": 1014,
      "{rc": 1015,
      "{\",s\"": 1016,
      "},": 1017,
      "↦print(": 1018,
      "∈IGNO": 1019,
      "⟦result.": 1020,
      "⟨node": 1021,
      "⟨a:i": 1022,
      "erated": 1023,
      "\",help=\"": 1024,
      "inde": 1025,
      "state": 1026,
      "ropic": 1027,
      "ans": 1028,
      "aned": 1029,
      "ance_": 1030,
      "summ": 1031,
      "alname:s": 1032,
      "align": 1033,
      "ache": 1034,
      "ded": 1035,
      "promp": 1036,
      "propose": 1037,
      "cond": 1038,
      "d_sub": 1039,
      "duration": 1040,
      "max": 1041,
      "level": 1042,
      "mem": 1043,
      "entory": 1044,
      "entry": 1045,
      "er_line": 1046,
      "mo_co": 1047,
      "s\"]": 1048,
      "s\"⟦": 1049,
      "exite": 1050,
      "form": 1051,
      "lib": 1052,
      "card)": 1053,
      "s(card)": 1054,
      "ing_": 1055,
      "getattr": 1056,
      "s.add_parser": 1057,
      ")\",\"[": 1058,
      "import-": 1059,
      "tore": 1060,
      "typer.Con": 1061,
      "typer.echo(": 1062,
      "out_command": 1063,
      "tests_": 1064,
      "⟦card[\"candidate_id": 1065,
      "None,": 1066,
      "None:\",s\"": 1067,
      "chain[\"": 1068,
      "target.write": 1069,
      "ked_sub": 1070,
      "lay": 1071,
      "lable": 1072,
      "label": 1073,
      "module_": 1074,
      "lines": 1075,
      "help='": 1076,
      "_score": 1077,
      "inventory": 1078,
      "file.": 1079,
      "default_": 1080,
      "thon": 1081,
      "this": 1082,
      "schema_id": 1083,
      "merged": 1084,
      "notated": 1085,
      "parser.set": 1086,
      "body.ex": 1087,
      "body)+\"\\n\")": 1088,
      "olation": 1089,
      "ollama": 1090,
      "excep": 1091,
      "func=args": 1092,
      "artifact)]\",\"": 1093,
      "python": 1094,
      "s=true": 1095,
      "_cfg": 1096,
      "return\",\"": 1097,
      "numbers\")": 1098,
      "=True)\",\"def": 1099,
      "_idx": 1100,
      "behavi": 1101,
      "=_head": 1102,
      "_ok=true": 1103,
      "qualname:s": 1104,
      "score:f": 1105,
      "without_command": 1106,
      "generated_at_": 1107,
      "ist_ok=true": 1108,
      "args.b)))": 1109,
      "CONFIG_FIL": 1110,
      "DIRS": 1111,
      "json.dumps({\",s\"": 1112,
      ".get(": 1113,
      ".get_docstring": 1114,
      "RED_": 1115,
      "a,args.b)))": 1116,
      "has_": 1117,
      "spec": 1118,
      "at_function": 1119,
      "ctx:": 1120,
      "ctx.invo": 1121,
      "indent=2))\",\"": 1122,
      "Args": 1123,
      "Argument": 1124,
      "')]": 1125,
      "TIER_": 1126,
      "_text(json.dumps(": 1127,
      "ad_config": 1128,
      "multiply_": 1129,
      "open_idx": 1130,
      "str(artifact)]\",\"": 1131,
      "\"\\n\".join(body)+\"\\n\")": 1132,
      ".strip().": 1133,
      ".callback": 1134,
      "LOC": 1135,
      "Path(": 1136,
      "Second": 1137,
      "ke_without_command": 1138,
      "language": 1139,
      "pipe": 1140,
      "share": 1141,
      "quired": 1142,
      "(args.a,args.b)))": 1143,
      ",default=str": 1144,
      "`src/\"+package+\"": 1145,
      "a0_q": 1146,
      "a3_og": 1147,
      "ast.get_docstring": 1148,
      "cleaned": 1149,
      "two": 1150,
      "⟨card:_⟩→s": 1151,
      "E_NAME": 1152,
      "mposite": 1153,
      "_api_key_env:_⟩": 1154,
      "_defaults(func=args": 1155,
      "'synergy':": 1156,
      "([\"@app": 1157,
      "(body=_head": 1158,
      "(invoke_without_command": 1159,
      "(parents=true": 1160,
      "(node)∨\"": 1161,
      ",exist_ok=true": 1162,
      ".mkdir": 1163,
      ".lower()": 1164,
      "=subparsers.add_parser": 1165,
      "Annotated": 1166,
      "EXTS": 1167,
      "First": 1168,
      "Generated": 1169,
      "Stub": 1170,
      "ValueError": 1171,
      "[str]": 1172,
      "[list[str]": 1173,
      "_balance_": 1174,
      "a\",type=int,help=\"First": 1175,
      "a1_at_function": 1176,
      "a2_mo_co": 1177,
      "b\",type=int,help=\"Second": 1178,
      "cwd": 1179,
      "k_constants": 1180,
      "tend([\"@app": 1181,
      "{rc}',": 1182,
      "∈IGNORED_": 1183,
      "⟨node:_⟩→s": 1184,
      "summary": 1185,
      "proposed_": 1186,
      "er_lines(card)": 1187,
      "exited": 1188,
      "getattr(_": 1189,
      "typer.Context": 1190,
      "typer.echo(json.dumps({\",s\"": 1191,
      "⟦card[\"candidate_id\"]⟧": 1192,
      "ked_subcommand": 1193,
      "help='Args": 1194,
      "parser.set_defaults(func=args": 1195,
      "body.extend([\"@app": 1196,
      "behavior": 1197,
      "generated_at_utc": 1198,
      "CONFIG_FILE_NAME": 1199,
      "ctx.invoked_subcommand": 1200,
      "indent=2))\",\"\"])": 1201,
      ".callback(invoke_without_command": 1202,
      "`src/\"+package+\"/": 1203,
      "a0_qk_constants": 1204,
      "a3_og_feature": 1205,
      "ast.get_docstring(node)∨\"": 1206,
      "(body=_header_lines(card)": 1207,
      "(parents=true,exist_ok=true": 1208,
      ".mkdir(parents=true,exist_ok=true": 1209,
      "=subparsers.add_parser(\"": 1210,
      "Annotated[list[str]": 1211,
      "a2_mo_composite": 1212,
      "∈IGNORED_DIRS": 1213,
      "parser.set_defaults(func=args↦print(": 1214,
      "body.extend([\"@app.callback(invoke_without_command": 1215,
      ".mkdir(parents=true,exist_ok=true)": 1216,
      "body.extend([\"@app.callback(invoke_without_command=True)\",\"def": 1217,
      "\"\\\"\\\"\\\"": 1218,
      "\":\"": 1219,
      "'--": 1220,
      "(name": 1221,
      "(doc": 1222,
      "(s,": 1223,
      "(consumer_args": 1224,
      ")∈": 1225,
      "*producer_args": 1226,
      ",\",s\"": 1227,
      ",config": 1228,
      "-args": 1229,
      "-tier": 1230,
      ".re": 1231,
      ".\\n": 1232,
      ".parent": 1233,
      "/CONFIG_FILE_NAME": 1234,
      "1)[": 1235,
      "5-tier": 1236,
      "=path.": 1237,
      "=len(": 1238,
      "=ast.get_docstring(node)∨\"": 1239,
      "?\"": 1240,
      "?doc": 1241,
      "AA": 1242,
      "AI": 1243,
      "Ch": 1244,
      "Dire": 1245,
      "ETS": 1246,
      "Import": 1247,
      "Int": 1248,
      "ITI": 1249,
      "JS": 1250,
      "Log": 1251,
      "NG": 1252,
      "OO": 1253,
      "Open": 1254,
      "ROO": 1255,
      "Sur": 1256,
      "Sign": 1257,
      "Store": 1258,
      "SITI": 1259,
      "Test": 1260,
      "[]\",\"": 1261,
      "_se": 1262,
      "_as": 1263,
      "_pre": 1264,
      "_type": 1265,
      "_line": 1266,
      "_generated_": 1267,
      "_pure": 1268,
      "_first": 1269,
      "_url": 1270,
      "_PR": 1271,
      "`\",\"": 1272,
      "`\",s\"-": 1273,
      "a-": 1274,
      "adic": 1275,
      "bl": 1276,
      "by": 1277,
      "b:i⟩→i": 1278,
      "ce": 1279,
      "ci": 1280,
      "cro": 1281,
      "ction": 1282,
      "den": 1283,
      "dt.": 1284,
      "ew": 1285,
      "f⟧": 1286,
      "find": 1287,
      "ffix": 1288,
      "her": 1289,
      "il": 1290,
      "ibu": 1291,
      "jav": 1292,
      "ken": 1293,
      "kdo": 1294,
      "lle": 1295,
      "lug": 1296,
      "mon": 1297,
      "of": 1298,
      "pi": 1299,
      "pt": 1300,
      "pai": 1301,
      "sa": 1302,
      "sse": 1303,
      "s))": 1304,
      "split(\"": 1305,
      "ve_": 1306,
      "wire": 1307,
      "y:_": 1308,
      "you": 1309,
      "y((": 1310,
      "⟧\")": 1311,
      "⟨project": 1312,
      "⟨path:_": 1313,
      "erme": 1314,
      "error": 1315,
      "erpt": 1316,
      "\",1)[": 1317,
      "revi": 1318,
      "in-": 1319,
      "arc": 1320,
      "at(": 1321,
      "ator": 1322,
      "\",\"-": 1323,
      "\",\"re": 1324,
      "orte": 1325,
      "stall": 1326,
      "and_": 1327,
      "any((": 1328,
      "ses:[s]": 1329,
      "\\n\",1)[": 1330,
      "comm": 1331,
      "suffix": 1332,
      "ali": 1333,
      "dis": 1334,
      "distr": 1335,
      "diate": 1336,
      "chat": 1337,
      "mpor": 1338,
      "und": 1339,
      "meth": 1340,
      "⟩→∅": 1341,
      "ascript": 1342,
      "er.\",\"": 1343,
      "sibl": 1344,
      "s\"#": 1345,
      "ctory": 1346,
      "export": 1347,
      "package:s": 1348,
      "name∈": 1349,
      "[\"provider": 1350,
      "forwar": 1351,
      "mment": 1352,
      "add": 1353,
      "imports:[s]": 1354,
      "importable": 1355,
      "importlib": 1356,
      "try": 1357,
      "violation": 1358,
      "token": 1359,
      "_comple": 1360,
      "_comment": 1361,
      "typer.Argument": 1362,
      "src)": 1363,
      "test_generated_": 1364,
      "consumer-args": 1365,
      "interme": 1366,
      "doc?doc": 1367,
      "dir:s": 1368,
      "config.update": 1369,
      "tion:{s:i}": 1370,
      "\\n\\n```bash": 1371,
      "place": 1372,
      "module:s": 1373,
      "prefix": 1374,
      "posi": 1375,
      "tify": 1376,
      "file:s": 1377,
      "Trans": 1378,
      "item": 1379,
      "\",\"\",\"##": 1380,
      "\",\"\",\"```bash": 1381,
      "producer_fn": 1382,
      "producer_args:": 1383,
      "turncode": 1384,
      "_returncode": 1385,
      "parser=subparsers.add_parser(\"": 1386,
      "(_step": 1387,
      "_root:s": 1388,
      "olve": 1389,
      "excerpt": 1390,
      "\\\"\\\"\\\"Run": 1391,
      "symbol": 1392,
      "generated": 1393,
      "ESETS": 1394,
      "cmd_a": 1395,
      "cmd_a,": 1396,
      "strip_comment": 1397,
      "ave_": 1398,
      "tier_inde": 1399,
      "--------": 1400,
      "⟦card[\"consumer\"]⟧,": 1401,
      "⟦card[\"consumer\"]⟧.\\\"\\\"\\\"": 1402,
      "source_root": 1403,
      ":{s:_": 1404,
      "_omis": 1405,
      "consumer_fn": 1406,
      "run(\",\"": 1407,
      "result.cli_demo": 1408,
      "generated_package": 1409,
      "criptLog": 1410,
      "typer.Exit(2": 1411,
      "NAMES": 1412,
      "RE.sub(\"": 1413,
      "Symbol": 1414,
      "phase_omis": 1415,
      "_path)": 1416,
      "_path=": 1417,
      "multiply": 1418,
      "package_import": 1419,
      "headline": 1420,
      "atomadic-forge\"": 1421,
      "ENSITI": 1422,
      "kind:s": 1423,
      "kind:_": 1424,
      "sert": 1425,
      "part∈": 1426,
      "cmd_b,": 1427,
      "typer.secho(f'producer": 1428,
      "subprocess.run(cmd_a,": 1429,
      "subprocess.run(cmd_b,": 1430,
      "0]:\"": 1431,
      "s\\n-": 1432,
      "smoke": 1433,
      "rounds": 1434,
      "field": 1435,
      "exporte": 1436,
      "top_level": 1437,
      "None,\",\")": 1438,
      "score_trajectory": 1439,
      "SynergyScan": 1440,
      "ignore": 1441,
      "ManifestStore": 1442,
      ",indent=2,default=str": 1443,
      "_size": 1444,
      "data": 1445,
      "every": 1446,
      "gistr": 1447,
      "alignment": 1448,
      "ache/\\n.": 1449,
      "prompt": 1450,
      "format(": 1451,
      "target.write_text(json.dumps(": 1452,
      "_score:f": 1453,
      "except": 1454,
      "TIER_NAMES": 1455,
      ".strip().split(\"": 1456,
      "LOCAL_CONFIG_DIR": 1457,
      "shared_": 1458,
      "StubLLMClient": 1459,
      "typer.Context,\",\"": 1460,
      "generated_at_utc:s": 1461,
      "(doc=ast.get_docstring(node)∨\"": 1462,
      "Directory": 1463,
      "Intent": 1464,
      "JSON": 1465,
      "Surface": 1466,
      "Signature": 1467,
      "crosse": 1468,
      "ibution:{s:i}": 1469,
      "javascript": 1470,
      "kdown": 1471,
      "llection": 1472,
      "monadic": 1473,
      "review": 1474,
      "\\n\",1)[0]:\"": 1475,
      "distribution:{s:i}": 1476,
      "metho": 1477,
      "[\"provider\"]": 1478,
      "forwarded": 1479,
      "typer.Argument(\",\"": 1480,
      "intermediate": 1481,
      "doc?doc.strip().split(\"": 1482,
      "config.update(_step": 1483,
      "\\n\\n```bash\\n": 1484,
      "place(\"": 1485,
      "TranscriptLog": 1486,
      "⟦card[\"consumer\"]⟧.\\\"\\\"\\\"\",\"": 1487,
      ":{s:_}": 1488,
      "phase_omission": 1489,
      "ENSITIV": 1490,
      "exported_": 1491,
      ",indent=2,default=str),encoding=\"utf-8\")": 1492,
      "(doc=ast.get_docstring(node)∨\"\"": 1493,
      "crosses_": 1494,
      "doc?doc.strip().split(\"\\n\",1)[0]:\"": 1495,
      "'s": 1496,
      "'\",\"": 1497,
      "'produc": 1498,
      "'main": 1499,
      "'run": 1500,
      "'))\",\"": 1501,
      "(G": 1502,
      "(O": 1503,
      "(k": 1504,
      "({": 1505,
      "(de": 1506,
      "())": 1507,
      "(local": 1508,
      "(path.": 1509,
      "(encoding": 1510,
      "(cwd": 1511,
      "(prefix": 1512,
      ")\"": 1513,
      ")≥": 1514,
      ")\\n\\n": 1515,
      "*.": 1516,
      ",v": 1517,
      ",package": 1518,
      ",max": 1519,
      ",open_idx": 1520,
      "-Z": 1521,
      "-out": 1522,
      "-')": 1523,
      "-fo": 1524,
      "._": 1525,
      ".v": 1526,
      ".\",\"": 1527,
      ".st": 1528,
      ".import": 1529,
      ".json": 1530,
      ".utc": 1531,
      ".')]": 1532,
      ".item": 1533,
      "/s\"⟦": 1534,
      "/LOCAL_CONFIG_DIR": 1535,
      "0,": 1536,
      "00": 1537,
      "2σ": 1538,
      "4ι": 1539,
      ":v": 1540,
      "=co": 1541,
      "=package": 1542,
      "AG": 1543,
      "Ad": 1544,
      "Ant": 1545,
      "AUL": 1546,
      "A-Z": 1547,
      "BAL_CONFIG_DIR": 1548,
      "CO": 1549,
      "Can": 1550,
      "CRI": 1551,
      "DE": 1552,
      "Di": 1553,
      "DUL": 1554,
      "FAUL": 1555,
      "Gem": 1556,
      "GLO": 1557,
      "Kind": 1558,
      "MA": 1559,
      "MM": 1560,
      "MO": 1561,
      "Ol": 1562,
      "Package": 1563,
      "Pic": 1564,
      "PT_": 1565,
      "ST": 1566,
      "SU": 1567,
      "Score": 1568,
      "SError": 1569,
      "Script": 1570,
      "Te": 1571,
      "Ti": 1572,
      "Typ": 1573,
      "The": 1574,
      "UAG": 1575,
      "Wire": 1576,
      "[import-": 1577,
      "[A-Z": 1578,
      "\\\\": 1579,
      "_)": 1580,
      "_h": 1581,
      "_\",\"": 1582,
      "_st": 1583,
      "_de": 1584,
      "_for": 1585,
      "_config": 1586,
      "_tier": 1587,
      "_name:s": 1588,
      "_output": 1589,
      "_artifact": 1590,
      "_model": 1591,
      "_call": 1592,
      "_step": 1593,
      "_signature": 1594,
      "_mem": 1595,
      "_label": 1596,
      "_ollama": 1597,
      "_summary": 1598,
      "_parser.set_defaults(func=args↦print(": 1599,
      "_token": 1600,
      "_posi": 1601,
      "_parser=subparsers.add_parser(\"": 1602,
      "_kind:s": 1603,
      "`⟦": 1604,
      "`forge": 1605,
      "`run": 1606,
      "ab": 1607,
      "akdown": 1608,
      "br": 1609,
      "bre": 1610,
      "b_signature": 1611,
      "c∈": 1612,
      "cre": 1613,
      "c[\"": 1614,
      "cab": 1615,
      "d:i": 1616,
      "ev": 1617,
      "e∈": 1618,
      "eff": 1619,
      "fer": 1620,
      "fre": 1621,
      "fut": 1622,
      "fe_": 1623,
      "fai": 1624,
      "ful": 1625,
      "gist": 1626,
      "hand": 1627,
      "hig": 1628,
      "hropic": 1629,
      "im": 1630,
      "ir": 1631,
      "iv": 1632,
      "iz": 1633,
      "ies": 1634,
      "ju": 1635,
      "ker": 1636,
      "k:v": 1637,
      "ll": 1638,
      "man": 1639,
      "nex": 1640,
      "o:i": 1641,
      "oper": 1642,
      "oformat(": 1643,
      "ocab": 1644,
      "ption": 1645,
      "pth": 1646,
      "ran": 1647,
      "r(src": 1648,
      "so": 1649,
      "sent": 1650,
      "sing": 1651,
      "s':": 1652,
      "slug": 1653,
      "solve": 1654,
      "ute": 1655,
      "v≠": 1656,
      "venv": 1657,
      "vocab": 1658,
      "wh": 1659,
      "wer": 1660,
      "ward": 1661,
      "yel": 1662,
      "yPic": 1663,
      "{s": 1664,
      "{exc": 1665,
      "|--------": 1666,
      "})": 1667,
      "∅})": 1668,
      "⟦chain[\"": 1669,
      "⟧\\n\\n##": 1670,
      "⟨chain": 1671,
      "⟨rel": 1672,
      "⟨report": 1673,
      "⟨project_dir": 1674,
      "⟨candidate_id": 1675,
      "⟨file:s": 1676,
      "er((": 1677,
      "\",src)": 1678,
      "real": 1679,
      "required": 1680,
      "recomm": 1681,
      "replace(\"": 1682,
      "resolve": 1683,
      "only": 1684,
      "ini": 1685,
      "instan": 1686,
      "install": 1687,
      "in_mem": 1688,
      "\",\"typ": 1689,
      "\",\"\",s\"": 1690,
      "\",\"def": 1691,
      "\",\"```": 1692,
      "\",\"a1_at_function": 1693,
      "\",\"shared_": 1694,
      "\",\"javascript": 1695,
      "ord": 1696,
      "ory_": 1697,
      "stand": 1698,
      "sts:[s]": 1699,
      "ged": 1700,
      "gest": 1701,
      "gemin": 1702,
      "enfor": 1703,
      "eno:i": 1704,
      ":s⟩→": 1705,
      "anth": 1706,
      "annot": 1707,
      "see": 1708,
      "ses": 1709,
      "secon": 1710,
      "\\n\"": 1711,
      "cover": 1712,
      "temp": 1713,
      "tect": 1714,
      "conver": 1715,
      "constants": 1716,
      "d_name": 1717,
      "d_type": 1718,
      "chite": 1719,
      "mp_re": 1720,
      "mes": 1721,
      "⟩→[_]": 1722,
      "\"))": 1723,
      "ates": 1724,
      "assert": 1725,
      "as_posi": 1726,
      "ity": 1727,
      "itted": 1728,
      "er.json": 1729,
      "sider": 1730,
      "s\"Co": 1731,
      "parse": 1732,
      "cture": 1733,
      "package:_": 1734,
      "package_root": 1735,
      "dout": 1736,
      "log": 1737,
      "load_config": 1738,
      "adme": 1739,
      "adapt": 1740,
      "now": 1741,
      "--package": 1742,
      "--provider": 1743,
      "--consumer-args": 1744,
      "s())": 1745,
      "s(artifact": 1746,
      "s.Co": 1747,
      "s.\",\"-": 1748,
      "via": 1749,
      "\",s\"forge": 1750,
      "ative_": 1751,
      "to_tier:s": 1752,
      "to(cwd": 1753,
      "ations": 1754,
      "ations:[s]⟩": 1755,
      "=\"secon": 1756,
      "verb_signature": 1757,
      "producer,": 1758,
      "consumer,": 1759,
      "is_": 1760,
      "isoformat(": 1761,
      "isinstan": 1762,
      "ints": 1763,
      "doc_token": 1764,
      ").')]": 1765,
      "dir:_": 1766,
      "None)": 1767,
      "None)\",\"": 1768,
      "datetime": 1769,
      "chain_count": 1770,
      "main`": 1771,
      "target_dir": 1772,
      "target:_⟩→_": 1773,
      "target_score:f": 1774,
      "callable": 1775,
      "escript": 1776,
      "key": 1777,
      "\\n\\n⟦": 1778,
      "json-out": 1779,
      "json_artifact": 1780,
      "ailable": 1781,
      "lineno:i": 1782,
      "help_text": 1783,
      "_sy": 1784,
      "else": 1785,
      "points": 1786,
      "inv=co": 1787,
      "self_as": 1788,
      "add_parser.add_argument(\"": 1789,
      "\".strip": 1790,
      "\".atomadic-forge\"": 1791,
      "='utf-8": 1792,
      "='synergy": 1793,
      "ed:i": 1794,
      "\",\"\",\"\",\"def": 1795,
      "text(encoding": 1796,
      "domains": 1797,
      "domains\"]": 1798,
      "merge_config": 1799,
      "not-fo": 1800,
      "ece∈": 1801,
      "commands": 1802,
      "commands_": 1803,
      "command.')]": 1804,
      "type:": 1805,
      ":b⟩": 1806,
      "codeError": 1807,
      "didateCard": 1808,
      "choic": 1809,
      "exc\",\"": 1810,
      "exc:\",\"": 1811,
      "```\\n\\n##": 1812,
      "_dir:s": 1813,
      "feed": 1814,
      "sys.": 1815,
      "ulary": 1816,
      "unter((": 1817,
      "json.load": 1818,
      "json.JSON": 1819,
      "from_tier:s": 1820,
      "_cache/\\n.": 1821,
      "candidates=": 1822,
      "candidates:[_]": 1823,
      "orchestrator": 1824,
      "),\"": 1825,
      "ave": 1826,
      "available": 1827,
      "befo": 1828,
      "tier_inventory": 1829,
      "tier_distribution:{s:i}": 1830,
      "⟦card[\"consumer\"]⟧,\",\"": 1831,
      "docstring:s⟩": 1832,
      "catalog))": 1833,
      "catalog_size": 1834,
      "source_repo": 1835,
      "\".join((": 1836,
      ":{s:f": 1837,
      "_of": 1838,
      "_key:_": 1839,
      "emitted": 1840,
      "erryPic": 1841,
      "lows": 1842,
      "low',": 1843,
      "result.score_trajectory": 1844,
      "atomadic_forge_se": 1845,
      "Forge's": 1846,
      "a4_sy_orchestration/`": 1847,
      "E_SU": 1848,
      "_appen": 1849,
      "ds\")": 1850,
      "ists()": 1851,
      "upward": 1852,
      "wrapp": 1853,
      "parts)": 1854,
      "parts=path.": 1855,
      "local_cfg": 1856,
      "ure__": 1857,
      "functions:[s]": 1858,
      "_docstring_first": 1859,
      "has_clas": 1860,
      "spon": 1861,
      "render_re": 1862,
      "render_tests_": 1863,
      "aryDirectory": 1864,
      "dict:_⟩": 1865,
      "typer.secho('producer": 1866,
      "tests/": 1867,
      "cli_demo_returncode": 1868,
      "fg='yel": 1869,
      "_count:i⟩": 1870,
      "atomadic_forge.commands": 1871,
      "'producer':": 1872,
      ".scan": 1873,
      ".split(\"": 1874,
      ".save_": 1875,
      "T_RE.sub(\"": 1876,
      "_consider": 1877,
      "_files:[s]": 1878,
      "ad_text(encoding": 1879,
      "openai": 1880,
      "s\",\"a4_sy_orchestration": 1881,
      "s\",\"a3_og_feature": 1882,
      "s\",\"a2_mo_composite": 1883,
      "∨\"(": 1884,
      "relative_": 1885,
      "report,indent=2,default=str),encoding=\"utf-8\")": 1886,
      "divide_parser.add_argument(\"": 1887,
      "timespec": 1888,
      "mpose": 1889,
      "str(SRC": 1890,
      "package_name": 1891,
      "subtract_parser.add_argument(\"": 1892,
      "⟨self:Commandsmith": 1893,
      ".exists()": 1894,
      "1_provider": 1895,
      "ENT_RE.sub(\"": 1896,
      "_chains": 1897,
      "_module(": 1898,
      "_module_": 1899,
      "lang_label": 1900,
      "shap": 1901,
      "⟨src:s": 1902,
      "⟨src:s⟩→s": 1903,
      "⟨src_root:_": 1904,
      "endations:[s]⟩": 1905,
      "domain_inventory": 1906,
      "domain_ju": 1907,
      "project_dir/LOCAL_CONFIG_DIR": 1908,
      "⟦card[\"producer\"]⟧,\",s\"": 1909,
      "quire_pure": 1910,
      "typer.secho(f'consumer": 1911,
      "EmergentScanReport": 1912,
      "payload.get(": 1913,
      "'-m',\",\"": 1914,
      "global_": 1915,
      "global_cfg": 1916,
      "=re.sub(\"": 1917,
      "=read_config": 1918,
      "Result": 1919,
      "_SENSITIV": 1920,
      "__fut": 1921,
      "classes": 1922,
      "passe": 1923,
      "smoke_": 1924,
      "work": 1925,
      "words": 1926,
      "x())": 1927,
      "round": 1928,
      "segment∈IGNORED_DIRS": 1929,
      "field_type": 1930,
      "top_n": 1931,
      "_classes:[s]": 1932,
      "score_bre": 1933,
      "signatures": 1934,
      "ignored": 1935,
      "final_output": 1936,
      ".update({": 1937,
      "⟦preset.name⟧": 1938,
      "'consumer':": 1939,
      "(config[\"provider\"]": 1940,
      "(target=self.": 1941,
      "(target.parent": 1942,
      ".0f⟧": 1943,
      "Demo": 1944,
      "DecodeError": 1945,
      "LANG": 1946,
      "_mar": 1947,
      "_ms:i": 1948,
      "base_url": 1949,
      "certify": 1950,
      "tmp)": 1951,
      "tmp:\",\"": 1952,
      "stateful": 1953,
      "duration_": 1954,
      "duration_ms:i": 1955,
      "memory": 1956,
      "import-smoke": 1957,
      "layout": 1958,
      "module_name": 1959,
      "module_lines": 1960,
      "file.Te": 1961,
      "default_export": 1962,
      "merged.update({": 1963,
      "python\",\"javascript": 1964,
      "has_self_as": 1965,
      "specifi": 1966,
      "multiply_parser.add_argument(\"": 1967,
      "open_idx:i⟩→i": 1968,
      "Path(tmp)": 1969,
      "cleaned=re.sub(\"": 1970,
      "EXTS?": 1971,
      "ValueError(": 1972,
      "_balance_pai": 1973,
      "a1_at_functions/`": 1974,
      "getattr(_producer,": 1975,
      "getattr(_consumer,": 1976,
      "⟦card[\"candidate_id\"]⟧,\",\"": 1977,
      "⟦card[\"candidate_id\"]⟧,\",s\"": 1978,
      "behavioral": 1979,
      "a0_qk_constants/`": 1980,
      "a0_qk_constants\",\"a1_at_function": 1981,
      "a3_og_features/`": 1982,
      "a2_mo_composites/`": 1983,
      "'--json-out": 1984,
      "(s,_)": 1985,
      ",config))": 1986,
      ".read_text(encoding": 1987,
      "=len(chain": 1988,
      "CherryPic": 1989,
      "OpenAI": 1990,
      "ROOT": 1991,
      "_type:s": 1992,
      "_PRESETS": 1993,
      "a-z": 1994,
      "dt.datetime": 1995,
      "finding": 1996,
      "piece∈": 1997,
      "safe_": 1998,
      "⟨project_root:_": 1999,
      "in-memory": 2000,
      "\",\"rename": 2001,
      "alize": 2002,
      "mporaryDirectory": 2003,
      "sibling_": 2004,
      "importlib.import": 2005,
      "try:\",\"": 2006,
      "_completed": 2007,
      "\",\"\",\"```bash\",\"": 2008,
      "excerpt:s⟩": 2009,
      "tier_index(": 2010,
      "source_root:s⟩": 2011,
      "typer.Exit(2)": 2012,
      "_path=project_dir/LOCAL_CONFIG_DIR": 2013,
      "headline:s": 2014,
      "rounds_completed": 2015,
      "ignore[import-": 2016,
      "gistry": 2017,
      "target.write_text(json.dumps(report,indent=2,default=str),encoding=\"utf-8\")": 2018,
      "SignatureCard": 2019,
      "llections.Co": 2020,
      "review:": 2021,
      "method_name": 2022,
      "'producer.json": 2023,
      "'main',": 2024,
      "'run',": 2025,
      "(OSError": 2026,
      "(k,v": 2027,
      "(prefix='synergy": 2028,
      ",open_idx,\"": 2029,
      ".json\"": 2030,
      ".items()": 2031,
      "Add": 2032,
      "Anthropic": 2033,
      "COMM": 2034,
      "CandidateCard": 2035,
      "CRIPT_": 2036,
      "DEFAUL": 2037,
      "DULES": 2038,
      "Gemini": 2039,
      "GLOBAL_CONFIG_DIR": 2040,
      "MODULES": 2041,
      "Ollama": 2042,
      "Tier": 2043,
      "[A-Za-z": 2044,
      "_stdout": 2045,
      "_depth": 2046,
      "`run`": 2047,
      "akdown:{s:f": 2048,
      "c∈catalog))": 2049,
      "effect": 2050,
      "free": 2051,
      "llm": 2052,
      "next": 2053,
      "r(src,open_idx,\"": 2054,
      "sent:b": 2055,
      "v≠∅})": 2056,
      "vocabulary": 2057,
      "{exc}',": 2058,
      "⟨report:_": 2059,
      "⟨project_dir:_⟩→_": 2060,
      "⟨candidate_id:s": 2061,
      "recommendations:[s]⟩": 2062,
      "resolve().": 2063,
      "in_memory_": 2064,
      "\",\"typescript": 2065,
      "enforces": 2066,
      "anthropic": 2067,
      "annotations": 2068,
      "tempfile.Te": 2069,
      "converged": 2070,
      "constants,": 2071,
      "mp_required": 2072,
      "as_posix())": 2073,
      "package_root,package": 2074,
      "s(artifact.read_text(encoding": 2075,
      "to(cwd).": 2076,
      "=\"seconds\")": 2077,
      "isoformat(timespec": 2078,
      "isinstance": 2079,
      "chain_count_consider": 2080,
      "help_text:s": 2081,
      "inv=collections.Co": 2082,
      "='utf-8'))\",\"": 2083,
      "not-found": 2084,
      "choice": 2085,
      "unter((c[\"": 2086,
      "json.loads(artifact.read_text(encoding": 2087,
      "json.JSONDecodeError": 2088,
      "before": 2089,
      "_docstring_first_line": 2090,
      "fg='yellow',": 2091,
      ".save_report": 2092,
      "s\",\"a3_og_features\",\"a4_sy_orchestration": 2093,
      "s\",\"a2_mo_composites\",\"a3_og_features\",\"a4_sy_orchestration": 2094,
      "relative_to(cwd).": 2095,
      "ENT_RE.sub(\"\",src)": 2096,
      "domain_jump_required": 2097,
      "payload.get('": 2098,
      "=read_config_file": 2099,
      "__future__": 2100,
      "score_breakdown:{s:f": 2101,
      "(config[\"provider\"],config))": 2102,
      "(target.parent.mkdir(parents=true,exist_ok=true)": 2103,
      "LANGUAG": 2104,
      "base_url:_": 2105,
      "merged.update({k:v": 2106,
      "python\",\"javascript\",\"typescript": 2107,
      "has_self_assign": 2108,
      "cleaned=re.sub(\"^": 2109,
      "_balance_pair(src,open_idx,\"": 2110,
      "a0_qk_constants\",\"a1_at_functions\",\"a2_mo_composites\",\"a3_og_features\",\"a4_sy_orchestration": 2111,
      "'--json-out',": 2112,
      "CherryPick": 2113,
      "safe_intent": 2114,
      "mporaryDirectory(prefix='synergy": 2115,
      "importlib.import_module(": 2116,
      "_path=project_dir/LOCAL_CONFIG_DIR/CONFIG_FILE_NAME": 2117,
      "ignore[import-not-found": 2118,
      "'producer.json'\",\"": 2119,
      "(OSError,": 2120,
      "(k,v)∈": 2121,
      "COMMENT_RE.sub(\"\",src)": 2122,
      "DEFAULT_": 2123,
      "in_memory_pipe": 2124,
      "tempfile.TemporaryDirectory(prefix='synergy": 2125,
      "isoformat(timespec=\"seconds\")": 2126,
      "inv=collections.Counter((c[\"": 2127,
      "json.loads(artifact.read_text(encoding='utf-8'))\",\"": 2128,
      "json.JSONDecodeError)": 2129,
      "score_breakdown:{s:f}": 2130,
      "tempfile.TemporaryDirectory(prefix='synergy-')": 2131,
      "!s\"": 2132,
      "\"#": 2133,
      "\"Y": 2134,
      "\"~": 2135,
      "\":s": 2136,
      "\"src": 2137,
      "\"config": 2138,
      "\"__": 2139,
      "\"python": 2140,
      "\"?\"": 2141,
      "\"generated_package": 2142,
      "\"javascript": 2143,
      "''": 2144,
      "'t": 2145,
      "'\\n": 2146,
      "'\")": 2147,
      "')\",\"": 2148,
      "'src": 2149,
      "'producer_": 2150,
      "'result": 2151,
      "'artifact": 2152,
      "'phase": 2153,
      "'schema_id": 2154,
      "'in-memory": 2155,
      "(4": 2156,
      "(?": 2157,
      "(E": 2158,
      "(W": 2159,
      "(d": 2160,
      "(f": 2161,
      "(h": 2162,
      "(t": 2163,
      "(or": 2164,
      "(card": 2165,
      "()\",\"": 2166,
      "(args": 2167,
      "(tier": 2168,
      "(module": 2169,
      "(default": 2170,
      "(parser": 2171,
      "(schema_version": 2172,
      "(catalog": 2173,
      "(with": 2174,
      "(phase": 2175,
      "(sp": 2176,
      "(project_dir": 2177,
      "(global": 2178,
      "(wor": 2179,
      "(url": 2180,
      "(print(": 2181,
      "(dat": 2182,
      "(s)": 2183,
      "(merged": 2184,
      "('--": 2185,
      "(5-tier": 2186,
      "(arc": 2187,
      "(suffix": 2188,
      "(data": 2189,
      "(every": 2190,
      "(intermediate": 2191,
      "(0,": 2192,
      "(see": 2193,
      "(domains": 2194,
      "(result.score_trajectory": 2195,
      "(atomadic_forge_se": 2196,
      "(parts=path.": 2197,
      "(render_re": 2198,
      "(lang_label": 2199,
      "(Anthropic": 2200,
      "(next": 2201,
      "(cleaned=re.sub(\"^": 2202,
      "(safe_intent": 2203,
      "(!s\"": 2204,
      ")?": 2205,
      ")∨": 2206,
      ")\")": 2207,
      ")[\"": 2208,
      ")\"])": 2209,
      "*b": 2210,
      "*len(": 2211,
      "*consumer_args": 2212,
      "+b": 2213,
      "+\",": 2214,
      "+s\"": 2215,
      "+local": 2216,
      ",t": 2217,
      ",\"]": 2218,
      ",sub": 2219,
      ",project_dir": 2220,
      ",target)": 2221,
      ",s\"#": 2222,
      ",source_root": 2223,
      ",global_cfg": 2224,
      ",top_n": 2225,
      ",domain_jump_required": 2226,
      "-9": 2227,
      "-]": 2228,
      "-e": 2229,
      "-in": 2230,
      "-se": 2231,
      "-co": 2232,
      "-age": 2233,
      "-import": 2234,
      "-pas": 2235,
      "-alignment": 2236,
      "-|--------": 2237,
      "-shap": 2238,
      ".1": 2239,
      ".c": 2240,
      ".e": 2241,
      ".i": 2242,
      ".en": 2243,
      ".te": 2244,
      ".py": 2245,
      ".\\n\\n##": 2246,
      ".atomadic-forge": 2247,
      ".inde": 2248,
      ".Argument": 2249,
      ".find": 2250,
      ".dis": 2251,
      ".atomadic-forge\"": 2252,
      ".format(": 2253,
      ".now": 2254,
      ".key": 2255,
      "//": 2256,
      "/1": 2257,
      "/5": 2258,
      "/_": 2259,
      "/b": 2260,
      "/v": 2261,
      "/\")": 2262,
      "/\".atomadic-forge\"": 2263,
      "/a4_sy_orchestration/`": 2264,
      "/\"src": 2265,
      "/.atomadic-forge\"": 2266,
      "0.0": 2267,
      "0?\"": 2268,
      "0-9": 2269,
      "1)": 2270,
      "1]": 2271,
      "1\",": 2272,
      "1/5": 2273,
      "2]": 2274,
      "200": 2275,
      "3]": 2276,
      "3}": 2277,
      "3_api_ke": 2278,
      "4]": 2279,
      "4_": 2280,
      "5)": 2281,
      "5]": 2282,
      "5_": 2283,
      "7B": 2284,
      "8()": 2285,
      "8*len(": 2286,
      ":[": 2287,
      ":\\n": 2288,
      ":\\n\\n": 2289,
      ":repo": 2290,
      ":.0f⟧": 2291,
      ":200": 2292,
      "=[s": 2293,
      "=arg": 2294,
      "=parser.": 2295,
      "=project": 2296,
      "=catalog": 2297,
      "=source_": 2298,
      "=repo": 2299,
      "=max": 2300,
      "=Path(": 2301,
      "=language": 2302,
      "=cleaned": 2303,
      "=doc?doc.strip().split(\"\\n\",1)[0]:\"": 2304,
      "=top_n": 2305,
      "=next": 2306,
      "=domain_jump_required": 2307,
      "=5)": 2308,
      "?s\"": 2309,
      "?src": 2310,
      "?parts": 2311,
      "AS": 2312,
      "AV": 2313,
      "As": 2314,
      "ALL": 2315,
      "Auto": 2316,
      "ATE": 2317,
      "BE": 2318,
      "Be": 2319,
      "Bo": 2320,
      "BLOC": 2321,
      "BST": 2322,
      "Cer": 2323,
      "Cla": 2324,
      "DS": 2325,
      "Do": 2326,
      "Dur": 2327,
      "Dec": 2328,
      "DER_": 2329,
      "D\":\"": 2330,
      "ED\":\"": 2331,
      "Fe": 2332,
      "Fo": 2333,
      "Fin": 2334,
      "Find": 2335,
      "FFI": 2336,
      "G)": 2337,
      "GI": 2338,
      "GEN": 2339,
      "GED\":\"": 2340,
      "He": 2341,
      "HON": 2342,
      "If": 2343,
      "In": 2344,
      "Ite": 2345,
      "IDER_": 2346,
      "Js": 2347,
      "Jav": 2348,
      "JAV": 2349,
      "K_": 2350,
      "KG_": 2351,
      "KER": 2352,
      "LS": 2353,
      "Lay": 2354,
      "Lang": 2355,
      "Liv": 2356,
      "MP": 2357,
      "Ma": 2358,
      "Mer": 2359,
      "Multipl": 2360,
      "Nex": 2361,
      "Not": 2362,
      "NG_": 2363,
      "NE_": 2364,
      "OU": 2365,
      "OV": 2366,
      "Oper": 2367,
      "Option": 2368,
      "PT": 2369,
      "PY": 2370,
      "Pre": 2371,
      "Par": 2372,
      "Pro": 2373,
      "Pas": 2374,
      "PES": 2375,
      "Phase": 2376,
      "P.get(": 2377,
      "Plug": 2378,
      "PKG_": 2379,
      "RY": 2380,
      "Ro": 2381,
      "Rout": 2382,
      "Res": 2383,
      "Rec": 2384,
      "RKER": 2385,
      "Sh": 2386,
      "Sco": 2387,
      "Ste": 2388,
      "Smo": 2389,
      "S)))": 2390,
      "Sub": 2391,
      "SENSITIV": 2392,
      "Sim": 2393,
      "TY": 2394,
      "Th": 2395,
      "Tre": 2396,
      "TRI": 2397,
      "THON": 2398,
      "Vi": 2399,
      "Ver": 2400,
      "VER": 2401,
      "Wh": 2402,
      "XES": 2403,
      "Z\",": 2404,
      "[]": 2405,
      "[t": 2406,
      "[\",": 2407,
      "[\",\"": 2408,
      "[co": 2409,
      "[name": 2410,
      "[⟦card[\"producer\"]⟧,": 2411,
      "[0]": 2412,
      "[Atomadic": 2413,
      "[language": 2414,
      "[(s,": 2415,
      "[1]": 2416,
      "[Ste": 2417,
      "]\",": 2418,
      "]\\n": 2419,
      "]\")": 2420,
      "]\",s\"": 2421,
      "],\",\"": 2422,
      "][A-Za-z": 2423,
      "](h": 2424,
      "].format(": 2425,
      "_n": 2426,
      "_w": 2427,
      "_en": 2428,
      "_di": 2429,
      "_me": 2430,
      "_\")": 2431,
      "_arg": 2432,
      "_import": 2433,
      "_src": 2434,
      "_producer": 2435,
      "_consumer": 2436,
      "_int": 2437,
      "_doc": 2438,
      "_can": 2439,
      "_target": 2440,
      "_domain": 2441,
      "_turn": 2442,
      "_version": 2443,
      "_md_": 2444,
      "_pen": 2445,
      "_strip": 2446,
      "_catalog": 2447,
      "_consumer_": 2448,
      "_up": 2449,
      "_parts": 2450,
      "_preset": 2451,
      "_fix": 2452,
      "_part": 2453,
      "_s:_": 2454,
      "_args:": 2455,
      "_name⟧": 2456,
      "_trajectory": 2457,
      "_FIL": 2458,
      "_⟦preset.": 2459,
      "_Generated": 2460,
      "_prompt": 2461,
      "_distribution:{s:i}": 2462,
      "_\\\\": 2463,
      "_log": 2464,
      "_is_": 2465,
      "_functions:[s]": 2466,
      "_words": 2467,
      "_ignored": 2468,
      "_EXTS?": 2469,
      "_dt.datetime": 2470,
      "_excerpt:s⟩": 2471,
      "`atomadic-forge": 2472,
      "`⟦preset.": 2473,
      "`⟦result.": 2474,
      "`.\\n": 2475,
      "`intermediate": 2476,
      "`--provider": 2477,
      "`main`": 2478,
      "`a4_sy_orchestration/`": 2479,
      "`tests/": 2480,
      "`a1_at_functions/`": 2481,
      "`a0_qk_constants/`": 2482,
      "`a3_og_features/`": 2483,
      "`a2_mo_composites/`": 2484,
      "`.\\n\\n##": 2485,
      "a1": 2486,
      "a2": 2487,
      "ag": 2488,
      "aw": 2489,
      "a\",": 2490,
      "a\",\"": 2491,
      "amp": 2492,
      "abo": 2493,
      "a/\\n": 2494,
      "aScript": 2495,
      "a\\\\": 2496,
      "a*b": 2497,
      "a+b": 2498,
      "a/b": 2499,
      "b≠": 2500,
      "b:i": 2501,
      "c,": 2502,
      "cu": 2503,
      "car": 2504,
      "c\")": 2505,
      "cit": 2506,
      "cation": 2507,
      "cla": 2508,
      "cul": 2509,
      "cache": 2510,
      "cache/\\n.": 2511,
      "c\",\"rename": 2512,
      "d)": 2513,
      "don": 2514,
      "d/\\n": 2515,
      "ds=": 2516,
      "d:[s]": 2517,
      "d\")]": 2518,
      "d.mkdir(parents=true,exist_ok=true)": 2519,
      "d]\\n": 2520,
      "e)": 2521,
      "eg": 2522,
      "e\",\"": 2523,
      "es:[s]": 2524,
      "ets": 2525,
      "eed": 2526,
      "e:[s]": 2527,
      "e⟧\")": 2528,
      "e\",\"\",\"```bash": 2529,
      "eScript": 2530,
      "f]": 2531,
      "fli": 2532,
      "flo": 2533,
      "fs:[s]": 2534,
      "ftest": 2535,
      "fol": 2536,
      "f=self.": 2537,
      "flows": 2538,
      "ger": 2539,
      "gno": 2540,
      "gue": 2541,
      "g_root": 2542,
      "ggest": 2543,
      "gates": 2544,
      "ground": 2545,
      "g-in": 2546,
      "her.": 2547,
      "hard": 2548,
      "hid": 2549,
      "i|": 2550,
      "ide": 2551,
      "ision": 2552,
      "imin": 2553,
      "impor": 2554,
      "i_trajectory": 2555,
      "ks": 2556,
      "kno": 2557,
      "kip": 2558,
      "k_chain": 2559,
      "ker.\",\"": 2560,
      "kg_root": 2561,
      "ler": 2562,
      "lli": 2563,
      "lure_": 2564,
      "l_di": 2565,
      "mar": 2566,
      "myp": 2567,
      "mil": 2568,
      "malize": 2569,
      "ns": 2570,
      "ned": 2571,
      "never": 2572,
      "need": 2573,
      "our": 2574,
      "over": 2575,
      "oog": 2576,
      "o:f": 2577,
      "p∈": 2578,
      "pan": 2579,
      "ps:": 2580,
      "psi": 2581,
      "p∈IGNORED_DIRS": 2582,
      "ped:i": 2583,
      "pkg_root": 2584,
      "ru": 2585,
      "rati": 2586,
      "rface": 2587,
      "ries": 2588,
      "raw": 2589,
      "s∈": 2590,
      "sor": 2591,
      "sit": 2592,
      "same": 2593,
      "scode": 2594,
      "sClient": 2595,
      "s),": 2596,
      "scrip": 2597,
      "split": 2598,
      "s),encoding=\"utf-8\")": 2599,
      "sof": 2600,
      "s\",\"\",\"##": 2601,
      "save_": 2602,
      "save": 2603,
      "skip": 2604,
      "tt": 2605,
      "ty": 2606,
      "ter": 2607,
      "tal": 2608,
      "tch": 2609,
      "tas": 2610,
      "tain": 2611,
      "tup": 2612,
      "t:s⟩→s": 2613,
      "ual": 2614,
      "ude": 2615,
      "ution": 2616,
      "uted": 2617,
      "user": 2618,
      "ucture": 2619,
      "usClient": 2620,
      "ver_": 2621,
      "ves": 2622,
      "v2_": 2623,
      "vali": 2624,
      "w∈": 2625,
      "w.lower()": 2626,
      "w)≥": 2627,
      "wir": 2628,
      "xity": 2629,
      "ys:[s]": 2630,
      "y:b": 2631,
      "y:[s]": 2632,
      "y(config[\"provider\"],config))": 2633,
      "y-co": 2634,
      "your": 2635,
      "zer": 2636,
      "ze_": 2637,
      "zone": 2638,
      "{s:b": 2639,
      "{w.lower()": 2640,
      "|atomadic_": 2641,
      "|\\n\\n##": 2642,
      "|openai": 2643,
      "}⟩": 2644,
      "∅⟩": 2645,
      "∧segment∈IGNORED_DIRS": 2646,
      "∨name": 2647,
      "∨\".": 2648,
      "∨segment": 2649,
      "≟\"javascript": 2650,
      "≟0?\"": 2651,
      "✓\":\"": 2652,
      "⟦tier": 2653,
      "⟦stem": 2654,
      "⟦len(": 2655,
      "⟦name⟧": 2656,
      "⟦suffix": 2657,
      "⟦domains": 2658,
      "⟦words": 2659,
      "⟦safe_intent": 2660,
      "⟦_dt.datetime": 2661,
      "⟦e⟧\")": 2662,
      "⟧;": 2663,
      "⟧`": 2664,
      "⟧\",s\"-": 2665,
      "⟧.\")": 2666,
      "⟧`\",s\"-": 2667,
      "⟧.\",\"": 2668,
      "⟧_\",\"": 2669,
      "⟧⟦suffix": 2670,
      "⟨package": 2671,
      "⟨config": 2672,
      "⟨text": 2673,
      "⟨_re": 2674,
      "⟨result": 2675,
      "⟨⟩→_": 2676,
      "⟨source_": 2677,
      "⟨provider": 2678,
      "⟨local": 2679,
      "⟨preset": 2680,
      "⟨repo": 2681,
      "⟨tier:s": 2682,
      "⟨stem": 2683,
      "⟨segment": 2684,
      "⟨url": 2685,
      "⟨qualname:s": 2686,
      "⟨language": 2687,
      "⟨⟩→∅": 2688,
      "⟨imports:[s]": 2689,
      "⟨⟩→[_]": 2690,
      "⟨target_dir": 2691,
      "⟨from_tier:s": 2692,
      "⟨finding": 2693,
      "⟨base_url:_": 2694,
      "⟨over": 2695,
      "⟨t:s⟩→s": 2696,
      "erent": 2697,
      "ers_": 2698,
      "ered": 2699,
      "erClient": 2700,
      "er:_⟩": 2701,
      "\",default": 2702,
      "\",stem": 2703,
      "\",cleaned": 2704,
      "\",_as": 2705,
      "\",strip_comment": 2706,
      "\",package_import": 2707,
      "\",required": 2708,
      "reas": 2709,
      "rent": 2710,
      "repai": 2711,
      "respon": 2712,
      "require_pure": 2713,
      "re.find": 2714,
      "re_log": 2715,
      "onent": 2716,
      "ons:[s]⟩": 2717,
      "onger": 2718,
      "inate": 2719,
      "init": 2720,
      "insert": 2721,
      "infer": 2722,
      "arts": 2723,
      "arer.\",\"": 2724,
      "archite": 2725,
      "arity": 2726,
      "at().": 2727,
      "ating_": 2728,
      "\",\"\")": 2729,
      "\",\"package": 2730,
      "\",\"is": 2731,
      "\",\"##": 2732,
      "\",\"clas": 2733,
      "\",\"phase_omission": 2734,
      "\",\"wrapp": 2735,
      "\",\"behavioral": 2736,
      "\",\"MODULES": 2737,
      "\",\"in_memory_pipe": 2738,
      "\",\"\",stem": 2739,
      "or,": 2740,
      "order": 2741,
      "orker": 2742,
      "ormalize": 2743,
      "stit": 2744,
      "st=\"": 2745,
      "st/\\n.": 2746,
      "stub": 2747,
      "st_size": 2748,
      "stamp": 2749,
      "ges:[s]": 2750,
      "geDec": 2751,
      "ross": 2752,
      "roug": 2753,
      "ensi": 2754,
      "enum": 2755,
      ":s}": 2756,
      ":sourc": 2757,
      ":s⟩→b": 2758,
      "andu": 2759,
      "aniz": 2760,
      "se,": 2761,
      "sed": 2762,
      "sets": 2763,
      "\\n-": 2764,
      "\\n\")": 2765,
      "\\n```": 2766,
      "\\nSRC": 2767,
      "\\n.v": 2768,
      "\\n\".join((": 2769,
      "\\n.atomadic-forge": 2770,
      "comp": 2771,
      "comple": 2772,
      "copi": 2773,
      "comes": 2774,
      "compose": 2775,
      "cover_": 2776,
      "sumes": 2777,
      "sues:[s]": 2778,
      "suggest": 2779,
      "surface": 2780,
      "sure_log": 2781,
      "almo": 2782,
      "alone": 2783,
      "alid": 2784,
      "als:[s]⟩": 2785,
      "al**:": 2786,
      "al(t": 2787,
      "ale:[s]": 2788,
      "alty": 2789,
      "diff": 2790,
      "digest": 2791,
      "dist/\\n.": 2792,
      "til": 2793,
      "tifi": 2794,
      "tier.": 2795,
      "tive": 2796,
      "tic\",\"rename": 2797,
      "tigno": 2798,
      "acted": 2799,
      "across": 2800,
      "deci": 2801,
      "detect": 2802,
      "dest=\"": 2803,
      "proves": 2804,
      "s:{s": 2805,
      "s:.0f⟧": 2806,
      "s:(s,_)": 2807,
      "s:.1": 2808,
      "s:[(s,": 2809,
      "s:{s:b": 2810,
      "s:∅⟩": 2811,
      "te:b": 2812,
      "tes':": 2813,
      "context": 2814,
      "conci": 2815,
      "concre": 2816,
      "consts:[s]": 2817,
      "conftest": 2818,
      "d_import": 2819,
      "d_chain": 2820,
      "d_line": 2821,
      "d_segment": 2822,
      "d_signature": 2823,
      "d_hand": 2824,
      "d_(?": 2825,
      "ch)": 2826,
      "utReport": 2827,
      "may": 2828,
      ":_⟩→": 2829,
      ":_⟩→b": 2830,
      "lect": 2831,
      "least": 2832,
      "less": 2833,
      "le)\",\"[": 2834,
      "led:i": 2835,
      "fig": 2836,
      "fixt": 2837,
      "under": 2838,
      "under_": 2839,
      "unds": 2840,
      "unavailable": 2841,
      "unspecifi": 2842,
      "unkno": 2843,
      "until": 2844,
      "ent,": 2845,
      "ent.strip().": 2846,
      "ents\\n-": 2847,
      "⟩→f": 2848,
      "er_name:s": 2849,
      "er_app": 2850,
      "er_fn": 2851,
      "er_default_": 2852,
      "str)": 2853,
      "structure": 2854,
      "stronger": 2855,
      "age:s": 2856,
      "age(name": 2857,
      "age\\n.atomadic-forge": 2858,
      "ateReport": 2859,
      "ate)\",\"[": 2860,
      "ackets": 2861,
      "[s\"\\\"\\\"\\\"": 2862,
      "assumes": 2863,
      "it.": 2864,
      "its": 2865,
      "italize": 2866,
      "side": 2867,
      "simple": 2868,
      "siden": 2869,
      "simil": 2870,
      "arg-alignment": 2871,
      "s\"Error": 2872,
      "ard:\\n\\n": 2873,
      "ameter": 2874,
      "parated": 2875,
      "parameter": 2876,
      "ct,": 2877,
      "cts": 2878,
      "ctur": 2879,
      "ctRes": 2880,
      "exit(": 2881,
      "expose": 2882,
      "package:_⟩": 2883,
      "package:s⟩→s": 2884,
      "package.\\\"\\\"\\\"": 2885,
      "package=package": 2886,
      "product,": 2887,
      "named": 2888,
      "names(": 2889,
      "names:[s]": 2890,
      "name.lower()": 2891,
      "name(name": 2892,
      "typer_app": 2893,
      "produced": 2894,
      "produce\",\"\",\"```bash": 2895,
      "heur": 2896,
      "))\\n\"": 2897,
      "\"]))": 2898,
      "[\"[1]": 2899,
      "force_": 2900,
      "for\",\"behavioral": 2901,
      "(\"command": 2902,
      "(\"atomadic-forge": 2903,
      "(\"Se": 2904,
      "(\"Atomadic": 2905,
      "(\".\")": 2906,
      "(\"[A-Za-z": 2907,
      "(\"python\",\"javascript\",\"typescript": 2908,
      "(\"a0_qk_constants\",\"a1_at_functions\",\"a2_mo_composites\",\"a3_og_features\",\"a4_sy_orchestration": 2909,
      "(\"0.0": 2910,
      "(\"a\",": 2911,
      "licit": 2912,
      "load_": 2913,
      "lot.": 2914,
      "cards:[_]": 2915,
      "nove": 2916,
      "no_up": 2917,
      "--preset": 2918,
      "--|--------": 2919,
      "---|--------": 2920,
      "lty_": 2921,
      "ures": 2922,
      "',\",\"": 2923,
      "s(src": 2924,
      "s(chain": 2925,
      "s(catalog": 2926,
      "s(self.": 2927,
      "s(local_cfg": 2928,
      "s(dest=\"": 2929,
      "ing\",\"": 2930,
      "ing_re": 2931,
      "get_preset": 2932,
      ":i⟩": 2933,
      "s.\\\"\\\"\\\"": 2934,
      "s.\",\"\",\"```bash\",\"": 2935,
      ")\",\"```": 2936,
      ")\",\"\",cleaned": 2937,
      ")\",\"\",\"##": 2938,
      ")\",\"\"]))": 2939,
      "e_)?": 2940,
      "e_name(name": 2941,
      "imports": 2942,
      "import()": 2943,
      "imports:f": 2944,
      "trace": 2945,
      "tracted": 2946,
      "vider": 2947,
      "\",s\"_⟦preset.": 2948,
      "sub_command": 2949,
      "subdir:s": 2950,
      "substit": 2951,
      "to_tier": 2952,
      "total": 2953,
      "_collection": 2954,
      "apitalize": 2955,
      "urrent": 2956,
      "typer.Option": 2957,
      "\\\"\\\"\",strip_comment": 2958,
      "ations:i": 2959,
      "ation**:": 2960,
      "ation_comple": 2961,
      "ation\",required": 2962,
      "=\"A": 2963,
      "=\"atomadic-forge": 2964,
      "=\"atomadic_forge_se": 2965,
      "=\"\\n\".join((": 2966,
      "src=_": 2967,
      "src_root:s": 2968,
      "src.exists()": 2969,
      "umaniz": 2970,
      "verif": 2971,
      "verdict:_⟩": 2972,
      "out_s:_": 2973,
      "testing_": 2974,
      "test-pas": 2975,
      "tests.\\\"\\\"\\\"": 2976,
      "producer:s": 2977,
      "\"]⟧\")": 2978,
      "card[\"input": 2979,
      "consumer:s": 2980,
      "is_pure": 2981,
      "issues:[s]": 2982,
      "y_module": 2983,
      "y_and_": 2984,
      "y_cache/\\n.": 2985,
      "y_package:_⟩": 2986,
      "int:s⟩": 2987,
      "docs_": 2988,
      "document": 2989,
      ").\\\"\\\"\\\"": 2990,
      ").stem": 2991,
      ").exp": 2992,
      ").replace(\"": 2993,
      ").resolve().": 2994,
      ").isoformat(timespec=\"seconds\")": 2995,
      ").split": 2996,
      "ainst": 2997,
      "can_import": 2998,
      "path:s": 2999,
      "path:s⟩": 3000,
      "pathlib": 3001,
      "path:\\n": 3002,
      "dir:_⟩": 3003,
      "dir/s\"⟦": 3004,
      "dir/_": 3005,
      "confiden": 3006,
      "None\",\"": 3007,
      "ify": 3008,
      "args\",\"": 3009,
      "args=parser.": 3010,
      "config)": 3011,
      "config))": 3012,
      "config,indent=2": 3013,
      "config[\"provider\"]": 3014,
      "config_path=project_dir/LOCAL_CONFIG_DIR/CONFIG_FILE_NAME": 3015,
      "schedule": 3016,
      "js_re": 3017,
      "tier:": 3018,
      "tier))": 3019,
      "tier\"]": 3020,
      "tiers:[s]": 3021,
      "tiers:i": 3022,
      "tier,\"": 3023,
      "tional": 3024,
      "tions_": 3025,
      "tionCh": 3026,
      "tion=\"A": 3027,
      "chain:": 3028,
      "chain:_": 3029,
      "chains=": 3030,
      "chain\"])": 3031,
      "schemas:[s]": 3032,
      "schema\",\"shared_": 3033,
      "schema')\",\"": 3034,
      "target_tier:s": 3035,
      "target_root:s": 3036,
      "calcul": 3037,
      "es_dir:s": 3038,
      "keReport": 3039,
      "law": 3040,
      "\\n\\n#": 3041,
      "\\n\\n>": 3042,
      "\\n\\nimport": 3043,
      "\\n\\nfrom": 3044,
      "\\n\\nTh": 3045,
      "\\n\\n_Generated": 3046,
      "ared": 3047,
      "plan": 3048,
      "ply:b": 3049,
      "modules_": 3050,
      "modules))": 3051,
      "module\",\"is": 3052,
      "modules(self.": 3053,
      "sion:_": 3054,
      "prefer": 3055,
      "present:b": 3056,
      "runner": 3057,
      "run_id": 3058,
      "run_w": 3059,
      "s_docstring": 3060,
      "s_attr": 3061,
      "s_and_": 3062,
      "s_emitted": 3063,
      "s_rati": 3064,
      "s_repai": 3065,
      "atomadic.te": 3066,
      "_split": 3067,
      "_sensi": 3068,
      "el(\"Atomadic": 3069,
      "idges:[s]": 3070,
      "inv),": 3071,
      "inv)))": 3072,
      "invalid": 3073,
      "root:_": 3074,
      "tify_package:_⟩": 3075,
      "file_count:i": 3076,
      "file_path": 3077,
      "file:_⟩→_": 3078,
      "files_repai": 3079,
      "defaults:_": 3080,
      "defaults)": 3081,
      "thing": 3082,
      "throug": 3083,
      "atureSurface": 3084,
      "add_parser.set_defaults(func=args↦print(": 3085,
      "**Tr": 3086,
      "**\"+": 3087,
      "**LLM": 3088,
      "**⟦result.": 3089,
      "**Package": 3090,
      "**upward": 3091,
      "**Dur": 3092,
      "**Fin": 3093,
      "**Ro": 3094,
      "der:_": 3095,
      "ed\")": 3096,
      "ed)\"": 3097,
      "edDi": 3098,
      "ed=len(chain": 3099,
      "\",\"\",\"-": 3100,
      "\",\"\",\"import": 3101,
      "\",\"\",\"```": 3102,
      "\",\"\",\"from": 3103,
      "\",\"\",\"Forge": 3104,
      "\",\"\",\"Add": 3105,
      "text∨\"": 3106,
      "domain:s": 3107,
      "domain\"]": 3108,
      "domains:[s]": 3109,
      "domains:i": 3110,
      "domain(s)": 3111,
      "merge\",\"rename": 3112,
      "merged_signature": 3113,
      "output:s": 3114,
      "outputs:[s]": 3115,
      "output_root:s": 3116,
      "output_dir:s": 3117,
      "output_files:[s]": 3118,
      "output)\",\"```": 3119,
      "_registry": 3120,
      "_rel_di": 3121,
      "clients\\n-": 3122,
      "result)[": 3123,
      "results:{s:b": 3124,
      "command;": 3125,
      "commands.": 3126,
      "commands:[_]": 3127,
      "commands,": 3128,
      "parser.exit(": 3129,
      "version(\"atomadic-forge": 3130,
      "body:s": 3131,
      "()⟧": 3132,
      "()/CONFIG_FILE_NAME": 3133,
      "()∨\"(": 3134,
      "(__file": 3135,
      "(_PR": 3136,
      "(_dt.": 3137,
      "(_,t": 3138,
      "(_SENSITIV": 3139,
      "(_pan": 3140,
      "(_force_": 3141,
      "_root:_⟩→_": 3142,
      "_root_of": 3143,
      "_root/\".atomadic-forge\"": 3144,
      "olve_": 3145,
      "olution": 3146,
      "code:": 3147,
      "code\")": 3148,
      "exc)": 3149,
      "\\\"\\\"\\\"Phase": 3150,
      "```\",\"\",\"##": 3151,
      "func(args": 3152,
      "artifact.st": 3153,
      "artifact_md_": 3154,
      "/\\nbu": 3155,
      "/\\n*.": 3156,
      "/\\nvenv": 3157,
      "/\\n```\\n\\n##": 3158,
      "Composi": 3159,
      "_dirs=": 3160,
      "_dir:_⟩": 3161,
      "few": 3162,
      "fetch": 3163,
      "num_pre": 3164,
      "py\"": 3165,
      "py[co": 3166,
      "pycache": 3167,
      "s=parser.add_": 3168,
      "s=dict(": 3169,
      "s=max": 3170,
      "s=_module_": 3171,
      "synerg": 3172,
      "sys\\n": 3173,
      "their": 3174,
      "the\",\"package": 3175,
      "s:i⟩": 3176,
      "line:i": 3177,
      "schema_version')": 3178,
      "from_tier": 3179,
      "((path.": 3180,
      "((package_": 3181,
      "((part": 3182,
      "((TIER_NAMES": 3183,
      "((parts=path.": 3184,
      "ES∨name": 3185,
      "[_GEN": 3186,
      "_current": 3187,
      "crimin": 3188,
      "sources_dir:s": 3189,
      "return_type:s": 3190,
      "project:s": 3191,
      "project_defaults(": 3192,
      "strings": 3193,
      "candidates,": 3194,
      "candidate_count:i": 3195,
      "),result.cli_demo": 3196,
      "),chain_count_consider": 3197,
      "/`main`": 3198,
      "CONVER": 3199,
      "Exit": 3200,
      "Extracted": 3201,
      "best": 3202,
      "below": 3203,
      "becomes": 3204,
      "beside": 3205,
      "⟨name:s⟩": 3206,
      "⟨name:s⟩→s": 3207,
      "⟨name:s⟩→_": 3208,
      "tier_layout": 3209,
      "tier_inv=collections.Counter((c[\"": 3210,
      "tier_gue": 3211,
      "tier_inv)))": 3212,
      "demo_mar": 3213,
      "provided": 3214,
      "----|\\n|": 3215,
      "------|--------": 3216,
      "_count=len(chain": 3217,
      "⟦card[\"consumer\"]⟧],\",\"": 3218,
      "catalog=catalog": 3219,
      "catalog),chain_count_consider": 3220,
      "source_dir:s": 3221,
      "source_subdir:s": 3222,
      "source_file:_⟩→_": 3223,
      "source_line:i": 3224,
      "=_step": 3225,
      "=_TIER_": 3226,
      "=_prompt": 3227,
      "=_dt.datetime": 3228,
      "=_BLOC": 3229,
      "_option": 3230,
      "_keys:[s]": 3231,
      "able:i": 3232,
      "ic.\",\"": 3233,
      "ic\\n-": 3234,
      "parens": 3235,
      "with(\".\")": 3236,
      "with(_SENSITIV": 3237,
      "red:i": 3238,
      "models\"]": 3239,
      "model(config[\"provider\"],config))": 3240,
      "package⟧`\",s\"-": 3241,
      "lower": 3242,
      "consumer_args:": 3243,
      "run(ctx:": 3244,
      "result.converged": 3245,
      "CONFIG)": 3246,
      "provider\",default": 3247,
      "ForgeCon": 3248,
      "Forge\\n\\n```bash\\n": 3249,
      "Forge](h": 3250,
      "raised:[s]": 3251,
      "\"+\"": 3252,
      "\"+result.cli_demo": 3253,
      ",help=\"Oper": 3254,
      "=intent.strip().": 3255,
      "Archite": 3256,
      "E_EXTS": 3257,
      "_apply:b": 3258,
      "dswith(_SENSITIV": 3259,
      "ed_tier:s": 3260,
      "ed_clas": 3261,
      "ed_|atomadic_": 3262,
      "istic.\",\"": 3263,
      "ment_count:i⟩": 3264,
      "⟦package⟧.\\\"\\\"\\\"": 3265,
      "⟦package⟧)\"": 3266,
      "⟦package⟧\",\"```": 3267,
      "⟦package⟧\\n\\n⟦": 3268,
      "⟦package⟧\\n```": 3269,
      "⟦package⟧\\n\\n_Generated": 3270,
      "⟦package⟧\",\"\",\"Forge": 3271,
      "ace-se": 3272,
      "s:[_]⟩": 3273,
      "s:[_]⟩→i": 3274,
      "utf8()": 3275,
      "parts)))": 3276,
      "parts=cleaned": 3277,
      "parts?parts": 3278,
      "local.items()": 3279,
      "local_path=project_dir/LOCAL_CONFIG_DIR/CONFIG_FILE_NAME": 3280,
      "path.open": 3281,
      "path.write": 3282,
      "path.insert": 3283,
      "callers_": 3284,
      "preset:_": 3285,
      "invocation": 3286,
      "self._call": 3287,
      "self._appen": 3288,
      "self._chains": 3289,
      "functions": 3290,
      "functions\\n-": 3291,
      "function\",\"clas": 3292,
      "\".join(chain[\"": 3293,
      "\".join(result.cli_demo": 3294,
      "parent.mkdir(parents=true,exist_ok=true)": 3295,
      "parent.parent": 3296,
      "().isoformat(timespec=\"seconds\")": 3297,
      "ERATE": 3298,
      "REGI": 3299,
      "has_module_": 3300,
      "phase_h": 3301,
      "phase).\\\"\\\"\\\"": 3302,
      "s,require_pure": 3303,
      "s,catalog=catalog": 3304,
      "splay": 3305,
      "repo:s": 3306,
      "reposit": 3307,
      "render_gi": 3308,
      "render_smoke_": 3309,
      "render_testing_": 3310,
      "render_js_re": 3311,
      "dict)": 3312,
      "ted:s": 3313,
      "ted(data": 3314,
      "fix:s⟩": 3315,
      "signals:[s]⟩": 3316,
      "app()": 3317,
      "tests\\n\\n```bash\\n": 3318,
      "tests/\\n```\\n\\n##": 3319,
      "mergent.scan": 3320,
      "cli_demo_command": 3321,
      "cli_demo_stdout": 3322,
      "cli_demo_args:": 3323,
      "CommandCard": 3324,
      "CommandSurface": 3325,
      "CommandSignatureCard": 3326,
      "feature_count:i": 3327,
      ".save": 3328,
      ":\"mis": 3329,
      "EmergentCandidateCard": 3330,
      "LINE_": 3331,
      "T_TE": 3332,
      "_consts:[s]": 3333,
      "_file_count:i": 3334,
      "_file_for": 3335,
      "_text(render_re": 3336,
      "capture": 3337,
      "i_key:_": 3338,
      "payload_": 3339,
      "s\",\"metho": 3340,
      "rel.split(\"": 3341,
      "rel_parts": 3342,
      "rel).stem": 3343,
      "report:{s:_}": 3344,
      "steps": 3345,
      "divide\",help=\"": 3346,
      "divide(args.a,args.b)))": 3347,
      "divide_parser.set_defaults(func=args↦print(": 3348,
      "divide_parser=subparsers.add_parser(\"": 3349,
      "timezone": 3350,
      "timestamp": 3351,
      "timeout_s:_": 3352,
      "process": 3353,
      "str(result)[": 3354,
      "iterations:i": 3355,
      "executed": 3356,
      "package_prefix": 3357,
      "list_pre": 3358,
      "list_ollama": 3359,
      "list(_PR": 3360,
      "subtract\",help=\"": 3361,
      "subtract(args.a,args.b)))": 3362,
      "subtract_parser.set_defaults(func=args↦print(": 3363,
      "subtract_parser=subparsers.add_parser(\"": 3364,
      "_command),result.cli_demo": 3365,
      "src/⟦package⟧": 3366,
      "/\\n.pytest": 3367,
      "/\\n.DS": 3368,
      "/\\n.ide": 3369,
      "\"\\n\".join(lines": 3370,
      "\"\\n\".join([s\"\\\"\\\"\\\"": 3371,
      "\"\\n\".join([_GEN": 3372,
      "⟨self:LLMClient": 3373,
      "⟨self:EmergentScan": 3374,
      "⟨self:ManifestStore": 3375,
      "⟨self:StubLLMClient": 3376,
      "⟨self:TranscriptLog": 3377,
      "+\"Z\",": 3378,
      ",\"auto": 3379,
      ",\"\",\"MODULES": 3380,
      ".strip())": 3381,
      ".strip()∨\"(": 3382,
      ".calls": 3383,
      ".write(json.dumps(": 3384,
      ".write_registry": 3385,
      "2_model(config[\"provider\"],config))": 3386,
      "Confli": 3387,
      "CLI.\")": 3388,
      "CLI)\\n\\n": 3389,
      "Manual": 3390,
      "Path\\n\\n#": 3391,
      "Path(__file": 3392,
      "Setup": 3393,
      "_chain':": 3394,
      "_chains=max": 3395,
      "_chains,require_pure": 3396,
      "_module_docstring": 3397,
      "_module\")]": 3398,
      "focu": 3399,
      "fo/\\nbu": 3400,
      "find_chain": 3401,
      "priv": 3402,
      "pure:b⟩": 3403,
      "ser(de": 3404,
      "ser()/CONFIG_FILE_NAME": 3405,
      "s\")]": 3406,
      "s\"),source_root": 3407,
      "ve)\",\"\",\"##": 3408,
      "inputs": 3409,
      "inputs:[s]": 3410,
      "input_files:[s]": 3411,
      "inputs:[(s,": 3412,
      "inputs.\",\"\",\"```bash\",\"": 3413,
      "stem=Path(": 3414,
      "stem_prompt": 3415,
      "all:f": 3416,
      "ally-co": 3417,
      "all(\"[A-Za-z": 3418,
      "part∈IGNORED_DIRS": 3419,
      "s():\",\"": 3420,
      "subparsers(dest=\"": 3421,
      "subparsers=parser.add_": 3422,
      "ifest_dir:_⟩": 3423,
      "domain_inv=collections.Counter((c[\"": 3424,
      "domain_inv),": 3425,
      "\"+package+s\"": 3426,
      "LLMClient.call": 3427,
      "typer.secho(f'in-memory": 3428,
      "EmergentScan.scan": 3429,
      "EmergentScan.save_report": 3430,
      "payload:{s:_}": 3431,
      "payload,indent=2,default=str),encoding=\"utf-8\")": 3432,
      "Literal[(\"json_artifact": 3433,
      "Literal[(\"python\",\"javascript\",\"typescript": 3434,
      "Literal[(\"a0_qk_constants\",\"a1_at_functions\",\"a2_mo_composites\",\"a3_og_features\",\"a4_sy_orchestration": 3435,
      "Literal[(\"typer_app": 3436,
      "Literal[(\"merge\",\"rename": 3437,
      "Literal[(\"function\",\"clas": 3438,
      "ajectory**:": 3439,
      "global_path=": 3440,
      "len(w)≥": 3441,
      "|\\n|------|--------": 3442,
      "(args.func(args": 3443,
      ",defaults))": 3444,
      "0],\",\"": 3445,
      "=require_pure": 3446,
      "=true,help=\"Oper": 3447,
      "=self.catalog": 3448,
      "=self.package_name": 3449,
      "D_MA": 3450,
      "NOTE": 3451,
      "RCE_EXTS": 3452,
      "Regist": 3453,
      "Registry": 3454,
      "Reproduce\",\"\",\"```bash": 3455,
      "RunReport": 3456,
      "_Store": 3457,
      "_SOU": 3458,
      "_STRI": 3459,
      "__).resolve().": 3460,
      "__/\\n*.": 3461,
      "_features:∅⟩": 3462,
      "`src/\"+package+s\"": 3463,
      "back_excerpt:s⟩": 3464,
      "clearer.\",\"": 3465,
      "classes:[s]": 3466,
      "minute": 3467,
      "min(4": 3468,
      "missing": 3469,
      "pass": 3470,
      "pass_rati": 3471,
      "rationale:[s]": 3472,
      "s\\nforge": 3473,
      "t.\"": 3474,
      "tware": 3475,
      "x(tier))": 3476,
      "⟨card:_⟩→": 3477,
      "er()?s\"": 3478,
      "alues())": 3479,
      "s:b⟩": 3480,
      "first=doc?doc.strip().split(\"\\n\",1)[0]:\"": 3481,
      "first.strip())": 3482,
      "explicit": 3483,
      "name⟧.json\"": 3484,
      "intent:s": 3485,
      "intent.strip()∨\"(": 3486,
      "path:_⟩→∅": 3487,
      "add_parser=subparsers.add_parser(\"": 3488,
      "_render_shared_": 3489,
      "_render_phase_omission": 3490,
      "_render_json_artifact": 3491,
      "_render_in_memory_pipe": 3492,
      "_render_demo_mar": 3493,
      "pytest_summary": 3494,
      "_class_docstring": 3495,
      ":{s:i}⟩": 3496,
      "E_NAMES∨name": 3497,
      "SynergyKind": 3498,
      "SynergyCandidateCard": 3499,
      "Commandsmith.dis": 3500,
      "Commandsmith.write_registry": 3501,
      "ManifestCard": 3502,
      "final_score": 3503,
      "final_score:f": 3504,
      "_api_key_env:_": 3505,
      ")+\"\\n\"))": 3506,
      "⟦preset.rounds": 3507,
      "(\",\")\")": 3508,
      "(src=repo": 3509,
      "(src=_BLOC": 3510,
      "(config=dict(": 3511,
      "(config,project_dir": 3512,
      ".0+local": 3513,
      "=dict(defaults)": 3514,
      "=dict(tier_inv)))": 3515,
      "=dict(domain_inv),": 3516,
      "LATE": 3517,
      "LABE": 3518,
      "RING": 3519,
      "SRC.exists()": 3520,
      "_size_": 3521,
      "auto\",\"```": 3522,
      "auto_fix": 3523,
      "auto_apply:b": 3524,
      "baseline": 3525,
      "base_classes:[s]": 3526,
      "certain": 3527,
      "certify_package:_⟩": 3528,
      "ff_cache/\\n.": 3529,
      "perform": 3530,
      "s)]": 3531,
      "ss:s": 3532,
      "ssage:s": 3533,
      "ward_import": 3534,
      "⟦result.duration_": 3535,
      "⟦result.rounds_completed": 3536,
      "\",help=\"Add": 3537,
      "\",help=\"Multipl": 3538,
      "stateless": 3539,
      "statement_count:i⟩": 3540,
      "answer": 3541,
      "prompt.\"": 3542,
      "level.": 3543,
      "entry,default=str": 3544,
      "entry:{s:_}": 3545,
      "s\"]]": 3546,
      "s\"⟦label": 3547,
      "s\"⟦s:.0f⟧": 3548,
      ")\",\"[4]": 3549,
      ")\",\"[5]": 3550,
      "tests_dir:s": 3551,
      "tests_present:b": 3552,
      "chain[\"chain\"])": 3553,
      "target.write_text(render_re": 3554,
      "layer.": 3555,
      "label=_TIER_": 3556,
      "lines=[s": 3557,
      "file.\",\"-": 3558,
      "file.suffix": 3559,
      "default_target_score:f": 3560,
      "schema_id:\",\"": 3561,
      "schema_id,\",s\"": 3562,
      "merged)": 3563,
      "ollama_url": 3564,
      "ollama_model": 3565,
      "exceptions_": 3566,
      "python_file_count:i": 3567,
      ".get(tier,\"": 3568,
      "has_work": 3569,
      "has_schedule": 3570,
      "_text(json.dumps(config,indent=2": 3571,
      "multiply_parser.set_defaults(func=args↦print(": 3572,
      "multiply_parser=subparsers.add_parser(\"": 3573,
      "Path(GLOBAL_CONFIG_DIR": 3574,
      "language:s": 3575,
      "shared": 3576,
      ".lower()∨\".": 3577,
      ".lower():\"mis": 3578,
      "StubFind": 3579,
      "_balance_br": 3580,
      "_balance_parens": 3581,
      "cwd:_⟩→s": 3582,
      "cwd:_⟩→b": 3583,
      "summary:s": 3584,
      "summary:s⟩": 3585,
      "proposed_adapt": 3586,
      "proposed_names:[s]": 3587,
      "proposed_fix:s⟩": 3588,
      "proposed_summary:s⟩": 3589,
      "typer.Context)": 3590,
      "behavior.\")": 3591,
      "generated_at_utc=_dt.datetime": 3592,
      "`src/\"+package+\"/a1_at_functions/`": 3593,
      "`src/\"+package+\"/a0_qk_constants/`": 3594,
      "`src/\"+package+\"/a3_og_features/`": 3595,
      "`src/\"+package+\"/a2_mo_composites/`": 3596,
      "ast.get_docstring(node)∨\"\".strip": 3597,
      "\"\\\"\\\"\\\"Test": 3598,
      "\"\\\"\\\"\\\"Sh": 3599,
      "\":\"Typ": 3600,
      "(name=path.": 3601,
      "(consumer_args,": 3602,
      ")∈card[\"input": 3603,
      "*producer_args,": 3604,
      "*producer_args,\",\"": 3605,
      "*producer_args]\",\"": 3606,
      ",config_path)": 3607,
      ".replace(\"": 3608,
      ".\\n```\\n\\n##": 3609,
      ".\\nROOT": 3610,
      "=len(catalog),chain_count_consider": 3611,
      "AAAA": 3612,
      "AI-age": 3613,
      "Imports": 3614,
      "ImportError": 3615,
      "ImportSmo": 3616,
      "OpenRout": 3617,
      "ROOT_TE": 3618,
      "Testing": 3619,
      "TestRunReport": 3620,
      "_seman": 3621,
      "_present:b": 3622,
      "_type\"]⟧\")": 3623,
      "_first_doc": 3624,
      "_PROV": 3625,
      "`\",\"'\")": 3626,
      "`\",\"\",s\"_⟦preset.": 3627,
      "a-b": 3628,
      "bytes':": 3629,
      "ce:f": 3630,
      "cii_trajectory": 3631,
      "den:b": 3632,
      "f⟧s\",\"\",\"##": 3633,
      "here": 3634,
      "herent,": 3635,
      "ild/\\n": 3636,
      "ilarity": 3637,
      "of:[s]": 3638,
      "safe": 3639,
      "wire`.\\n": 3640,
      "⟨project_root:_⟩→_": 3641,
      "⟨path:_⟩→b": 3642,
      "errors:i": 3643,
      "error_kind:s": 3644,
      "error_me": 3645,
      "in-process": 3646,
      "arc⟧`\",s\"-": 3647,
      "arc\",\"\",\"```": 3648,
      "\",\"regist": 3649,
      "stall\\n\\n```bash\\n": 3650,
      "and_modules(self.": 3651,
      "any((piece∈": 3652,
      "any((p∈IGNORED_DIRS": 3653,
      "any((part∈IGNORED_DIRS": 3654,
      "command_modules(self.": 3655,
      "discover_": 3656,
      "discrimin": 3657,
      "chat_sy": 3658,
      "undError": 3659,
      "sibling_re": 3660,
      "exports:b": 3661,
      "name∈_SENSITIV": 3662,
      "name∈_PRESETS": 3663,
      "name∈modules))": 3664,
      "add(args.a,args.b)))": 3665,
      "add\",help=\"Add": 3666,
      "importable.": 3667,
      "importable:b": 3668,
      "importlib\",package_import": 3669,
      "try:\",s\"": 3670,
      "violations:[_]": 3671,
      "violation_count:i": 3672,
      "violations\\nforge": 3673,
      "tokens:[s]⟩": 3674,
      "test_generated_package_import": 3675,
      "test_generated_smoke": 3676,
      "test_generated_modules_": 3677,
      "consumer-args',\",\"": 3678,
      "positional": 3679,
      "tifyResult": 3680,
      "items:[_]⟩": 3681,
      "producer_fn()\",\"": 3682,
      "_returncode≟0?\"": 3683,
      "olve`.\\n\\n##": 3684,
      "excerpts:[s]⟩": 3685,
      "symbols:[_]": 3686,
      "symbol_count:i": 3687,
      "symbol_name:s": 3688,
      "ESETS.v": 3689,
      "strip_comments": 3690,
      "strip_comments_and_": 3691,
      "tier_index": 3692,
      "consumer_fn(intermediate": 3693,
      "generated_package\",\"\",\"\",\"def": 3694,
      "generated_package\":s": 3695,
      "typer.Exit(2)\",\"": 3696,
      "RE.sub(\"\\\"\\\"\",strip_comment": 3697,
      "SymbolKind": 3698,
      "SymbolSignatureCard": 3699,
      "SymbolRec": 3700,
      "multiply(args.a,args.b)))": 3701,
      "multiply\",help=\"Multipl": 3702,
      "package_import=package": 3703,
      "headline⟧_\",\"": 3704,
      "part∈TIER_NAMES": 3705,
      "part∈parts)))": 3706,
      "part∈rel.split(\"": 3707,
      "field',": 3708,
      "fields:[s]": 3709,
      "fields:f": 3710,
      "top_level_classes:[s]": 3711,
      "top_level_functions:[s]": 3712,
      "top_level_consts:[s]": 3713,
      "score_trajectory:[": 3714,
      "SynergyScanReport": 3715,
      "SynergyScan.save_report": 3716,
      "ignored_segment": 3717,
      "ManifestStore.save": 3718,
      "gistry_module": 3719,
      "prompt:s⟩→s": 3720,
      "target.write_text(json.dumps(payload,indent=2,default=str),encoding=\"utf-8\")": 3721,
      "StubLLMClient.calls": 3722,
      "IntentSignature": 3723,
      "Intent\\n\\n⟦": 3724,
      "Intent\\n\\n>": 3725,
      "monadic)\\n\\n": 3726,
      "review_mar": 3727,
      "config.update(_step3_api_ke": 3728,
      "config.update(_step4_": 3729,
      "config.update(_step2_model(config[\"provider\"],config))": 3730,
      "TranscriptLog._": 3731,
      "exported_functions:[s]": 3732,
      "exported_consts:[s]": 3733,
      "exported_classes:[s]": 3734,
      "crosses_domains\"]": 3735,
      "crosses_tiers:i": 3736,
      "crosses_domains:i": 3737,
      "doc?doc.strip().split(\"\\n\",1)[0]:\"\")": 3738,
      "doc?doc.strip().split(\"\\n\",1)[0]:\"\".strip": 3739,
      "(GPT": 3740,
      "(Goog": 3741,
      "(detect": 3742,
      "(local,": 3743,
      "(local_path)": 3744,
      "(path.as_posix())": 3745,
      "(path.parent.mkdir(parents=true,exist_ok=true)": 3746,
      ")≥tier_index(": 3747,
      "*.eg": 3748,
      ",max_depth": 3749,
      ",max_chains=max": 3750,
      "._\\n\\n##": 3751,
      ".starts": 3752,
      ".utcnow": 3753,
      ".utc).isoformat(timespec=\"seconds\")": 3754,
      "/s\"⟦slug": 3755,
      "0,8*len(": 3756,
      "00**\"+": 3757,
      "Divide": 3758,
      "MAP.get(": 3759,
      "PackageNot": 3760,
      "STRY": 3761,
      "TypedDi": 3762,
      "WireReport": 3763,
      "WireVi": 3764,
      "_humaniz": 3765,
      "_name:s⟩→s": 3766,
      "_models": 3767,
      "_calls:i⟩": 3768,
      "_step1_provider": 3769,
      "_step5_": 3770,
      "_ollama(url": 3771,
      "`⟦llm": 3772,
      "`⟦arc⟧`\",s\"-": 3773,
      "bridges:[s]": 3774,
      "creates": 3775,
      "evolve_": 3776,
      "evolve`.\\n\\n##": 3777,
      "failure_": 3778,
      "failed:i": 3779,
      "hand-shap": 3780,
      "higher": 3781,
      "higher.": 3782,
      "izard": 3783,
      "ker:s⟩": 3784,
      "manifest_dir:_⟩": 3785,
      "operate": 3786,
      "operation\",required": 3787,
      "ran:b": 3788,
      "rank_chain": 3789,
      "so\",\"": 3790,
      "slug:s": 3791,
      "venv/\\nvenv": 3792,
      "when": 3793,
      "why:[s]": 3794,
      "were": 3795,
      "{s}": 3796,
      "⟦chain[\"final_output": 3797,
      "⟦chain[\"crosses_domains\"]": 3798,
      "⟨chain:_⟩→s": 3799,
      "⟨chain:[s]": 3800,
      "⟨rel:s⟩→s": 3801,
      "⟨rel_part": 3802,
      "replace(\"`\",\"'\")": 3803,
      "only**": 3804,
      "install.\\nROOT": 3805,
      "\",\"\",s\"Generated": 3806,
      "\",\"\",s\"Exit": 3807,
      "\",\"shared_schema\",\"shared_": 3808,
      "ordinate": 3809,
      "standard:\\n\\n": 3810,
      "gemini|": 3811,
      "gemini_key:_": 3812,
      ":s⟩→[s]": 3813,
      ":s⟩→{s}": 3814,
      "coverage\\n.atomadic-forge": 3815,
      "s\"Compose": 3816,
      "s\"Coordinate": 3817,
      "parse.Argument": 3818,
      "parse_arg": 3819,
      "cture\\n\\nTh": 3820,
      "logic\\n-": 3821,
      "load_config(project_dir": 3822,
      "adapter.\",\"": 3823,
      "--consumer-args).')]": 3824,
      "to_tier:s⟩→b": 3825,
      "verb_signature:f": 3826,
      "verb_signature:[s]": 3827,
      "is_ignored_segment": 3828,
      "doc_tokens:[s]": 3829,
      "doc_tokens:f": 3830,
      "target_dir/s\"⟦slug": 3831,
      "callable',": 3832,
      "keys':": 3833,
      "_symbol": 3834,
      "add_parser.add_argument(\"a\",type=int,help=\"First": 3835,
      "add_parser.add_argument(\"b\",type=int,help=\"Second": 3836,
      "domains\"])": 3837,
      "merge_configs": 3838,
      "merge_configs(local_cfg": 3839,
      "commands_dir:_": 3840,
      "commands_dir/_": 3841,
      "sys.path:\\n": 3842,
      "sys.path.insert": 3843,
      "_cache/\\n.ru": 3844,
      "candidates=candidates,": 3845,
      "candidates=rank_chain": 3846,
      "candidates:[_]⟩": 3847,
      "orchestrators": 3848,
      "orchestrators\\n-": 3849,
      "),\"\")": 3850,
      "),\"```\",\"\",\"##": 3851,
      "available)\"])": 3852,
      "tier_inventory:{s:i}⟩": 3853,
      "tier_inventory=dict(tier_inv)))": 3854,
      "catalog_size:i": 3855,
      "catalog_size=len(catalog),chain_count_consider": 3856,
      "source_repo:s": 3857,
      "source_repos:[s]": 3858,
      "\".join((s\"⟦s:.0f⟧": 3859,
      "result.score_trajectory))": 3860,
      "E_SUBST": 3861,
      "E_SUFFI": 3862,
      "_append": 3863,
      "upward-import": 3864,
      "wrapper:_⟩": 3865,
      "local_cfg=read_config_file": 3866,
      "has_class:b": 3867,
      "has_class_attr": 3868,
      "sponder:_": 3869,
      "render_readme": 3870,
      "render_tests_init": 3871,
      "render_tests_conftest": 3872,
      "tests/\",s\"forge": 3873,
      "cli_demo_returncode:i": 3874,
      "cli_demo_returncode⟧`": 3875,
      ".split(\"_\")": 3876,
      "openai_key:_": 3877,
      "∨\"(no": 3878,
      "divide_parser.add_argument(\"a\",type=int,help=\"First": 3879,
      "divide_parser.add_argument(\"b\",type=int,help=\"Second": 3880,
      "str(SRC)": 3881,
      "str(SRC))\\n\"": 3882,
      "package_name:_": 3883,
      "subtract_parser.add_argument(\"a\",type=int,help=\"First": 3884,
      "subtract_parser.add_argument(\"b\",type=int,help=\"Second": 3885,
      "⟨self:Commandsmith⟩→[_]": 3886,
      "1_provider()": 3887,
      "_chains_count:i⟩": 3888,
      "lang_label⟧": 3889,
      "shaping": 3890,
      "domain_inventory:{s:i}": 3891,
      "domain_inventory=dict(domain_inv),": 3892,
      "EmergentScanReport(schema_version": 3893,
      "global_:_": 3894,
      "global_.items()": 3895,
      "global_cfg=read_config_file": 3896,
      "_SENSITIVE_SUBST": 3897,
      "passed:i": 3898,
      "passes.\",\"-": 3899,
      "smoke_results:{s:b": 3900,
      "workflows": 3901,
      "rounds:i": 3902,
      "segment∈IGNORED_DIRS∨segment": 3903,
      "field_types:f": 3904,
      "field_types:{s": 3905,
      "final_output_type:s": 3906,
      "⟦preset.name⟧`\",\"\",s\"_⟦preset.": 3907,
      "(target=self.dir/s\"⟦": 3908,
      "(target=self.commands_dir/_": 3909,
      "DemoResult": 3910,
      "DemoPre": 3911,
      "duration_s:f": 3912,
      "module_name)\",\"\"]))": 3913,
      "module_lines,\"]": 3914,
      "module_lines=\"\\n\".join((": 3915,
      "default_export_kind:s": 3916,
      "default_export_keys:[s]": 3917,
      "specific,": 3918,
      "multiply_parser.add_argument(\"a\",type=int,help=\"First": 3919,
      "multiply_parser.add_argument(\"b\",type=int,help=\"Second": 3920,
      "EXTS?TY": 3921,
      "ValueError(e)": 3922,
      "ValueError(exc)": 3923,
      "OpenAIClient": 3924,
      "_PRESETS[name": 3925,
      "findings))": 3926,
      "piece∈_SENSITIVE_SUBST": 3927,
      "sibling_imports:[s]": 3928,
      "sibling_imports:f": 3929,
      "\",\"\",\"```bash\",\"$": 3930,
      "tier_index(from_tier": 3931,
      "rounds_completed:i": 3932,
      "method_names:[s]": 3933,
      "method_names:f": 3934,
      "AnthropicClient": 3935,
      "CRIPT_EXTS": 3936,
      "CRIPT_EXTS?TY": 3937,
      "GeminiClient": 3938,
      "MODULES:\",\"": 3939,
      "OllamaClient": 3940,
      "_stdout∨\"(no": 3941,
      "_depth,max_chains=max": 3942,
      "`run`/`main`": 3943,
      "effects:[s]": 3944,
      "effect_distribution:{s:i}": 3945,
      "free,": 3946,
      "llm_name:s⟩→s": 3947,
      "vocabulary:[s]": 3948,
      "vocabulary\",\"phase_omission": 3949,
      "resolve().relative_to(cwd).": 3950,
      "anthropic_key:_": 3951,
      "anthropic|openai": 3952,
      "annotations\\n\\nimport": 3953,
      "annotations\",\"\",\"import": 3954,
      "converged:b": 3955,
      "package_root,package)": 3956,
      "package_root,package=self.package_name": 3957,
      "isinstance(dat": 3958,
      "isinstance(consumer_args,": 3959,
      "chain_count_considered:i": 3960,
      "choice=_prompt": 3961,
      "choice,\"auto": 3962,
      "relative_to(cwd).as_posix())": 3963,
      "payload.get('schema')\",\"": 3964,
      "payload.get('schema_version')": 3965,
      "LANGUAGE": 3966,
      "LANGUAGES": 3967,
      "has_self_assign:b": 3968,
      "has_self_assign:b⟩": 3969,
      "cleaned=re.sub(\"^(atomadic_forge_se": 3970,
      "_balance_pair(src,open_idx,\"[\",\"": 3971,
      "_balance_pair(src,open_idx,\"(\",\")\")": 3972,
      "CherryPickManifest": 3973,
      "CherryPickIte": 3974,
      "importlib.import_module(⟦package⟧)\"": 3975,
      "importlib.import_module(module_name)\",\"\"]))": 3976,
      "ignore[import-not-found]\",\"": 3977,
      "ignore[import-not-found]\",s\"": 3978,
      "(k,v)∈local.items()": 3979,
      "(k,v)∈global_.items()": 3980,
      "DEFAULT_CONFIG)": 3981,
      "DEFAULT_LANGUAGE": 3982,
      "json.JSONDecodeError):\",\"": 3983,
      "\"You": 3984,
      "\"~/.atomadic-forge\"": 3985,
      "\"config.json\"": 3986,
      "\"__pycache": 3987,
      "\"python\"": 3988,
      "\"?\"Jav": 3989,
      "'').split": 3990,
      "'\\nif": 3991,
      "'src'\\nif": 3992,
      "'producer_payload_": 3993,
      "'result':": 3994,
      "'artifact_size_": 3995,
      "'phase_chain':": 3996,
      "'schema_id':": 3997,
      "(Elli": 3998,
      "(Worker": 3999,
      "(d=project": 4000,
      "(f.write(json.dumps(": 4001,
      "(cards),encoding=\"utf-8\")": 4002,
      "(tier=next": 4003,
      "(modules=_module_": 4004,
      "(defaults=dict(": 4005,
      "(parser=arg": 4006,
      "(catalog=self.catalog": 4007,
      "(phase)": 4008,
      "(space-se": 4009,
      "(global_path)": 4010,
      "(words=": 4011,
      "(print(s\"Error": 4012,
      "(merged=dict(defaults)": 4013,
      "('--consumer-args',\",\"": 4014,
      "(arc=\"": 4015,
      "(suffix=source_": 4016,
      "(everything": 4017,
      "(domains=\"": 4018,
      "(result.score_trajectory),\"```\",\"\",\"##": 4019,
      "(parts=path.parts)": 4020,
      "(lang_label=language": 4021,
      "(Anthropic)\",\"[4]": 4022,
      "(cleaned=re.sub(\"^a\\\\": 4023,
      "(safe_intent=intent.strip().": 4024,
      "(!s\"unkno": 4025,
      ")∨any((piece∈": 4026,
      ")[\"models\"]": 4027,
      "*consumer_args]\",\"": 4028,
      "+\",text∨\"": 4029,
      ",sub_dirs=": 4030,
      ",global_cfg,defaults))": 4031,
      ",top_n=top_n": 4032,
      ",domain_jump_required=domain_jump_required": 4033,
      "-]+\",text∨\"": 4034,
      ".capitalize": 4035,
      ".emergent.scan": 4036,
      ".isiden": 4037,
      ".endswith(_SENSITIV": 4038,
      ".py`": 4039,
      ".index(tier))": 4040,
      ".now(_dt.": 4041,
      ".keys())": 4042,
      "//atomadic.te": 4043,
      "/100**\"+": 4044,
      "/v1\",": 4045,
      "/\"src\"": 4046,
      "0-9_\\\\": 4047,
      "1/5:": 4048,
      ":repo)": 4049,
      ":.0f⟧/100**\"+": 4050,
      ":2000],\",\"": 4051,
      "=max_depth,max_chains=max": 4052,
      "?src:repo)": 4053,
      "ASCRIPT_EXTS?TY": 4054,
      "Assimil": 4055,
      "ALL_SOU": 4056,
      "Body": 4057,
      "CertifyResult": 4058,
      "Claude": 4059,
      "FeatureSurface": 4060,
      "FoundError": 4061,
      "GED\":\"\",s\"-": 4062,
      "Help": 4063,
      "Install\\n\\n```bash\\n": 4064,
      "IDER_MAP.get(": 4065,
      "JsSurface": 4066,
      "JAVASCRIPT_EXTS?TY": 4067,
      "K_COMMENT_RE.sub(\"\",src)": 4068,
      "LS.get(tier,\"": 4069,
      "Layout": 4070,
      "Language": 4071,
      "Lives": 4072,
      "MPLATE": 4073,
      "Make": 4074,
      "MergeDec": 4075,
      "NexusClient": 4076,
      "NG_RE.sub(\"\\\"\\\"\",strip_comment": 4077,
      "PYTHON": 4078,
      "Parser(de": 4079,
      "Provider": 4080,
      "Pass": 4081,
      "PESCRIPT_EXTS": 4082,
      "PKG_ROOT_TE": 4083,
      "RKER,s\"#": 4084,
      "ScoutReport": 4085,
      "Subtract": 4086,
      "Similarity": 4087,
      "Treat": 4088,
      "Verify": 4089,
      "What": 4090,
      "XES)∨any((piece∈": 4091,
      "[])\",\"": 4092,
      "[\",module_lines,\"]": 4093,
      "[0].lower():\"mis": 4094,
      "[language].format(": 4095
    },
    "merges": [
      [
        "e",
        "r"
      ],
      [
        "\"",
        ","
      ],
      [
        "r",
        "e"
      ],
      [
        "o",
        "n"
      ],
      [
        "i",
        "n"
      ],
      [
        "a",
        "r"
      ],
      [
        "a",
        "t"
      ],
      [
        "\",",
        "\""
      ],
      [
        "o",
        "r"
      ],
      [
        "s",
        "t"
      ],
      [
        "g",
        "e"
      ],
      [
        "r",
        "o"
      ],
      [
        "e",
        "n"
      ],
      [
        ":",
        "s"
      ],
      [
        "a",
        "n"
      ],
      [
        "s",
        "e"
      ],
      [
        "\\",
        "n"
      ],
      [
        "c",
        "o"
      ],
      [
        "s",
        "u"
      ],
      [
        "a",
        "l"
      ],
      [
        "d",
        "i"
      ],
      [
        "t",
        "i"
      ],
      [
        "a",
        "c"
      ],
      [
        "d",
        "e"
      ],
      [
        "p",
        "ro"
      ],
      [
        "s",
        ":"
      ],
      [
        "t",
        "e"
      ],
      [
        "c",
        "on"
      ],
      [
        "d",
        "_"
      ],
      [
        "c",
        "h"
      ],
      [
        "d",
        "u"
      ],
      [
        "u",
        "t"
      ],
      [
        "m",
        "a"
      ],
      [
        ":",
        "_"
      ],
      [
        "l",
        "e"
      ],
      [
        "m",
        "p"
      ],
      [
        "f",
        "i"
      ],
      [
        "u",
        "n"
      ],
      [
        "m",
        "e"
      ],
      [
        "en",
        "t"
      ],
      [
        "⟩",
        "→"
      ],
      [
        "r",
        "c"
      ],
      [
        "\"",
        ")"
      ],
      [
        "er",
        "_"
      ],
      [
        "st",
        "r"
      ],
      [
        "a",
        "ge"
      ],
      [
        "1",
        "π"
      ],
      [
        "at",
        "e"
      ],
      [
        "ac",
        "k"
      ],
      [
        "m",
        "o"
      ],
      [
        "or",
        "t"
      ],
      [
        "[",
        "s"
      ],
      [
        "a",
        "s"
      ],
      [
        "i",
        "t"
      ],
      [
        "er",
        "."
      ],
      [
        "s",
        "i"
      ],
      [
        "ar",
        "g"
      ],
      [
        "s",
        "\""
      ],
      [
        "y",
        "p"
      ],
      [
        "ar",
        "d"
      ],
      [
        "ack",
        "age"
      ],
      [
        "a",
        "me"
      ],
      [
        "p",
        "ar"
      ],
      [
        "c",
        "t"
      ],
      [
        "e",
        "x"
      ],
      [
        "p",
        "ackage"
      ],
      [
        "pro",
        "du"
      ],
      [
        "d",
        "o"
      ],
      [
        "n",
        "ame"
      ],
      [
        "t",
        "yp"
      ],
      [
        "produ",
        "c"
      ],
      [
        "h",
        "e"
      ],
      [
        "\\",
        "\""
      ],
      [
        "[s",
        "]"
      ],
      [
        ")",
        ")"
      ],
      [
        "m",
        "er"
      ],
      [
        "\"",
        "]"
      ],
      [
        "[",
        "\""
      ],
      [
        "f",
        "or"
      ],
      [
        "(",
        "\""
      ],
      [
        "l",
        "i"
      ],
      [
        "an",
        "d"
      ],
      [
        "l",
        "o"
      ],
      [
        "m",
        "m"
      ],
      [
        "a",
        "d"
      ],
      [
        "c",
        "ard"
      ],
      [
        "n",
        "o"
      ],
      [
        "con",
        "su"
      ],
      [
        "-",
        "-"
      ],
      [
        "l",
        "t"
      ],
      [
        "u",
        "re"
      ],
      [
        "'",
        ","
      ],
      [
        "s",
        "("
      ],
      [
        "in",
        "g"
      ],
      [
        "ge",
        "t"
      ],
      [
        "ch",
        "e"
      ],
      [
        "mp",
        "ort"
      ],
      [
        ":",
        "i"
      ],
      [
        "s",
        "."
      ],
      [
        "s:",
        "[s]"
      ],
      [
        ")",
        "\",\""
      ],
      [
        "e",
        "_"
      ],
      [
        "i",
        "mport"
      ],
      [
        "t",
        "r"
      ],
      [
        "v",
        "i"
      ],
      [
        "\",",
        "s\""
      ],
      [
        "at",
        "i"
      ],
      [
        "su",
        "b"
      ],
      [
        "t",
        "o"
      ],
      [
        "at",
        "h"
      ],
      [
        "i",
        "p"
      ],
      [
        "par",
        "s"
      ],
      [
        "mm",
        "and"
      ],
      [
        "_",
        "co"
      ],
      [
        "a",
        "p"
      ],
      [
        "u",
        "r"
      ],
      [
        "⟩→",
        "s"
      ],
      [
        "typ",
        "er."
      ],
      [
        "\\\"",
        "\\\""
      ],
      [
        "ati",
        "on"
      ],
      [
        "=",
        "\""
      ],
      [
        "`",
        "`"
      ],
      [
        "s",
        "rc"
      ],
      [
        "u",
        "m"
      ],
      [
        "v",
        "er"
      ],
      [
        "o",
        "ut"
      ],
      [
        "u",
        "e"
      ],
      [
        "di",
        "c"
      ],
      [
        "te",
        "st"
      ],
      [
        "produc",
        "er"
      ],
      [
        "\"]",
        "⟧"
      ],
      [
        "card",
        "[\""
      ],
      [
        "consu",
        "mer"
      ],
      [
        "i",
        "s"
      ],
      [
        "n",
        "er"
      ],
      [
        "y",
        "_"
      ],
      [
        "⟦",
        "card[\""
      ],
      [
        "on",
        "e"
      ],
      [
        "in",
        "t"
      ],
      [
        "do",
        "c"
      ],
      [
        ")",
        "."
      ],
      [
        "a",
        "in"
      ],
      [
        "c",
        "an"
      ],
      [
        "p",
        "ath"
      ],
      [
        "di",
        "r"
      ],
      [
        "con",
        "fi"
      ],
      [
        "N",
        "one"
      ],
      [
        "i",
        "f"
      ],
      [
        "n",
        "t"
      ],
      [
        "de",
        "f"
      ],
      [
        "ma",
        "dic"
      ],
      [
        "arg",
        "s"
      ],
      [
        "confi",
        "g"
      ],
      [
        "b",
        "o"
      ],
      [
        "s",
        "che"
      ],
      [
        "for",
        "ge"
      ],
      [
        ":",
        "\",\""
      ],
      [
        "d",
        "ate"
      ],
      [
        "j",
        "s"
      ],
      [
        "p",
        "ut"
      ],
      [
        "t",
        "ar"
      ],
      [
        "ti",
        "er"
      ],
      [
        "ti",
        "on"
      ],
      [
        "ac",
        "t"
      ],
      [
        "ch",
        "ain"
      ],
      [
        "ma",
        "in"
      ],
      [
        "sche",
        "ma"
      ],
      [
        "tar",
        "get"
      ],
      [
        "c",
        "al"
      ],
      [
        "e",
        "s"
      ],
      [
        "k",
        "e"
      ],
      [
        "l",
        "a"
      ],
      [
        "\\n",
        "\\n"
      ],
      [
        "du",
        "le"
      ],
      [
        "js",
        "on"
      ],
      [
        "a",
        "re"
      ],
      [
        "e",
        "ct"
      ],
      [
        "l",
        "p"
      ],
      [
        "p",
        "l"
      ],
      [
        "in",
        "d"
      ],
      [
        "mo",
        "dule"
      ],
      [
        "si",
        "on"
      ],
      [
        "name",
        ":s"
      ],
      [
        "a",
        "i"
      ],
      [
        "e",
        "p"
      ],
      [
        "l",
        "in"
      ],
      [
        "o",
        "g"
      ],
      [
        "o",
        "t"
      ],
      [
        "o",
        "madic"
      ],
      [
        "p",
        "re"
      ],
      [
        "r",
        "un"
      ],
      [
        "s",
        "_"
      ],
      [
        "at",
        "omadic"
      ],
      [
        "he",
        "lp"
      ],
      [
        "3",
        "ω"
      ],
      [
        "_",
        "s"
      ],
      [
        "a",
        "u"
      ],
      [
        "e",
        "l"
      ],
      [
        "i",
        "d"
      ],
      [
        "j",
        "ect"
      ],
      [
        "l",
        "f"
      ],
      [
        "p",
        "o"
      ],
      [
        "t",
        "s"
      ],
      [
        "in",
        "v"
      ],
      [
        "ro",
        "ot"
      ],
      [
        "se",
        "lf"
      ],
      [
        "ti",
        "f"
      ],
      [
        "fi",
        "le"
      ],
      [
        "def",
        "au"
      ],
      [
        "defau",
        "lt"
      ],
      [
        "o",
        "u"
      ],
      [
        "t",
        "h"
      ],
      [
        "x",
        "t"
      ],
      [
        "at",
        "ure"
      ],
      [
        "su",
        "lt"
      ],
      [
        "ad",
        "d_"
      ],
      [
        "schema",
        "_"
      ],
      [
        "\"",
        "."
      ],
      [
        "*",
        "*"
      ],
      [
        ",",
        "\",\""
      ],
      [
        "=",
        "'"
      ],
      [
        "F",
        "I"
      ],
      [
        "T",
        "r"
      ],
      [
        "c",
        "at"
      ],
      [
        "d",
        "y"
      ],
      [
        "d",
        "er"
      ],
      [
        "e",
        "d"
      ],
      [
        "i",
        "te"
      ],
      [
        "t",
        "ur"
      ],
      [
        "\",\"",
        "\",\""
      ],
      [
        "or",
        "y"
      ],
      [
        "co",
        "re"
      ],
      [
        "te",
        "xt"
      ],
      [
        "do",
        "main"
      ],
      [
        "produc",
        "er_"
      ],
      [
        "mer",
        "ge"
      ],
      [
        "no",
        "t"
      ],
      [
        "out",
        "put"
      ],
      [
        "tur",
        "n"
      ],
      [
        "O",
        "N"
      ],
      [
        "_",
        "re"
      ],
      [
        "c",
        "li"
      ],
      [
        "e",
        "c"
      ],
      [
        "g",
        "n"
      ],
      [
        "re",
        "sult"
      ],
      [
        "co",
        "mmand"
      ],
      [
        "it",
        "h"
      ],
      [
        "typ",
        "e"
      ],
      [
        "pars",
        "er"
      ],
      [
        "pars",
        "er."
      ],
      [
        "ver",
        "sion"
      ],
      [
        "bo",
        "dy"
      ],
      [
        "(",
        ")"
      ],
      [
        "(",
        "_"
      ],
      [
        ":",
        "b"
      ],
      [
        "_",
        "root"
      ],
      [
        "b",
        "le"
      ],
      [
        "d",
        "er_"
      ],
      [
        "f",
        "un"
      ],
      [
        "i",
        "re"
      ],
      [
        "o",
        "l"
      ],
      [
        "r",
        "or"
      ],
      [
        "ar",
        "tif"
      ],
      [
        "se",
        "t"
      ],
      [
        "co",
        "de"
      ],
      [
        "di",
        "date"
      ],
      [
        "ch",
        "o"
      ],
      [
        "ex",
        "c"
      ],
      [
        "\\\"\\\"",
        "\\\""
      ],
      [
        "``",
        "`"
      ],
      [
        "fun",
        "c"
      ],
      [
        "artif",
        "act"
      ],
      [
        "'",
        ":"
      ],
      [
        "/",
        "\\n"
      ],
      [
        "C",
        "o"
      ],
      [
        "_",
        "dir"
      ],
      [
        "a",
        "se"
      ],
      [
        "f",
        "e"
      ],
      [
        "f",
        "ro"
      ],
      [
        "m",
        "d_"
      ],
      [
        "n",
        "um"
      ],
      [
        "n",
        "der_"
      ],
      [
        "p",
        "y"
      ],
      [
        "p",
        "en"
      ],
      [
        "s",
        "="
      ],
      [
        "s",
        "y"
      ],
      [
        "t",
        "he"
      ],
      [
        "u",
        "l"
      ],
      [
        "ge",
        "ner"
      ],
      [
        ":s",
        "⟩"
      ],
      [
        "s:",
        "i"
      ],
      [
        "un",
        "t"
      ],
      [
        "⟩→",
        "_"
      ],
      [
        "um",
        "ent"
      ],
      [
        "json",
        "."
      ],
      [
        "lin",
        "e"
      ],
      [
        "help",
        "=\""
      ],
      [
        "ou",
        "rc"
      ],
      [
        "schema_",
        "version"
      ],
      [
        "fro",
        "m"
      ],
      [
        "gener",
        "ate"
      ],
      [
        "\"",
        "\\n"
      ],
      [
        "(",
        "("
      ],
      [
        "=",
        "Tr"
      ],
      [
        "C",
        "li"
      ],
      [
        "E",
        "S"
      ],
      [
        "[",
        "_"
      ],
      [
        "_",
        "c"
      ],
      [
        "b",
        "er"
      ],
      [
        "c",
        "r"
      ],
      [
        "c",
        "md_"
      ],
      [
        "f",
        "g"
      ],
      [
        "s",
        "ourc"
      ],
      [
        "re",
        "turn"
      ],
      [
        "or",
        "che"
      ],
      [
        "pro",
        "ject"
      ],
      [
        "str",
        "ing"
      ],
      [
        "str",
        "ip"
      ],
      [
        "ue",
        ")\",\""
      ],
      [
        "ner",
        "g"
      ],
      [
        "can",
        "didate"
      ],
      [
        "cho",
        "("
      ],
      [
        "num",
        "ber"
      ],
      [
        "=Tr",
        "ue)\",\""
      ],
      [
        "Cli",
        "ent"
      ],
      [
        "orche",
        "str"
      ],
      [
        "#",
        "#"
      ],
      [
        ")",
        ","
      ],
      [
        "/",
        "`"
      ],
      [
        ":",
        "f"
      ],
      [
        "C",
        "ON"
      ],
      [
        "E",
        "r"
      ],
      [
        "E",
        "x"
      ],
      [
        "G",
        "_"
      ],
      [
        "_",
        "id"
      ],
      [
        "a",
        "4"
      ],
      [
        "a",
        "v"
      ],
      [
        "b",
        "e"
      ],
      [
        "j",
        "o"
      ],
      [
        "⟨",
        "name:s"
      ],
      [
        "al",
        "og"
      ],
      [
        "ti",
        "er_"
      ],
      [
        "de",
        "mo"
      ],
      [
        "pro",
        "vi"
      ],
      [
        "--",
        "--"
      ],
      [
        "_co",
        "unt"
      ],
      [
        "producer",
        "\"]⟧"
      ],
      [
        "consumer",
        "\"]⟧"
      ],
      [
        "⟦card[\"",
        "producer\"]⟧"
      ],
      [
        "⟦card[\"",
        "consumer\"]⟧"
      ],
      [
        "doc",
        "string"
      ],
      [
        "atomadic",
        "_"
      ],
      [
        "\".",
        "jo"
      ],
      [
        "cat",
        "alog"
      ],
      [
        "[_",
        "]"
      ],
      [
        "cr",
        "ip"
      ],
      [
        "sourc",
        "e_"
      ],
      [
        "nerg",
        "y"
      ],
      [
        "Er",
        "ror"
      ],
      [
        "\".jo",
        "in"
      ],
      [
        ":",
        "{"
      ],
      [
        "=",
        "_"
      ],
      [
        "F",
        "or"
      ],
      [
        "L",
        "L"
      ],
      [
        "]",
        "\",\""
      ],
      [
        "_",
        "o"
      ],
      [
        "_",
        "ke"
      ],
      [
        "a",
        "ble"
      ],
      [
        "b",
        "al"
      ],
      [
        "e",
        "m"
      ],
      [
        "i",
        "c"
      ],
      [
        "l",
        "as"
      ],
      [
        "m",
        "er_"
      ],
      [
        "p",
        "ort"
      ],
      [
        "p",
        "are"
      ],
      [
        "q",
        "u"
      ],
      [
        "r",
        "ai"
      ],
      [
        "s",
        "core"
      ],
      [
        "w",
        "ith"
      ],
      [
        "⟨",
        "⟩→s"
      ],
      [
        "⟨",
        "schema_version"
      ],
      [
        "er",
        "r"
      ],
      [
        "re",
        "d"
      ],
      [
        "de",
        "l"
      ],
      [
        ":_",
        "⟩"
      ],
      [
        ":_",
        "⟩→s"
      ],
      [
        "mo",
        "del"
      ],
      [
        "it",
        "("
      ],
      [
        "package",
        "⟧"
      ],
      [
        "lo",
        "w"
      ],
      [
        "consu",
        "mer_"
      ],
      [
        "y_",
        "orchestr"
      ],
      [
        "run",
        "("
      ],
      [
        "_s",
        "y_orchestr"
      ],
      [
        "result",
        "."
      ],
      [
        "generate",
        "d_"
      ],
      [
        "CON",
        "FI"
      ],
      [
        "a4",
        "_sy_orchestr"
      ],
      [
        "provi",
        "der"
      ],
      [
        "atomadic_",
        "forge"
      ],
      [
        "crip",
        "t"
      ],
      [
        "For",
        "ge"
      ],
      [
        "rai",
        "se"
      ],
      [
        "⟨schema_version",
        ":s"
      ],
      [
        "a4_sy_orchestr",
        "ation"
      ],
      [
        "\"",
        "+"
      ],
      [
        ",",
        "help=\""
      ],
      [
        "=",
        "int"
      ],
      [
        "A",
        "r"
      ],
      [
        "D",
        "I"
      ],
      [
        "E",
        "_"
      ],
      [
        "S",
        "can"
      ],
      [
        "_",
        "ap"
      ],
      [
        "c",
        "es"
      ],
      [
        "d",
        "s"
      ],
      [
        "d",
        "ing"
      ],
      [
        "e",
        "st"
      ],
      [
        "e",
        "d_"
      ],
      [
        "h",
        "ase"
      ],
      [
        "i",
        "st"
      ],
      [
        "m",
        "ent"
      ],
      [
        "r",
        "st"
      ],
      [
        "u",
        "p"
      ],
      [
        "w",
        "r"
      ],
      [
        "∅",
        ")"
      ],
      [
        "⟦",
        "package⟧"
      ],
      [
        "ac",
        "e"
      ],
      [
        "s:",
        "[_]"
      ],
      [
        "du",
        "mp"
      ],
      [
        "ut",
        "f"
      ],
      [
        "ate",
        "d"
      ],
      [
        "arg",
        "s."
      ],
      [
        "par",
        "ts"
      ],
      [
        "lo",
        "cal"
      ],
      [
        "ure",
        "_"
      ],
      [
        "tr",
        "ue"
      ],
      [
        "ap",
        "t"
      ],
      [
        "typer.",
        "Ex"
      ],
      [
        "path",
        "."
      ],
      [
        "cal",
        "l"
      ],
      [
        "pre",
        "set"
      ],
      [
        "inv",
        "o"
      ],
      [
        "self",
        "."
      ],
      [
        "producer_",
        "args"
      ],
      [
        "parser.",
        "add_"
      ],
      [
        "func",
        "tion"
      ],
      [
        "json.",
        "dump"
      ],
      [
        "\".join",
        "("
      ],
      [
        "LL",
        "M"
      ],
      [
        "pare",
        "nt"
      ],
      [
        "CONFI",
        "G_"
      ],
      [
        "DI",
        "R"
      ],
      [
        "typer.Ex",
        "it("
      ],
      [
        "json.dump",
        "s("
      ],
      [
        "(",
        ")."
      ],
      [
        "-",
        "8"
      ],
      [
        ".",
        "get"
      ],
      [
        ":",
        "[s]"
      ],
      [
        "=",
        "2"
      ],
      [
        "A",
        "M"
      ],
      [
        "E",
        "R"
      ],
      [
        "N",
        "AM"
      ],
      [
        "R",
        "E"
      ],
      [
        "R",
        "ep"
      ],
      [
        "S",
        "y"
      ],
      [
        "_",
        "demo"
      ],
      [
        "_",
        "docstring"
      ],
      [
        "a",
        ","
      ],
      [
        "a",
        "y"
      ],
      [
        "h",
        "as"
      ],
      [
        "i",
        "fi"
      ],
      [
        "p",
        "hase"
      ],
      [
        "s",
        ","
      ],
      [
        "s",
        "p"
      ],
      [
        "\",",
        "type"
      ],
      [
        "re",
        "po"
      ],
      [
        "re",
        "nder_"
      ],
      [
        "ar",
        "y"
      ],
      [
        "at",
        "_"
      ],
      [
        "st",
        "an"
      ],
      [
        "en",
        "co"
      ],
      [
        "se",
        "cho("
      ],
      [
        "di",
        "ct"
      ],
      [
        "ti",
        "pl"
      ],
      [
        "s:",
        "f"
      ],
      [
        "te",
        "d"
      ],
      [
        "fi",
        "x"
      ],
      [
        "ent",
        "=2"
      ],
      [
        "⟩→",
        "i"
      ],
      [
        "si",
        "gn"
      ],
      [
        "arg",
        "ument"
      ],
      [
        "ct",
        "x"
      ],
      [
        "lo",
        "ad"
      ],
      [
        "no",
        "de"
      ],
      [
        "tr",
        "act"
      ],
      [
        "vi",
        "de"
      ],
      [
        "ap",
        "p"
      ],
      [
        "typer.",
        "secho("
      ],
      [
        "test",
        "s"
      ],
      [
        "tier",
        ":s"
      ],
      [
        "ind",
        "ent=2"
      ],
      [
        "merge",
        "nt"
      ],
      [
        "cli",
        "_demo"
      ],
      [
        "Co",
        "mmand"
      ],
      [
        "fe",
        "ature"
      ],
      [
        "ul",
        "tipl"
      ],
      [
        "fg",
        "='"
      ],
      [
        "number",
        "\")"
      ],
      [
        "_count",
        ":i"
      ],
      [
        "err",
        "=True)\",\""
      ],
      [
        "atomadic_forge",
        "."
      ],
      [
        "=int",
        ",help=\""
      ],
      [
        "Ar",
        "g"
      ],
      [
        "utf",
        "-8"
      ],
      [
        "parser.add_",
        "argument"
      ],
      [
        "Rep",
        "ort"
      ],
      [
        "\",type",
        "=int,help=\""
      ],
      [
        "enco",
        "ding"
      ],
      [
        "parser.add_argument",
        "(\""
      ],
      [
        "'",
        ")"
      ],
      [
        "'",
        "producer"
      ],
      [
        "-",
        "forge"
      ],
      [
        ".",
        "s"
      ],
      [
        ":",
        "\""
      ],
      [
        "C",
        "ard"
      ],
      [
        "E",
        "mergent"
      ],
      [
        "L",
        "I"
      ],
      [
        "T",
        "I"
      ],
      [
        "T",
        "S"
      ],
      [
        "T",
        "_"
      ],
      [
        "_",
        "con"
      ],
      [
        "_",
        "path"
      ],
      [
        "_",
        "file"
      ],
      [
        "_",
        "text"
      ],
      [
        "a",
        "d_"
      ],
      [
        "c",
        "apt"
      ],
      [
        "f",
        "n"
      ],
      [
        "i",
        "g"
      ],
      [
        "i",
        "gn"
      ],
      [
        "i",
        "_ke"
      ],
      [
        "m",
        "bo"
      ],
      [
        "m",
        "ultipl"
      ],
      [
        "o",
        "pen"
      ],
      [
        "p",
        "ay"
      ],
      [
        "s",
        "\",\""
      ],
      [
        "∨",
        "\""
      ],
      [
        "⟨",
        "self"
      ],
      [
        "re",
        "l"
      ],
      [
        "re",
        "port"
      ],
      [
        "st",
        "ep"
      ],
      [
        "en",
        "v"
      ],
      [
        ":s",
        "⟩→s"
      ],
      [
        "an",
        "g"
      ],
      [
        "di",
        "vide"
      ],
      [
        "ti",
        "me"
      ],
      [
        "pro",
        "ces"
      ],
      [
        ":_",
        "⟩→_"
      ],
      [
        "mp",
        "o"
      ],
      [
        "str",
        "("
      ],
      [
        "it",
        "er"
      ],
      [
        "ex",
        "ec"
      ],
      [
        "package",
        "_"
      ],
      [
        "he",
        "ad"
      ],
      [
        "))",
        ")"
      ],
      [
        "\"]",
        ")"
      ],
      [
        "li",
        "st"
      ],
      [
        "sub",
        "tract"
      ],
      [
        "_co",
        "mmand"
      ],
      [
        "src",
        "/"
      ],
      [
        "\\n\\n",
        "##"
      ],
      [
        "pl",
        "it"
      ],
      [
        "atomadic",
        "-forge"
      ],
      [
        "/\\n",
        "."
      ],
      [
        "\"\\n",
        "\".join("
      ],
      [
        "wr",
        "ite"
      ],
      [
        "mbo",
        "l"
      ],
      [
        "⟨self",
        ":"
      ],
      [
        "!",
        "="
      ],
      [
        "'",
        "-"
      ],
      [
        "'",
        "atomadic_forge."
      ],
      [
        "+",
        "\""
      ],
      [
        ",",
        "\""
      ],
      [
        ".",
        "un"
      ],
      [
        ".",
        "ex"
      ],
      [
        ".",
        "strip"
      ],
      [
        ".",
        "call"
      ],
      [
        ".",
        "write"
      ],
      [
        "0",
        ":\",\""
      ],
      [
        "1",
        "_"
      ],
      [
        "2",
        "_"
      ],
      [
        "=",
        "F"
      ],
      [
        "C",
        "on"
      ],
      [
        "C",
        "LI"
      ],
      [
        "E",
        "N"
      ],
      [
        "L",
        "O"
      ],
      [
        "L",
        "iter"
      ],
      [
        "M",
        "an"
      ],
      [
        "P",
        "ath"
      ],
      [
        "S",
        "e"
      ],
      [
        "[",
        "(\""
      ],
      [
        "_",
        "chain"
      ],
      [
        "_",
        "module"
      ],
      [
        "a",
        "ject"
      ],
      [
        "b",
        "as"
      ],
      [
        "f",
        "o"
      ],
      [
        "f",
        "in"
      ],
      [
        "g",
        "lo"
      ],
      [
        "k",
        "e_"
      ],
      [
        "k",
        "ind"
      ],
      [
        "l",
        "en"
      ],
      [
        "l",
        "ang"
      ],
      [
        "m",
        "',"
      ],
      [
        "p",
        "r"
      ],
      [
        "p",
        "ure"
      ],
      [
        "p",
        "ip"
      ],
      [
        "s",
        "h"
      ],
      [
        "s",
        "er"
      ],
      [
        "s",
        "\")"
      ],
      [
        "s",
        "/`"
      ],
      [
        "u",
        "b"
      ],
      [
        "v",
        "e"
      ],
      [
        "y",
        "s."
      ],
      [
        "|",
        "\\n"
      ],
      [
        "}",
        "',"
      ],
      [
        "⟨",
        "src"
      ],
      [
        "in",
        "put"
      ],
      [
        "st",
        "em"
      ],
      [
        "en",
        "d"
      ],
      [
        "se",
        ")."
      ],
      [
        "al",
        "l"
      ],
      [
        "al",
        "[(\""
      ],
      [
        "al",
        "se)."
      ],
      [
        "ut",
        "c"
      ],
      [
        "ut",
        "able"
      ],
      [
        "rc",
        ")\",\""
      ],
      [
        "[s",
        "ys."
      ],
      [
        "par",
        "t"
      ],
      [
        "))",
        "\",\""
      ],
      [
        "',",
        "\",s\""
      ],
      [
        "s(",
        ")"
      ],
      [
        "s.",
        "run("
      ],
      [
        "s:[s]",
        "⟩"
      ],
      [
        "\",s\"",
        "-"
      ],
      [
        "sub",
        "parser"
      ],
      [
        "sub",
        "proces"
      ],
      [
        "=\"",
        "utf-8"
      ],
      [
        "if",
        "est"
      ],
      [
        "la",
        "ma"
      ],
      [
        "**",
        ":"
      ],
      [
        "domain",
        "_"
      ],
      [
        "output",
        "=F"
      ],
      [
        "cli",
        "',\",s\""
      ],
      [
        "code",
        "\",\""
      ],
      [
        "```",
        "bas"
      ],
      [
        "sy",
        "nergy"
      ],
      [
        "cmd_",
        "b"
      ],
      [
        "return",
        "code\",\""
      ],
      [
        "project",
        "_dir"
      ],
      [
        "candidate",
        "_id"
      ],
      [
        "⟦card[\"producer\"]⟧",
        ","
      ],
      [
        "qu",
        "ire"
      ],
      [
        "red",
        "',"
      ],
      [
        "a4_sy_orchestration",
        ".un"
      ],
      [
        "\"+",
        "package"
      ],
      [
        "_ap",
        "i_ke"
      ],
      [
        "ed_",
        "cli',\",s\""
      ],
      [
        "ure_",
        "output=F"
      ],
      [
        "LLM",
        "Client"
      ],
      [
        "typer.Exit(",
        "rc)\",\""
      ],
      [
        "ifi",
        "ed_cli',\",s\""
      ],
      [
        "stan",
        "ts"
      ],
      [
        "typer.secho(",
        "f"
      ],
      [
        "fg='",
        "red',"
      ],
      [
        "encoding",
        "=\"utf-8"
      ],
      [
        "Emergent",
        "Scan"
      ],
      [
        "capt",
        "ure_output=F"
      ],
      [
        "pay",
        "load"
      ],
      [
        "exec",
        "utable"
      ],
      [
        "'-",
        "m',"
      ],
      [
        "'atomadic_forge.",
        "a4_sy_orchestration.un"
      ],
      [
        "Liter",
        "al[(\""
      ],
      [
        "aject",
        "ory"
      ],
      [
        "glo",
        "bal"
      ],
      [
        "len",
        "("
      ],
      [
        "|\\n",
        "|"
      ],
      [
        "alse).",
        "returncode\",\""
      ],
      [
        "[sys.",
        "executable"
      ],
      [
        "subproces",
        "s.run("
      ],
      [
        "```bas",
        "h"
      ],
      [
        "encoding=\"utf-8",
        "\")"
      ],
      [
        "capture_output=F",
        "alse).returncode\",\""
      ],
      [
        "'atomadic_forge.a4_sy_orchestration.un",
        "ified_cli',\",s\""
      ],
      [
        "[sys.executable",
        ","
      ],
      [
        "(",
        "args."
      ],
      [
        "(",
        "json.dumps("
      ],
      [
        ")",
        "+"
      ],
      [
        ",",
        "default"
      ],
      [
        ".",
        "sub"
      ],
      [
        ".",
        "\\\"\\\"\\\""
      ],
      [
        ".",
        "up"
      ],
      [
        "0",
        "]"
      ],
      [
        ":",
        "\",s\""
      ],
      [
        "=",
        "re"
      ],
      [
        "=",
        "true"
      ],
      [
        "=",
        "self."
      ],
      [
        "A",
        "L"
      ],
      [
        "A",
        "to"
      ],
      [
        "D",
        "_"
      ],
      [
        "N",
        "O"
      ],
      [
        "R",
        "C"
      ],
      [
        "R",
        "e"
      ],
      [
        "R",
        "un"
      ],
      [
        "_",
        "S"
      ],
      [
        "_",
        "_"
      ],
      [
        "_",
        "default"
      ],
      [
        "_",
        "CONFIG_"
      ],
      [
        "_",
        "tier:s"
      ],
      [
        "_",
        "feature"
      ],
      [
        "`",
        "src/"
      ],
      [
        "a",
        "0"
      ],
      [
        "a",
        "3"
      ],
      [
        "a",
        "st"
      ],
      [
        "b",
        "ack"
      ],
      [
        "c",
        "le"
      ],
      [
        "c",
        "e_"
      ],
      [
        "c",
        "las"
      ],
      [
        "g",
        "ment"
      ],
      [
        "m",
        "in"
      ],
      [
        "m",
        "is"
      ],
      [
        "m",
        "ith"
      ],
      [
        "p",
        "_"
      ],
      [
        "p",
        "as"
      ],
      [
        "r",
        "ation"
      ],
      [
        "s",
        "\\n"
      ],
      [
        "s",
        "mo"
      ],
      [
        "s",
        "mith"
      ],
      [
        "t",
        "."
      ],
      [
        "t",
        "w"
      ],
      [
        "u",
        "age"
      ],
      [
        "w",
        "or"
      ],
      [
        "x",
        "("
      ],
      [
        "z",
        "e"
      ],
      [
        "⟦",
        "preset"
      ],
      [
        "⟨",
        "card"
      ],
      [
        "⟨",
        "model"
      ],
      [
        "er",
        "()"
      ],
      [
        "at",
        "tr"
      ],
      [
        "ro",
        "un"
      ],
      [
        "se",
        "gment"
      ],
      [
        "al",
        "ue"
      ],
      [
        "s:",
        "_"
      ],
      [
        "s:",
        "b"
      ],
      [
        "ut",
        "o"
      ],
      [
        "mp",
        "le"
      ],
      [
        "fi",
        "el"
      ],
      [
        "fi",
        "rst"
      ],
      [
        "⟩→",
        "b"
      ],
      [
        "\")",
        "]"
      ],
      [
        "arg",
        "s:"
      ],
      [
        "ex",
        "p"
      ],
      [
        "name",
        "⟧"
      ],
      [
        ":i",
        "⟩→i"
      ],
      [
        "tr",
        "ajectory"
      ],
      [
        "to",
        "p_"
      ],
      [
        "ur",
        "l"
      ],
      [
        "y_",
        "env"
      ],
      [
        "int",
        "("
      ],
      [
        "int",
        "ent"
      ],
      [
        "path",
        ":_"
      ],
      [
        "None",
        ":\",\""
      ],
      [
        "None",
        ",\",\""
      ],
      [
        "target",
        ")"
      ],
      [
        "po",
        "se"
      ],
      [
        "add_",
        "parser"
      ],
      [
        "FI",
        "L"
      ],
      [
        "cat",
        "ch"
      ],
      [
        "_re",
        "nder_"
      ],
      [
        "_root",
        ":_"
      ],
      [
        "py",
        "test"
      ],
      [
        "s:i",
        "}"
      ],
      [
        "\"\\n",
        "\")"
      ],
      [
        "_c",
        "las"
      ],
      [
        "),",
        "encoding=\"utf-8\")"
      ],
      [
        ":{",
        "s:i}"
      ],
      [
        "score",
        "_"
      ],
      [
        "consumer_",
        "args"
      ],
      [
        "E_",
        "NAM"
      ],
      [
        "ER",
        "_"
      ],
      [
        "Sy",
        "nergy"
      ],
      [
        "dict",
        "("
      ],
      [
        "sign",
        "ature"
      ],
      [
        "Command",
        "smith"
      ],
      [
        "ig",
        "no"
      ],
      [
        "mpo",
        "si"
      ],
      [
        "plit",
        "(\""
      ],
      [
        "Man",
        "ifest"
      ],
      [
        "fin",
        "al"
      ],
      [
        "pr",
        "int("
      ],
      [
        "\"+package",
        "+\""
      ],
      [
        "_api_ke",
        "y_env"
      ],
      [
        ")+",
        "\"\\n\")"
      ],
      [
        ".sub",
        "(\""
      ],
      [
        ".up",
        "date"
      ],
      [
        "AL",
        "_CONFIG_"
      ],
      [
        "Ato",
        "madic"
      ],
      [
        "_default",
        "s("
      ],
      [
        "⟦preset",
        "."
      ],
      [
        "⟨model",
        ":_"
      ],
      [
        "AL_CONFIG_",
        "DIR"
      ],
      [
        "'",
        "consumer"
      ],
      [
        "'",
        "synergy"
      ],
      [
        "(",
        "\",\""
      ],
      [
        "(",
        "[\""
      ],
      [
        "(",
        "src"
      ],
      [
        "(",
        "config"
      ],
      [
        "(",
        "target"
      ],
      [
        "(",
        "body"
      ],
      [
        "(",
        "invo"
      ],
      [
        "(",
        "parent"
      ],
      [
        "(",
        "node"
      ],
      [
        ")",
        "["
      ],
      [
        ")",
        "]\",\""
      ],
      [
        ")",
        "∨\""
      ],
      [
        ",",
        "ex"
      ],
      [
        ",",
        "indent=2"
      ],
      [
        "-",
        ">"
      ],
      [
        ".",
        "0"
      ],
      [
        ".",
        "m"
      ],
      [
        ".",
        "\")"
      ],
      [
        ".",
        "low"
      ],
      [
        ".",
        "invo"
      ],
      [
        "=",
        "str"
      ],
      [
        "=",
        "args"
      ],
      [
        "=",
        "subparser"
      ],
      [
        "=",
        "dict("
      ],
      [
        "@",
        "app"
      ],
      [
        "A",
        "n"
      ],
      [
        "D",
        "e"
      ],
      [
        "E",
        "X"
      ],
      [
        "F",
        "i"
      ],
      [
        "G",
        "en"
      ],
      [
        "G",
        "NO"
      ],
      [
        "I",
        "GNO"
      ],
      [
        "L",
        "A"
      ],
      [
        "P",
        "R"
      ],
      [
        "R",
        "I"
      ],
      [
        "S",
        "t"
      ],
      [
        "S",
        "RC"
      ],
      [
        "T",
        "E"
      ],
      [
        "U",
        "L"
      ],
      [
        "V",
        "alue"
      ],
      [
        "[",
        "str"
      ],
      [
        "[",
        "list"
      ],
      [
        "_",
        "m"
      ],
      [
        "_",
        "q"
      ],
      [
        "_",
        "si"
      ],
      [
        "_",
        "og"
      ],
      [
        "_",
        "bal"
      ],
      [
        "_",
        "parser.add_argument(\""
      ],
      [
        "a",
        ":i"
      ],
      [
        "a",
        "vi"
      ],
      [
        "a",
        "\",type=int,help=\""
      ],
      [
        "a",
        "1_"
      ],
      [
        "a",
        "2_"
      ],
      [
        "a",
        "uto"
      ],
      [
        "b",
        "u"
      ],
      [
        "b",
        "el"
      ],
      [
        "b",
        "ase"
      ],
      [
        "b",
        "\",type=int,help=\""
      ],
      [
        "b",
        ")))"
      ],
      [
        "c",
        "w"
      ],
      [
        "c",
        "er"
      ],
      [
        "d",
        "at"
      ],
      [
        "e",
        "ver"
      ],
      [
        "e",
        "cho("
      ],
      [
        "f",
        "f"
      ],
      [
        "f",
        "ace"
      ],
      [
        "g",
        "i"
      ],
      [
        "h",
        "avi"
      ],
      [
        "k",
        "dir"
      ],
      [
        "k",
        "_con"
      ],
      [
        "k",
        "=true"
      ],
      [
        "l",
        "y"
      ],
      [
        "p",
        "er"
      ],
      [
        "p",
        "ic"
      ],
      [
        "r",
        "y"
      ],
      [
        "s",
        ")"
      ],
      [
        "s",
        "s"
      ],
      [
        "t",
        "mp"
      ],
      [
        "t",
        "end"
      ],
      [
        "u",
        "g"
      ],
      [
        "v",
        "el"
      ],
      [
        "w",
        "n"
      ],
      [
        "w",
        "ar"
      ],
      [
        "{",
        "rc"
      ],
      [
        "{",
        "\",s\""
      ],
      [
        "}",
        ","
      ],
      [
        "↦",
        "print("
      ],
      [
        "∈",
        "IGNO"
      ],
      [
        "⟦",
        "result."
      ],
      [
        "⟨",
        "node"
      ],
      [
        "⟨",
        "a:i"
      ],
      [
        "er",
        "ated"
      ],
      [
        "\",",
        "help=\""
      ],
      [
        "in",
        "de"
      ],
      [
        "st",
        "ate"
      ],
      [
        "ro",
        "pic"
      ],
      [
        "an",
        "s"
      ],
      [
        "an",
        "ed"
      ],
      [
        "an",
        "ce_"
      ],
      [
        "su",
        "mm"
      ],
      [
        "al",
        "name:s"
      ],
      [
        "al",
        "ign"
      ],
      [
        "ac",
        "he"
      ],
      [
        "de",
        "d"
      ],
      [
        "pro",
        "mp"
      ],
      [
        "pro",
        "pose"
      ],
      [
        "con",
        "d"
      ],
      [
        "d_",
        "sub"
      ],
      [
        "du",
        "ration"
      ],
      [
        "ma",
        "x"
      ],
      [
        "le",
        "vel"
      ],
      [
        "me",
        "m"
      ],
      [
        "ent",
        "ory"
      ],
      [
        "ent",
        "ry"
      ],
      [
        "er_",
        "line"
      ],
      [
        "mo",
        "_co"
      ],
      [
        "s\"",
        "]"
      ],
      [
        "s\"",
        "⟦"
      ],
      [
        "ex",
        "ite"
      ],
      [
        "for",
        "m"
      ],
      [
        "li",
        "b"
      ],
      [
        "card",
        ")"
      ],
      [
        "s(",
        "card)"
      ],
      [
        "ing",
        "_"
      ],
      [
        "get",
        "attr"
      ],
      [
        "s.",
        "add_parser"
      ],
      [
        ")\",\"",
        "["
      ],
      [
        "import",
        "-"
      ],
      [
        "to",
        "re"
      ],
      [
        "typer.",
        "Con"
      ],
      [
        "typer.",
        "echo("
      ],
      [
        "out",
        "_command"
      ],
      [
        "test",
        "s_"
      ],
      [
        "⟦card[\"",
        "candidate_id"
      ],
      [
        "None",
        ","
      ],
      [
        "None",
        ":\",s\""
      ],
      [
        "chain",
        "[\""
      ],
      [
        "target",
        ".write"
      ],
      [
        "ke",
        "d_sub"
      ],
      [
        "la",
        "y"
      ],
      [
        "la",
        "ble"
      ],
      [
        "la",
        "bel"
      ],
      [
        "module",
        "_"
      ],
      [
        "lin",
        "es"
      ],
      [
        "help",
        "='"
      ],
      [
        "_s",
        "core"
      ],
      [
        "inv",
        "entory"
      ],
      [
        "file",
        "."
      ],
      [
        "default",
        "_"
      ],
      [
        "th",
        "on"
      ],
      [
        "th",
        "is"
      ],
      [
        "schema_",
        "id"
      ],
      [
        "merge",
        "d"
      ],
      [
        "not",
        "ated"
      ],
      [
        "parser.",
        "set"
      ],
      [
        "body",
        ".ex"
      ],
      [
        "body",
        ")+\"\\n\")"
      ],
      [
        "ol",
        "ation"
      ],
      [
        "ol",
        "lama"
      ],
      [
        "exc",
        "ep"
      ],
      [
        "func",
        "=args"
      ],
      [
        "artifact",
        ")]\",\""
      ],
      [
        "py",
        "thon"
      ],
      [
        "s=",
        "true"
      ],
      [
        "_c",
        "fg"
      ],
      [
        "return",
        "\",\""
      ],
      [
        "number",
        "s\")"
      ],
      [
        "=True)\",\"",
        "def"
      ],
      [
        "_id",
        "x"
      ],
      [
        "be",
        "havi"
      ],
      [
        "=_",
        "head"
      ],
      [
        "_o",
        "k=true"
      ],
      [
        "qu",
        "alname:s"
      ],
      [
        "score",
        ":f"
      ],
      [
        "with",
        "out_command"
      ],
      [
        "generated_",
        "at_"
      ],
      [
        "ist",
        "_ok=true"
      ],
      [
        "args.",
        "b)))"
      ],
      [
        "CONFIG_",
        "FIL"
      ],
      [
        "DIR",
        "S"
      ],
      [
        "json.dumps(",
        "{\",s\""
      ],
      [
        ".get",
        "("
      ],
      [
        ".get",
        "_docstring"
      ],
      [
        "RE",
        "D_"
      ],
      [
        "a,",
        "args.b)))"
      ],
      [
        "has",
        "_"
      ],
      [
        "sp",
        "ec"
      ],
      [
        "at_",
        "function"
      ],
      [
        "ctx",
        ":"
      ],
      [
        "ctx",
        ".invo"
      ],
      [
        "indent=2",
        "))\",\""
      ],
      [
        "Arg",
        "s"
      ],
      [
        "Arg",
        "ument"
      ],
      [
        "')",
        "]"
      ],
      [
        "TI",
        "ER_"
      ],
      [
        "_text",
        "(json.dumps("
      ],
      [
        "ad_",
        "config"
      ],
      [
        "multipl",
        "y_"
      ],
      [
        "open",
        "_idx"
      ],
      [
        "str(",
        "artifact)]\",\""
      ],
      [
        "\"\\n\".join(",
        "body)+\"\\n\")"
      ],
      [
        ".strip",
        "()."
      ],
      [
        ".call",
        "back"
      ],
      [
        "LO",
        "C"
      ],
      [
        "Path",
        "("
      ],
      [
        "Se",
        "cond"
      ],
      [
        "ke_",
        "without_command"
      ],
      [
        "lang",
        "uage"
      ],
      [
        "pip",
        "e"
      ],
      [
        "sh",
        "are"
      ],
      [
        "quire",
        "d"
      ],
      [
        "(args.",
        "a,args.b)))"
      ],
      [
        ",default",
        "=str"
      ],
      [
        "`src/",
        "\"+package+\""
      ],
      [
        "a0",
        "_q"
      ],
      [
        "a3",
        "_og"
      ],
      [
        "ast",
        ".get_docstring"
      ],
      [
        "cle",
        "aned"
      ],
      [
        "tw",
        "o"
      ],
      [
        "⟨card",
        ":_⟩→s"
      ],
      [
        "E_NAM",
        "E"
      ],
      [
        "mposi",
        "te"
      ],
      [
        "_api_key_env",
        ":_⟩"
      ],
      [
        "_defaults(",
        "func=args"
      ],
      [
        "'synergy",
        "':"
      ],
      [
        "([\"",
        "@app"
      ],
      [
        "(body",
        "=_head"
      ],
      [
        "(invo",
        "ke_without_command"
      ],
      [
        "(parent",
        "s=true"
      ],
      [
        "(node",
        ")∨\""
      ],
      [
        ",ex",
        "ist_ok=true"
      ],
      [
        ".m",
        "kdir"
      ],
      [
        ".low",
        "er()"
      ],
      [
        "=subparser",
        "s.add_parser"
      ],
      [
        "An",
        "notated"
      ],
      [
        "EX",
        "TS"
      ],
      [
        "Fi",
        "rst"
      ],
      [
        "Gen",
        "erated"
      ],
      [
        "St",
        "ub"
      ],
      [
        "Value",
        "Error"
      ],
      [
        "[str",
        "]"
      ],
      [
        "[list",
        "[str]"
      ],
      [
        "_bal",
        "ance_"
      ],
      [
        "a\",type=int,help=\"",
        "First"
      ],
      [
        "a1_",
        "at_function"
      ],
      [
        "a2_",
        "mo_co"
      ],
      [
        "b\",type=int,help=\"",
        "Second"
      ],
      [
        "cw",
        "d"
      ],
      [
        "k_con",
        "stants"
      ],
      [
        "tend",
        "([\"@app"
      ],
      [
        "{rc",
        "}',"
      ],
      [
        "∈IGNO",
        "RED_"
      ],
      [
        "⟨node",
        ":_⟩→s"
      ],
      [
        "summ",
        "ary"
      ],
      [
        "propose",
        "d_"
      ],
      [
        "er_line",
        "s(card)"
      ],
      [
        "exite",
        "d"
      ],
      [
        "getattr",
        "(_"
      ],
      [
        "typer.Con",
        "text"
      ],
      [
        "typer.echo(",
        "json.dumps({\",s\""
      ],
      [
        "⟦card[\"candidate_id",
        "\"]⟧"
      ],
      [
        "ked_sub",
        "command"
      ],
      [
        "help='",
        "Args"
      ],
      [
        "parser.set",
        "_defaults(func=args"
      ],
      [
        "body.ex",
        "tend([\"@app"
      ],
      [
        "behavi",
        "or"
      ],
      [
        "generated_at_",
        "utc"
      ],
      [
        "CONFIG_FIL",
        "E_NAME"
      ],
      [
        "ctx.invo",
        "ked_subcommand"
      ],
      [
        "indent=2))\",\"",
        "\"])"
      ],
      [
        ".callback",
        "(invoke_without_command"
      ],
      [
        "`src/\"+package+\"",
        "/"
      ],
      [
        "a0_q",
        "k_constants"
      ],
      [
        "a3_og",
        "_feature"
      ],
      [
        "ast.get_docstring",
        "(node)∨\""
      ],
      [
        "(body=_head",
        "er_lines(card)"
      ],
      [
        "(parents=true",
        ",exist_ok=true"
      ],
      [
        ".mkdir",
        "(parents=true,exist_ok=true"
      ],
      [
        "=subparsers.add_parser",
        "(\""
      ],
      [
        "Annotated",
        "[list[str]"
      ],
      [
        "a2_mo_co",
        "mposite"
      ],
      [
        "∈IGNORED_",
        "DIRS"
      ],
      [
        "parser.set_defaults(func=args",
        "↦print("
      ],
      [
        "body.extend([\"@app",
        ".callback(invoke_without_command"
      ],
      [
        ".mkdir(parents=true,exist_ok=true",
        ")"
      ],
      [
        "body.extend([\"@app.callback(invoke_without_command",
        "=True)\",\"def"
      ],
      [
        "\"",
        "\\\"\\\"\\\""
      ],
      [
        "\"",
        ":\""
      ],
      [
        "'",
        "--"
      ],
      [
        "(",
        "name"
      ],
      [
        "(",
        "doc"
      ],
      [
        "(",
        "s,"
      ],
      [
        "(",
        "consumer_args"
      ],
      [
        ")",
        "∈"
      ],
      [
        "*",
        "producer_args"
      ],
      [
        ",",
        "\",s\""
      ],
      [
        ",",
        "config"
      ],
      [
        "-",
        "args"
      ],
      [
        "-",
        "tier"
      ],
      [
        ".",
        "re"
      ],
      [
        ".",
        "\\n"
      ],
      [
        ".",
        "parent"
      ],
      [
        "/",
        "CONFIG_FILE_NAME"
      ],
      [
        "1",
        ")["
      ],
      [
        "5",
        "-tier"
      ],
      [
        "=",
        "path."
      ],
      [
        "=",
        "len("
      ],
      [
        "=",
        "ast.get_docstring(node)∨\""
      ],
      [
        "?",
        "\""
      ],
      [
        "?",
        "doc"
      ],
      [
        "A",
        "A"
      ],
      [
        "A",
        "I"
      ],
      [
        "C",
        "h"
      ],
      [
        "D",
        "ire"
      ],
      [
        "E",
        "TS"
      ],
      [
        "I",
        "mport"
      ],
      [
        "I",
        "nt"
      ],
      [
        "I",
        "TI"
      ],
      [
        "J",
        "S"
      ],
      [
        "L",
        "og"
      ],
      [
        "N",
        "G"
      ],
      [
        "O",
        "O"
      ],
      [
        "O",
        "pen"
      ],
      [
        "R",
        "OO"
      ],
      [
        "S",
        "ur"
      ],
      [
        "S",
        "ign"
      ],
      [
        "S",
        "tore"
      ],
      [
        "S",
        "ITI"
      ],
      [
        "T",
        "est"
      ],
      [
        "[",
        "]\",\""
      ],
      [
        "_",
        "se"
      ],
      [
        "_",
        "as"
      ],
      [
        "_",
        "pre"
      ],
      [
        "_",
        "type"
      ],
      [
        "_",
        "line"
      ],
      [
        "_",
        "generated_"
      ],
      [
        "_",
        "pure"
      ],
      [
        "_",
        "first"
      ],
      [
        "_",
        "url"
      ],
      [
        "_",
        "PR"
      ],
      [
        "`",
        "\",\""
      ],
      [
        "`",
        "\",s\"-"
      ],
      [
        "a",
        "-"
      ],
      [
        "a",
        "dic"
      ],
      [
        "b",
        "l"
      ],
      [
        "b",
        "y"
      ],
      [
        "b",
        ":i⟩→i"
      ],
      [
        "c",
        "e"
      ],
      [
        "c",
        "i"
      ],
      [
        "c",
        "ro"
      ],
      [
        "c",
        "tion"
      ],
      [
        "d",
        "en"
      ],
      [
        "d",
        "t."
      ],
      [
        "e",
        "w"
      ],
      [
        "f",
        "⟧"
      ],
      [
        "f",
        "ind"
      ],
      [
        "f",
        "fix"
      ],
      [
        "h",
        "er"
      ],
      [
        "i",
        "l"
      ],
      [
        "i",
        "bu"
      ],
      [
        "j",
        "av"
      ],
      [
        "k",
        "en"
      ],
      [
        "k",
        "do"
      ],
      [
        "l",
        "le"
      ],
      [
        "l",
        "ug"
      ],
      [
        "m",
        "on"
      ],
      [
        "o",
        "f"
      ],
      [
        "p",
        "i"
      ],
      [
        "p",
        "t"
      ],
      [
        "p",
        "ai"
      ],
      [
        "s",
        "a"
      ],
      [
        "s",
        "se"
      ],
      [
        "s",
        "))"
      ],
      [
        "s",
        "plit(\""
      ],
      [
        "v",
        "e_"
      ],
      [
        "w",
        "ire"
      ],
      [
        "y",
        ":_"
      ],
      [
        "y",
        "ou"
      ],
      [
        "y",
        "(("
      ],
      [
        "⟧",
        "\")"
      ],
      [
        "⟨",
        "project"
      ],
      [
        "⟨",
        "path:_"
      ],
      [
        "er",
        "me"
      ],
      [
        "er",
        "ror"
      ],
      [
        "er",
        "pt"
      ],
      [
        "\",",
        "1)["
      ],
      [
        "re",
        "vi"
      ],
      [
        "in",
        "-"
      ],
      [
        "ar",
        "c"
      ],
      [
        "at",
        "("
      ],
      [
        "at",
        "or"
      ],
      [
        "\",\"",
        "-"
      ],
      [
        "\",\"",
        "re"
      ],
      [
        "or",
        "te"
      ],
      [
        "st",
        "all"
      ],
      [
        "an",
        "d_"
      ],
      [
        "an",
        "y(("
      ],
      [
        "se",
        "s:[s]"
      ],
      [
        "\\n",
        "\",1)["
      ],
      [
        "co",
        "mm"
      ],
      [
        "su",
        "ffix"
      ],
      [
        "al",
        "i"
      ],
      [
        "di",
        "s"
      ],
      [
        "di",
        "str"
      ],
      [
        "di",
        "ate"
      ],
      [
        "ch",
        "at"
      ],
      [
        "mp",
        "or"
      ],
      [
        "un",
        "d"
      ],
      [
        "me",
        "th"
      ],
      [
        "⟩→",
        "∅"
      ],
      [
        "as",
        "cript"
      ],
      [
        "er.",
        "\",\""
      ],
      [
        "si",
        "bl"
      ],
      [
        "s\"",
        "#"
      ],
      [
        "ct",
        "ory"
      ],
      [
        "ex",
        "port"
      ],
      [
        "package",
        ":s"
      ],
      [
        "name",
        "∈"
      ],
      [
        "[\"",
        "provider"
      ],
      [
        "for",
        "war"
      ],
      [
        "mm",
        "ent"
      ],
      [
        "ad",
        "d"
      ],
      [
        "import",
        "s:[s]"
      ],
      [
        "import",
        "able"
      ],
      [
        "import",
        "lib"
      ],
      [
        "tr",
        "y"
      ],
      [
        "vi",
        "olation"
      ],
      [
        "to",
        "ken"
      ],
      [
        "_co",
        "mple"
      ],
      [
        "_co",
        "mment"
      ],
      [
        "typer.",
        "Argument"
      ],
      [
        "src",
        ")"
      ],
      [
        "test",
        "_generated_"
      ],
      [
        "consumer",
        "-args"
      ],
      [
        "int",
        "erme"
      ],
      [
        "doc",
        "?doc"
      ],
      [
        "dir",
        ":s"
      ],
      [
        "config",
        ".update"
      ],
      [
        "tion",
        ":{s:i}"
      ],
      [
        "\\n\\n",
        "```bash"
      ],
      [
        "pl",
        "ace"
      ],
      [
        "module",
        ":s"
      ],
      [
        "pre",
        "fix"
      ],
      [
        "po",
        "si"
      ],
      [
        "tif",
        "y"
      ],
      [
        "file",
        ":s"
      ],
      [
        "Tr",
        "ans"
      ],
      [
        "ite",
        "m"
      ],
      [
        "\",\"\",\"",
        "##"
      ],
      [
        "\",\"\",\"",
        "```bash"
      ],
      [
        "producer_",
        "fn"
      ],
      [
        "producer_",
        "args:"
      ],
      [
        "turn",
        "code"
      ],
      [
        "_re",
        "turncode"
      ],
      [
        "parser",
        "=subparsers.add_parser(\""
      ],
      [
        "(_",
        "step"
      ],
      [
        "_root",
        ":s"
      ],
      [
        "ol",
        "ve"
      ],
      [
        "exc",
        "erpt"
      ],
      [
        "\\\"\\\"\\\"",
        "Run"
      ],
      [
        "sy",
        "mbol"
      ],
      [
        "generate",
        "d"
      ],
      [
        "ES",
        "ETS"
      ],
      [
        "cmd_",
        "a"
      ],
      [
        "cmd_",
        "a,"
      ],
      [
        "strip",
        "_comment"
      ],
      [
        "av",
        "e_"
      ],
      [
        "tier_",
        "inde"
      ],
      [
        "----",
        "----"
      ],
      [
        "⟦card[\"consumer\"]⟧",
        ","
      ],
      [
        "⟦card[\"consumer\"]⟧",
        ".\\\"\\\"\\\""
      ],
      [
        "source_",
        "root"
      ],
      [
        ":{",
        "s:_"
      ],
      [
        "_o",
        "mis"
      ],
      [
        "consumer_",
        "fn"
      ],
      [
        "run(",
        "\",\""
      ],
      [
        "result.",
        "cli_demo"
      ],
      [
        "generated_",
        "package"
      ],
      [
        "cript",
        "Log"
      ],
      [
        "typer.Exit(",
        "2"
      ],
      [
        "NAM",
        "ES"
      ],
      [
        "RE",
        ".sub(\""
      ],
      [
        "Sy",
        "mbol"
      ],
      [
        "phase",
        "_omis"
      ],
      [
        "_path",
        ")"
      ],
      [
        "_path",
        "="
      ],
      [
        "multipl",
        "y"
      ],
      [
        "package_",
        "import"
      ],
      [
        "head",
        "line"
      ],
      [
        "atomadic-forge",
        "\""
      ],
      [
        "EN",
        "SITI"
      ],
      [
        "kind",
        ":s"
      ],
      [
        "kind",
        ":_"
      ],
      [
        "ser",
        "t"
      ],
      [
        "part",
        "∈"
      ],
      [
        "cmd_b",
        ","
      ],
      [
        "typer.secho(f",
        "'producer"
      ],
      [
        "subprocess.run(",
        "cmd_a,"
      ],
      [
        "subprocess.run(",
        "cmd_b,"
      ],
      [
        "0]",
        ":\""
      ],
      [
        "s\\n",
        "-"
      ],
      [
        "smo",
        "ke"
      ],
      [
        "roun",
        "ds"
      ],
      [
        "fiel",
        "d"
      ],
      [
        "exp",
        "orte"
      ],
      [
        "top_",
        "level"
      ],
      [
        "None,\",\"",
        ")"
      ],
      [
        "score_",
        "trajectory"
      ],
      [
        "Synergy",
        "Scan"
      ],
      [
        "igno",
        "re"
      ],
      [
        "Manifest",
        "Store"
      ],
      [
        ",indent=2",
        ",default=str"
      ],
      [
        "_si",
        "ze"
      ],
      [
        "dat",
        "a"
      ],
      [
        "ever",
        "y"
      ],
      [
        "gi",
        "str"
      ],
      [
        "align",
        "ment"
      ],
      [
        "ache",
        "/\\n."
      ],
      [
        "promp",
        "t"
      ],
      [
        "form",
        "at("
      ],
      [
        "target.write",
        "_text(json.dumps("
      ],
      [
        "_score",
        ":f"
      ],
      [
        "excep",
        "t"
      ],
      [
        "TIER_",
        "NAMES"
      ],
      [
        ".strip().",
        "split(\""
      ],
      [
        "LOC",
        "AL_CONFIG_DIR"
      ],
      [
        "share",
        "d_"
      ],
      [
        "Stub",
        "LLMClient"
      ],
      [
        "typer.Context",
        ",\",\""
      ],
      [
        "generated_at_utc",
        ":s"
      ],
      [
        "(doc",
        "=ast.get_docstring(node)∨\""
      ],
      [
        "Dire",
        "ctory"
      ],
      [
        "Int",
        "ent"
      ],
      [
        "JS",
        "ON"
      ],
      [
        "Sur",
        "face"
      ],
      [
        "Sign",
        "ature"
      ],
      [
        "cro",
        "sse"
      ],
      [
        "ibu",
        "tion:{s:i}"
      ],
      [
        "jav",
        "ascript"
      ],
      [
        "kdo",
        "wn"
      ],
      [
        "lle",
        "ction"
      ],
      [
        "mon",
        "adic"
      ],
      [
        "revi",
        "ew"
      ],
      [
        "\\n\",1)[",
        "0]:\""
      ],
      [
        "distr",
        "ibution:{s:i}"
      ],
      [
        "meth",
        "o"
      ],
      [
        "[\"provider",
        "\"]"
      ],
      [
        "forwar",
        "ded"
      ],
      [
        "typer.Argument",
        "(\",\""
      ],
      [
        "interme",
        "diate"
      ],
      [
        "doc?doc",
        ".strip().split(\""
      ],
      [
        "config.update",
        "(_step"
      ],
      [
        "\\n\\n```bash",
        "\\n"
      ],
      [
        "place",
        "(\""
      ],
      [
        "Trans",
        "criptLog"
      ],
      [
        "⟦card[\"consumer\"]⟧.\\\"\\\"\\\"",
        "\",\""
      ],
      [
        ":{s:_",
        "}"
      ],
      [
        "phase_omis",
        "sion"
      ],
      [
        "ENSITI",
        "V"
      ],
      [
        "exporte",
        "d_"
      ],
      [
        ",indent=2,default=str",
        "),encoding=\"utf-8\")"
      ],
      [
        "(doc=ast.get_docstring(node)∨\"",
        "\""
      ],
      [
        "crosse",
        "s_"
      ],
      [
        "doc?doc.strip().split(\"",
        "\\n\",1)[0]:\""
      ],
      [
        "'",
        "s"
      ],
      [
        "'",
        "\",\""
      ],
      [
        "'",
        "produc"
      ],
      [
        "'",
        "main"
      ],
      [
        "'",
        "run"
      ],
      [
        "'",
        "))\",\""
      ],
      [
        "(",
        "G"
      ],
      [
        "(",
        "O"
      ],
      [
        "(",
        "k"
      ],
      [
        "(",
        "{"
      ],
      [
        "(",
        "de"
      ],
      [
        "(",
        "))"
      ],
      [
        "(",
        "local"
      ],
      [
        "(",
        "path."
      ],
      [
        "(",
        "encoding"
      ],
      [
        "(",
        "cwd"
      ],
      [
        "(",
        "prefix"
      ],
      [
        ")",
        "\""
      ],
      [
        ")",
        "≥"
      ],
      [
        ")",
        "\\n\\n"
      ],
      [
        "*",
        "."
      ],
      [
        ",",
        "v"
      ],
      [
        ",",
        "package"
      ],
      [
        ",",
        "max"
      ],
      [
        ",",
        "open_idx"
      ],
      [
        "-",
        "Z"
      ],
      [
        "-",
        "out"
      ],
      [
        "-",
        "')"
      ],
      [
        "-",
        "fo"
      ],
      [
        ".",
        "_"
      ],
      [
        ".",
        "v"
      ],
      [
        ".",
        "\",\""
      ],
      [
        ".",
        "st"
      ],
      [
        ".",
        "import"
      ],
      [
        ".",
        "json"
      ],
      [
        ".",
        "utc"
      ],
      [
        ".",
        "')]"
      ],
      [
        ".",
        "item"
      ],
      [
        "/",
        "s\"⟦"
      ],
      [
        "/",
        "LOCAL_CONFIG_DIR"
      ],
      [
        "0",
        ","
      ],
      [
        "0",
        "0"
      ],
      [
        "2",
        "σ"
      ],
      [
        "4",
        "ι"
      ],
      [
        ":",
        "v"
      ],
      [
        "=",
        "co"
      ],
      [
        "=",
        "package"
      ],
      [
        "A",
        "G"
      ],
      [
        "A",
        "d"
      ],
      [
        "A",
        "nt"
      ],
      [
        "A",
        "UL"
      ],
      [
        "A",
        "-Z"
      ],
      [
        "B",
        "AL_CONFIG_DIR"
      ],
      [
        "C",
        "O"
      ],
      [
        "C",
        "an"
      ],
      [
        "C",
        "RI"
      ],
      [
        "D",
        "E"
      ],
      [
        "D",
        "i"
      ],
      [
        "D",
        "UL"
      ],
      [
        "F",
        "AUL"
      ],
      [
        "G",
        "em"
      ],
      [
        "G",
        "LO"
      ],
      [
        "K",
        "ind"
      ],
      [
        "M",
        "A"
      ],
      [
        "M",
        "M"
      ],
      [
        "M",
        "O"
      ],
      [
        "O",
        "l"
      ],
      [
        "P",
        "ackage"
      ],
      [
        "P",
        "ic"
      ],
      [
        "P",
        "T_"
      ],
      [
        "S",
        "T"
      ],
      [
        "S",
        "U"
      ],
      [
        "S",
        "core"
      ],
      [
        "S",
        "Error"
      ],
      [
        "S",
        "cript"
      ],
      [
        "T",
        "e"
      ],
      [
        "T",
        "i"
      ],
      [
        "T",
        "yp"
      ],
      [
        "T",
        "he"
      ],
      [
        "U",
        "AG"
      ],
      [
        "W",
        "ire"
      ],
      [
        "[",
        "import-"
      ],
      [
        "[",
        "A-Z"
      ],
      [
        "\\",
        "\\"
      ],
      [
        "_",
        ")"
      ],
      [
        "_",
        "h"
      ],
      [
        "_",
        "\",\""
      ],
      [
        "_",
        "st"
      ],
      [
        "_",
        "de"
      ],
      [
        "_",
        "for"
      ],
      [
        "_",
        "config"
      ],
      [
        "_",
        "tier"
      ],
      [
        "_",
        "name:s"
      ],
      [
        "_",
        "output"
      ],
      [
        "_",
        "artifact"
      ],
      [
        "_",
        "model"
      ],
      [
        "_",
        "call"
      ],
      [
        "_",
        "step"
      ],
      [
        "_",
        "signature"
      ],
      [
        "_",
        "mem"
      ],
      [
        "_",
        "label"
      ],
      [
        "_",
        "ollama"
      ],
      [
        "_",
        "summary"
      ],
      [
        "_",
        "parser.set_defaults(func=args↦print("
      ],
      [
        "_",
        "token"
      ],
      [
        "_",
        "posi"
      ],
      [
        "_",
        "parser=subparsers.add_parser(\""
      ],
      [
        "_",
        "kind:s"
      ],
      [
        "`",
        "⟦"
      ],
      [
        "`",
        "forge"
      ],
      [
        "`",
        "run"
      ],
      [
        "a",
        "b"
      ],
      [
        "a",
        "kdown"
      ],
      [
        "b",
        "r"
      ],
      [
        "b",
        "re"
      ],
      [
        "b",
        "_signature"
      ],
      [
        "c",
        "∈"
      ],
      [
        "c",
        "re"
      ],
      [
        "c",
        "[\""
      ],
      [
        "c",
        "ab"
      ],
      [
        "d",
        ":i"
      ],
      [
        "e",
        "v"
      ],
      [
        "e",
        "∈"
      ],
      [
        "e",
        "ff"
      ],
      [
        "f",
        "er"
      ],
      [
        "f",
        "re"
      ],
      [
        "f",
        "ut"
      ],
      [
        "f",
        "e_"
      ],
      [
        "f",
        "ai"
      ],
      [
        "f",
        "ul"
      ],
      [
        "g",
        "ist"
      ],
      [
        "h",
        "and"
      ],
      [
        "h",
        "ig"
      ],
      [
        "h",
        "ropic"
      ],
      [
        "i",
        "m"
      ],
      [
        "i",
        "r"
      ],
      [
        "i",
        "v"
      ],
      [
        "i",
        "z"
      ],
      [
        "i",
        "es"
      ],
      [
        "j",
        "u"
      ],
      [
        "k",
        "er"
      ],
      [
        "k",
        ":v"
      ],
      [
        "l",
        "l"
      ],
      [
        "m",
        "an"
      ],
      [
        "n",
        "ex"
      ],
      [
        "o",
        ":i"
      ],
      [
        "o",
        "per"
      ],
      [
        "o",
        "format("
      ],
      [
        "o",
        "cab"
      ],
      [
        "p",
        "tion"
      ],
      [
        "p",
        "th"
      ],
      [
        "r",
        "an"
      ],
      [
        "r",
        "(src"
      ],
      [
        "s",
        "o"
      ],
      [
        "s",
        "ent"
      ],
      [
        "s",
        "ing"
      ],
      [
        "s",
        "':"
      ],
      [
        "s",
        "lug"
      ],
      [
        "s",
        "olve"
      ],
      [
        "u",
        "te"
      ],
      [
        "v",
        "≠"
      ],
      [
        "v",
        "env"
      ],
      [
        "v",
        "ocab"
      ],
      [
        "w",
        "h"
      ],
      [
        "w",
        "er"
      ],
      [
        "w",
        "ard"
      ],
      [
        "y",
        "el"
      ],
      [
        "y",
        "Pic"
      ],
      [
        "{",
        "s"
      ],
      [
        "{",
        "exc"
      ],
      [
        "|",
        "--------"
      ],
      [
        "}",
        ")"
      ],
      [
        "∅",
        "})"
      ],
      [
        "⟦",
        "chain[\""
      ],
      [
        "⟧",
        "\\n\\n##"
      ],
      [
        "⟨",
        "chain"
      ],
      [
        "⟨",
        "rel"
      ],
      [
        "⟨",
        "report"
      ],
      [
        "⟨",
        "project_dir"
      ],
      [
        "⟨",
        "candidate_id"
      ],
      [
        "⟨",
        "file:s"
      ],
      [
        "er",
        "(("
      ],
      [
        "\",",
        "src)"
      ],
      [
        "re",
        "al"
      ],
      [
        "re",
        "quired"
      ],
      [
        "re",
        "comm"
      ],
      [
        "re",
        "place(\""
      ],
      [
        "re",
        "solve"
      ],
      [
        "on",
        "ly"
      ],
      [
        "in",
        "i"
      ],
      [
        "in",
        "stan"
      ],
      [
        "in",
        "stall"
      ],
      [
        "in",
        "_mem"
      ],
      [
        "\",\"",
        "typ"
      ],
      [
        "\",\"",
        "\",s\""
      ],
      [
        "\",\"",
        "def"
      ],
      [
        "\",\"",
        "```"
      ],
      [
        "\",\"",
        "a1_at_function"
      ],
      [
        "\",\"",
        "shared_"
      ],
      [
        "\",\"",
        "javascript"
      ],
      [
        "or",
        "d"
      ],
      [
        "or",
        "y_"
      ],
      [
        "st",
        "and"
      ],
      [
        "st",
        "s:[s]"
      ],
      [
        "ge",
        "d"
      ],
      [
        "ge",
        "st"
      ],
      [
        "ge",
        "min"
      ],
      [
        "en",
        "for"
      ],
      [
        "en",
        "o:i"
      ],
      [
        ":s",
        "⟩→"
      ],
      [
        "an",
        "th"
      ],
      [
        "an",
        "not"
      ],
      [
        "se",
        "e"
      ],
      [
        "se",
        "s"
      ],
      [
        "se",
        "con"
      ],
      [
        "\\n",
        "\""
      ],
      [
        "co",
        "ver"
      ],
      [
        "te",
        "mp"
      ],
      [
        "te",
        "ct"
      ],
      [
        "con",
        "ver"
      ],
      [
        "con",
        "stants"
      ],
      [
        "d_",
        "name"
      ],
      [
        "d_",
        "type"
      ],
      [
        "ch",
        "ite"
      ],
      [
        "mp",
        "_re"
      ],
      [
        "me",
        "s"
      ],
      [
        "⟩→",
        "[_]"
      ],
      [
        "\")",
        ")"
      ],
      [
        "ate",
        "s"
      ],
      [
        "as",
        "sert"
      ],
      [
        "as",
        "_posi"
      ],
      [
        "it",
        "y"
      ],
      [
        "it",
        "ted"
      ],
      [
        "er.",
        "json"
      ],
      [
        "si",
        "der"
      ],
      [
        "s\"",
        "Co"
      ],
      [
        "par",
        "se"
      ],
      [
        "ct",
        "ure"
      ],
      [
        "package",
        ":_"
      ],
      [
        "package",
        "_root"
      ],
      [
        "do",
        "ut"
      ],
      [
        "lo",
        "g"
      ],
      [
        "lo",
        "ad_config"
      ],
      [
        "ad",
        "me"
      ],
      [
        "ad",
        "apt"
      ],
      [
        "no",
        "w"
      ],
      [
        "--",
        "package"
      ],
      [
        "--",
        "provider"
      ],
      [
        "--",
        "consumer-args"
      ],
      [
        "s(",
        "))"
      ],
      [
        "s(",
        "artifact"
      ],
      [
        "s.",
        "Co"
      ],
      [
        "s.",
        "\",\"-"
      ],
      [
        "vi",
        "a"
      ],
      [
        "\",s\"",
        "forge"
      ],
      [
        "ati",
        "ve_"
      ],
      [
        "to",
        "_tier:s"
      ],
      [
        "to",
        "(cwd"
      ],
      [
        "ation",
        "s"
      ],
      [
        "ation",
        "s:[s]⟩"
      ],
      [
        "=\"",
        "secon"
      ],
      [
        "ver",
        "b_signature"
      ],
      [
        "producer",
        ","
      ],
      [
        "consumer",
        ","
      ],
      [
        "is",
        "_"
      ],
      [
        "is",
        "oformat("
      ],
      [
        "is",
        "instan"
      ],
      [
        "int",
        "s"
      ],
      [
        "doc",
        "_token"
      ],
      [
        ").",
        "')]"
      ],
      [
        "dir",
        ":_"
      ],
      [
        "None",
        ")"
      ],
      [
        "None",
        ")\",\""
      ],
      [
        "date",
        "time"
      ],
      [
        "chain",
        "_count"
      ],
      [
        "main",
        "`"
      ],
      [
        "target",
        "_dir"
      ],
      [
        "target",
        ":_⟩→_"
      ],
      [
        "target",
        "_score:f"
      ],
      [
        "cal",
        "lable"
      ],
      [
        "es",
        "cript"
      ],
      [
        "ke",
        "y"
      ],
      [
        "\\n\\n",
        "⟦"
      ],
      [
        "json",
        "-out"
      ],
      [
        "json",
        "_artifact"
      ],
      [
        "ai",
        "lable"
      ],
      [
        "lin",
        "eno:i"
      ],
      [
        "help",
        "_text"
      ],
      [
        "_s",
        "y"
      ],
      [
        "el",
        "se"
      ],
      [
        "po",
        "ints"
      ],
      [
        "inv",
        "=co"
      ],
      [
        "self",
        "_as"
      ],
      [
        "add_",
        "parser.add_argument(\""
      ],
      [
        "\".",
        "strip"
      ],
      [
        "\".",
        "atomadic-forge\""
      ],
      [
        "='",
        "utf-8"
      ],
      [
        "='",
        "synergy"
      ],
      [
        "ed",
        ":i"
      ],
      [
        "\",\"\",\"",
        "\",\"def"
      ],
      [
        "text",
        "(encoding"
      ],
      [
        "domain",
        "s"
      ],
      [
        "domain",
        "s\"]"
      ],
      [
        "merge",
        "_config"
      ],
      [
        "not",
        "-fo"
      ],
      [
        "ec",
        "e∈"
      ],
      [
        "command",
        "s"
      ],
      [
        "command",
        "s_"
      ],
      [
        "command",
        ".')]"
      ],
      [
        "type",
        ":"
      ],
      [
        ":b",
        "⟩"
      ],
      [
        "code",
        "Error"
      ],
      [
        "didate",
        "Card"
      ],
      [
        "cho",
        "ic"
      ],
      [
        "exc",
        "\",\""
      ],
      [
        "exc",
        ":\",\""
      ],
      [
        "```",
        "\\n\\n##"
      ],
      [
        "_dir",
        ":s"
      ],
      [
        "fe",
        "ed"
      ],
      [
        "sy",
        "s."
      ],
      [
        "ul",
        "ary"
      ],
      [
        "unt",
        "er(("
      ],
      [
        "json.",
        "load"
      ],
      [
        "json.",
        "JSON"
      ],
      [
        "from",
        "_tier:s"
      ],
      [
        "_c",
        "ache/\\n."
      ],
      [
        "candidate",
        "s="
      ],
      [
        "candidate",
        "s:[_]"
      ],
      [
        "orchestr",
        "ator"
      ],
      [
        "),",
        "\""
      ],
      [
        "av",
        "e"
      ],
      [
        "av",
        "ailable"
      ],
      [
        "be",
        "fo"
      ],
      [
        "tier_",
        "inventory"
      ],
      [
        "tier_",
        "distribution:{s:i}"
      ],
      [
        "⟦card[\"consumer\"]⟧",
        ",\",\""
      ],
      [
        "docstring",
        ":s⟩"
      ],
      [
        "catalog",
        "))"
      ],
      [
        "catalog",
        "_size"
      ],
      [
        "source_",
        "repo"
      ],
      [
        "\".join",
        "(("
      ],
      [
        ":{",
        "s:f"
      ],
      [
        "_o",
        "f"
      ],
      [
        "_ke",
        "y:_"
      ],
      [
        "em",
        "itted"
      ],
      [
        "err",
        "yPic"
      ],
      [
        "low",
        "s"
      ],
      [
        "low",
        "',"
      ],
      [
        "result.",
        "score_trajectory"
      ],
      [
        "atomadic_forge",
        "_se"
      ],
      [
        "Forge",
        "'s"
      ],
      [
        "a4_sy_orchestration",
        "/`"
      ],
      [
        "E_",
        "SU"
      ],
      [
        "_ap",
        "pen"
      ],
      [
        "ds",
        "\")"
      ],
      [
        "ist",
        "s()"
      ],
      [
        "up",
        "ward"
      ],
      [
        "wr",
        "app"
      ],
      [
        "parts",
        ")"
      ],
      [
        "parts",
        "=path."
      ],
      [
        "local",
        "_cfg"
      ],
      [
        "ure_",
        "_"
      ],
      [
        "function",
        "s:[s]"
      ],
      [
        "_docstring",
        "_first"
      ],
      [
        "has",
        "_clas"
      ],
      [
        "sp",
        "on"
      ],
      [
        "render_",
        "re"
      ],
      [
        "render_",
        "tests_"
      ],
      [
        "ary",
        "Directory"
      ],
      [
        "dict",
        ":_⟩"
      ],
      [
        "typer.secho(",
        "'producer"
      ],
      [
        "tests",
        "/"
      ],
      [
        "cli_demo",
        "_returncode"
      ],
      [
        "fg='",
        "yel"
      ],
      [
        "_count:i",
        "⟩"
      ],
      [
        "atomadic_forge.",
        "commands"
      ],
      [
        "'producer",
        "':"
      ],
      [
        ".s",
        "can"
      ],
      [
        ".s",
        "plit(\""
      ],
      [
        ".s",
        "ave_"
      ],
      [
        "T_",
        "RE.sub(\""
      ],
      [
        "_con",
        "sider"
      ],
      [
        "_file",
        "s:[s]"
      ],
      [
        "ad_",
        "text(encoding"
      ],
      [
        "open",
        "ai"
      ],
      [
        "s\",\"",
        "a4_sy_orchestration"
      ],
      [
        "s\",\"",
        "a3_og_feature"
      ],
      [
        "s\",\"",
        "a2_mo_composite"
      ],
      [
        "∨\"",
        "("
      ],
      [
        "rel",
        "ative_"
      ],
      [
        "report",
        ",indent=2,default=str),encoding=\"utf-8\")"
      ],
      [
        "divide",
        "_parser.add_argument(\""
      ],
      [
        "time",
        "spec"
      ],
      [
        "mpo",
        "se"
      ],
      [
        "str(",
        "SRC"
      ],
      [
        "package_",
        "name"
      ],
      [
        "subtract",
        "_parser.add_argument(\""
      ],
      [
        "⟨self:",
        "Commandsmith"
      ],
      [
        ".ex",
        "ists()"
      ],
      [
        "1_",
        "provider"
      ],
      [
        "EN",
        "T_RE.sub(\""
      ],
      [
        "_chain",
        "s"
      ],
      [
        "_module",
        "("
      ],
      [
        "_module",
        "_"
      ],
      [
        "lang",
        "_label"
      ],
      [
        "sh",
        "ap"
      ],
      [
        "⟨src",
        ":s"
      ],
      [
        "⟨src",
        ":s⟩→s"
      ],
      [
        "⟨src",
        "_root:_"
      ],
      [
        "end",
        "ations:[s]⟩"
      ],
      [
        "domain_",
        "inventory"
      ],
      [
        "domain_",
        "ju"
      ],
      [
        "project_dir",
        "/LOCAL_CONFIG_DIR"
      ],
      [
        "⟦card[\"producer\"]⟧,",
        "\",s\""
      ],
      [
        "quire",
        "_pure"
      ],
      [
        "typer.secho(f",
        "'consumer"
      ],
      [
        "EmergentScan",
        "Report"
      ],
      [
        "payload",
        ".get("
      ],
      [
        "'-m',",
        "\",\""
      ],
      [
        "global",
        "_"
      ],
      [
        "global",
        "_cfg"
      ],
      [
        "=re",
        ".sub(\""
      ],
      [
        "=re",
        "ad_config"
      ],
      [
        "Re",
        "sult"
      ],
      [
        "_S",
        "ENSITIV"
      ],
      [
        "__",
        "fut"
      ],
      [
        "clas",
        "ses"
      ],
      [
        "pas",
        "se"
      ],
      [
        "smo",
        "ke_"
      ],
      [
        "wor",
        "k"
      ],
      [
        "wor",
        "ds"
      ],
      [
        "x(",
        "))"
      ],
      [
        "roun",
        "d"
      ],
      [
        "segment",
        "∈IGNORED_DIRS"
      ],
      [
        "fiel",
        "d_type"
      ],
      [
        "top_",
        "n"
      ],
      [
        "_clas",
        "ses:[s]"
      ],
      [
        "score_",
        "bre"
      ],
      [
        "signature",
        "s"
      ],
      [
        "igno",
        "red"
      ],
      [
        "final",
        "_output"
      ],
      [
        ".update",
        "({"
      ],
      [
        "⟦preset.",
        "name⟧"
      ],
      [
        "'consumer",
        "':"
      ],
      [
        "(config",
        "[\"provider\"]"
      ],
      [
        "(target",
        "=self."
      ],
      [
        "(target",
        ".parent"
      ],
      [
        ".0",
        "f⟧"
      ],
      [
        "De",
        "mo"
      ],
      [
        "De",
        "codeError"
      ],
      [
        "LA",
        "NG"
      ],
      [
        "_m",
        "ar"
      ],
      [
        "_m",
        "s:i"
      ],
      [
        "base",
        "_url"
      ],
      [
        "cer",
        "tify"
      ],
      [
        "tmp",
        ")"
      ],
      [
        "tmp",
        ":\",\""
      ],
      [
        "state",
        "ful"
      ],
      [
        "duration",
        "_"
      ],
      [
        "duration",
        "_ms:i"
      ],
      [
        "mem",
        "ory"
      ],
      [
        "import-",
        "smoke"
      ],
      [
        "lay",
        "out"
      ],
      [
        "module_",
        "name"
      ],
      [
        "module_",
        "lines"
      ],
      [
        "file.",
        "Te"
      ],
      [
        "default_",
        "export"
      ],
      [
        "merged",
        ".update({"
      ],
      [
        "python",
        "\",\"javascript"
      ],
      [
        "has_",
        "self_as"
      ],
      [
        "spec",
        "ifi"
      ],
      [
        "multiply_",
        "parser.add_argument(\""
      ],
      [
        "open_idx",
        ":i⟩→i"
      ],
      [
        "Path(",
        "tmp)"
      ],
      [
        "cleaned",
        "=re.sub(\""
      ],
      [
        "EXTS",
        "?"
      ],
      [
        "ValueError",
        "("
      ],
      [
        "_balance_",
        "pai"
      ],
      [
        "a1_at_function",
        "s/`"
      ],
      [
        "getattr(_",
        "producer,"
      ],
      [
        "getattr(_",
        "consumer,"
      ],
      [
        "⟦card[\"candidate_id\"]⟧",
        ",\",\""
      ],
      [
        "⟦card[\"candidate_id\"]⟧",
        ",\",s\""
      ],
      [
        "behavior",
        "al"
      ],
      [
        "a0_qk_constants",
        "/`"
      ],
      [
        "a0_qk_constants",
        "\",\"a1_at_function"
      ],
      [
        "a3_og_feature",
        "s/`"
      ],
      [
        "a2_mo_composite",
        "s/`"
      ],
      [
        "'--",
        "json-out"
      ],
      [
        "(s,",
        "_)"
      ],
      [
        ",config",
        "))"
      ],
      [
        ".re",
        "ad_text(encoding"
      ],
      [
        "=len(",
        "chain"
      ],
      [
        "Ch",
        "erryPic"
      ],
      [
        "Open",
        "AI"
      ],
      [
        "ROO",
        "T"
      ],
      [
        "_type",
        ":s"
      ],
      [
        "_PR",
        "ESETS"
      ],
      [
        "a-",
        "z"
      ],
      [
        "dt.",
        "datetime"
      ],
      [
        "find",
        "ing"
      ],
      [
        "pi",
        "ece∈"
      ],
      [
        "sa",
        "fe_"
      ],
      [
        "⟨project",
        "_root:_"
      ],
      [
        "in-",
        "memory"
      ],
      [
        "\",\"re",
        "name"
      ],
      [
        "ali",
        "ze"
      ],
      [
        "mpor",
        "aryDirectory"
      ],
      [
        "sibl",
        "ing_"
      ],
      [
        "importlib",
        ".import"
      ],
      [
        "try",
        ":\",\""
      ],
      [
        "_comple",
        "ted"
      ],
      [
        "\",\"\",\"```bash",
        "\",\""
      ],
      [
        "excerpt",
        ":s⟩"
      ],
      [
        "tier_inde",
        "x("
      ],
      [
        "source_root",
        ":s⟩"
      ],
      [
        "typer.Exit(2",
        ")"
      ],
      [
        "_path=",
        "project_dir/LOCAL_CONFIG_DIR"
      ],
      [
        "headline",
        ":s"
      ],
      [
        "rounds",
        "_completed"
      ],
      [
        "ignore",
        "[import-"
      ],
      [
        "gistr",
        "y"
      ],
      [
        "target.write_text(json.dumps(",
        "report,indent=2,default=str),encoding=\"utf-8\")"
      ],
      [
        "Signature",
        "Card"
      ],
      [
        "llection",
        "s.Co"
      ],
      [
        "review",
        ":"
      ],
      [
        "metho",
        "d_name"
      ],
      [
        "'produc",
        "er.json"
      ],
      [
        "'main",
        "',"
      ],
      [
        "'run",
        "',"
      ],
      [
        "(O",
        "SError"
      ],
      [
        "(k",
        ",v"
      ],
      [
        "(prefix",
        "='synergy"
      ],
      [
        ",open_idx",
        ",\""
      ],
      [
        ".json",
        "\""
      ],
      [
        ".item",
        "s()"
      ],
      [
        "Ad",
        "d"
      ],
      [
        "Ant",
        "hropic"
      ],
      [
        "CO",
        "MM"
      ],
      [
        "Can",
        "didateCard"
      ],
      [
        "CRI",
        "PT_"
      ],
      [
        "DE",
        "FAUL"
      ],
      [
        "DUL",
        "ES"
      ],
      [
        "Gem",
        "ini"
      ],
      [
        "GLO",
        "BAL_CONFIG_DIR"
      ],
      [
        "MO",
        "DULES"
      ],
      [
        "Ol",
        "lama"
      ],
      [
        "Ti",
        "er"
      ],
      [
        "[A-Z",
        "a-z"
      ],
      [
        "_st",
        "dout"
      ],
      [
        "_de",
        "pth"
      ],
      [
        "`run",
        "`"
      ],
      [
        "akdown",
        ":{s:f"
      ],
      [
        "c∈",
        "catalog))"
      ],
      [
        "eff",
        "ect"
      ],
      [
        "fre",
        "e"
      ],
      [
        "ll",
        "m"
      ],
      [
        "nex",
        "t"
      ],
      [
        "r(src",
        ",open_idx,\""
      ],
      [
        "sent",
        ":b"
      ],
      [
        "v≠",
        "∅})"
      ],
      [
        "vocab",
        "ulary"
      ],
      [
        "{exc",
        "}',"
      ],
      [
        "⟨report",
        ":_"
      ],
      [
        "⟨project_dir",
        ":_⟩→_"
      ],
      [
        "⟨candidate_id",
        ":s"
      ],
      [
        "recomm",
        "endations:[s]⟩"
      ],
      [
        "resolve",
        "()."
      ],
      [
        "in_mem",
        "ory_"
      ],
      [
        "\",\"typ",
        "escript"
      ],
      [
        "enfor",
        "ces"
      ],
      [
        "anth",
        "ropic"
      ],
      [
        "annot",
        "ations"
      ],
      [
        "temp",
        "file.Te"
      ],
      [
        "conver",
        "ged"
      ],
      [
        "constants",
        ","
      ],
      [
        "mp_re",
        "quired"
      ],
      [
        "as_posi",
        "x())"
      ],
      [
        "package_root",
        ",package"
      ],
      [
        "s(artifact",
        ".read_text(encoding"
      ],
      [
        "to(cwd",
        ")."
      ],
      [
        "=\"secon",
        "ds\")"
      ],
      [
        "isoformat(",
        "timespec"
      ],
      [
        "isinstan",
        "ce"
      ],
      [
        "chain_count",
        "_consider"
      ],
      [
        "help_text",
        ":s"
      ],
      [
        "inv=co",
        "llections.Co"
      ],
      [
        "='utf-8",
        "'))\",\""
      ],
      [
        "not-fo",
        "und"
      ],
      [
        "choic",
        "e"
      ],
      [
        "unter((",
        "c[\""
      ],
      [
        "json.load",
        "s(artifact.read_text(encoding"
      ],
      [
        "json.JSON",
        "DecodeError"
      ],
      [
        "befo",
        "re"
      ],
      [
        "_docstring_first",
        "_line"
      ],
      [
        "fg='yel",
        "low',"
      ],
      [
        ".save_",
        "report"
      ],
      [
        "s\",\"a3_og_feature",
        "s\",\"a4_sy_orchestration"
      ],
      [
        "s\",\"a2_mo_composite",
        "s\",\"a3_og_features\",\"a4_sy_orchestration"
      ],
      [
        "relative_",
        "to(cwd)."
      ],
      [
        "ENT_RE.sub(\"",
        "\",src)"
      ],
      [
        "domain_ju",
        "mp_required"
      ],
      [
        "payload.get(",
        "'"
      ],
      [
        "=read_config",
        "_file"
      ],
      [
        "__fut",
        "ure__"
      ],
      [
        "score_bre",
        "akdown:{s:f"
      ],
      [
        "(config[\"provider\"]",
        ",config))"
      ],
      [
        "(target.parent",
        ".mkdir(parents=true,exist_ok=true)"
      ],
      [
        "LANG",
        "UAG"
      ],
      [
        "base_url",
        ":_"
      ],
      [
        "merged.update({",
        "k:v"
      ],
      [
        "python\",\"javascript",
        "\",\"typescript"
      ],
      [
        "has_self_as",
        "sign"
      ],
      [
        "cleaned=re.sub(\"",
        "^"
      ],
      [
        "_balance_pai",
        "r(src,open_idx,\""
      ],
      [
        "a0_qk_constants\",\"a1_at_function",
        "s\",\"a2_mo_composites\",\"a3_og_features\",\"a4_sy_orchestration"
      ],
      [
        "'--json-out",
        "',"
      ],
      [
        "CherryPic",
        "k"
      ],
      [
        "safe_",
        "intent"
      ],
      [
        "mporaryDirectory",
        "(prefix='synergy"
      ],
      [
        "importlib.import",
        "_module("
      ],
      [
        "_path=project_dir/LOCAL_CONFIG_DIR",
        "/CONFIG_FILE_NAME"
      ],
      [
        "ignore[import-",
        "not-found"
      ],
      [
        "'producer.json",
        "'\",\""
      ],
      [
        "(OSError",
        ","
      ],
      [
        "(k,v",
        ")∈"
      ],
      [
        "COMM",
        "ENT_RE.sub(\"\",src)"
      ],
      [
        "DEFAUL",
        "T_"
      ],
      [
        "in_memory_",
        "pipe"
      ],
      [
        "tempfile.Te",
        "mporaryDirectory(prefix='synergy"
      ],
      [
        "isoformat(timespec",
        "=\"seconds\")"
      ],
      [
        "inv=collections.Co",
        "unter((c[\""
      ],
      [
        "json.loads(artifact.read_text(encoding",
        "='utf-8'))\",\""
      ],
      [
        "json.JSONDecodeError",
        ")"
      ],
      [
        "score_breakdown:{s:f",
        "}"
      ],
      [
        "tempfile.TemporaryDirectory(prefix='synergy",
        "-')"
      ],
      [
        "!",
        "s\""
      ],
      [
        "\"",
        "#"
      ],
      [
        "\"",
        "Y"
      ],
      [
        "\"",
        "~"
      ],
      [
        "\"",
        ":s"
      ],
      [
        "\"",
        "src"
      ],
      [
        "\"",
        "config"
      ],
      [
        "\"",
        "__"
      ],
      [
        "\"",
        "python"
      ],
      [
        "\"",
        "?\""
      ],
      [
        "\"",
        "generated_package"
      ],
      [
        "\"",
        "javascript"
      ],
      [
        "'",
        "'"
      ],
      [
        "'",
        "t"
      ],
      [
        "'",
        "\\n"
      ],
      [
        "'",
        "\")"
      ],
      [
        "'",
        ")\",\""
      ],
      [
        "'",
        "src"
      ],
      [
        "'",
        "producer_"
      ],
      [
        "'",
        "result"
      ],
      [
        "'",
        "artifact"
      ],
      [
        "'",
        "phase"
      ],
      [
        "'",
        "schema_id"
      ],
      [
        "'",
        "in-memory"
      ],
      [
        "(",
        "4"
      ],
      [
        "(",
        "?"
      ],
      [
        "(",
        "E"
      ],
      [
        "(",
        "W"
      ],
      [
        "(",
        "d"
      ],
      [
        "(",
        "f"
      ],
      [
        "(",
        "h"
      ],
      [
        "(",
        "t"
      ],
      [
        "(",
        "or"
      ],
      [
        "(",
        "card"
      ],
      [
        "(",
        ")\",\""
      ],
      [
        "(",
        "args"
      ],
      [
        "(",
        "tier"
      ],
      [
        "(",
        "module"
      ],
      [
        "(",
        "default"
      ],
      [
        "(",
        "parser"
      ],
      [
        "(",
        "schema_version"
      ],
      [
        "(",
        "catalog"
      ],
      [
        "(",
        "with"
      ],
      [
        "(",
        "phase"
      ],
      [
        "(",
        "sp"
      ],
      [
        "(",
        "project_dir"
      ],
      [
        "(",
        "global"
      ],
      [
        "(",
        "wor"
      ],
      [
        "(",
        "url"
      ],
      [
        "(",
        "print("
      ],
      [
        "(",
        "dat"
      ],
      [
        "(",
        "s)"
      ],
      [
        "(",
        "merged"
      ],
      [
        "(",
        "'--"
      ],
      [
        "(",
        "5-tier"
      ],
      [
        "(",
        "arc"
      ],
      [
        "(",
        "suffix"
      ],
      [
        "(",
        "data"
      ],
      [
        "(",
        "every"
      ],
      [
        "(",
        "intermediate"
      ],
      [
        "(",
        "0,"
      ],
      [
        "(",
        "see"
      ],
      [
        "(",
        "domains"
      ],
      [
        "(",
        "result.score_trajectory"
      ],
      [
        "(",
        "atomadic_forge_se"
      ],
      [
        "(",
        "parts=path."
      ],
      [
        "(",
        "render_re"
      ],
      [
        "(",
        "lang_label"
      ],
      [
        "(",
        "Anthropic"
      ],
      [
        "(",
        "next"
      ],
      [
        "(",
        "cleaned=re.sub(\"^"
      ],
      [
[...]
