{
  "version": "1.0",
  "truncation": null,
  "padding": null,
  "added_tokens": [
    {
      "id": 0,
      "content": "[PAD]",
      "single_word": false,
      "lstrip": false,
      "rstrip": false,
      "normalized": false,
      "special": true
    },
    {
      "id": 1,
      "content": "[UNK]",
      "single_word": false,
      "lstrip": false,
      "rstrip": false,
      "normalized": false,
      "special": true
    },
    {
      "id": 2,
      "content": "[BOS]",
      "single_word": false,
      "lstrip": false,
      "rstrip": false,
      "normalized": false,
      "special": true
    },
    {
      "id": 3,
      "content": "[EOS]",
      "single_word": false,
      "lstrip": false,
      "rstrip": false,
      "normalized": false,
      "special": true
    },
    {
      "id": 4,
      "content": "[MASK]",
      "single_word": false,
      "lstrip": false,
      "rstrip": false,
      "normalized": false,
      "special": true
    },
    {
      "id": 5,
      "content": "[STRUCTURAL_OPEN]",
      "single_word": false,
      "lstrip": false,
      "rstrip": false,
      "normalized": false,
      "special": true
    },
    {
      "id": 6,
      "content": "[STRUCTURAL_CLOSE]",
      "single_word": false,
      "lstrip": false,
      "rstrip": false,
      "normalized": false,
      "special": true
    }
  ],
  "normalizer": null,
  "pre_tokenizer": {
    "type": "WhitespaceSplit"
  },
  "post_processor": null,
  "decoder": null,
  "model": {
    "type": "BPE",
    "dropout": null,
    "unk_token": "[UNK]",
    "continuing_subword_prefix": null,
    "end_of_word_suffix": null,
    "fuse_unk": false,
    "byte_fallback": false,
    "ignore_merges": false,
    "vocab": {
      "[PAD]": 0,
      "[UNK]": 1,
      "[BOS]": 2,
      "[EOS]": 3,
      "[MASK]": 4,
      "[STRUCTURAL_OPEN]": 5,
      "[STRUCTURAL_CLOSE]": 6,
      "!": 7,
      "\"": 8,
      "#": 9,
      "$": 10,
      "'": 11,
      "(": 12,
      ")": 13,
      "*": 14,
      "+": 15,
      ",": 16,
      "-": 17,
      ".": 18,
      "/": 19,
      "0": 20,
      "1": 21,
      "2": 22,
      "3": 23,
      "4": 24,
      "5": 25,
      "6": 26,
      "7": 27,
      "8": 28,
      "9": 29,
      ":": 30,
      ";": 31,
      "<": 32,
      "=": 33,
      ">": 34,
      "?": 35,
      "@": 36,
      "A": 37,
      "B": 38,
      "C": 39,
      "D": 40,
      "E": 41,
      "F": 42,
      "G": 43,
      "H": 44,
      "I": 45,
      "J": 46,
      "K": 47,
      "L": 48,
      "M": 49,
      "N": 50,
      "O": 51,
      "P": 52,
      "R": 53,
      "S": 54,
      "T": 55,
      "U": 56,
      "V": 57,
      "W": 58,
      "X": 59,
      "Y": 60,
      "Z": 61,
      "[": 62,
      "\\": 63,
      "]": 64,
      "^": 65,
      "_": 66,
      "`": 67,
      "a": 68,
      "b": 69,
      "c": 70,
      "d": 71,
      "e": 72,
      "f": 73,
      "g": 74,
      "h": 75,
      "i": 76,
      "j": 77,
      "k": 78,
      "l": 79,
      "m": 80,
      "n": 81,
      "o": 82,
      "p": 83,
      "q": 84,
      "r": 85,
      "s": 86,
      "t": 87,
      "u": 88,
      "v": 89,
      "w": 90,
      "x": 91,
      "y": 92,
      "z": 93,
      "{": 94,
      "|": 95,
      "}": 96,
      "~": 97,
      "¬": 98,
      "ι": 99,
      "λ": 100,
      "π": 101,
      "σ": 102,
      "ω": 103,
      "–": 104,
      "—": 105,
      "→": 106,
      "↦": 107,
      "⇒": 108,
      "∅": 109,
      "∈": 110,
      "∉": 111,
      "∧": 112,
      "∨": 113,
      "≟": 114,
      "≠": 115,
      "≤": 116,
      "≥": 117,
      "▷": 118,
      "✓": 119,
      "⟦": 120,
      "⟧": 121,
      "⟨": 122,
      "⟩": 123,
      "⟪": 124,
      "⟫": 125,
      ":i": 126,
      "⟩→": 127,
      "1π": 128,
      "⟩→i": 129,
      ":s": 130,
      "[i": 131,
      "[i]": 132,
      "re": 133,
      "er": 134,
      "nt": 135,
      ":i⟩→i": 136,
      "al": 137,
      ":[i]": 138,
      "ou": 139,
      "ke": 140,
      "ow": 141,
      "hs": 142,
      "val": 143,
      "in": 144,
      "ri": 145,
      "key": 146,
      ":s⟩→": 147,
      "s:[i]": 148,
      "ta": 149,
      "id": 150,
      "()": 151,
      "su": 152,
      ":s⟩→s": 153,
      "te": 154,
      "⟩→f": 155,
      "mp": 156,
      "ma": 157,
      "pre": 158,
      "od": 159,
      "ac": 160,
      "st": 161,
      ":i⟩": 162,
      "ue": 163,
      "rhs": 164,
      "value": 165,
      "le": 166,
      "co": 167,
      "out": 168,
      "min": 169,
      "s:[i]⟩→i": 170,
      "acc": 171,
      "_o": 172,
      "ody": 173,
      "body": 174,
      "idx": 175,
      "an": 176,
      ":i⟩→f": 177,
      ":f": 178,
      "max": 179,
      "lhs": 180,
      "cnt": 181,
      "_of": 182,
      "d_": 183,
      "me": 184,
      "tmp": 185,
      "ch": 186,
      "⟩→[i]": 187,
      "ar": 188,
      "se": 189,
      "fi": 190,
      "na": 191,
      "di": 192,
      "rip": 193,
      "da": 194,
      "name": 195,
      "ad": 196,
      "ent": 197,
      "s_": 198,
      "⟨l": 199,
      "ms": 200,
      "strip": 201,
      "data": 202,
      "ul": 203,
      "⟨x": 204,
      "sub": 205,
      "low": 206,
      ".strip": 207,
      ".strip()": 208,
      "lower": 209,
      "pow": 210,
      "⟨key": 211,
      "len": 212,
      "per": 213,
      "is_": 214,
      "≟0": 215,
      "|≟0": 216,
      "row": 217,
      "s:[i]⟩→[i]": 218,
      "nd": 219,
      "rie": 220,
      "entrie": 221,
      "el": 222,
      "up": 223,
      "mul": 224,
      "ge": 225,
      "sum": 226,
      "ite": 227,
      "bu": 228,
      "upper": 229,
      "on": 230,
      "buf": 231,
      "⟨y": 232,
      "ard": 233,
      "s[": 234,
      "ank": 235,
      "s)": 236,
      ":_": 237,
      "ab": 238,
      "⟨value": 239,
      "abel": 240,
      "\",": 241,
      "ount": 242,
      "tag": 243,
      "ed_": 244,
      "core": 245,
      "⟨name": 246,
      "**": 247,
      "ine": 248,
      "xt": 249,
      "sc": 250,
      "th": 251,
      ":[": 252,
      "text": 253,
      "add": 254,
      "ty": 255,
      "cho": 256,
      "echo": 257,
      "⟨x:i": 258,
      "_]": 259,
      "or": 260,
      "ver": 261,
      "msg": 262,
      "che": 263,
      ":[i]⟩→i": 264,
      "bl": 265,
      "ale": 266,
      ":s⟩→b": 267,
      ":f⟩→f": 268,
      "scale": 269,
      ".strip()|≟0": 270,
      "is_bl": 271,
      "is_blank": 272,
      ":s⟩→i": 273,
      "len_of": 274,
      ".lower": 275,
      "⟨data": 276,
      ".lower()": 277,
      "\",\"": 278,
      "ff": 279,
      ":[_]": 280,
      "diff": 281,
      "items": 282,
      "*x": 283,
      "tri": 284,
      "trim": 285,
      "⟨row": 286,
      "ti": 287,
      "⟨entrie": 288,
      "',": 289,
      "fe": 290,
      "he": 291,
      "il": 292,
      "min(": 293,
      "min_of": 294,
      ":[_]⟩→": 295,
      ":b": 296,
      ".upper": 297,
      "emp": 298,
      ".upper()": 299,
      "1]": 300,
      "⟨buf": 301,
      ":[_]⟩→b": 302,
      "-1]": 303,
      "::": 304,
      "og": 305,
      "rever": 306,
      "is_emp": 307,
      "::-1]": 308,
      "reverse": 309,
      "is_empty": 310,
      "ble": 311,
      "max(": 312,
      "max_of": 313,
      "1:": 314,
      "s]": 315,
      "tail": 316,
      "1:]": 317,
      "gth": 318,
      "length": 319,
      "_di": 320,
      "00": 321,
      "d_sub": 322,
      "fig": 323,
      "ked_sub": 324,
      "[2": 325,
      "count": 326,
      "100": 327,
      "dou": 328,
      "x∈": 329,
      "[2*x": 330,
      "double": 331,
      "ound": 332,
      "head": 333,
      "cked_sub": 334,
      "ry": 335,
      "score": 336,
      "fix": 337,
      "checked_sub": 338,
      "≤100": 339,
      "prefix": 340,
      "label": 341,
      "0]": 342,
      "gu": 343,
      "sum(": 344,
      "Log": 345,
      "hi": 346,
      "⟨s": 347,
      "⟨label": 348,
      "sa": 349,
      "o:i": 350,
      "≥0": 351,
      "Ran": 352,
      "bound": 353,
      "⟨ite": 354,
      "⟨lo:i": 355,
      "ed_pow": 356,
      "hi:i⟩": 357,
      "Range": 358,
      "bounded_pow": 359,
      "⟨item": 360,
      "int": 361,
      "line": 362,
      "⟨tag": 363,
      "count:i⟩": 364,
      "ger": 365,
      "≠0": 366,
      "red": 367,
      "prefix:s": 368,
      "⟨prefix:s": 369,
      "Logger": 370,
      "safe": 371,
      "⟨id": 372,
      "_div": 373,
      "safe_div": 374,
      "⟨m": 375,
      "Card": 376,
      "⟨c": 377,
      "⟨name:s": 378,
      "ai": 379,
      "qu": 380,
      "Count": 381,
      "cond": 382,
      "score:f": 383,
      "Counter": 384,
      "arded_": 385,
      "guarded_": 386,
      "guarded_mul": 387,
      "⟨value:i⟩": 388,
      "requ": 389,
      "requi": 390,
      "rst": 391,
      "⟨rhs": 392,
      "second": 393,
      "':": 394,
      "Score": 395,
      ":_⟩": 396,
      "required": 397,
      ">0": 398,
      "Con": 399,
      "rank": 400,
      ":b⟩": 401,
      "⟨k": 402,
      "⟨n": 403,
      "ScoreCard": 404,
      "Config": 405,
      "rank:i⟩": 406,
      "⟨y:i": 407,
      "Ent": 408,
      "i:i": 409,
      "oint": 410,
      "ro": 411,
      "⟨a": 412,
      "⟨out": 413,
      "value:s": 414,
      "first": 415,
      "⟨line": 416,
      "⟨key:s": 417,
      "⟨rhs:i": 418,
      "required:b⟩": 419,
      "ConfigEnt": 420,
      "ConfigEntry": 421,
      "Point": 422,
      "y:i⟩": 423,
      "air": 424,
      "⟨text": 425,
      ":[i]⟩→[i]": 426,
      "Pair": 427,
      "⟨j": 428,
      "⟨first": 429,
      "idx:i": 430,
      "second:_⟩": 431,
      "⟨first:_": 432,
      "s|": 433,
      "⟨m:i": 434,
      "⟨k:i": 435,
      "\\n": 436,
      "⟨acc": 437,
      "s[::-1]": 438,
      "'.": 439,
      "⟨i:i": 440,
      "⟨a:i": 441,
      "⟨z": 442,
      "⟨out:i": 443,
      "⟨key:i": 444,
      "s[1:]": 445,
      "⟨data:[i]⟩→i": 446,
      "⟨j:i": 447,
      "⟨cnt": 448,
      "con": 449,
      "⟨n:i": 450,
      "s:[_]⟩→b": 451,
      "⟨lhs": 452,
      "⟨values:[i]⟩→i": 453,
      "⟨rows:[i]⟩→i": 454,
      "s|≟0": 455,
      "⟨val": 456,
      "⟨msg": 457,
      "⟨tmp": 458,
      "⟨idx:i": 459,
      "⟨acc:i": 460,
      "⟨z:i": 461,
      "⟨c:i": 462,
      "⟨buf:[i]⟩→i": 463,
      "s[0]": 464,
      "⟨label:s⟩→s": 465,
      "⟨val:i": 466,
      "x:i⟩→i": 467,
      "⟨id:s⟩→s": 468,
      "⟨cnt:i": 469,
      "⟨xs:[i]⟩→i": 470,
      "⟨ys:[i]⟩→i": 471,
      "⟨items:[i]⟩→i": 472,
      "⟨tmp:i": 473,
      "at": 474,
      "i:i⟩→i": 475,
      "ut": 476,
      "⟨lhs:i": 477,
      "⟨b": 478,
      "⟨tag:s⟩→s": 479,
      "⟨key:s⟩→s": 480,
      "key:i⟩→i": 481,
      "rhs:i⟩→i": 482,
      "idx:i⟩→i": 483,
      "⟨name:s⟩→s": 484,
      "a:i⟩→i": 485,
      "⟨entries:[i]⟩→i": 486,
      "⟨s:s⟩→s": 487,
      "⟨b:i": 488,
      "c:i⟩→i": 489,
      "k:i⟩→i": 490,
      "⟨ys:[i]⟩→[i]": 491,
      "de": 492,
      "⟨line:s⟩→s": 493,
      "rc": 494,
      "b:i⟩→i": 495,
      "j:i⟩→i": 496,
      "⟨text:s⟩→s": 497,
      "\")": 498,
      "m:i⟩→i": 499,
      "pe": 500,
      "val:i⟩→i": 501,
      "acc:i⟩→i": 502,
      "⟨entries:[i]⟩→[i]": 503,
      "ur": 504,
      "er_": 505,
      "lhs:i⟩→i": 506,
      "cnt:i⟩→i": 507,
      "tion": 508,
      "z:i⟩→i": 509,
      "rows)": 510,
      "n:i⟩→i": 511,
      "y:i⟩→i": 512,
      "odu": 513,
      "\"]": 514,
      "ct": 515,
      "for": 516,
      "values)": 517,
      "age": 518,
      "⟨data:[i]⟩→[i]": 519,
      "li": 520,
      "data)": 521,
      "items)": 522,
      "(\"": 523,
      "un": 524,
      "tmp:i⟩→i": 525,
      "data[": 526,
      "buf)": 527,
      "[\"": 528,
      "ack": 529,
      "si": 530,
      "str": 531,
      "⟨rows:[i]⟩→[i]": 532,
      "⟨msg:s⟩→s": 533,
      "_p": 534,
      "ate": 535,
      "rodu": 536,
      "roduc": 537,
      "s\"": 538,
      "ys)": 539,
      "get": 540,
      "en": 541,
      "js": 542,
      "oma": 543,
      "⟨xs:[i]⟩→[i]": 544,
      "ex": 545,
      "produc": 546,
      "xs)": 547,
      "|key": 548,
      "out:i⟩→i": 549,
      "ackage": 550,
      "⟨values:[i]⟩→[i]": 551,
      "c-": 552,
      "card": 553,
      "package": 554,
      "ure": 555,
      "|name": 556,
      "|tag": 557,
      "|label": 558,
      "arg": 559,
      "entries)": 560,
      "⟨buf:[i]⟩→[i]": 561,
      "|x": 562,
      ":[s]": 563,
      "items[": 564,
      "-x": 565,
      "?key": 566,
      "lf": 567,
      "mo": 568,
      "|data": 569,
      "|msg": 570,
      "self": 571,
      "⟨items:[i]⟩→[i]": 572,
      "x-": 573,
      "ap": 574,
      "mma": 575,
      "consum": 576,
      "\\\"": 577,
      "pa": 578,
      "sy": 579,
      "t(": 580,
      "mmand": 581,
      ")\",\"": 582,
      "buf[": 583,
      "--": 584,
      "=\"": 585,
      "ha": 586,
      "k-": 587,
      "m*": 588,
      "oc": 589,
      "y*": 590,
      "y:i⟩→f": 591,
      "|value": 592,
      "rhs-": 593,
      "json": 594,
      "_re": 595,
      "fa": 596,
      "tr": 597,
      "ts": 598,
      "|entrie": 599,
      "|buf": 600,
      "|items": 601,
      "args": 602,
      "c*": 603,
      "val-": 604,
      "tar": 605,
      "faul": 606,
      "?i": 607,
      "ot": 608,
      "pro": 609,
      "ser": 610,
      "|id": 611,
      "|text": 612,
      "acc:i⟩→f": 613,
      "one": 614,
      "\",s\"": 615,
      "forge": 616,
      "target": 617,
      "?n": 618,
      "m-": 619,
      "t.": 620,
      "z-": 621,
      "|line": 622,
      "ing": 623,
      "chema": 624,
      "config": 625,
      ":key": 626,
      "?j": 627,
      "cod": 628,
      "can": 629,
      "y-": 630,
      "out-": 631,
      "arser": 632,
      "defaul": 633,
      "omadi": 634,
      "put": 635,
      "s:[s]": 636,
      "to": 637,
      "|row": 638,
      "idx:i⟩→f": 639,
      "lhs-": 640,
      "typer": 641,
      ":j": 642,
      "ation": 643,
      "is": 644,
      "ner": 645,
      "|y": 646,
      "}⟫": 647,
      "⟪{": 648,
      "ind": 649,
      "entries[::-1]": 650,
      "scrip": 651,
      "sion": 652,
      "consumer": 653,
      "typer.": 654,
      "))": 655,
      ":acc": 656,
      "s(": 657,
      "tmp:i⟩→f": 658,
      "⟨name:s⟩→b": 659,
      "\"]⟧": 660,
      "producer": 661,
      "card[\"": 662,
      "|name.strip()|≟0": 663,
      "None": 664,
      "fro": 665,
      "k:i⟩→f": 666,
      "n:i⟩→f": 667,
      "t_": 668,
      "time": 669,
      "atomadi": 670,
      "*a": 671,
      ":k": 672,
      "?idx": 673,
      "?cnt": 674,
      "FI": 675,
      "ON": 676,
      "a-": 677,
      "a:i⟩→f": 678,
      "ys[1:]": 679,
      "⟦card[\"": 680,
      "command": 681,
      "tag.lower()": 682,
      "self.": 683,
      "script": 684,
      "+i": 685,
      ":cnt": 686,
      "?tmp": 687,
      "a*": 688,
      "as": 689,
      "ain": 690,
      "ect": 691,
      "run": 692,
      "s.": 693,
      "src": 694,
      "sul": 695,
      "cnt:i⟩→f": 696,
      "ment": 697,
      "chain": 698,
      "⟨key:s⟩→i": 699,
      "ort": 700,
      "tier": 701,
      "⟨msg:s⟩→b": 702,
      "|key|": 703,
      "|msg.strip()|≟0": 704,
      "\\\"\\\"": 705,
      ":c": 706,
      ">k": 707,
      "Tr": 708,
      "``": 709,
      "c:": 710,
      "fac": 711,
      "s.strip()": 712,
      "ys]": 713,
      "key<": 714,
      "key.strip()": 715,
      "id.lower()": 716,
      "output": 717,
      ":_⟩→": 718,
      "type": 719,
      "max(values)": 720,
      "x∈ys]": 721,
      "chema_": 722,
      ">val": 723,
      ">key": 724,
      "ce": 725,
      "c:i⟩→f": 726,
      "i:i⟩→f": 727,
      "ith": 728,
      "ject": 729,
      "z:i⟩→f": 730,
      "key:i⟩→f": 731,
      "rhs:i⟩→f": 732,
      "lhs*": 733,
      "ory": 734,
      "max(rows)": 735,
      "3ω": 736,
      ":m": 737,
      ":n": 738,
      ":x": 739,
      "T_": 740,
      "_d": 741,
      "lo": 742,
      "ol": 743,
      "s.lower()": 744,
      "tur": 745,
      "x*": 746,
      "ys[::-1]": 747,
      "idate": 748,
      "out:i⟩→f": 749,
      "idx*": 750,
      "cnt+": 751,
      "date": 752,
      "min(data)": 753,
      "⟨label:s⟩→i": 754,
      "⟨tag:s⟩→i": 755,
      "⟨id:s⟩→i": 756,
      "|tag|": 757,
      "|label|": 758,
      "|xs|": 759,
      "|id|": 760,
      "turn": 761,
      ").": 762,
      ":tmp": 763,
      "?m": 764,
      "?y": 765,
      "?z": 766,
      "?out": 767,
      "cli": 768,
      "didate": 769,
      "k*": 770,
      "ly": 771,
      "n>": 772,
      "py": 773,
      "s=": 774,
      "x+": 775,
      "id.strip()": 776,
      "lhs:i⟩→f": 777,
      "tmp*": 778,
      "data]": 779,
      "⟨key:s⟩→b": 780,
      "version": 781,
      "min(buf)": 782,
      "x∈data]": 783,
      "sum(items)": 784,
      "⟨label:s⟩→b": 785,
      "⟨tag:s⟩→b": 786,
      "\\n\\n": 787,
      "|key.strip()|≟0": 788,
      "|tag.strip()|≟0": 789,
      "|label.strip()|≟0": 790,
      "|data|": 791,
      "'a": 792,
      "+key": 793,
      "='": 794,
      ">idx": 795,
      "?rhs": 796,
      "?acc": 797,
      "?lhs": 798,
      "b:i⟩→f": 799,
      "dx": 800,
      "mb": 801,
      "n*": 802,
      "sta": 803,
      "x:i⟩→f": 804,
      "val*": 805,
      "val:i⟩→f": 806,
      "cnt*": 807,
      "arti": 808,
      "⟨xs:[_]⟩→b": 809,
      "nder_": 810,
      "⟨values:[_]⟩→b": 811,
      "text.upper()": 812,
      "⟨data:[_]⟩→b": 813,
      "⟨entries:[_]⟩→b": 814,
      "line.lower()": 815,
      "root": 816,
      "utc": 817,
      "|xs|≟0": 818,
      "|data|≟0": 819,
      "|values|≟0": 820,
      "json.": 821,
      "|entries|≟0": 822,
      "|buf|": 823,
      "chema_version": 824,
      "artifac": 825,
      "-m": 826,
      ">rhs": 827,
      "TS": 828,
      "_root": 829,
      "hel": 830,
      "if": 831,
      "ror": 832,
      "s.strip()|≟0": 833,
      "vid": 834,
      "xs]": 835,
      "y+": 836,
      "ys[0]": 837,
      "z*": 838,
      "|s.strip()|≟0": 839,
      "id.upper()": 840,
      "name.lower()": 841,
      "entries[1:]": 842,
      "buf]": 843,
      "min(rows)": 844,
      "min(ys)": 845,
      "x∈xs]": 846,
      "x∈buf]": 847,
      "label.lower()": 848,
      "label.upper()": 849,
      "sum(rows)": 850,
      "sum(data)": 851,
      "⟨s:s⟩→b": 852,
      "⟨c:f": 853,
      "⟨text:s⟩→i": 854,
      "data[1:]": 855,
      "|text|": 856,
      "code": 857,
      "help": 858,
      "),": 859,
      ":rhs": 860,
      ":out": 861,
      ":lhs": 862,
      ">c": 863,
      ">n": 864,
      ">x": 865,
      "?a": 866,
      "?b": 867,
      "Co": 868,
      "CON": 869,
      "Re": 870,
      "[[": 871,
      "i*": 872,
      "j:i⟩→f": 873,
      "parser": 874,
      "ply": 875,
      "all": 876,
      "rhs*": 877,
      "values[0]": 878,
      "acc*": 879,
      "dir": 880,
      "rows[0]": 881,
      "tag.upper()": 882,
      "min(entries)": 883,
      "max(xs)": 884,
      "demo": 885,
      "data[0]": 886,
      "|items|": 887,
      "nerg": 888,
      "+\"": 889,
      "+cnt": 890,
      "-val": 891,
      ":a": 892,
      ">b": 893,
      ">z": 894,
      ">lhs": 895,
      "?k": 896,
      "ife": 897,
      "no": 898,
      "|s|": 899,
      "⟨items": 900,
      "ourc": 901,
      "inv": 902,
      "values[1:]": 903,
      "rows[::-1]": 904,
      "rows[1:]": 905,
      "tag.strip()": 906,
      "**rhs": 907,
      "⟨rows:[_]⟩→b": 908,
      "min(values)": 909,
      "min(items)": 910,
      "max(items)": 911,
      "max(buf)": 912,
      "_dir": 913,
      "sum(values)": 914,
      "⟨s:s⟩→i": 915,
      "data[::-1]": 916,
      "items[1:]": 917,
      "|items|≟0": 918,
      "candidate": 919,
      "|rows|≟0": 920,
      "FIG": 921,
      "CONFIG": 922,
      "ifest": 923,
      "⟨items:[_]⟩→b": 924,
      "ource": 925,
      "+c": 926,
      ",\",\"": 927,
      "-j": 928,
      "-idx": 929,
      ":y": 930,
      ":\",\"": 931,
      "EX": 932,
      "_ap": 933,
      "cat": 934,
      "fun": 935,
      "i<": 936,
      "imp": 937,
      "ist": 938,
      "j*": 939,
      "la": 940,
      "m<": 941,
      "mer": 942,
      ":idx": 943,
      "key*": 944,
      "key.upper()": 945,
      "test": 946,
      "values[::-1]": 947,
      "out*": 948,
      "file": 949,
      "name.upper()": 950,
      "add_": 951,
      "rows]": 952,
      "**idx": 953,
      "chestr": 954,
      "min(xs)": 955,
      "x∈rows]": 956,
      "line.upper()": 957,
      "⟨line:s⟩→b": 958,
      "⟨line:s⟩→i": 959,
      "⟨msg:s⟩→i": 960,
      "url": 961,
      "er_args": 962,
      "omain": 963,
      "items[::-1]": 964,
      "|msg|": 965,
      "path": 966,
      "|values|": 967,
      "forge.": 968,
      "|line|": 969,
      "|line.strip()|≟0": 970,
      "True": 971,
      "func": 972,
      "+a": 973,
      "+k": 974,
      "+n": 975,
      "+acc": 976,
      "-n": 977,
      "-rhs": 978,
      ":z": 979,
      ":val": 980,
      ">j": 981,
      ">m": 982,
      "?x": 983,
      "Er": 984,
      "b*": 985,
      "domain": 986,
      "ed": 987,
      "m:i⟩→f": 988,
      "md_": 989,
      "ture": 990,
      "xs[1:]": 991,
      "z:f⟩→f": 992,
      "zen": 993,
      "odel": 994,
      "name.strip()": 995,
      "entries]": 996,
      "entries[0]": 997,
      "⟨y:f": 998,
      "⟨name:s⟩→i": 999,
      "text.strip()": 1000,
      "text.lower()": 1001,
      "⟨buf:[_]⟩→b": 1002,
      "max(ys)": 1003,
      "x∈entries]": 1004,
      "label.strip()": 1005,
      "sum(buf)": 1006,
      "line.strip()": 1007,
      "uto": 1008,
      "|name|": 1009,
      "|entries|": 1010,
      "|buf|≟0": 1011,
      "|ys|": 1012,
      "frozen": 1013,
      "atomadic-": 1014,
      "Error": 1015,
      "frozense": 1016,
      "<i": 1017,
      ">cnt": 1018,
      ">tmp": 1019,
      "_c": 1020,
      "_demo": 1021,
      "du": 1022,
      "it": 1023,
      "n:f⟩→f": 1024,
      "po": 1025,
      "port": 1026,
      "s':": 1027,
      "source": 1028,
      "va": 1029,
      "wri": 1030,
      "xs[0]": 1031,
      "resul": 1032,
      "key.lower()": 1033,
      "prese": 1034,
      "comp": 1035,
      "acc**": 1036,
      "⟨ys:[_]⟩→b": 1037,
      "**m": 1038,
      "msg.strip()": 1039,
      "max(data)": 1040,
      "max(entries)": 1041,
      "sum(ys)": 1042,
      "⟨text:s⟩→b": 1043,
      "at_": 1044,
      "ature": 1045,
      "utf": 1046,
      "|text.strip()|≟0": 1047,
      "default": 1048,
      "|ys|≟0": 1049,
      "}⟫)": 1050,
      "_dt.": 1051,
      "cli_demo": 1052,
      "nergy": 1053,
      "EXTS": 1054,
      "frozenset(": 1055,
      "write": 1056,
      "\".": 1057,
      "+b": 1058,
      "+x": 1059,
      "-8": 1060,
      "-i": 1061,
      "-y": 1062,
      "-out": 1063,
      "-lhs": 1064,
      "-tmp": 1065,
      ".get": 1066,
      "/\\n": 1067,
      ":val-": 1068,
      ">y": 1069,
      "_sy": 1070,
      "ath": 1071,
      "c/": 1072,
      "c_": 1073,
      "doc": 1074,
      "fg": 1075,
      "kind": 1076,
      "nu": 1077,
      "r.": 1078,
      "x:f⟩→f": 1079,
      "xs[::-1]": 1080,
      "z<": 1081,
      "⟨self": 1082,
      "ted": 1083,
      "lhs:f⟩→f": 1084,
      "update": 1085,
      "feature": 1086,
      "⟨m:f": 1087,
      "buf[::-1]": 1088,
      "buf[0]": 1089,
      "|rows|": 1090,
      "⟪{'": 1091,
      "artifact": 1092,
      "help=\"": 1093,
      "utf-8": 1094,
      "⟨self:": 1095,
      "(json.": 1096,
      "+j": 1097,
      "-a": 1098,
      "4_sy": 1099,
      ":x-": 1100,
      "=True": 1101,
      ">acc": 1102,
      "?val": 1103,
      "?c:": 1104,
      "Fal": 1105,
      "RE": 1106,
      "Scan": 1107,
      "_count": 1108,
      "cur": 1109,
      "cmd_": 1110,
      "fin": 1111,
      "rchestr": 1112,
      "ve": 1113,
      "y**": 1114,
      "∅)": 1115,
      ":s⟩": 1116,
      "rent": 1117,
      "return": 1118,
      "mps(": 1119,
      "values]": 1120,
      "out:f⟩→f": 1121,
      "_orchestr": 1122,
      "**y": 1123,
      "x∈values]": 1124,
      "gument": 1125,
      "sum(xs)": 1126,
      "pen": 1127,
      "\"])": 1128,
      "_parser": 1129,
      "hase": 1130,
      "true": 1131,
      "project": 1132,
      "from": 1133,
      "\\\"\\\"\\\"": 1134,
      "```": 1135,
      "mber": 1136,
      "Command": 1137,
      "dumps(": 1138,
      "number": 1139,
      "4_sy_orchestr": 1140,
      "=True)\",\"": 1141,
      "False": 1142,
      "4_sy_orchestration": 1143,
      "##": 1144,
      "')": 1145,
      "+z": 1146,
      "+val": 1147,
      "+tmp": 1148,
      "-k": 1149,
      "/`": 1150,
      "/a": 1151,
      "/tmp": 1152,
      "<c": 1153,
      ">i": 1154,
      ">out": 1155,
      "?x-": 1156,
      "Cli": 1157,
      "LL": 1158,
      "Sy": 1159,
      "_s": 1160,
      "_id": 1161,
      "_score": 1162,
      "_con": 1163,
      "auto": 1164,
      "ava": 1165,
      "ic": 1166,
      "ig": 1167,
      "mith": 1168,
      "model": 1169,
      "phase": 1170,
      "s\",\"": 1171,
      "s.upper()": 1172,
      "s\")": 1173,
      "smith": 1174,
      "with": 1175,
      "⟨⟩→": 1176,
      "alog": 1177,
      "rhs<": 1178,
      "rhs≥0": 1179,
      "out≤100": 1180,
      "acc:f⟩→f": 1181,
      "tmp≠0": 1182,
      "ent=": 1183,
      "**i": 1184,
      "**x": 1185,
      "_]]": 1186,
      "sum(entries)": 1187,
      "⟨id:s⟩→b": 1188,
      "⟨lhs:f": 1189,
      "env": 1190,
      "encod": 1191,
      "producer_args": 1192,
      "-x:x-": 1193,
      "moke": 1194,
      "buf[1:]": 1195,
      "----": 1196,
      "_render_": 1197,
      "|id.strip()|≟0": 1198,
      "consumer\"]⟧": 1199,
      "producer\"]⟧": 1200,
      "time.": 1201,
      "atomadic_": 1202,
      "⟦card[\"consumer\"]⟧": 1203,
      "⟦card[\"producer\"]⟧": 1204,
      "vider": 1205,
      "catalog": 1206,
      "function": 1207,
      "utf-8\")": 1208,
      "(json.dumps(": 1209,
      "final": 1210,
      "Client": 1211,
      "encoding": 1212,
      "+out": 1213,
      "+idx": 1214,
      "-b": 1215,
      "-key": 1216,
      ".write": 1217,
      "?rhs-": 1218,
      "?val-": 1219,
      "De": 1220,
      "Ex": 1221,
      "Man": 1222,
      "a/": 1223,
      "bal": 1224,
      "i_": 1225,
      "it(": 1226,
      "jo": 1227,
      "k≤100": 1228,
      "modu": 1229,
      "now": 1230,
      "rai": 1231,
      "ss": 1232,
      "spe": 1233,
      "sha": 1234,
      "schema_version": 1235,
      "smoke": 1236,
      "vi": 1237,
      "val:f⟩→f": 1238,
      "in(": 1239,
      "tep": 1240,
      "mat(": 1241,
      "ache": 1242,
      "rhs≤100": 1243,
      "out≠0": 1244,
      "idx<": 1245,
      "lhs<": 1246,
      "len(": 1247,
      "gener": 1248,
      "**a": 1249,
      "**val": 1250,
      "**cnt": 1251,
      "the": 1252,
      "thon": 1253,
      "msg.lower()": 1254,
      "msg.upper()": 1255,
      "⟨schema_version": 1256,
      "⟨cnt:f": 1257,
      "format(": 1258,
      "_pro": 1259,
      "parent": 1260,
      "indent=": 1261,
      "script':": 1262,
      "run(": 1263,
      "c:c-": 1264,
      ":_⟩→_": 1265,
      ":_⟩→s": 1266,
      "load": 1267,
      "python": 1268,
      "[[_]]": 1269,
      "CONFIG_": 1270,
      "result.": 1271,
      "default=": 1272,
      "\".jo": 1273,
      "module": 1274,
      "raise": 1275,
      "spec": 1276,
      "generate": 1277,
      "⟨schema_version:s": 1278,
      "indent=2": 1279,
      "\".join(": 1280,
      "'producer": 1281,
      "+y": 1282,
      ",help=\"": 1283,
      "/y": 1284,
      "=int": 1285,
      ">a": 1286,
      "?out-": 1287,
      "?lhs-": 1288,
      "Ar": 1289,
      "DE": 1290,
      "DI": 1291,
      "_command": 1292,
      "ad_": 1293,
      "a4_sy_orchestration": 1294,
      "call": 1295,
      "gist": 1296,
      "i>0": 1297,
      "j≠0": 1298,
      "java": 1299,
      "loc": 1300,
      "las": 1301,
      "oformat(": 1302,
      "pt": 1303,
      "s,": 1304,
      "s:[_]": 1305,
      "y>0": 1306,
      "⟨idx": 1307,
      "ode": 1308,
      "rhs:f⟩→f": 1309,
      "out<": 1310,
      "acc≠0": 1311,
      "acc>0": 1312,
      "idx:f⟩→f": 1313,
      "idx>0": 1314,
      "anscript": 1315,
      "cnt:f⟩→f": 1316,
      "name:s": 1317,
      "⟨x:f": 1318,
      "**b": 1319,
      "tier_": 1320,
      "⟨n:f": 1321,
      "\\n\")": 1322,
      "'.m": 1323,
      "str(": 1324,
      "string": 1325,
      "js',": 1326,
      "items[0]": 1327,
      "=\"utf-8\")": 1328,
      "_resul": 1329,
      "trac": 1330,
      "args.": 1331,
      "default_": 1332,
      "isoformat(": 1333,
      "typer.Ex": 1334,
      "timespec": 1335,
      "datetime.": 1336,
      "impor": 1337,
      "lama": 1338,
      "_dt.datetime.": 1339,
      "_parser.": 1340,
      "Commandsmith": 1341,
      "LLM": 1342,
      "encoding=\"utf-8\")": 1343,
      "Manifest": 1344,
      "i_key": 1345,
      "DIR": 1346,
      "⟨idx:f": 1347,
      "isoformat(timespec": 1348,
      "typer.Exit(": 1349,
      "\"+": 1350,
      "(f": 1351,
      "+rhs": 1352,
      "-z": 1353,
      "-acc": 1354,
      "/v": 1355,
      "2_": 1356,
      ":z-": 1357,
      ":lhs-": 1358,
      "=self.": 1359,
      "?k-": 1360,
      "?m-": 1361,
      "?z-": 1362,
      "AU": 1363,
      "ES": 1364,
      "FAU": 1365,
      "LT_": 1366,
      "]\",\"": 1367,
      "_text": 1368,
      "_output": 1369,
      "a≤100": 1370,
      "a≥0": 1371,
      "a≠0": 1372,
      "aject": 1373,
      "c≤100": 1374,
      "dx-": 1375,
      "ext": 1376,
      "g_": 1377,
      "gent": 1378,
      "j:f⟩→f": 1379,
      "j≤100": 1380,
      "k≥0": 1381,
      "k>0": 1382,
      "m≤100": 1383,
      "nifest": 1384,
      "por": 1385,
      "pure": 1386,
      "ra": 1387,
      "r=True)\",\"": 1388,
      "schema": 1389,
      "s/`": 1390,
      "z:z-": 1391,
      "},": 1392,
      "}',": 1393,
      "render_": 1394,
      "erry": 1395,
      "err=True)\",\"": 1396,
      "ntent": 1397,
      "val≥0": 1398,
      "table": 1399,
      "manifest": 1400,
      "rhs/": 1401,
      "idx≤100": 1402,
      "idx≥0": 1403,
      "lhs≥0": 1404,
      "cnt<": 1405,
      "cnt>0": 1406,
      "d_at_": 1407,
      "tmp<": 1408,
      "tmp:f⟩→f": 1409,
      "argument": 1410,
      "secho": 1411,
      "nature": 1412,
      "s_dir": 1413,
      "⟨key:f": 1414,
      "ged": 1415,
      "\",type": 1416,
      "**k": 1417,
      "**n": 1418,
      "**z": 1419,
      "items]": 1420,
      "tiply": 1421,
      "s]]": 1422,
      "x∈items]": 1423,
      "⟨out:f": 1424,
      "idx:idx-": 1425,
      "⟨acc:f": 1426,
      "'.w": 1427,
      "⟨tmp:f": 1428,
      "ctx": 1429,
      "(\"a": 1430,
      "sig": 1431,
      "_path": 1432,
      "exc": 1433,
      "package_": 1434,
      "sys.": 1435,
      "provider": 1436,
      "defaults": 1437,
      "typer.secho": 1438,
      "FIL": 1439,
      "src/": 1440,
      "ces": 1441,
      "mbol": 1442,
      "stant": 1443,
      "vide": 1444,
      "[[s]]": 1445,
      "-val:val-": 1446,
      "invo": 1447,
      "mergent": 1448,
      "add_parser": 1449,
      "add_argument": 1450,
      "atomadic-forge.": 1451,
      "fg='": 1452,
      "cur_": 1453,
      "number\")": 1454,
      "Synergy": 1455,
      "atomadic_forge.": 1456,
      "smoke_resul": 1457,
      "generated_at_": 1458,
      "=int,help=\"": 1459,
      "DEFAU": 1460,
      "gistry": 1461,
      "local": 1462,
      "/v1": 1463,
      "ajectory": 1464,
      "\",type=int,help=\"": 1465,
      "generated_at_utc": 1466,
      "DEFAULT_": 1467,
      "'}": 1468,
      "'type": 1469,
      "'}⟫)": 1470,
      "(target": 1471,
      ")+\"": 1472,
      "+lhs": 1473,
      "-c": 1474,
      ".re": 1475,
      ".ex": 1476,
      "/cnt": 1477,
      ":k-": 1478,
      ":rhs-": 1479,
      ":m-": 1480,
      ":y-": 1481,
      "=true": 1482,
      "?y-": 1483,
      "E_": 1484,
      "Emergent": 1485,
      "For": 1486,
      "RI": 1487,
      "_tier": 1488,
      "_file": 1489,
      "_comp": 1490,
      "a,": 1491,
      "b:f⟩→f": 1492,
      "c>0": 1493,
      "cap": 1494,
      "clas": 1495,
      "fn": 1496,
      "ire": 1497,
      "ifi": 1498,
      "i≥0": 1499,
      "j<": 1500,
      "j≥0": 1501,
      "k<": 1502,
      "k:f⟩→f": 1503,
      "k≠0": 1504,
      "mis": 1505,
      "n≠0": 1506,
      "pri": 1507,
      "par": 1508,
      "pli": 1509,
      "ub": 1510,
      "x',": 1511,
      "x≥0": 1512,
      "ze": 1513,
      "red_": 1514,
      "com": 1515,
      "acc≤100": 1516,
      "acc≥0": 1517,
      "and": 1518,
      "cnt≥0": 1519,
      "cnt:cnt": 1520,
      "dict": 1521,
      "divide": 1522,
      "subtrac": 1523,
      "multiply": 1524,
      "s))": 1525,
      "able": 1526,
      "**acc": 1527,
      "score_": 1528,
      "⟨k:f": 1529,
      "⟨a:f": 1530,
      "⟨z:f": 1531,
      "⟨val:f": 1532,
      "uration": 1533,
      "er_fn": 1534,
      "\"]=": 1535,
      "list": 1536,
      "pay": 1537,
      "has_": 1538,
      "trajectory": 1539,
      "None,": 1540,
      "Transcript": 1541,
      "T_EXTS": 1542,
      "_doc": 1543,
      "\\n\\n##": 1544,
      "state": 1545,
      "Report": 1546,
      "import": 1547,
      "atomadic-forge": 1548,
      "iter": 1549,
      "frozenset({": 1550,
      "frozenset(⟪{": 1551,
      ".get(\"": 1552,
      "/\\n.": 1553,
      "_step": 1554,
      "⟨⟩→s": 1555,
      "DEFAULT_CONFIG": 1556,
      ")+\"\\n\")": 1557,
      "Forge": 1558,
      "capture": 1559,
      "TranscriptLog": 1560,
      "!=": 1561,
      "'sy": 1562,
      "'-m": 1563,
      "'java": 1564,
      "'atomadic_forge.": 1565,
      "(_": 1566,
      "(card": 1567,
      "(config": 1568,
      "+m": 1569,
      ",indent=2": 1570,
      ".\",\"": 1571,
      ".un": 1572,
      ".call": 1573,
      "/z": 1574,
      "/acc": 1575,
      "0_": 1576,
      "0:\",\"": 1577,
      "1_": 1578,
      "3_o": 1579,
      ":\"": 1580,
      ":\",s\"": 1581,
      "=_": 1582,
      "=False": 1583,
      "?c-": 1584,
      "?a-": 1585,
      "AM": 1586,
      "CRI": 1587,
      "LA": 1588,
      "LI": 1589,
      "LO": 1590,
      "Liter": 1591,
      "NAM": 1592,
      "PT_EXTS": 1593,
      "RO": 1594,
      "Se": 1595,
      "Sto": 1596,
      "[sys.": 1597,
      "_me": 1598,
      "_ms": 1599,
      "_chain": 1600,
      "a:f⟩→f": 1601,
      "be": 1602,
      "b≤100": 1603,
      "cu": 1604,
      "c:f⟩→f": 1605,
      "duration": 1606,
      "ecu": 1607,
      "glo": 1608,
      "i:f": 1609,
      "i:f⟩→f": 1610,
      "ipe": 1611,
      "j/": 1612,
      "k_con": 1613,
      "ml": 1614,
      "mory": 1615,
      "n<": 1616,
      "n≤100": 1617,
      "n≥0": 1618,
      "not": 1619,
      "os": 1620,
      "open": 1621,
      "p_": 1622,
      "qk_con": 1623,
      "round": 1624,
      "vel": 1625,
      "y:f⟩→f": 1626,
      "z≥0": 1627,
      "z≠0": 1628,
      "z>0": 1629,
      "|\\n": 1630,
      "∨\"": 1631,
      "⟨i:f": 1632,
      "al[": 1633,
      "val≤100": 1634,
      "val≠0": 1635,
      "key≠0": 1636,
      "key:key": 1637,
      "().": 1638,
      "mpt_": 1639,
      "main": 1640,
      "cover": 1641,
      "acc:acc": 1642,
      "_omis": 1643,
      "idx≠0": 1644,
      "tmp≤100": 1645,
      "cherry": 1646,
      "entry": 1647,
      "subpro": 1648,
      "nd(": 1649,
      "s[\"": 1650,
      "\",default=": 1651,
      "ed_cli": 1652,
      "**:": 1653,
      "**key": 1654,
      "**out": 1655,
      "**lhs": 1656,
      "',\",s\"": 1657,
      "⟨src": 1658,
      "red',": 1659,
      "⟨card": 1660,
      "'.c": 1661,
      "⟨b:f": 1662,
      "rc)\",\"": 1663,
      "expor": 1664,
      "execu": 1665,
      "mo_comp": 1666,
      "app": 1667,
      "y*acc": 1668,
      "c*z": 1669,
      "\",s\"-": 1670,
      "target)": 1671,
      "top_": 1672,
      "s.run(": 1673,
      ").return": 1674,
      "code\",\"": 1675,
      "candidate_id": 1676,
      "-n:n": 1677,
      "domain_": 1678,
      "Error,": 1679,
      "_cache": 1680,
      "preset": 1681,
      "at_function": 1682,
      "updates[\"": 1683,
      "_count:i": 1684,
      "cmd_b": 1685,
      "project_dir": 1686,
      "phase_omis": 1687,
      "s\",\"a": 1688,
      "⟦card[\"producer\"]⟧,": 1689,
      ".write_text": 1690,
      "shared_": 1691,
      "_prompt_": 1692,
      "a4_sy_orchestration.un": 1693,
      "default_target": 1694,
      "imports": 1695,
      "_parser.add_argument": 1696,
      "LLMClient": 1697,
      "typer.Exit(rc)\",\"": 1698,
      "\"+package": 1699,
      "2_mo_comp": 1700,
      "_output=False": 1701,
      "g_feature": 1702,
      "table,": 1703,
      "typer.secho(f": 1704,
      "cess.run(": 1705,
      "fg='red',": 1706,
      "SynergyScan": 1707,
      "smoke_results": 1708,
      "=true)": 1709,
      "EmergentScan": 1710,
      "ified_cli": 1711,
      "subtract": 1712,
      "payload": 1713,
      "_docstring": 1714,
      "frozenset(⟪{'.": 1715,
      "capture_output=False": 1716,
      "'-m',": 1717,
      "'atomadic_forge.a4_sy_orchestration.un": 1718,
      "0_qk_con": 1719,
      "1_at_function": 1720,
      "3_og_feature": 1721,
      "CRIPT_EXTS": 1722,
      "Literal[": 1723,
      "Store": 1724,
      "[sys.execu": 1725,
      "global": 1726,
      "osite": 1727,
      "|\\n|": 1728,
      "subprocess.run(": 1729,
      ").returncode\",\"": 1730,
      "phase_omission": 1731,
      "2_mo_composite": 1732,
      "ified_cli',\",s\"": 1733,
      "capture_output=False).returncode\",\"": 1734,
      "'atomadic_forge.a4_sy_orchestration.unified_cli',\",s\"": 1735,
      "0_qk_constant": 1736,
      "[sys.executable,": 1737,
      "\"\\n": 1738,
      "(_dt.": 1739,
      "(parent": 1740,
      ",ex": 1741,
      "->": 1742,
      ".m": 1743,
      ".sub": 1744,
      ".json": 1745,
      ".utc": 1746,
      ".update": 1747,
      "/b": 1748,
      "=re": 1749,
      "=len(": 1750,
      "=dict": 1751,
      "AL": 1752,
      "CLI": 1753,
      "D_": 1754,
      "Fi": 1755,
      "JS": 1756,
      "NO": 1757,
      "Path": 1758,
      "RC": 1759,
      "Run": 1760,
      "TE": 1761,
      "[_]": 1762,
      "_P": 1763,
      "__": 1764,
      "_artifact": 1765,
      "_CONFIG_": 1766,
      "`src/": 1767,
      "a<": 1768,
      "by": 1769,
      "b≥0": 1770,
      "b≠0": 1771,
      "back": 1772,
      "bas": 1773,
      "c≠0": 1774,
      "d',": 1775,
      "g',": 1776,
      "gment": 1777,
      "ht": 1778,
      "hro": 1779,
      "j+i": 1780,
      "j>b": 1781,
      "k*x": 1782,
      "kdir": 1783,
      "k=true)": 1784,
      "lan": 1785,
      "llama": 1786,
      "nc": 1787,
      "n>0": 1788,
      "s:i": 1789,
      "sse": 1790,
      "s\\n": 1791,
      "tw": 1792,
      "ward": 1793,
      "x<": 1794,
      "x≠0": 1795,
      "y≥0": 1796,
      "z≤100": 1797,
      "zone": 1798,
      "⟦prese": 1799,
      "⟧`": 1800,
      "nt(": 1801,
      "nthro": 1802,
      "val:val-": 1803,
      "input": 1804,
      "ribu": 1805,
      "stribu": 1806,
      "content": 1807,
      "acc<": 1808,
      "_ok=true)": 1809,
      "lhs≤100": 1810,
      "lhs≠0": 1811,
      "cnt≤100": 1812,
      "tmp≥0": 1813,
      "tmp:tmp": 1814,
      "ary": 1815,
      "segment": 1816,
      "fiel": 1817,
      "subparser": 1818,
      "\",DEFAULT_CONFIG": 1819,
      "**c": 1820,
      "**j": 1821,
      "**tmp": 1822,
      "scout": 1823,
      "_distribu": 1824,
      "headline": 1825,
      "guage": 1826,
      "save": 1827,
      "intent": 1828,
      "⟨rhs:f": 1829,
      "seconds\")": 1830,
      "⟨j:f": 1831,
      "\")]": 1832,
      "ctory": 1833,
      "lib": 1834,
      "apply": 1835,
      "consumer_args": 1836,
      "=\"seconds\")": 1837,
      "m*rhs": 1838,
      "m*idx": 1839,
      "y*k": 1840,
      "json_artifact": 1841,
      "_return": 1842,
      "?i:key": 1843,
      "target.write_text": 1844,
      "s:[s]⟩": 1845,
      ")))": 1846,
      "s(card": 1847,
      "None,\",\"": 1848,
      "None:\",\"": 1849,
      "timezone": 1850,
      "a*y": 1851,
      "chain[\"": 1852,
      "output_dir": 1853,
      ").isoformat(timespec": 1854,
      "k*idx": 1855,
      "pytest": 1856,
      "s=true": 1857,
      "_root:_": 1858,
      "),encoding=\"utf-8\")": 1859,
      "nota": 1860,
      "_apply": 1861,
      "_api_key": 1862,
      "catch": 1863,
      "ist_ok=true)": 1864,
      "pose": 1865,
      "sources_dir": 1866,
      "comple": 1867,
      "cli_demo_": 1868,
      "cli_demo_return": 1869,
      "⟪{'python": 1870,
      "```bas": 1871,
      "env',": 1872,
      "-b:b": 1873,
      "now(_dt.": 1874,
      "ad_config": 1875,
      "_dt.datetime.now(_dt.": 1876,
      "ManifestStore": 1877,
      "raw": 1878,
      "signature": 1879,
      "FILE_": 1880,
      "'}),": 1881,
      "'typescript':": 1882,
      "print(": 1883,
      "score_trajectory": 1884,
      "'javascript':": 1885,
      "⟨card:_⟩→s": 1886,
      "default_target_score": 1887,
      "\"+package+\"": 1888,
      "Literal[(\"": 1889,
      "\"\\n\".join(": 1890,
      "(parents=true": 1891,
      ",exist_ok=true)": 1892,
      ".mkdir": 1893,
      ".sub(\"": 1894,
      ".utc).isoformat(timespec": 1895,
      ".update(": 1896,
      "=dict(": 1897,
      "AL_CONFIG_": 1898,
      "JSON": 1899,
      "j>b?j": 1900,
      "⟦preset.": 1901,
      "nthrop": 1902,
      "\",DEFAULT_CONFIG[\"": 1903,
      "_distribution": 1904,
      "timezone.utc).isoformat(timespec": 1905,
      "cli_demo_returncode": 1906,
      "⟪{'python':": 1907,
      "```bash": 1908,
      "_dt.datetime.now(_dt.timezone.utc).isoformat(timespec": 1909,
      "(parents=true,exist_ok=true)": 1910,
      ".mkdir(parents=true,exist_ok=true)": 1911,
      "AL_CONFIG_DIR": 1912,
      "']": 1913,
      "'}⟫": 1914,
      "'consumer": 1915,
      "'),": 1916,
      "'pure": 1917,
      "'atomadic-forge.": 1918,
      "((": 1919,
      "(n": 1920,
      "(body": 1921,
      "(\",\"": 1922,
      "(_p": 1923,
      "(src": 1924,
      "(func": 1925,
      "(args.": 1926,
      "(invo": 1927,
      "))\",\"": 1928,
      ")]\",\"": 1929,
      ",default=": 1930,
      ".0": 1931,
      ".s": 1932,
      ".sc": 1933,
      ".\\\"\\\"\\\"": 1934,
      ".parent": 1935,
      ".invo": 1936,
      "/i": 1937,
      "/x": 1938,
      "/rhs": 1939,
      "/idx": 1940,
      ":a-": 1941,
      "=args": 1942,
      "=config": 1943,
      "=_dt.datetime.": 1944,
      "=subparser": 1945,
      "@app": 1946,
      "AS": 1947,
      "An": 1948,
      "At": 1949,
      "ER": 1950,
      "G_": 1951,
      "GNO": 1952,
      "IGNO": 1953,
      "SE": 1954,
      "St": 1955,
      "SRC": 1956,
      "TI": 1957,
      "YP": 1958,
      "Z\",": 1959,
      "[]": 1960,
      "[str": 1961,
      "[list": 1962,
      "_name": 1963,
      "_to": 1964,
      "_turn": 1965,
      "_url": 1966,
      "_EXTS": 1967,
      "_with": 1968,
      "_env": 1969,
      "_bal": 1970,
      "`a": 1971,
      "are": 1972,
      "a:a-": 1973,
      "b:b": 1974,
      "b>0": 1975,
      "b\",type=int,help=\"": 1976,
      "b)))": 1977,
      "c<": 1978,
      "cle": 1979,
      "c**idx": 1980,
      "dow": 1981,
      "dout": 1982,
      "gs": 1983,
      "ip": 1984,
      "i≤100": 1985,
      "j>0": 1986,
      "j:j": 1987,
      "j+k": 1988,
      "k:k-": 1989,
      "kdow": 1990,
      "ll": 1991,
      "log": 1992,
      "late": 1993,
      "m:f⟩→f": 1994,
      "m>0": 1995,
      "nda": 1996,
      "s()": 1997,
      "s:f": 1998,
      "s',": 1999,
      "schema_": 2000,
      "ttr": 2001,
      "x≤100": 2002,
      "x?key": 2003,
      "y<": 2004,
      "y≤100": 2005,
      "y≠0": 2006,
      "y:y-": 2007,
      "y_ms": 2008,
      "{rc": 2009,
      "{package": 2010,
      "{\",s\"": 2011,
      "↦print(": 2012,
      "⟦package": 2013,
      "⟦result.": 2014,
      "⟧\")": 2015,
      "⟨re": 2016,
      "ree": 2017,
      "recom": 2018,
      "error": 2019,
      "ntext": 2020,
      "alig": 2021,
      "alname:s": 2022,
      "ke_with": 2023,
      "val>0": 2024,
      "val+c": 2025,
      "val+a": 2026,
      "val>acc": 2027,
      "inde": 2028,
      "in_me": 2029,
      "key:f⟩→f": 2030,
      "key≥0": 2031,
      "tattr": 2032,
      "ide": 2033,
      "ted_": 2034,
      "tect": 2035,
      "tend(": 2036,
      "mport": 2037,
      "mar": 2038,
      "mary": 2039,
      "stdout": 2040,
      "rhs≠0": 2041,
      "rhs>0": 2042,
      "rhs+cnt": 2043,
      "rhs:rhs-": 2044,
      "level": 2045,
      "out>0": 2046,
      "out_command": 2047,
      "body.ex": 2048,
      "body)+\"\\n\")": 2049,
      "ance": 2050,
      "andidate": 2051,
      "aned": 2052,
      "lhs>0": 2053,
      "lhs:lhs-": 2054,
      "cnt≠0": 2055,
      "menda": 2056,
      "tmp*a": 2057,
      "set_": 2058,
      "entory": 2059,
      "s_comple": 2060,
      "getattr": 2061,
      "summary": 2062,
      "ited": 2063,
      "s),": 2064,
      "\",help=\"": 2065,
      "\",generated_at_utc": 2066,
      "echo(json.dumps(": 2067,
      "ork": 2068,
      "orchestr": 2069,
      "verged": 2070,
      "\",\"\",s\"": 2071,
      "\",\"##": 2072,
      ":[_]⟩": 2073,
      "ilable": 2074,
      "ked_subcommand": 2075,
      "header_": 2076,
      "lines(card": 2077,
      "⟨model": 2078,
      "qualname:s": 2079,
      "seconds": 2080,
      "'.ts": 2081,
      "converged": 2082,
      "def": 2083,
      "detect": 2084,
      "(\"b\",type=int,help=\"": 2085,
      "[\"@app": 2086,
      "size": 2087,
      "str(\"": 2088,
      "_pipe": 2089,
      "ated": 2090,
      "s\"⟦": 2091,
      "exce": 2092,
      "exited": 2093,
      "=\"atomadic-forge.": 2094,
      "k-y": 2095,
      "m*y": 2096,
      "propose": 2097,
      "?n:i": 2098,
      "omadic": 2099,
      "⟪{'a": 2100,
      "typer.Co": 2101,
      "typer.echo(json.dumps(": 2102,
      "None:\",s\"": 2103,
      "?cnt:n": 2104,
      "⟦card[\"candidate_id": 2105,
      "?tmp:i": 2106,
      "run_": 2107,
      "s.add_parser": 2108,
      "src)": 2109,
      "tier_distribution": 2110,
      "face": 2111,
      "key<x?key": 2112,
      "olation": 2113,
      "ollama": 2114,
      "cnt+b": 2115,
      "='Ar": 2116,
      "='seconds": 2117,
      "cnt*acc": 2118,
      "utcnow": 2119,
      "json.JSON": 2120,
      "artifact_": 2121,
      "-m:m-": 2122,
      "z*val": 2123,
      "help='Ar": 2124,
      "+\"Z\",": 2125,
      "nore": 2126,
      "inventory": 2127,
      "candidates=": 2128,
      "merge": 2129,
      "merged": 2130,
      "domains": 2131,
      "Error)": 2132,
      "_cfg": 2133,
      "result": 2134,
      "cli_demo_command": 2135,
      "nergy':": 2136,
      "-lhs:lhs-": 2137,
      "kind:s": 2138,
      "ted[list": 2139,
      "⟪{'schema_version": 2140,
      "artifact)]\",\"": 2141,
      "⟨self:Commandsmith": 2142,
      "RED_": 2143,
      "return\",\"": 2144,
      "numbers\")": 2145,
      "=True)\",\"def": 2146,
      "False,": 2147,
      "')]": 2148,
      "auto_apply": 2149,
      "Decode": 2150,
      "ss',": 2151,
      "schema_version=\"atomadic-forge.": 2152,
      "loads(": 2153,
      "CONFIG_FILE_": 2154,
      "indent=2))\",\"": 2155,
      "Argument": 2156,
      "str(artifact)]\",\"": 2157,
      "args.b)))": 2158,
      "DIRS": 2159,
      "isoformat(timespec=\"seconds\")": 2160,
      "ctx:": 2161,
      "ctx.invo": 2162,
      "(\"a\",type=int,help=\"": 2163,
      "package_prefix": 2164,
      "defaults(func": 2165,
      "/v1',": 2166,
      "/v1\",generated_at_utc": 2167,
      "_tier:s": 2168,
      "a,args.b)))": 2169,
      "plit": 2170,
      "\"]=_prompt_": 2171,
      "frozenset({'pure": 2172,
      "'synergy':": 2173,
      ".callback": 2174,
      "=_header_": 2175,
      "LOC": 2176,
      "NAME": 2177,
      "ROO": 2178,
      "Second": 2179,
      "ml',": 2180,
      "mory_pipe": 2181,
      "open_": 2182,
      "rounds_comple": 2183,
      "().isoformat(timespec=\"seconds\")": 2184,
      "\",default=cur_": 2185,
      "shared_schema": 2186,
      "First": 2187,
      "`src/\"+package+\"": 2188,
      "ncy_ms": 2189,
      "two": 2190,
      "target.write_text(json.dumps(": 2191,
      "notated[list": 2192,
      "_api_key_env": 2193,
      "cli_demo_stdout": 2194,
      "\"\\n\".join(body)+\"\\n\")": 2195,
      "_dt.datetime.now(_dt.timezone.utc).isoformat(timespec='seconds": 2196,
      "(body=_header_": 2197,
      "(invoke_with": 2198,
      ",default=str": 2199,
      ".scan": 2200,
      "=args↦print(": 2201,
      "=config.get(\"": 2202,
      "=_dt.datetime.utcnow": 2203,
      "=subparsers.add_parser": 2204,
      "Annotated[list": 2205,
      "Atomadic": 2206,
      "IGNORED_": 2207,
      "Stub": 2208,
      "[str]": 2209,
      "_balance": 2210,
      "cleaned": 2211,
      "kdown": 2212,
      "llm": 2213,
      "latency_ms": 2214,
      "schema_id": 2215,
      "{rc}',": 2216,
      "⟦package⟧": 2217,
      "recommenda": 2218,
      "align": 2219,
      "index": 2220,
      "in_memory_pipe": 2221,
      "tend([\"@app": 2222,
      "out_command=True)\",\"def": 2223,
      "body.extend([\"@app": 2224,
      "set_defaults(func": 2225,
      "lines(card)": 2226,
      "⟨model:_": 2227,
      "(\"b\",type=int,help=\"Second": 2228,
      "proposed_": 2229,
      "typer.Context": 2230,
      "typer.echo(json.dumps({\",s\"": 2231,
      "⟦card[\"candidate_id\"]⟧": 2232,
      "key<x?key:x": 2233,
      "json.JSONDecode": 2234,
      "help='Args": 2235,
      "⟪{'schema_version':": 2236,
      "CONFIG_FILE_NAME": 2237,
      "indent=2))\",\"\"])": 2238,
      "ctx.invoked_subcommand": 2239,
      "(\"a\",type=int,help=\"First": 2240,
      "/v1\",generated_at_utc=_dt.datetime.utcnow": 2241,
      ".callback(invoke_with": 2242,
      "rounds_completed": 2243,
      "().isoformat(timespec=\"seconds\")+\"Z\",": 2244,
      "`src/\"+package+\"/a": 2245,
      "(body=_header_lines(card)": 2246,
      "=subparsers.add_parser(\"": 2247,
      "Annotated[list[str]": 2248,
      "IGNORED_DIRS": 2249,
      "recommendation": 2250,
      "body.extend([\"@app.callback(invoke_with": 2251,
      "set_defaults(func=args↦print(": 2252,
      "/v1\",generated_at_utc=_dt.datetime.utcnow().isoformat(timespec=\"seconds\")+\"Z\",": 2253,
      "body.extend([\"@app.callback(invoke_without_command=True)\",\"def": 2254,
      "\":\"": 2255,
      "'t": 2256,
      "'--": 2257,
      "'run": 2258,
      "'state": 2259,
      "'{package": 2260,
      "(G": 2261,
      "(data": 2262,
      "(self.": 2263,
      "(consumer_args": 2264,
      ")[": 2265,
      ")∈": 2266,
      ")}⟫": 2267,
      ")∨\"": 2268,
      ",\"": 2269,
      ",\",s\"": 2270,
      ",config": 2271,
      "-cnt": 2272,
      "-tier": 2273,
      "-c:c-": 2274,
      "-idx:idx-": 2275,
      "._": 2276,
      ".save": 2277,
      ".')]": 2278,
      "/c": 2279,
      "/j": 2280,
      "/n": 2281,
      "/val": 2282,
      "/key": 2283,
      "/lhs": 2284,
      "/CONFIG_FILE_NAME": 2285,
      "2σ": 2286,
      "5-tier": 2287,
      ":out-": 2288,
      "?\"": 2289,
      "AA": 2290,
      "AI": 2291,
      "AV": 2292,
      "Dire": 2293,
      "Gen": 2294,
      "HON": 2295,
      "Intent": 2296,
      "JAV": 2297,
      "OS": 2298,
      "PY": 2299,
      "Sc": 2300,
      "Sur": 2301,
      "Sig": 2302,
      "TYP": 2303,
      "THON": 2304,
      "Val": 2305,
      "['": 2306,
      "[⟪": 2307,
      "[s]": 2308,
      "[]\",\"": 2309,
      "_se": 2310,
      "_line": 2311,
      "_score:f": 2312,
      "_config": 2313,
      "_type": 2314,
      "_model": 2315,
      "_module": 2316,
      "_manifest": 2317,
      "_com": 2318,
      "_size": 2319,
      "ast": 2320,
      "ase": 2321,
      "ada": 2322,
      "a>0": 2323,
      "a?i": 2324,
      "b?key": 2325,
      "b>val": 2326,
      "cer": 2327,
      "c*x": 2328,
      "c≥0": 2329,
      "cro": 2330,
      "ction": 2331,
      "d:i": 2332,
      "e:": 2333,
      "em": 2334,
      "ew": 2335,
      "ere": 2336,
      "ever": 2337,
      "fo": 2338,
      "fy": 2339,
      "f⟧": 2340,
      "f',": 2341,
      "fli": 2342,
      "find": 2343,
      "i*x": 2344,
      "i-a": 2345,
      "i+val": 2346,
      "i**z": 2347,
      "ize": 2348,
      "j*x": 2349,
      "j>key": 2350,
      "j-i": 2351,
      "kg": 2352,
      "k>idx": 2353,
      "k>c": 2354,
      "k**idx": 2355,
      "k/tmp": 2356,
      "ler": 2357,
      "lle": 2358,
      "m?n": 2359,
      "m+out": 2360,
      "m:m-": 2361,
      "n+i": 2362,
      "n-k": 2363,
      "ope": 2364,
      "ption": 2365,
      "pkg": 2366,
      "ran": 2367,
      "s:": 2368,
      "sh": 2369,
      "sk": 2370,
      "sp": 2371,
      "scover": 2372,
      "try": 2373,
      "voc": 2374,
      "x>idx": 2375,
      "x>rhs": 2376,
      "x>m": 2377,
      "yout": 2378,
      "y>m": 2379,
      "z>key": 2380,
      "z+key": 2381,
      "z**rhs": 2382,
      "{e:": 2383,
      "∈IGNORED_DIRS": 2384,
      "⟨chain": 2385,
      "⟨project": 2386,
      "⟫]": 2387,
      "⟩→_": 2388,
      "revi": 2389,
      "er,": 2390,
      "erme": 2391,
      "er.\",\"": 2392,
      "erated": 2393,
      "ken": 2394,
      "val<": 2395,
      "val>rhs": 2396,
      "val>x": 2397,
      "in-": 2398,
      "key>x": 2399,
      "key-idx": 2400,
      "key-lhs": 2401,
      "key?i:key": 2402,
      "tem": 2403,
      "ace": 2404,
      "stall": 2405,
      "ueError": 2406,
      "rhs*a": 2407,
      "rhs>out": 2408,
      "colle": 2409,
      "out≥0": 2410,
      "out**val": 2411,
      "mini": 2412,
      "acc-x": 2413,
      "acc+key": 2414,
      "_ollama": 2415,
      "idx+acc": 2416,
      "idx-i": 2417,
      "idx-y": 2418,
      "lhs>tmp": 2419,
      "lhs**y": 2420,
      "cnt?key": 2421,
      "cnt?out": 2422,
      "meth": 2423,
      "tmp>i": 2424,
      "tmp**x": 2425,
      "arc": 2426,
      "ses:[s]": 2427,
      "nadi": 2428,
      "dige": 2429,
      "diate": 2430,
      "discover": 2431,
      "name,": 2432,
      "s_utc": 2433,
      "strip_com": 2434,
      "ulary": 2435,
      "abulary": 2436,
      "**{e:": 2437,
      "this": 2438,
      "text(": 2439,
      "bling": 2440,
      "\",\"-": 2441,
      "\",\"re": 2442,
      "tify": 2443,
      "interme": 2444,
      "lineage": 2445,
      "⟨node": 2446,
      "'.g": 2447,
      "'.p": 2448,
      "'.s": 2449,
      "'.to": 2450,
      "'.js',": 2451,
      "ator": 2452,
      "descrip": 2453,
      "forward": 2454,
      "[\"provider": 2455,
      "sibling": 2456,
      "s\"#": 2457,
      "producer_fn": 2458,
      "package,": 2459,
      "package:s": 2460,
      "?key:c": 2461,
      "?key:lhs": 2462,
      "?key-x:x-": 2463,
      "monadi": 2464,
      "consumer_fn": 2465,
      "synerg": 2466,
      "symbol": 2467,
      ")\",\"[": 2468,
      "k-c": 2469,
      "m*j": 2470,
      "m*lhs": 2471,
      "y*b": 2472,
      "y*i": 2473,
      "y*n": 2474,
      "y*idx": 2475,
      "json',": 2476,
      "_report": 2477,
      "c*a": 2478,
      "c*k": 2479,
      "c*val": 2480,
      "c*rhs": 2481,
      "c*lhs": 2482,
      "c*cnt": 2483,
      "?i:y": 2484,
      "?n:c": 2485,
      "z-c": 2486,
      "config.update(": 2487,
      "?j:k": 2488,
      "y-b": 2489,
      "y-idx": 2490,
      "y-tmp": 2491,
      "out-n": 2492,
      "out-cnt": 2493,
      "out-tmp": 2494,
      "lhs-b": 2495,
      "consumer-": 2496,
      "typer.Argument": 2497,
      "?idx:j": 2498,
      "a-k": 2499,
      "a-z": 2500,
      "self.write": 2501,
      "?tmp:x": 2502,
      "a*n": 2503,
      "a*lhs": 2504,
      "a*tmp": 2505,
      "key<b?key": 2506,
      "key<cnt?key": 2507,
      "output_root": 2508,
      "lhs*m": 2509,
      "lhs*n": 2510,
      "olve": 2511,
      "x*k": 2512,
      "x*val": 2513,
      "idx*cnt": 2514,
      "cnt+a": 2515,
      "?y:m": 2516,
      "?z:j": 2517,
      "?z:m": 2518,
      "n>i": 2519,
      "n>m?n": 2520,
      "x+z": 2521,
      "x+idx": 2522,
      "tmp*val": 2523,
      "tmp*cnt": 2524,
      "\\n\\n```bash": 2525,
      "?rhs:out": 2526,
      "?rhs:y": 2527,
      "?lhs:tmp": 2528,
      "?lhs:z": 2529,
      "n*tmp": 2530,
      "val*z": 2531,
      "val*idx": 2532,
      "cnt*k": 2533,
      "json.loads(": 2534,
      "artifact.": 2535,
      "y+rhs": 2536,
      "y+lhs": 2537,
      "z*b": 2538,
      "z*i": 2539,
      "z*m": 2540,
      "?a:key": 2541,
      "?a:out": 2542,
      "Registry": 2543,
      "i*j": 2544,
      "acc*n": 2545,
      "acc*rhs": 2546,
      "-j:j": 2547,
      "_appe": 2548,
      "i<a?i": 2549,
      "i<key?i:key": 2550,
      "j*c": 2551,
      "j*lhs": 2552,
      "tests": 2553,
      "tests_": 2554,
      "out*z": 2555,
      "file:s": 2556,
      "url,": 2557,
      "True,": 2558,
      "-rhs:rhs-": 2559,
      "?x:m": 2560,
      "?x:idx": 2561,
      "b*rhs": 2562,
      "b*acc": 2563,
      "md_path": 2564,
      "source_root": 2565,
      "vailable": 2566,
      "acc**key": 2567,
      "-y:y-": 2568,
      "-tmp:tmp": 2569,
      ".get(": 2570,
      ".get_docstring": 2571,
      "c/idx": 2572,
      "kind:_": 2573,
      "⟨self:TranscriptLog": 2574,
      "?c:val": 2575,
      "?c:lhs": 2576,
      "RE.sub(\"": 2577,
      "RESE": 2578,
      "cur_score": 2579,
      "cmd_a": 2580,
      "cmd_a,": 2581,
      "_parser=subparsers.add_parser(\"": 2582,
      "\\\"\\\"\\\"Run": 2583,
      "-k:k-": 2584,
      "Symbol": 2585,
      "ick": 2586,
      "producer_args:": 2587,
      "--------": 2588,
      "_render_phase_omission": 2589,
      "_render_json_artifact": 2590,
      "⟦card[\"consumer\"]⟧,": 2591,
      "⟦card[\"consumer\"]⟧.\\\"\\\"\\\"": 2592,
      "final_score": 2593,
      "-key:key": 2594,
      "?val-rhs:rhs-": 2595,
      "Defaul": 2596,
      "a/n": 2597,
      "violation": 2598,
      "run(\",\"": 2599,
      "module:s": 2600,
      "ad_text(": 2601,
      "javascript": 2602,
      "ode)∨\"": 2603,
      "out<cnt?out": 2604,
      "tier_index": 2605,
      "'.mjs',": 2606,
      "_parser.set_defaults(func=args↦print(": 2607,
      "ManifestCard": 2608,
      "typer.Exit(2": 2609,
      "ESCRIPT_EXTS": 2610,
      "manifest_dir": 2611,
      "sign": 2612,
      "_path)": 2613,
      "_path=": 2614,
      "excer": 2615,
      "add_parser.": 2616,
      "generated_at_utc:s": 2617,
      "atomadic-forge\"": 2618,
      ",indent=2,default=str": 2619,
      "LAN": 2620,
      "duration_s": 2621,
      "coverage": 2622,
      "exported_": 2623,
      "top_n": 2624,
      "top_level": 2625,
      "_cache',": 2626,
      "_cache/\\n.": 2627,
      "cmd_b,": 2628,
      "imports:[s]": 2629,
      "_parser.add_argument(\"b\",type=int,help=\"Second": 2630,
      "_parser.add_argument(\"a\",type=int,help=\"First": 2631,
      "typer.secho(f'producer": 2632,
      "smoke_results=": 2633,
      "subprocess.run(cmd_a,": 2634,
      "subprocess.run(cmd_b,": 2635,
      "language": 2636,
      "sses_": 2637,
      "s\\n-": 2638,
      "⟧`\",s\"-": 2639,
      "inputs": 2640,
      "lib.": 2641,
      "None,\",\")": 2642,
      "ad_config_file": 2643,
      "raw_appe": 2644,
      "j>b?j:b": 2645,
      "nthropic": 2646,
      "(node)∨\"": 2647,
      "(args.a,args.b)))": 2648,
      ".split": 2649,
      ".parent.mkdir(parents=true,exist_ok=true)": 2650,
      "ASCRIPT_EXTS": 2651,
      "TIER": 2652,
      "_token": 2653,
      "except": 2654,
      "artifact_md_path": 2655,
      "\"]=_prompt_str(\"": 2656,
      "frozenset({'pure',": 2657,
      "LOCAL_CONFIG_DIR": 2658,
      "_api_key_env:_⟩": 2659,
      "_dt.datetime.now(_dt.timezone.utc).isoformat(timespec='seconds'),": 2660,
      "StubLLMClient": 2661,
      "_balance_p": 2662,
      "alignment": 2663,
      "typer.Context,\",\"": 2664,
      "json.JSONDecodeError)": 2665,
      "Directory": 2666,
      "Generated": 2667,
      "JAVASCRIPT_EXTS": 2668,
      "OSError,": 2669,
      "PYTHON": 2670,
      "Surface": 2671,
      "Signature": 2672,
      "TYPESCRIPT_EXTS": 2673,
      "ValueError": 2674,
      "[⟪:": 2675,
      "ast.get_docstring": 2676,
      "adapt": 2677,
      "b>val?b": 2678,
      "crosses_": 2679,
      "flict": 2680,
      "j>key?j": 2681,
      "opena": 2682,
      "vocabulary": 2683,
      "y>m?y:m": 2684,
      "review": 2685,
      "val>rhs?val-rhs:rhs-": 2686,
      "val>x?val": 2687,
      "key>x?key-x:x-": 2688,
      "collection": 2689,
      "method": 2690,
      "tmp>i?tmp:i": 2691,
      "digest": 2692,
      "s_utc':": 2693,
      "strip_comment": 2694,
      "intermediate": 2695,
      "⟨node:_⟩→s": 2696,
      "description": 2697,
      "forwarded": 2698,
      "monadic": 2699,
      "config.update(_step": 2700,
      "typer.Argument(\",\"": 2701,
      "key<b?key:b": 2702,
      "key<cnt?key:cnt": 2703,
      "\\n\\n```bash\\n": 2704,
      "RegistryManifestCard": 2705,
      "i<a?i:a": 2706,
      "RESETS": 2707,
      "⟦card[\"consumer\"]⟧.\\\"\\\"\\\"\",\"": 2708,
      "out<cnt?out:cnt": 2709,
      ",indent=2,default=str),encoding=\"utf-8\")": 2710,
      "(node)∨\"\"": 2711,
      ".split(\"": 2712,
      "PYTHON_EXTS": 2713,
      "ast.get_docstring(node)∨\"\"": 2714,
      "val>rhs?val-rhs:rhs-val": 2715,
      "key>x?key-x:x-key": 2716,
      "\"\\\"\\\"\\\"": 2717,
      "'\",\"": 2718,
      "'url": 2719,
      "'kind": 2720,
      "'model": 2721,
      "'main": 2722,
      "'ht": 2723,
      "'content": 2724,
      "'orchestr": 2725,
      "'ollama": 2726,
      "'latency_ms": 2727,
      "(h": 2728,
      "(k": 2729,
      "(t": 2730,
      "(tmp": 2731,
      "(tag": 2732,
      "(prefix": 2733,
      "(url": 2734,
      "(doc": 2735,
      "('producer": 2736,
      "(local": 2737,
      "(updates[\"": 2738,
      "(s\"⟦": 2739,
      "(schema_version=\"atomadic-forge.": 2740,
      "(OSError,": 2741,
      "(description": 2742,
      ")?": 2743,
      ")≥": 2744,
      ")\\n\\n": 2745,
      "*.": 2746,
      "*producer_args": 2747,
      ",v": 2748,
      ",max": 2749,
      ",package": 2750,
      ",open_": 2751,
      "-Z": 2752,
      "-f": 2753,
      "-⟦": 2754,
      "-in": 2755,
      "-i:i": 2756,
      "-cnt:cnt": 2757,
      ".1": 2758,
      ".T": 2759,
      ".items": 2760,
      ".\\n": 2761,
      ".\")": 2762,
      ".open": 2763,
      "/\"": 2764,
      "//": 2765,
      "/5": 2766,
      "/_": 2767,
      "/m": 2768,
      "/LOCAL_CONFIG_DIR": 2769,
      "0,": 2770,
      "1_pro": 2771,
      "1)[": 2772,
      "25": 2773,
      "2',": 2774,
      "3',": 2775,
      "4ι": 2776,
      "4',": 2777,
      "4_pro": 2778,
      "5)": 2779,
      "8⟫]": 2780,
      ":v": 2781,
      "=ha": 2782,
      "=⟪{'": 2783,
      "=_prompt_": 2784,
      "=run_": 2785,
      "=collection": 2786,
      "=ast.get_docstring(node)∨\"\"": 2787,
      "?i:i": 2788,
      "?doc": 2789,
      "AG": 2790,
      "Auto": 2791,
      "ALL": 2792,
      "Anthropic": 2793,
      "A-Z": 2794,
      "BAL_CONFIG_DIR": 2795,
      "CO": 2796,
      "Ch": 2797,
      "Candidate": 2798,
      "Di": 2799,
      "EC": 2800,
      "EM": 2801,
      "EN": 2802,
      "GU": 2803,
      "Ge": 2804,
      "ITS": 2805,
      "Import": 2806,
      "Kind": 2807,
      "KG_": 2808,
      "MA": 2809,
      "MM": 2810,
      "MP": 2811,
      "NI": 2812,
      "Open": 2813,
      "Ollama": 2814,
      "Pro": 2815,
      "Pick": 2816,
      "PKG_": 2817,
      "ST": 2818,
      "Step": 2819,
      "Te": 2820,
      "Ti": 2821,
      "Ty": 2822,
      "The": 2823,
      "Wire": 2824,
      "[A-Z": 2825,
      "\\\\": 2826,
      "_required": 2827,
      "_first": 2828,
      "_de": 2829,
      "__p": 2830,
      "_as": 2831,
      "_EX": 2832,
      "_prese": 2833,
      "_defaults": 2834,
      "_NAM": 2835,
      "_candidate_id": 2836,
      "_signature": 2837,
      "_mar": 2838,
      "_summary": 2839,
      "_excer": 2840,
      "_raw_appe": 2841,
      "`.": 2842,
      "`⟦": 2843,
      "`\",\"": 2844,
      "`forge": 2845,
      "`run": 2846,
      "asc": 2847,
      "a*x": 2848,
      "a?cnt": 2849,
      "a>k": 2850,
      "a>key": 2851,
      "a?m": 2852,
      "a>lhs": 2853,
      "a+k": 2854,
      "a+acc": 2855,
      "a+b": 2856,
      "a+z": 2857,
      "a>out": 2858,
      "a+idx": 2859,
      "a**cnt": 2860,
      "a**b": 2861,
      "a**key": 2862,
      "akdown": 2863,
      "bre": 2864,
      "b?n": 2865,
      "b+i": 2866,
      "b>k": 2867,
      "b>key": 2868,
      "b-m": 2869,
      "b>n": 2870,
      "b>z": 2871,
      "b-j": 2872,
      "b+n": 2873,
      "b+rhs": 2874,
      "b/cnt": 2875,
      "b**lhs": 2876,
      "base": 2877,
      "b_signature": 2878,
      "ci": 2879,
      "c∈": 2880,
      "c[\"": 2881,
      "c>k": 2882,
      "c>val": 2883,
      "c>rhs": 2884,
      "c>z": 2885,
      "c>lhs": 2886,
      "c+n": 2887,
      "c>tmp": 2888,
      "c+z": 2889,
      "c+val": 2890,
      "cache": 2891,
      "c**b": 2892,
      "c?n:c": 2893,
      "eb": 2894,
      "ev": 2895,
      "eff": 2896,
      "ful": 2897,
      "flo": 2898,
      "free": 2899,
      "gh": 2900,
      "gnore": 2901,
      "gler": 2902,
      "hy": 2903,
      "hand": 2904,
      "h[⟪:": 2905,
      "ie": 2906,
      "ir": 2907,
      "iti": 2908,
      "i≠0": 2909,
      "i>key": 2910,
      "ice": 2911,
      "i>idx": 2912,
      "i>c": 2913,
      "i>n": 2914,
      "i-j": 2915,
      "i-idx": 2916,
      "i+k": 2917,
      "i-rhs": 2918,
      "i**m": 2919,
      "i+x": 2920,
      "i-tmp": 2921,
      "ic_": 2922,
      "i+tmp": 2923,
      "ju": 2924,
      "j?key": 2925,
      "j>k": 2926,
      "j>val": 2927,
      "j?lhs": 2928,
      "j>n": 2929,
      "j>lhs": 2930,
      "j-idx": 2931,
      "j+acc": 2932,
      "j<i": 2933,
      "j>tmp": 2934,
      "j<c": 2935,
      "j-key": 2936,
      "j**cnt": 2937,
      "j+y": 2938,
      "j**k": 2939,
      "j?idx:j": 2940,
      "j?z:j": 2941,
      "k*a": 2942,
      "k:k": 2943,
      "k>val": 2944,
      "k?z": 2945,
      "k>cnt": 2946,
      "k>i": 2947,
      "k**i": 2948,
      "k/b": 2949,
      "k?j:k": 2950,
      "k:v": 2951,
      "l_p": 2952,
      "lace": 2953,
      "mi": 2954,
      "mon": 2955,
      "m',": 2956,
      "mil": 2957,
      "m≥0": 2958,
      "m≠0": 2959,
      "m-x": 2960,
      "m?key": 2961,
      "m+i": 2962,
      "m>val": 2963,
      "m?acc": 2964,
      "m>i": 2965,
      "m>out": 2966,
      "m+idx": 2967,
      "m**b": 2968,
      "m+rhs": 2969,
      "m?z:m": 2970,
      "no:i": 2971,
      "n*a": 2972,
      "nce": 2973,
      "n+key": 2974,
      "n+a": 2975,
      "n<i": 2976,
      "n+b": 2977,
      "n+x": 2978,
      "n-tmp": 2979,
      "n-a": 2980,
      "n**y": 2981,
      "n+tmp": 2982,
      "n+y": 2983,
      "n/i": 2984,
      "n?cnt:n": 2985,
      "of": 2986,
      "ose": 2987,
      "off": 2988,
      "pth": 2989,
      "point": 2990,
      "pipe": 2991,
      "pip": 2992,
      "place": 2993,
      "ru": 2994,
      "rac": 2995,
      "s∈": 2996,
      "s⟧": 2997,
      "sor": 2998,
      "side": 2999,
      "tp": 3000,
      "t:s⟩→s": 3001,
      "ts))": 3002,
      "tree": 3003,
      "ude": 3004,
      "v≠": 3005,
      "vsc": 3006,
      "v',": 3007,
      "vate": 3008,
      "venv": 3009,
      "venv',": 3010,
      "wr": 3011,
      "wire": 3012,
      "work": 3013,
      "why": 3014,
      "x*a": 3015,
      "x?idx": 3016,
      "x>k": 3017,
      "x>z": 3018,
      "x/y": 3019,
      "x**n": 3020,
      "x'}⟫)": 3021,
      "x/idx": 3022,
      "x?tmp:x": 3023,
      "xdigest": 3024,
      "yel": 3025,
      "y?n": 3026,
      "y>key": 3027,
      "ypy": 3028,
      "y>idx": 3029,
      "y>n": 3030,
      "y>z": 3031,
      "y>cnt": 3032,
      "y?i:y": 3033,
      "y?rhs:y": 3034,
      "ycache": 3035,
      "z*a": 3036,
      "z+c": 3037,
      "z>j": 3038,
      "z>m": 3039,
      "z>y": 3040,
      "z**i": 3041,
      "z?lhs:z": 3042,
      "{exc": 3043,
      "{k:v": 3044,
      "|--------": 3045,
      "})": 3046,
      "∅})": 3047,
      "∈re": 3048,
      "⟦chain[\"": 3049,
      "⟧\\n\\n##": 3050,
      "⟨config": 3051,
      "⟨url": 3052,
      "⟨project_dir": 3053,
      "⟨file:s": 3054,
      "[import": 3055,
      "read": 3056,
      "rend": 3057,
      "re_p": 3058,
      "repo": 3059,
      "report": 3060,
      "rectory": 3061,
      "resp": 3062,
      "read_text(": 3063,
      "nt:b": 3064,
      "val*x": 3065,
      "val-x": 3066,
      "val*a": 3067,
      "val?m": 3068,
      "val**rhs": 3069,
      "val>j": 3070,
      "val+tmp": 3071,
      "val>i": 3072,
      "val**i": 3073,
      "val**a": 3074,
      "insta": 3075,
      "install": 3076,
      "key≤100": 3077,
      "key>0": 3078,
      "key>val": 3079,
      "key?m": 3080,
      "key-m": 3081,
      "key>c": 3082,
      "key>lhs": 3083,
      "key-rhs": 3084,
      "key+j": 3085,
      "key+z": 3086,
      "key+idx": 3087,
      "key-b": 3088,
      "key-acc": 3089,
      "key**acc": 3090,
      ":s⟩→_": 3091,
      ":s⟩→[s]": 3092,
      "temp": 3093,
      "mp_required": 3094,
      "sts:[s]": 3095,
      "rhs-x": 3096,
      "rhs?n": 3097,
      "rhs+i": 3098,
      "rhs>key": 3099,
      "rhs?m": 3100,
      "rhs+key": 3101,
      "rhs>z": 3102,
      "rhs+c": 3103,
      "rhs>tmp": 3104,
      "rhs+x": 3105,
      "rhs>y": 3106,
      "rhs**a": 3107,
      "out*x": 3108,
      "out-x": 3109,
      "out?n": 3110,
      "out+i": 3111,
      "out>key": 3112,
      "out>idx": 3113,
      "out>x": 3114,
      "out>b": 3115,
      "out>lhs": 3116,
      "out<i": 3117,
      "out**m": 3118,
      "out>acc": 3119,
      "out:out-": 3120,
      "mini_key": 3121,
      "acc?key": 3122,
      "acc?i": 3123,
      "acc?n": 3124,
      "acc+i": 3125,
      "acc>k": 3126,
      "acc?lhs": 3127,
      "acc>rhs": 3128,
      "acc>x": 3129,
      "acc?k": 3130,
      "acc-idx": 3131,
      "acc+a": 3132,
      "acc+n": 3133,
      "acc+x": 3134,
      "acc-i": 3135,
      "acc-y": 3136,
      "acc+idx": 3137,
      "acc-z": 3138,
      "acc+m": 3139,
      "idx-x": 3140,
      "idx?key": 3141,
      "idx*a": 3142,
      "idx>rhs": 3143,
      "idx+cnt": 3144,
      "idx**rhs": 3145,
      "idx+n": 3146,
      "idx-rhs": 3147,
      "idx>j": 3148,
      "idx+b": 3149,
      "idx-a": 3150,
      "idx/a": 3151,
      "idx/tmp": 3152,
      "idx**x": 3153,
      "idx-key": 3154,
      "idx,\"": 3155,
      "idx/lhs": 3156,
      "and_": 3157,
      "anel": 3158,
      "anguage": 3159,
      "lhs?idx": 3160,
      "lhs?cnt": 3161,
      "lhs>key": 3162,
      "lhs>idx": 3163,
      "lhs>c": 3164,
      "lhs+cnt": 3165,
      "lhs+j": 3166,
      "lhs**a": 3167,
      "cnt-x": 3168,
      "cnt?n": 3169,
      "cnt>k": 3170,
      "cnt>val": 3171,
      "cnt>idx": 3172,
      "cnt>n": 3173,
      "cnt-rhs": 3174,
      "d_type": 3175,
      "d_lineage": 3176,
      "memory": 3177,
      "tmp>0": 3178,
      "tmp+i": 3179,
      "tmp>k": 3180,
      "tmp?z": 3181,
      "tmp>n": 3182,
      "tmp>x": 3183,
      "tmp+cnt": 3184,
      "tmp-j": 3185,
      "tmp:\",\"": 3186,
      "tmp-n": 3187,
      "tmp-i": 3188,
      "tmp>a": 3189,
      "tmp+lhs": 3190,
      "chite": 3191,
      "see": 3192,
      "ses": 3193,
      "dist": 3194,
      "directory": 3195,
      "ript": 3196,
      "name⟧": 3197,
      "low',": 3198,
      ".strip())": 3199,
      ".strip().split(\"": 3200,
      "peration": 3201,
      "else": 3202,
      "upward": 3203,
      "gemini_key": 3204,
      "buil": 3205,
      "on_con": 3206,
      "onic": 3207,
      "s):": 3208,
      "\",[\"": 3209,
      "\",encoding=\"utf-8\")": 3210,
      "\",src)": 3211,
      "\",1)[": 3212,
      "xt',": 3213,
      "choice": 3214,
      "ord": 3215,
      "orary": 3216,
      "verb_signature": 3217,
      "\",\"\",\"": 3218,
      "\",\"type": 3219,
      "\",\"javascript": 3220,
      "feed": 3221,
      "hexdigest": 3222,
      ":[_]⟩→_": 3223,
      "emporary": 3224,
      "s]\",\"": 3225,
      "0]:\"": 3226,
      "high": 3227,
      "lineno:i": 3228,
      "red:i": 3229,
      "safe_": 3230,
      "⟨candidate": 3231,
      "Counter((": 3232,
      "require_p": 3233,
      "role": 3234,
      "air(src": 3235,
      "\\n\"": 3236,
      "\\n.": 3237,
      "\\n\",1)[": 3238,
      "'./": 3239,
      "'.j": 3240,
      "'.t": 3241,
      "'.y": 3242,
      "'.mp": 3243,
      "'.js": 3244,
      "'.py": 3245,
      "'.env',": 3246,
      "'.json',": 3247,
      "conf": 3248,
      "constant": 3249,
      "at(": 3250,
      "er_arg": 3251,
      "\"],config": 3252,
      "forces": 3253,
      "(\"utf-8\")": 3254,
      "sition": 3255,
      "roducer,": 3256,
      "encode": 3257,
      "enforces": 3258,
      "exc:": 3259,
      "c-m": 3260,
      "c-out": 3261,
      "c-acc": 3262,
      "cards,": 3263,
      "package:_": 3264,
      "?key:rhs": 3265,
      "?key-val:val-": 3266,
      "self_as": 3267,
      "x-n": 3268,
      "pass": 3269,
      "passe": 3270,
      "synergy": 3271,
      "t(schema_version=\"atomadic-forge.": 3272,
      "--provider": 3273,
      "--consumer-": 3274,
      "havi": 3275,
      "k-b": 3276,
      "k-n": 3277,
      "k-val": 3278,
      "k-out": 3279,
      "m*i": 3280,
      "m*k": 3281,
      "m*acc": 3282,
      "m*cnt": 3283,
      "m*tmp": 3284,
      "y*z": 3285,
      "y*key": 3286,
      "y*lhs": 3287,
      "rhs-b": 3288,
      "rhs-i": 3289,
      "rhs-j": 3290,
      "rhs-key": 3291,
      "rhs-lhs": 3292,
      "rhs-cnt": 3293,
      "json-out": 3294,
      "_repo": 3295,
      "_registry": 3296,
      "transcript": 3297,
      "c*i": 3298,
      "c*n": 3299,
      "c*out": 3300,
      "val-k": 3301,
      "val-y": 3302,
      "val-lhs": 3303,
      "?i:c": 3304,
      "?i:x": 3305,
      "?i:rhs": 3306,
      "ot-f": 3307,
      "otonic": 3308,
      "forge_se": 3309,
      "target:_⟩→_": 3310,
      "?n:k": 3311,
      "m-b": 3312,
      "m-k": 3313,
      "m-lhs": 3314,
      "z-i": 3315,
      "z-j": 3316,
      "z-acc": 3317,
      "?j:i": 3318,
      "?j:c": 3319,
      "?j:tmp": 3320,
      "?j-val:val-": 3321,
      "?j-lhs:lhs-": 3322,
      "y-')": 3323,
      "out-val": 3324,
      "out-acc": 3325,
      "to_tier": 3326,
      "lhs-k": 3327,
      "lhs-cnt": 3328,
      "isinsta": 3329,
      "⟪{}⟫": 3330,
      "⟪{}⟫)": 3331,
      "consumer,": 3332,
      "consumer:s": 3333,
      "s(self.": 3334,
      "producer:s": 3335,
      "None)": 3336,
      "None)\",\"": 3337,
      "?idx:k": 3338,
      "?idx:m": 3339,
      "?idx:tmp": 3340,
      "?cnt:k": 3341,
      "a-c": 3342,
      "a-j": 3343,
      "a-rhs": 3344,
      "a-acc": 3345,
      "commands": 3346,
      "commands=": 3347,
      "commandsmith": 3348,
      "commands_dir": 3349,
      "command.')]": 3350,
      "script'": 3351,
      "?tmp:j": 3352,
      "?tmp:k": 3353,
      "?tmp:a": 3354,
      "?tmp-n:n": 3355,
      "a*i": 3356,
      "a*k": 3357,
      "a*rhs": 3358,
      "a*idx": 3359,
      "run_id": 3360,
      "s.\",\"-": 3361,
      "s.Counter((": 3362,
      "src_root": 3363,
      "sult": 3364,
      "chain_count": 3365,
      "tier:s": 3366,
      "key<j?key": 3367,
      "key<m?key": 3368,
      "key<acc?key": 3369,
      "key<idx?key": 3370,
      ":_⟩→∅": 3371,
      "type:": 3372,
      "ject_defaults": 3373,
      "lhs*b": 3374,
      "lhs*j": 3375,
      "lhs*y": 3376,
      "lhs*val": 3377,
      "lhs*out": 3378,
      "lhs*acc": 3379,
      "T_FIL": 3380,
      "T_TE": 3381,
      "T_RE.sub(\"": 3382,
      "load_config": 3383,
      "x*c": 3384,
      "x*j": 3385,
      "x*z": 3386,
      "x*key": 3387,
      "x*rhs": 3388,
      "x*out": 3389,
      "idx*m": 3390,
      "idx*z": 3391,
      "idx*key": 3392,
      "idx*rhs": 3393,
      "idx*acc": 3394,
      "idx*lhs": 3395,
      "cnt+j": 3396,
      "cnt+y": 3397,
      "cnt+acc": 3398,
      ").re": 3399,
      ").hexdigest": 3400,
      "?m:out": 3401,
      "?m:idx": 3402,
      "?y:n": 3403,
      "?y:x": 3404,
      "?y:rhs": 3405,
      "?y:idx": 3406,
      "?y:val": 3407,
      "?z:cnt": 3408,
      "?out:i": 3409,
      "?out:key": 3410,
      "?out:j": 3411,
      "?out:lhs": 3412,
      "k*n": 3413,
      "k*z": 3414,
      "k*key": 3415,
      "k*out": 3416,
      "k*cnt": 3417,
      "n>b?n": 3418,
      "n>c?n:c": 3419,
      "n>y?n": 3420,
      "n>acc?n": 3421,
      "n>cnt?n": 3422,
      "s=[": 3423,
      "x+a": 3424,
      "x+j": 3425,
      "x+n": 3426,
      "x+y": 3427,
      "x+val": 3428,
      "x+rhs": 3429,
      "tmp*z": 3430,
      "tmp*out": 3431,
      "tmp*lhs": 3432,
      "\\n\\n⟦": 3433,
      "'auto": 3434,
      "'a4_sy_orchestration": 3435,
      "'a1_at_function": 3436,
      "'a3_og_feature": 3437,
      "'a2_mo_composite": 3438,
      "='utf-8": 3439,
      "='synerg": 3440,
      "?rhs:key": 3441,
      "?rhs:j": 3442,
      "?acc:b": 3443,
      "?acc:k": 3444,
      "?acc:x": 3445,
      "?lhs:c": 3446,
      "n*c": 3447,
      "n*j": 3448,
      "n*y": 3449,
      "n*z": 3450,
      "n*idx": 3451,
      "n*lhs": 3452,
      "val*c": 3453,
      "val*acc": 3454,
      "val*tmp": 3455,
      "cnt*b": 3456,
      "cnt*y": 3457,
      "cnt*z": 3458,
      "cnt*lhs": 3459,
      "cnt*tmp": 3460,
      "ify": 3461,
      "y+n": 3462,
      "y+x": 3463,
      "y+idx": 3464,
      "z*key": 3465,
      "help_text": 3466,
      "?a:k": 3467,
      "?a:c": 3468,
      "?a:y": 3469,
      "?b:key": 3470,
      "?b:z": 3471,
      "Comp": 3472,
      "Repor": 3473,
      "Result": 3474,
      "i*c": 3475,
      "i*y": 3476,
      "i*key": 3477,
      "i*lhs": 3478,
      "parser.": 3479,
      "alls": 3480,
      "rhs*k": 3481,
      "rhs*m": 3482,
      "rhs*n": 3483,
      "rhs*y": 3484,
      "rhs*val": 3485,
      "rhs*lhs": 3486,
      "acc*j": 3487,
      "acc*y": 3488,
      "acc*out": 3489,
      "?k:i": 3490,
      "?k:cnt": 3491,
      "?k:c": 3492,
      "?k:val": 3493,
      "inv=collection": 3494,
      "candidates:[_]": 3495,
      "_appen": 3496,
      "i<y?i:y": 3497,
      "i<acc?i": 3498,
      "ists()": 3499,
      "j*cnt": 3500,
      "layout": 3501,
      "laude": 3502,
      "m<a?m": 3503,
      "m<val?m": 3504,
      "m<key?m": 3505,
      "m<rhs?m": 3506,
      "key*i": 3507,
      "key*n": 3508,
      "key*val": 3509,
      "key*acc": 3510,
      "key*cnt": 3511,
      "key*tmp": 3512,
      "out*c": 3513,
      "out*k": 3514,
      "out*val": 3515,
      "out*key": 3516,
      "file.T": 3517,
      "path.re": 3518,
      "path:_⟩→∅": 3519,
      "-not-f": 3520,
      "?x:n": 3521,
      "?x:rhs": 3522,
      "b*z": 3523,
      "b*tmp": 3524,
      "_clas": 3525,
      "_calls": 3526,
      "it',": 3527,
      "itted": 3528,
      "port:_": 3529,
      "source_repo": 3530,
      "acc**c": 3531,
      "acc**lhs": 3532,
      "\".atomadic-forge\"": 3533,
      "c/y": 3534,
      "docstring": 3535,
      "doc_token": 3536,
      "doc?doc": 3537,
      "z<j?z:j": 3538,
      "z<k?z": 3539,
      "z<m?z:m": 3540,
      "z<tmp?z": 3541,
      "⟨self:ManifestStore": 3542,
      "?val:i": 3543,
      "?val:acc": 3544,
      "?c:rhs": 3545,
      "_count=len(": 3546,
      "y**z": 3547,
      "project_root": 3548,
      "from_tier:s": 3549,
      "```\\n\\n##": 3550,
      "```\",\"\",s\"": 3551,
      "False}⟫": 3552,
      "'))\",\"": 3553,
      "?x-k:k": 3554,
      "_id:s": 3555,
      "_conside": 3556,
      "igno": 3557,
      "ignore": 3558,
      "models": 3559,
      "s\",\"a4_sy_orchestration": 3560,
      "⟨⟩→[_]": 3561,
      "rhs<y?rhs:y": 3562,
      "-x:x-val": 3563,
      "_render_shared_schema": 3564,
      "_render_in_memory_pipe": 3565,
      "time.mon": 3566,
      "atomadic_forge_se": 3567,
      "⟦card[\"consumer\"]⟧,\",\"": 3568,
      "catalog))": 3569,
      "catalog_size": 3570,
      "functions:[s]": 3571,
      "(json.dumps(entry": 3572,
      "final_output": 3573,
      "finalize": 3574,
      "encoding='utf-8": 3575,
      ".write(json.dumps(entry": 3576,
      "?rhs-z:z-": 3577,
      "?val-acc:acc": 3578,
      "?val-j:j": 3579,
      "Demo": 3580,
      "a/b": 3581,
      "sha25": 3582,
      "via": 3583,
      "ache',": 3584,
      "idx<j?idx:j": 3585,
      "idx<x?idx": 3586,
      "idx<lhs?idx": 3587,
      "lhs<j?lhs": 3588,
      "lhs<z?lhs:z": 3589,
      "lhs<acc?lhs": 3590,
      "c:c-k": 3591,
      "python\",\"javascript": 3592,
      "result.score_trajectory": 3593,
      "generated": 3594,
      "\".join(chain[\"": 3595,
      "'producer':": 3596,
      "'producer.json": 3597,
      "?out-acc:acc": 3598,
      "?out-b:b": 3599,
      "?lhs-key:key": 3600,
      "callable": 3601,
      "pt:s⟩": 3602,
      "tier_inventory": 3603,
      "'.md": 3604,
      "'.md',": 3605,
      "str(SRC": 3606,
      "default_expor": 3607,
      "importable": 3608,
      "Commandsmith.": 3609,
      "Commandsmith.write": 3610,
      "\"+result.": 3611,
      "(f.write(json.dumps(entry": 3612,
      "-acc:acc": 3613,
      "=self.dir": 3614,
      "?k-idx:idx-": 3615,
      "?k-c:c-k": 3616,
      "?m-val:val-": 3617,
      "?z-key:key": 3618,
      "?z-y:y-": 3619,
      "extra": 3620,
      "g_label": 3621,
      "render_tests_": 3622,
      "erryPick": 3623,
      "rhs/c": 3624,
      "rhs/key": 3625,
      "cnt<a?cnt": 3626,
      "cnt<n?cnt:n": 3627,
      "cnt<lhs?cnt": 3628,
      "tmp<x?tmp:x": 3629,
      "'.wran": 3630,
      "'.web": 3631,
      "'.woff": 3632,
      "(\"a0_qk_constant": 3633,
      "(\"a\",encoding=\"utf-8\")": 3634,
      "_path:s": 3635,
      "exc\",\"": 3636,
      "sys.path": 3637,
      "typer.secho('producer": 3638,
      "mbol_count": 3639,
      "fg='yel": 3640,
      "atomadic_forge.commands": 3641,
      "gistry/v1\",generated_at_utc=_dt.datetime.utcnow().isoformat(timespec=\"seconds\")+\"Z\",": 3642,
      "local_cfg": 3643,
      "'})}⟫": 3644,
      "(target.parent.mkdir(parents=true,exist_ok=true)": 3645,
      ".registry/v1\",generated_at_utc=_dt.datetime.utcnow().isoformat(timespec=\"seconds\")+\"Z\",": 3646,
      ".exists()": 3647,
      "_files:[s]": 3648,
      "classes": 3649,
      "j<k?j:k": 3650,
      "k<acc?k": 3651,
      "private": 3652,
      "parse": 3653,
      "parts": 3654,
      "score_bre": 3655,
      "\"]=flo": 3656,
      "has_clas": 3657,
      "has_self_as": 3658,
      "stateful": 3659,
      "_step1_pro": 3660,
      ")+\"\\n\"))": 3661,
      "TranscriptLog._": 3662,
      "'symbol_count": 3663,
      "(_consumer,": 3664,
      "(config[\"provider": 3665,
      ",indent=2),encoding=\"utf-8\")": 3666,
      "?c-tmp:tmp": 3667,
      "?c-k:k-": 3668,
      "LATE": 3669,
      "LOBAL_CONFIG_DIR": 3670,
      "_ms:i": 3671,
      "_chains_": 3672,
      "befo": 3673,
      "behavi": 3674,
      "duration_ms:i": 3675,
      "j/key": 3676,
      "∨\"(": 3677,
      "main`": 3678,
      "nd(⟪{'schema_version':": 3679,
      "⟨src:s": 3680,
      "⟨src:s⟩→s": 3681,
      "⟨src_root:_": 3682,
      "'.cjs',": 3683,
      "domain_inventory": 3684,
      "domain_ju": 3685,
      "project_dir/LOCAL_CONFIG_DIR": 3686,
      "s\",\"a1_at_function": 3687,
      "s\",\"a3_og_feature": 3688,
      "s\",\"a2_mo_composite": 3689,
      "⟦card[\"producer\"]⟧,\",s\"": 3690,
      "shared_vocabulary": 3691,
      "typer.secho(f'consumer": 3692,
      "payload.get(": 3693,
      "_docstring_first": 3694,
      "'-m',\",\"": 3695,
      "1_at_functions/`": 3696,
      "3_og_features/`": 3697,
      "global_": 3698,
      "global_cfg": 3699,
      "2_mo_composites/`": 3700,
      "0_qk_constants':": 3701,
      "0_qk_constants/`": 3702,
      ".json\"": 3703,
      "=re.sub(\"": 3704,
      "=read_config_file": 3705,
      "=len(chain": 3706,
      "Path(tmp": 3707,
      "_PRESETS": 3708,
      "lang_label": 3709,
      "acc<m?acc": 3710,
      "segment∈IGNORED_DIRS": 3711,
      "field": 3712,
      "field_type": 3713,
      "scout['": 3714,
      "headline:s": 3715,
      "intent.strip()": 3716,
      "-b:b-j": 3717,
      "signatures": 3718,
      "default_target_score\"]=flo": 3719,
      ".update({k:v": 3720,
      "j>b?j-b:b-j": 3721,
      "nthropic_": 3722,
      "'],": 3723,
      "'consumer':": 3724,
      "'atomadic-forge.transcript": 3725,
      "(_panel": 3726,
      "(_producer,": 3727,
      ".0f⟧": 3728,
      "s())": 3729,
      "⟨report:_": 3730,
      "val>acc?val:acc": 3731,
      "val>acc?val-acc:acc": 3732,
      "idea": 3733,
      "getattr(_consumer,": 3734,
      "getattr(_producer,": 3735,
      "s),candidates=": 3736,
      "orchestrator": 3737,
      "detect_ollama": 3738,
      "⟪{'available": 3739,
      "⟪{'a0_qk_constants':": 3740,
      "tier_distribution:[_]": 3741,
      "merge_config": 3742,
      "merged.update({k:v": 3743,
      "ROOT": 3744,
      "ROOT_TE": 3745,
      "open_idx:i⟩→i": 3746,
      "target.write_text(json.dumps(report": 3747,
      ".scan/v1\",generated_at_utc=_dt.datetime.utcnow().isoformat(timespec=\"seconds\")+\"Z\",": 3748,
      "cleaned=re.sub(\"": 3749,
      "llm_name": 3750,
      "⟦card[\"candidate_id\"]⟧,\",\"": 3751,
      "⟦card[\"candidate_id\"]⟧,\",s\"": 3752,
      "recommendations:[s]⟩": 3753,
      "'ts_utc':": 3754,
      "'--json-out": 3755,
      "'run',": 3756,
      "'state',": 3757,
      "'{package}": 3758,
      ".save_report": 3759,
      "Script": 3760,
      "_type:s": 3761,
      "certify": 3762,
      "emitted": 3763,
      "erer": 3764,
      "every": 3765,
      "finding": 3766,
      "k>idx?k-idx:idx-": 3767,
      "k>c?k-c:c-k": 3768,
      "shlib.": 3769,
      "skip": 3770,
      "try:\",\"": 3771,
      "x>idx?x:idx": 3772,
      "x>rhs?x:rhs": 3773,
      "x>m?x:m": 3774,
      "z>key?z-key:key": 3775,
      "⟨chain:_⟩→s": 3776,
      "⟨project_root:_": 3777,
      "in-memory": 3778,
      "rhs>out?rhs:out": 3779,
      "lhs>tmp?lhs:tmp": 3780,
      "\",\"rename": 3781,
      "'.sv": 3782,
      "sibling_": 3783,
      "n>i?n:i": 3784,
      "n>m?n:m": 3785,
      "json.loads(artifact.": 3786,
      "source_root:s⟩": 3787,
      "cur_score))": 3788,
      "-key:key-j": 3789,
      "Default": 3790,
      "tier_index(": 3791,
      "typer.Exit(2)": 3792,
      "_path=project_dir/LOCAL_CONFIG_DIR": 3793,
      "add_parser.add_argument": 3794,
      "LANGU": 3795,
      "coverage',": 3796,
      "TIER_NAM": 3797,
      "_balance_pair(src": 3798,
      "Directory(prefix": 3799,
      "SignatureCard": 3800,
      "ValueError(": 3801,
      "b>val?b:val": 3802,
      "j>key?j-key:key-j": 3803,
      "openai_key": 3804,
      "review:": 3805,
      "val>x?val-x:x-val": 3806,
      "method_name": 3807,
      "RegistryManifestCard(schema_version=\"atomadic-forge.": 3808,
      "'url':": 3809,
      "'kind':": 3810,
      "'models':": 3811,
      "'main',": 3812,
      "'orchestrate": 3813,
      "'latency_ms':": 3814,
      "(h=ha": 3815,
      "(k,v": 3816,
      "(tags_": 3817,
      "(doc=ast.get_docstring(node)∨\"\"": 3818,
      "(updates[\"default_target_score\"]=flo": 3819,
      ",open_idx,\"": 3820,
      "-⟦h[⟪:": 3821,
      ".items()": 3822,
      ".open(\"a\",encoding=\"utf-8\")": 3823,
      "/5:": 3824,
      "4_project_defaults": 3825,
      "8⟫]⟧\")": 3826,
      "?i:idx": 3827,
      "COMM": 3828,
      "CherryPick": 3829,
      "CandidateCard": 3830,
      "EMITS": 3831,
      "ENT_RE.sub(\"": 3832,
      "Gemini": 3833,
      "MPLATE": 3834,
      "OpenAI": 3835,
      "PKG_ROOT_TE": 3836,
      "Test": 3837,
      "Tier": 3838,
      "Type": 3839,
      "[A-Za-z": 3840,
      "_depth": 3841,
      "__pycache": 3842,
      "_EXT": 3843,
      "_raw_append(⟪{'schema_version':": 3844,
      "`run`": 3845,
      "asci": 3846,
      "a>key?a:key": 3847,
      "a>out?a:out": 3848,
      "akdown:[_]": 3849,
      "b>k?b": 3850,
      "b>key?b:key": 3851,
      "b>n?b": 3852,
      "b>z?b:z": 3853,
      "cision": 3854,
      "c∈catalog))": 3855,
      "c>k?c-k:k-": 3856,
      "c>val?c:val": 3857,
      "c>rhs?c:rhs": 3858,
      "c>lhs?c:lhs": 3859,
      "c>tmp?c-tmp:tmp": 3860,
      "evolve": 3861,
      "effect": 3862,
      "itignore": 3863,
      "i>key?i:key": 3864,
      "i>idx?i:idx": 3865,
      "i>n?i": 3866,
      "j>val?j-val:val-": 3867,
      "j>n?j": 3868,
      "j>lhs?j-lhs:lhs-": 3869,
      "j<i?j:i": 3870,
      "j<c?j:c": 3871,
      "k>val?k:val": 3872,
      "k>i?k:i": 3873,
      "l_par": 3874,
      "m>val?m-val:val-": 3875,
      "n<i?n:i": 3876,
      "points": 3877,
      "place(\"": 3878,
      "ruff": 3879,
      "trees',": 3880,
      "v≠∅})": 3881,
      "vscode": 3882,
      "x>k?x-k:k": 3883,
      "y>idx?y:idx": 3884,
      "y>n?y:n": 3885,
      "z>y?z-y:y-": 3886,
      "{exc}',": 3887,
      "⟨project_dir:_⟩→_": 3888,
      "[import-not-f": 3889,
      "readme": 3890,
      "renderer": 3891,
      "read_text(encoding='utf-8": 3892,
      "val>j?val-j:j": 3893,
      "key>val?key-val:val-": 3894,
      "key>c?key:c": 3895,
      "key>lhs?key:lhs": 3896,
      "tempfile.T": 3897,
      "rhs>z?rhs-z:z-": 3898,
      "out?n:out": 3899,
      "out>key?out:key": 3900,
      "out>x?out": 3901,
      "out>b?out-b:b": 3902,
      "out<i?out:i": 3903,
      "out>acc?out-acc:acc": 3904,
      "acc>k?acc:k": 3905,
      "acc>rhs?acc": 3906,
      "acc>x?acc:x": 3907,
      "idx>rhs?idx": 3908,
      "lhs>key?lhs-key:key": 3909,
      "cnt>k?cnt:k": 3910,
      "cnt>val?cnt": 3911,
      "cnt>idx?cnt": 3912,
      "cnt>n?cnt:n": 3913,
      "tmp>k?tmp:k": 3914,
      "tmp>n?tmp-n:n": 3915,
      "tmp>a?tmp:a": 3916,
      "chitect": 3917,
      "directory\",default=cur_": 3918,
      ".strip().split(\"\\n\",1)[": 3919,
      "on_conflict": 3920,
      "\",\"typescript": 3921,
      "emporaryDirectory(prefix": 3922,
      "0]:\"\"": 3923,
      "⟨candidate_id:s": 3924,
      "require_pure": 3925,
      "'.py',": 3926,
      "constants,": 3927,
      "er_args]\",\"": 3928,
      "\"],config))": 3929,
      "(\"utf-8\")).hexdigest": 3930,
      "encode(\"utf-8\")).hexdigest": 3931,
      "exc:\",\"": 3932,
      "cards,smoke_results=": 3933,
      "otonic()": 3934,
      "isinstance": 3935,
      "commands=cards,smoke_results=": 3936,
      "commandsmith.registry/v1\",generated_at_utc=_dt.datetime.utcnow().isoformat(timespec=\"seconds\")+\"Z\",": 3937,
      "s.Counter((c[\"": 3938,
      "chain_count_conside": 3939,
      "key<j?key:j": 3940,
      "key<m?key:m": 3941,
      "key<acc?key:acc": 3942,
      "key<idx?key:idx": 3943,
      "n>b?n:b": 3944,
      "n>y?n:y": 3945,
      "n>acc?n:acc": 3946,
      "'a4_sy_orchestration':": 3947,
      "'a1_at_functions':": 3948,
      "'a3_og_features':": 3949,
      "'a2_mo_composites':": 3950,
      "='synergy-')": 3951,
      "help_text:s": 3952,
      "Report(schema_version=\"atomadic-forge.": 3953,
      "inv=collections.Counter((c[\"": 3954,
      "_append_lineage": 3955,
      "i<acc?i:acc": 3956,
      "m<a?m:a": 3957,
      "m<val?m:val": 3958,
      "m<key?m:key": 3959,
      "m<rhs?m:rhs": 3960,
      "_classes:[s]": 3961,
      "docstring:s⟩": 3962,
      "doc?doc.strip().split(\"\\n\",1)[": 3963,
      "z<k?z:k": 3964,
      "z<tmp?z:tmp": 3965,
      "ignore[import-not-f": 3966,
      "time.monotonic()": 3967,
      "sha256": 3968,
      "idx<x?idx:x": 3969,
      "idx<lhs?idx:lhs": 3970,
      "lhs<j?lhs:j": 3971,
      "lhs<acc?lhs:acc": 3972,
      "python\",\"javascript\",\"typescript": 3973,
      "'producer.json'\",\"": 3974,
      "default_export_": 3975,
      "cnt<a?cnt:a": 3976,
      "cnt<lhs?cnt:lhs": 3977,
      "'.wrangler": 3978,
      "(\"a0_qk_constants\",\"a1_at_function": 3979,
      "fg='yellow',": 3980,
      "k<acc?k:acc": 3981,
      "score_breakdown:[_]": 3982,
      "has_self_assign": 3983,
      "_step1_provider": 3984,
      "(config[\"provider\"],config))": 3985,
      "before": 3986,
      "domain_jump_required": 3987,
      "s\",\"a3_og_features\",\"a4_sy_orchestration": 3988,
      "s\",\"a2_mo_composites\",\"a3_og_features\",\"a4_sy_orchestration": 3989,
      "payload.get('": 3990,
      "_docstring_first_line": 3991,
      "Path(tmp)": 3992,
      "acc<m?acc:m": 3993,
      "nthropic_key": 3994,
      "'atomadic-forge.transcript/v1',": 3995,
      "(_panel(\"": 3996,
      "val>acc?val-acc:acc-val": 3997,
      "s),candidates=candidate": 3998,
      "⟪{'available':": 3999,
      "target.write_text(json.dumps(report,indent=2,default=str),encoding=\"utf-8\")": 4000,
      "cleaned=re.sub(\"^": 4001,
      "'--json-out',": 4002,
      "k>idx?k-idx:idx-k": 4003,
      "shlib.sha256": 4004,
      "z>key?z-key:key-z": 4005,
      "json.loads(artifact.read_text(encoding='utf-8": 4006,
      "_path=project_dir/LOCAL_CONFIG_DIR/CONFIG_FILE_NAME": 4007,
      "LANGUAG": 4008,
      "TIER_NAMES": 4009,
      "_balance_pair(src,open_idx,\"": 4010,
      "RegistryManifestCard(schema_version=\"atomadic-forge.commandsmith.registry/v1\",generated_at_utc=_dt.datetime.utcnow().isoformat(timespec=\"seconds\")+\"Z\",": 4011,
      "(h=hashlib.sha256": 4012,
      "(k,v)∈": 4013,
      "(updates[\"default_target_score\"]=float(": 4014,
      "-⟦h[⟪:8⟫]⟧\")": 4015,
      "COMMENT_RE.sub(\"": 4016,
      "PKG_ROOT_TEMPLATE": 4017,
      "__pycache__": 4018,
      "c>k?c-k:k-c": 4019,
      "c>tmp?c-tmp:tmp-c": 4020,
      "j>val?j-val:val-j": 4021,
      "j>lhs?j-lhs:lhs-j": 4022,
      "m>val?m-val:val-m": 4023,
      "x>k?x-k:k-x": 4024,
      "z>y?z-y:y-z": 4025,
      "val>j?val-j:j-val": 4026,
      "key>val?key-val:val-key": 4027,
      "tempfile.TemporaryDirectory(prefix": 4028,
      "rhs>z?rhs-z:z-rhs": 4029,
      "out>b?out-b:b-out": 4030,
      "out>acc?out-acc:acc-out": 4031,
      "lhs>key?lhs-key:key-lhs": 4032,
      "tmp>n?tmp-n:n-tmp": 4033,
      "encode(\"utf-8\")).hexdigest()": 4034,
      "doc?doc.strip().split(\"\\n\",1)[0]:\"\"": 4035,
      "ignore[import-not-found": 4036,
      "(\"a0_qk_constants\",\"a1_at_functions\",\"a2_mo_composites\",\"a3_og_features\",\"a4_sy_orchestration": 4037,
      "json.loads(artifact.read_text(encoding='utf-8'))\",\"": 4038,
      "RegistryManifestCard(schema_version=\"atomadic-forge.commandsmith.registry/v1\",generated_at_utc=_dt.datetime.utcnow().isoformat(timespec=\"seconds\")+\"Z\",commands=cards,smoke_results=": 4039,
      "COMMENT_RE.sub(\"\",src)": 4040,
      "tempfile.TemporaryDirectory(prefix='synergy-')": 4041,
      "!s\"": 4042,
      "\"~": 4043,
      "\"config": 4044,
      "\"+\"": 4045,
      "\"```": 4046,
      "\"python": 4047,
      "\"?\"": 4048,
      "\"javascript": 4049,
      "\"⟧\\n\\n##": 4050,
      "\"__pycache__": 4051,
      "'\"": 4052,
      "''": 4053,
      "'0": 4054,
      "'i": 4055,
      "'n": 4056,
      "'⟦": 4057,
      "'out": 4058,
      "'me": 4059,
      "'items": 4060,
      "'\\n": 4061,
      "'\")": 4062,
      "'produc": 4063,
      "'package": 4064,
      "'ap": 4065,
      "')\",\"": 4066,
      "'forge": 4067,
      "'target": 4068,
      "'src": 4069,
      "'turn": 4070,
      "'version": 4071,
      "'path": 4072,
      "'artifact": 4073,
      "'phase": 4074,
      "'python": 4075,
      "'module": 4076,
      "'src/": 4077,
      "'generated_at_utc": 4078,
      "'duration": 4079,
      "'cherry": 4080,
      "'preset": 4081,
      "'phase_omission": 4082,
      "'scout": 4083,
      "'headline": 4084,
      "'output_dir": 4085,
      "'sources_dir": 4086,
      "'env',": 4087,
      "'score_trajectory": 4088,
      "'default_target_score": 4089,
      "'cli_demo_returncode": 4090,
      "''),": 4091,
      "'converged": 4092,
      "'tier_distribution": 4093,
      "'artifact_": 4094,
      "'result": 4095
    },
    "merges": [
      [
        ":",
        "i"
      ],
      [
        "⟩",
        "→"
      ],
      [
        "1",
        "π"
      ],
      [
        "⟩→",
        "i"
      ],
      [
        ":",
        "s"
      ],
      [
        "[",
        "i"
      ],
      [
        "[i",
        "]"
      ],
      [
        "r",
        "e"
      ],
      [
        "e",
        "r"
      ],
      [
        "n",
        "t"
      ],
      [
        ":i",
        "⟩→i"
      ],
      [
        "a",
        "l"
      ],
      [
        ":",
        "[i]"
      ],
      [
        "o",
        "u"
      ],
      [
        "k",
        "e"
      ],
      [
        "o",
        "w"
      ],
      [
        "h",
        "s"
      ],
      [
        "v",
        "al"
      ],
      [
        "i",
        "n"
      ],
      [
        "r",
        "i"
      ],
      [
        "ke",
        "y"
      ],
      [
        ":s",
        "⟩→"
      ],
      [
        "s",
        ":[i]"
      ],
      [
        "t",
        "a"
      ],
      [
        "i",
        "d"
      ],
      [
        "(",
        ")"
      ],
      [
        "s",
        "u"
      ],
      [
        ":s⟩→",
        "s"
      ],
      [
        "t",
        "e"
      ],
      [
        "⟩→",
        "f"
      ],
      [
        "m",
        "p"
      ],
      [
        "m",
        "a"
      ],
      [
        "p",
        "re"
      ],
      [
        "o",
        "d"
      ],
      [
        "a",
        "c"
      ],
      [
        "s",
        "t"
      ],
      [
        ":i",
        "⟩"
      ],
      [
        "u",
        "e"
      ],
      [
        "r",
        "hs"
      ],
      [
        "val",
        "ue"
      ],
      [
        "l",
        "e"
      ],
      [
        "c",
        "o"
      ],
      [
        "ou",
        "t"
      ],
      [
        "m",
        "in"
      ],
      [
        "s:[i]",
        "⟩→i"
      ],
      [
        "ac",
        "c"
      ],
      [
        "_",
        "o"
      ],
      [
        "od",
        "y"
      ],
      [
        "b",
        "ody"
      ],
      [
        "id",
        "x"
      ],
      [
        "a",
        "n"
      ],
      [
        ":i",
        "⟩→f"
      ],
      [
        ":",
        "f"
      ],
      [
        "ma",
        "x"
      ],
      [
        "l",
        "hs"
      ],
      [
        "c",
        "nt"
      ],
      [
        "_o",
        "f"
      ],
      [
        "d",
        "_"
      ],
      [
        "m",
        "e"
      ],
      [
        "t",
        "mp"
      ],
      [
        "c",
        "h"
      ],
      [
        "⟩→",
        "[i]"
      ],
      [
        "a",
        "r"
      ],
      [
        "s",
        "e"
      ],
      [
        "f",
        "i"
      ],
      [
        "n",
        "a"
      ],
      [
        "d",
        "i"
      ],
      [
        "ri",
        "p"
      ],
      [
        "d",
        "a"
      ],
      [
        "na",
        "me"
      ],
      [
        "a",
        "d"
      ],
      [
        "e",
        "nt"
      ],
      [
        "s",
        "_"
      ],
      [
        "⟨",
        "l"
      ],
      [
        "m",
        "s"
      ],
      [
        "st",
        "rip"
      ],
      [
        "da",
        "ta"
      ],
      [
        "u",
        "l"
      ],
      [
        "⟨",
        "x"
      ],
      [
        "su",
        "b"
      ],
      [
        "l",
        "ow"
      ],
      [
        ".",
        "strip"
      ],
      [
        ".strip",
        "()"
      ],
      [
        "low",
        "er"
      ],
      [
        "p",
        "ow"
      ],
      [
        "⟨",
        "key"
      ],
      [
        "le",
        "n"
      ],
      [
        "p",
        "er"
      ],
      [
        "i",
        "s_"
      ],
      [
        "≟",
        "0"
      ],
      [
        "|",
        "≟0"
      ],
      [
        "r",
        "ow"
      ],
      [
        "s:[i]",
        "⟩→[i]"
      ],
      [
        "n",
        "d"
      ],
      [
        "ri",
        "e"
      ],
      [
        "ent",
        "rie"
      ],
      [
        "e",
        "l"
      ],
      [
        "u",
        "p"
      ],
      [
        "m",
        "ul"
      ],
      [
        "g",
        "e"
      ],
      [
        "su",
        "m"
      ],
      [
        "i",
        "te"
      ],
      [
        "b",
        "u"
      ],
      [
        "up",
        "per"
      ],
      [
        "o",
        "n"
      ],
      [
        "bu",
        "f"
      ],
      [
        "⟨",
        "y"
      ],
      [
        "ar",
        "d"
      ],
      [
        "s",
        "["
      ],
      [
        "an",
        "k"
      ],
      [
        "s",
        ")"
      ],
      [
        ":",
        "_"
      ],
      [
        "a",
        "b"
      ],
      [
        "⟨",
        "value"
      ],
      [
        "ab",
        "el"
      ],
      [
        "\"",
        ","
      ],
      [
        "ou",
        "nt"
      ],
      [
        "ta",
        "g"
      ],
      [
        "e",
        "d_"
      ],
      [
        "co",
        "re"
      ],
      [
        "⟨",
        "name"
      ],
      [
        "*",
        "*"
      ],
      [
        "in",
        "e"
      ],
      [
        "x",
        "t"
      ],
      [
        "s",
        "c"
      ],
      [
        "t",
        "h"
      ],
      [
        ":",
        "["
      ],
      [
        "te",
        "xt"
      ],
      [
        "ad",
        "d"
      ],
      [
        "t",
        "y"
      ],
      [
        "ch",
        "o"
      ],
      [
        "e",
        "cho"
      ],
      [
        "⟨x",
        ":i"
      ],
      [
        "_",
        "]"
      ],
      [
        "o",
        "r"
      ],
      [
        "v",
        "er"
      ],
      [
        "ms",
        "g"
      ],
      [
        "ch",
        "e"
      ],
      [
        ":[i]",
        "⟩→i"
      ],
      [
        "b",
        "l"
      ],
      [
        "al",
        "e"
      ],
      [
        ":s⟩→",
        "b"
      ],
      [
        ":f",
        "⟩→f"
      ],
      [
        "sc",
        "ale"
      ],
      [
        ".strip()",
        "|≟0"
      ],
      [
        "is_",
        "bl"
      ],
      [
        "is_bl",
        "ank"
      ],
      [
        ":s",
        "⟩→i"
      ],
      [
        "len",
        "_of"
      ],
      [
        ".",
        "lower"
      ],
      [
        "⟨",
        "data"
      ],
      [
        ".lower",
        "()"
      ],
      [
        "\",",
        "\""
      ],
      [
        "f",
        "f"
      ],
      [
        ":[",
        "_]"
      ],
      [
        "di",
        "ff"
      ],
      [
        "ite",
        "ms"
      ],
      [
        "*",
        "x"
      ],
      [
        "t",
        "ri"
      ],
      [
        "tri",
        "m"
      ],
      [
        "⟨",
        "row"
      ],
      [
        "t",
        "i"
      ],
      [
        "⟨",
        "entrie"
      ],
      [
        "'",
        ","
      ],
      [
        "f",
        "e"
      ],
      [
        "h",
        "e"
      ],
      [
        "i",
        "l"
      ],
      [
        "min",
        "("
      ],
      [
        "min",
        "_of"
      ],
      [
        ":[_]",
        "⟩→"
      ],
      [
        ":",
        "b"
      ],
      [
        ".",
        "upper"
      ],
      [
        "e",
        "mp"
      ],
      [
        ".upper",
        "()"
      ],
      [
        "1",
        "]"
      ],
      [
        "⟨",
        "buf"
      ],
      [
        ":[_]⟩→",
        "b"
      ],
      [
        "-",
        "1]"
      ],
      [
        ":",
        ":"
      ],
      [
        "o",
        "g"
      ],
      [
        "re",
        "ver"
      ],
      [
        "is_",
        "emp"
      ],
      [
        "::",
        "-1]"
      ],
      [
        "rever",
        "se"
      ],
      [
        "is_emp",
        "ty"
      ],
      [
        "b",
        "le"
      ],
      [
        "max",
        "("
      ],
      [
        "max",
        "_of"
      ],
      [
        "1",
        ":"
      ],
      [
        "s",
        "]"
      ],
      [
        "ta",
        "il"
      ],
      [
        "1:",
        "]"
      ],
      [
        "g",
        "th"
      ],
      [
        "len",
        "gth"
      ],
      [
        "_",
        "di"
      ],
      [
        "0",
        "0"
      ],
      [
        "d_",
        "sub"
      ],
      [
        "fi",
        "g"
      ],
      [
        "ke",
        "d_sub"
      ],
      [
        "[",
        "2"
      ],
      [
        "c",
        "ount"
      ],
      [
        "1",
        "00"
      ],
      [
        "d",
        "ou"
      ],
      [
        "x",
        "∈"
      ],
      [
        "[2",
        "*x"
      ],
      [
        "dou",
        "ble"
      ],
      [
        "ou",
        "nd"
      ],
      [
        "he",
        "ad"
      ],
      [
        "c",
        "ked_sub"
      ],
      [
        "r",
        "y"
      ],
      [
        "s",
        "core"
      ],
      [
        "fi",
        "x"
      ],
      [
        "che",
        "cked_sub"
      ],
      [
        "≤",
        "100"
      ],
      [
        "pre",
        "fix"
      ],
      [
        "l",
        "abel"
      ],
      [
        "0",
        "]"
      ],
      [
        "g",
        "u"
      ],
      [
        "sum",
        "("
      ],
      [
        "L",
        "og"
      ],
      [
        "h",
        "i"
      ],
      [
        "⟨",
        "s"
      ],
      [
        "⟨l",
        "abel"
      ],
      [
        "s",
        "a"
      ],
      [
        "o",
        ":i"
      ],
      [
        "≥",
        "0"
      ],
      [
        "R",
        "an"
      ],
      [
        "b",
        "ound"
      ],
      [
        "⟨",
        "ite"
      ],
      [
        "⟨l",
        "o:i"
      ],
      [
        "ed_",
        "pow"
      ],
      [
        "hi",
        ":i⟩"
      ],
      [
        "Ran",
        "ge"
      ],
      [
        "bound",
        "ed_pow"
      ],
      [
        "⟨ite",
        "m"
      ],
      [
        "i",
        "nt"
      ],
      [
        "l",
        "ine"
      ],
      [
        "⟨",
        "tag"
      ],
      [
        "count",
        ":i⟩"
      ],
      [
        "g",
        "er"
      ],
      [
        "≠",
        "0"
      ],
      [
        "re",
        "d"
      ],
      [
        "prefix",
        ":s"
      ],
      [
        "⟨",
        "prefix:s"
      ],
      [
        "Log",
        "ger"
      ],
      [
        "sa",
        "fe"
      ],
      [
        "⟨",
        "id"
      ],
      [
        "_di",
        "v"
      ],
      [
        "safe",
        "_div"
      ],
      [
        "⟨",
        "m"
      ],
      [
        "C",
        "ard"
      ],
      [
        "⟨",
        "c"
      ],
      [
        "⟨name",
        ":s"
      ],
      [
        "a",
        "i"
      ],
      [
        "q",
        "u"
      ],
      [
        "C",
        "ount"
      ],
      [
        "co",
        "nd"
      ],
      [
        "score",
        ":f"
      ],
      [
        "Count",
        "er"
      ],
      [
        "ard",
        "ed_"
      ],
      [
        "gu",
        "arded_"
      ],
      [
        "guarded_",
        "mul"
      ],
      [
        "⟨value",
        ":i⟩"
      ],
      [
        "re",
        "qu"
      ],
      [
        "requ",
        "i"
      ],
      [
        "r",
        "st"
      ],
      [
        "⟨",
        "rhs"
      ],
      [
        "se",
        "cond"
      ],
      [
        "'",
        ":"
      ],
      [
        "S",
        "core"
      ],
      [
        ":_",
        "⟩"
      ],
      [
        "requi",
        "red"
      ],
      [
        ">",
        "0"
      ],
      [
        "C",
        "on"
      ],
      [
        "r",
        "ank"
      ],
      [
        ":b",
        "⟩"
      ],
      [
        "⟨",
        "k"
      ],
      [
        "⟨",
        "n"
      ],
      [
        "Score",
        "Card"
      ],
      [
        "Con",
        "fig"
      ],
      [
        "rank",
        ":i⟩"
      ],
      [
        "⟨y",
        ":i"
      ],
      [
        "E",
        "nt"
      ],
      [
        "i",
        ":i"
      ],
      [
        "o",
        "int"
      ],
      [
        "r",
        "o"
      ],
      [
        "⟨",
        "a"
      ],
      [
        "⟨",
        "out"
      ],
      [
        "value",
        ":s"
      ],
      [
        "fi",
        "rst"
      ],
      [
        "⟨l",
        "ine"
      ],
      [
        "⟨key",
        ":s"
      ],
      [
        "⟨rhs",
        ":i"
      ],
      [
        "required",
        ":b⟩"
      ],
      [
        "Config",
        "Ent"
      ],
      [
        "ConfigEnt",
        "ry"
      ],
      [
        "P",
        "oint"
      ],
      [
        "y",
        ":i⟩"
      ],
      [
        "ai",
        "r"
      ],
      [
        "⟨",
        "text"
      ],
      [
        ":[i]",
        "⟩→[i]"
      ],
      [
        "P",
        "air"
      ],
      [
        "⟨",
        "j"
      ],
      [
        "⟨",
        "first"
      ],
      [
        "idx",
        ":i"
      ],
      [
        "second",
        ":_⟩"
      ],
      [
        "⟨first",
        ":_"
      ],
      [
        "s",
        "|"
      ],
      [
        "⟨m",
        ":i"
      ],
      [
        "⟨k",
        ":i"
      ],
      [
        "\\",
        "n"
      ],
      [
        "⟨",
        "acc"
      ],
      [
        "s[",
        "::-1]"
      ],
      [
        "'",
        "."
      ],
      [
        "⟨",
        "i:i"
      ],
      [
        "⟨a",
        ":i"
      ],
      [
        "⟨",
        "z"
      ],
      [
        "⟨out",
        ":i"
      ],
      [
        "⟨key",
        ":i"
      ],
      [
        "s[",
        "1:]"
      ],
      [
        "⟨data",
        ":[i]⟩→i"
      ],
      [
        "⟨j",
        ":i"
      ],
      [
        "⟨",
        "cnt"
      ],
      [
        "co",
        "n"
      ],
      [
        "⟨n",
        ":i"
      ],
      [
        "s",
        ":[_]⟩→b"
      ],
      [
        "⟨",
        "lhs"
      ],
      [
        "⟨value",
        "s:[i]⟩→i"
      ],
      [
        "⟨row",
        "s:[i]⟩→i"
      ],
      [
        "s",
        "|≟0"
      ],
      [
        "⟨",
        "val"
      ],
      [
        "⟨",
        "msg"
      ],
      [
        "⟨",
        "tmp"
      ],
      [
        "⟨",
        "idx:i"
      ],
      [
        "⟨acc",
        ":i"
      ],
      [
        "⟨z",
        ":i"
      ],
      [
        "⟨c",
        ":i"
      ],
      [
        "⟨buf",
        ":[i]⟩→i"
      ],
      [
        "s[",
        "0]"
      ],
      [
        "⟨label",
        ":s⟩→s"
      ],
      [
        "⟨val",
        ":i"
      ],
      [
        "x",
        ":i⟩→i"
      ],
      [
        "⟨id",
        ":s⟩→s"
      ],
      [
        "⟨cnt",
        ":i"
      ],
      [
        "⟨x",
        "s:[i]⟩→i"
      ],
      [
        "⟨y",
        "s:[i]⟩→i"
      ],
      [
        "⟨item",
        "s:[i]⟩→i"
      ],
      [
        "⟨tmp",
        ":i"
      ],
      [
        "a",
        "t"
      ],
      [
        "i",
        ":i⟩→i"
      ],
      [
        "u",
        "t"
      ],
      [
        "⟨lhs",
        ":i"
      ],
      [
        "⟨",
        "b"
      ],
      [
        "⟨tag",
        ":s⟩→s"
      ],
      [
        "⟨key",
        ":s⟩→s"
      ],
      [
        "key",
        ":i⟩→i"
      ],
      [
        "rhs",
        ":i⟩→i"
      ],
      [
        "idx",
        ":i⟩→i"
      ],
      [
        "⟨name",
        ":s⟩→s"
      ],
      [
        "a",
        ":i⟩→i"
      ],
      [
        "⟨entrie",
        "s:[i]⟩→i"
      ],
      [
        "⟨s",
        ":s⟩→s"
      ],
      [
        "⟨b",
        ":i"
      ],
      [
        "c",
        ":i⟩→i"
      ],
      [
        "k",
        ":i⟩→i"
      ],
      [
        "⟨y",
        "s:[i]⟩→[i]"
      ],
      [
        "d",
        "e"
      ],
      [
        "⟨line",
        ":s⟩→s"
      ],
      [
        "r",
        "c"
      ],
      [
        "b",
        ":i⟩→i"
      ],
      [
        "j",
        ":i⟩→i"
      ],
      [
        "⟨text",
        ":s⟩→s"
      ],
      [
        "\"",
        ")"
      ],
      [
        "m",
        ":i⟩→i"
      ],
      [
        "p",
        "e"
      ],
      [
        "val",
        ":i⟩→i"
      ],
      [
        "acc",
        ":i⟩→i"
      ],
      [
        "⟨entrie",
        "s:[i]⟩→[i]"
      ],
      [
        "u",
        "r"
      ],
      [
        "er",
        "_"
      ],
      [
        "lhs",
        ":i⟩→i"
      ],
      [
        "cnt",
        ":i⟩→i"
      ],
      [
        "ti",
        "on"
      ],
      [
        "z",
        ":i⟩→i"
      ],
      [
        "row",
        "s)"
      ],
      [
        "n",
        ":i⟩→i"
      ],
      [
        "y",
        ":i⟩→i"
      ],
      [
        "od",
        "u"
      ],
      [
        "\"",
        "]"
      ],
      [
        "c",
        "t"
      ],
      [
        "f",
        "or"
      ],
      [
        "value",
        "s)"
      ],
      [
        "a",
        "ge"
      ],
      [
        "⟨data",
        ":[i]⟩→[i]"
      ],
      [
        "l",
        "i"
      ],
      [
        "data",
        ")"
      ],
      [
        "items",
        ")"
      ],
      [
        "(",
        "\""
      ],
      [
        "u",
        "n"
      ],
      [
        "tmp",
        ":i⟩→i"
      ],
      [
        "data",
        "["
      ],
      [
        "buf",
        ")"
      ],
      [
        "[",
        "\""
      ],
      [
        "ac",
        "k"
      ],
      [
        "s",
        "i"
      ],
      [
        "st",
        "r"
      ],
      [
        "⟨row",
        "s:[i]⟩→[i]"
      ],
      [
        "⟨msg",
        ":s⟩→s"
      ],
      [
        "_",
        "p"
      ],
      [
        "a",
        "te"
      ],
      [
        "r",
        "odu"
      ],
      [
        "rodu",
        "c"
      ],
      [
        "s",
        "\""
      ],
      [
        "y",
        "s)"
      ],
      [
        "ge",
        "t"
      ],
      [
        "e",
        "n"
      ],
      [
        "j",
        "s"
      ],
      [
        "o",
        "ma"
      ],
      [
        "⟨x",
        "s:[i]⟩→[i]"
      ],
      [
        "e",
        "x"
      ],
      [
        "p",
        "roduc"
      ],
      [
        "x",
        "s)"
      ],
      [
        "|",
        "key"
      ],
      [
        "out",
        ":i⟩→i"
      ],
      [
        "ack",
        "age"
      ],
      [
        "⟨value",
        "s:[i]⟩→[i]"
      ],
      [
        "c",
        "-"
      ],
      [
        "c",
        "ard"
      ],
      [
        "p",
        "ackage"
      ],
      [
        "u",
        "re"
      ],
      [
        "|",
        "name"
      ],
      [
        "|",
        "tag"
      ],
      [
        "|",
        "label"
      ],
      [
        "ar",
        "g"
      ],
      [
        "entrie",
        "s)"
      ],
      [
        "⟨buf",
        ":[i]⟩→[i]"
      ],
      [
        "|",
        "x"
      ],
      [
        ":[",
        "s]"
      ],
      [
        "items",
        "["
      ],
      [
        "-",
        "x"
      ],
      [
        "?",
        "key"
      ],
      [
        "l",
        "f"
      ],
      [
        "m",
        "o"
      ],
      [
        "|",
        "data"
      ],
      [
        "|",
        "msg"
      ],
      [
        "se",
        "lf"
      ],
      [
        "⟨item",
        "s:[i]⟩→[i]"
      ],
      [
        "x",
        "-"
      ],
      [
        "a",
        "p"
      ],
      [
        "m",
        "ma"
      ],
      [
        "con",
        "sum"
      ],
      [
        "\\",
        "\""
      ],
      [
        "p",
        "a"
      ],
      [
        "s",
        "y"
      ],
      [
        "t",
        "("
      ],
      [
        "mma",
        "nd"
      ],
      [
        ")",
        "\",\""
      ],
      [
        "buf",
        "["
      ],
      [
        "-",
        "-"
      ],
      [
        "=",
        "\""
      ],
      [
        "h",
        "a"
      ],
      [
        "k",
        "-"
      ],
      [
        "m",
        "*"
      ],
      [
        "o",
        "c"
      ],
      [
        "y",
        "*"
      ],
      [
        "y",
        ":i⟩→f"
      ],
      [
        "|",
        "value"
      ],
      [
        "rhs",
        "-"
      ],
      [
        "js",
        "on"
      ],
      [
        "_",
        "re"
      ],
      [
        "f",
        "a"
      ],
      [
        "t",
        "r"
      ],
      [
        "t",
        "s"
      ],
      [
        "|",
        "entrie"
      ],
      [
        "|",
        "buf"
      ],
      [
        "|",
        "items"
      ],
      [
        "arg",
        "s"
      ],
      [
        "c",
        "*"
      ],
      [
        "val",
        "-"
      ],
      [
        "ta",
        "r"
      ],
      [
        "fa",
        "ul"
      ],
      [
        "?",
        "i"
      ],
      [
        "o",
        "t"
      ],
      [
        "p",
        "ro"
      ],
      [
        "s",
        "er"
      ],
      [
        "|",
        "id"
      ],
      [
        "|",
        "text"
      ],
      [
        "acc",
        ":i⟩→f"
      ],
      [
        "on",
        "e"
      ],
      [
        "\",",
        "s\""
      ],
      [
        "for",
        "ge"
      ],
      [
        "tar",
        "get"
      ],
      [
        "?",
        "n"
      ],
      [
        "m",
        "-"
      ],
      [
        "t",
        "."
      ],
      [
        "z",
        "-"
      ],
      [
        "|",
        "line"
      ],
      [
        "in",
        "g"
      ],
      [
        "che",
        "ma"
      ],
      [
        "con",
        "fig"
      ],
      [
        ":",
        "key"
      ],
      [
        "?",
        "j"
      ],
      [
        "c",
        "od"
      ],
      [
        "c",
        "an"
      ],
      [
        "y",
        "-"
      ],
      [
        "out",
        "-"
      ],
      [
        "ar",
        "ser"
      ],
      [
        "de",
        "faul"
      ],
      [
        "oma",
        "di"
      ],
      [
        "p",
        "ut"
      ],
      [
        "s",
        ":[s]"
      ],
      [
        "t",
        "o"
      ],
      [
        "|",
        "row"
      ],
      [
        "idx",
        ":i⟩→f"
      ],
      [
        "lhs",
        "-"
      ],
      [
        "ty",
        "per"
      ],
      [
        ":",
        "j"
      ],
      [
        "a",
        "tion"
      ],
      [
        "i",
        "s"
      ],
      [
        "n",
        "er"
      ],
      [
        "|",
        "y"
      ],
      [
        "}",
        "⟫"
      ],
      [
        "⟪",
        "{"
      ],
      [
        "in",
        "d"
      ],
      [
        "entrie",
        "s[::-1]"
      ],
      [
        "sc",
        "rip"
      ],
      [
        "si",
        "on"
      ],
      [
        "consum",
        "er"
      ],
      [
        "typer",
        "."
      ],
      [
        ")",
        ")"
      ],
      [
        ":",
        "acc"
      ],
      [
        "s",
        "("
      ],
      [
        "tmp",
        ":i⟩→f"
      ],
      [
        "⟨name",
        ":s⟩→b"
      ],
      [
        "\"]",
        "⟧"
      ],
      [
        "produc",
        "er"
      ],
      [
        "card",
        "[\""
      ],
      [
        "|name",
        ".strip()|≟0"
      ],
      [
        "N",
        "one"
      ],
      [
        "f",
        "ro"
      ],
      [
        "k",
        ":i⟩→f"
      ],
      [
        "n",
        ":i⟩→f"
      ],
      [
        "t",
        "_"
      ],
      [
        "ti",
        "me"
      ],
      [
        "at",
        "omadi"
      ],
      [
        "*",
        "a"
      ],
      [
        ":",
        "k"
      ],
      [
        "?",
        "idx"
      ],
      [
        "?",
        "cnt"
      ],
      [
        "F",
        "I"
      ],
      [
        "O",
        "N"
      ],
      [
        "a",
        "-"
      ],
      [
        "a",
        ":i⟩→f"
      ],
      [
        "y",
        "s[1:]"
      ],
      [
        "⟦",
        "card[\""
      ],
      [
        "co",
        "mmand"
      ],
      [
        "tag",
        ".lower()"
      ],
      [
        "self",
        "."
      ],
      [
        "scrip",
        "t"
      ],
      [
        "+",
        "i"
      ],
      [
        ":",
        "cnt"
      ],
      [
        "?",
        "tmp"
      ],
      [
        "a",
        "*"
      ],
      [
        "a",
        "s"
      ],
      [
        "a",
        "in"
      ],
      [
        "e",
        "ct"
      ],
      [
        "r",
        "un"
      ],
      [
        "s",
        "."
      ],
      [
        "s",
        "rc"
      ],
      [
        "su",
        "l"
      ],
      [
        "cnt",
        ":i⟩→f"
      ],
      [
        "me",
        "nt"
      ],
      [
        "ch",
        "ain"
      ],
      [
        "⟨key",
        ":s⟩→i"
      ],
      [
        "or",
        "t"
      ],
      [
        "ti",
        "er"
      ],
      [
        "⟨msg",
        ":s⟩→b"
      ],
      [
        "|key",
        "|"
      ],
      [
        "|msg",
        ".strip()|≟0"
      ],
      [
        "\\\"",
        "\\\""
      ],
      [
        ":",
        "c"
      ],
      [
        ">",
        "k"
      ],
      [
        "T",
        "r"
      ],
      [
        "`",
        "`"
      ],
      [
        "c",
        ":"
      ],
      [
        "f",
        "ac"
      ],
      [
        "s",
        ".strip()"
      ],
      [
        "y",
        "s]"
      ],
      [
        "key",
        "<"
      ],
      [
        "key",
        ".strip()"
      ],
      [
        "id",
        ".lower()"
      ],
      [
        "out",
        "put"
      ],
      [
        ":_",
        "⟩→"
      ],
      [
        "ty",
        "pe"
      ],
      [
        "max(",
        "values)"
      ],
      [
        "x∈",
        "ys]"
      ],
      [
        "chema",
        "_"
      ],
      [
        ">",
        "val"
      ],
      [
        ">",
        "key"
      ],
      [
        "c",
        "e"
      ],
      [
        "c",
        ":i⟩→f"
      ],
      [
        "i",
        ":i⟩→f"
      ],
      [
        "i",
        "th"
      ],
      [
        "j",
        "ect"
      ],
      [
        "z",
        ":i⟩→f"
      ],
      [
        "key",
        ":i⟩→f"
      ],
      [
        "rhs",
        ":i⟩→f"
      ],
      [
        "lhs",
        "*"
      ],
      [
        "or",
        "y"
      ],
      [
        "max(",
        "rows)"
      ],
      [
        "3",
        "ω"
      ],
      [
        ":",
        "m"
      ],
      [
        ":",
        "n"
      ],
      [
        ":",
        "x"
      ],
      [
        "T",
        "_"
      ],
      [
        "_",
        "d"
      ],
      [
        "l",
        "o"
      ],
      [
        "o",
        "l"
      ],
      [
        "s",
        ".lower()"
      ],
      [
        "t",
        "ur"
      ],
      [
        "x",
        "*"
      ],
      [
        "y",
        "s[::-1]"
      ],
      [
        "id",
        "ate"
      ],
      [
        "out",
        ":i⟩→f"
      ],
      [
        "idx",
        "*"
      ],
      [
        "cnt",
        "+"
      ],
      [
        "da",
        "te"
      ],
      [
        "min(",
        "data)"
      ],
      [
        "⟨label",
        ":s⟩→i"
      ],
      [
        "⟨tag",
        ":s⟩→i"
      ],
      [
        "⟨id",
        ":s⟩→i"
      ],
      [
        "|tag",
        "|"
      ],
      [
        "|label",
        "|"
      ],
      [
        "|x",
        "s|"
      ],
      [
        "|id",
        "|"
      ],
      [
        "tur",
        "n"
      ],
      [
        ")",
        "."
      ],
      [
        ":",
        "tmp"
      ],
      [
        "?",
        "m"
      ],
      [
        "?",
        "y"
      ],
      [
        "?",
        "z"
      ],
      [
        "?",
        "out"
      ],
      [
        "c",
        "li"
      ],
      [
        "d",
        "idate"
      ],
      [
        "k",
        "*"
      ],
      [
        "l",
        "y"
      ],
      [
        "n",
        ">"
      ],
      [
        "p",
        "y"
      ],
      [
        "s",
        "="
      ],
      [
        "x",
        "+"
      ],
      [
        "id",
        ".strip()"
      ],
      [
        "lhs",
        ":i⟩→f"
      ],
      [
        "tmp",
        "*"
      ],
      [
        "data",
        "]"
      ],
      [
        "⟨key",
        ":s⟩→b"
      ],
      [
        "ver",
        "sion"
      ],
      [
        "min(",
        "buf)"
      ],
      [
        "x∈",
        "data]"
      ],
      [
        "sum(",
        "items)"
      ],
      [
        "⟨label",
        ":s⟩→b"
      ],
      [
        "⟨tag",
        ":s⟩→b"
      ],
      [
        "\\n",
        "\\n"
      ],
      [
        "|key",
        ".strip()|≟0"
      ],
      [
        "|tag",
        ".strip()|≟0"
      ],
      [
        "|label",
        ".strip()|≟0"
      ],
      [
        "|data",
        "|"
      ],
      [
        "'",
        "a"
      ],
      [
        "+",
        "key"
      ],
      [
        "=",
        "'"
      ],
      [
        ">",
        "idx"
      ],
      [
        "?",
        "rhs"
      ],
      [
        "?",
        "acc"
      ],
      [
        "?",
        "lhs"
      ],
      [
        "b",
        ":i⟩→f"
      ],
      [
        "d",
        "x"
      ],
      [
        "m",
        "b"
      ],
      [
        "n",
        "*"
      ],
      [
        "s",
        "ta"
      ],
      [
        "x",
        ":i⟩→f"
      ],
      [
        "val",
        "*"
      ],
      [
        "val",
        ":i⟩→f"
      ],
      [
        "cnt",
        "*"
      ],
      [
        "ar",
        "ti"
      ],
      [
        "⟨x",
        "s:[_]⟩→b"
      ],
      [
        "nd",
        "er_"
      ],
      [
        "⟨value",
        "s:[_]⟩→b"
      ],
      [
        "text",
        ".upper()"
      ],
      [
        "⟨data",
        ":[_]⟩→b"
      ],
      [
        "⟨entrie",
        "s:[_]⟩→b"
      ],
      [
        "line",
        ".lower()"
      ],
      [
        "ro",
        "ot"
      ],
      [
        "ut",
        "c"
      ],
      [
        "|x",
        "s|≟0"
      ],
      [
        "|data",
        "|≟0"
      ],
      [
        "|value",
        "s|≟0"
      ],
      [
        "json",
        "."
      ],
      [
        "|entrie",
        "s|≟0"
      ],
      [
        "|buf",
        "|"
      ],
      [
        "chema_",
        "version"
      ],
      [
        "arti",
        "fac"
      ],
      [
        "-",
        "m"
      ],
      [
        ">",
        "rhs"
      ],
      [
        "T",
        "S"
      ],
      [
        "_",
        "root"
      ],
      [
        "h",
        "el"
      ],
      [
        "i",
        "f"
      ],
      [
        "r",
        "or"
      ],
      [
        "s",
        ".strip()|≟0"
      ],
      [
        "v",
        "id"
      ],
      [
        "x",
        "s]"
      ],
      [
        "y",
        "+"
      ],
      [
        "y",
        "s[0]"
      ],
      [
        "z",
        "*"
      ],
      [
        "|",
        "s.strip()|≟0"
      ],
      [
        "id",
        ".upper()"
      ],
      [
        "name",
        ".lower()"
      ],
      [
        "entrie",
        "s[1:]"
      ],
      [
        "buf",
        "]"
      ],
      [
        "min(",
        "rows)"
      ],
      [
        "min(",
        "ys)"
      ],
      [
        "x∈",
        "xs]"
      ],
      [
        "x∈",
        "buf]"
      ],
      [
        "label",
        ".lower()"
      ],
      [
        "label",
        ".upper()"
      ],
      [
        "sum(",
        "rows)"
      ],
      [
        "sum(",
        "data)"
      ],
      [
        "⟨s",
        ":s⟩→b"
      ],
      [
        "⟨c",
        ":f"
      ],
      [
        "⟨text",
        ":s⟩→i"
      ],
      [
        "data[",
        "1:]"
      ],
      [
        "|text",
        "|"
      ],
      [
        "cod",
        "e"
      ],
      [
        "hel",
        "p"
      ],
      [
        ")",
        ","
      ],
      [
        ":",
        "rhs"
      ],
      [
        ":",
        "out"
      ],
      [
        ":",
        "lhs"
      ],
      [
        ">",
        "c"
      ],
      [
        ">",
        "n"
      ],
      [
        ">",
        "x"
      ],
      [
        "?",
        "a"
      ],
      [
        "?",
        "b"
      ],
      [
        "C",
        "o"
      ],
      [
        "C",
        "ON"
      ],
      [
        "R",
        "e"
      ],
      [
        "[",
        "["
      ],
      [
        "i",
        "*"
      ],
      [
        "j",
        ":i⟩→f"
      ],
      [
        "p",
        "arser"
      ],
      [
        "p",
        "ly"
      ],
      [
        "al",
        "l"
      ],
      [
        "rhs",
        "*"
      ],
      [
        "value",
        "s[0]"
      ],
      [
        "acc",
        "*"
      ],
      [
        "di",
        "r"
      ],
      [
        "row",
        "s[0]"
      ],
      [
        "tag",
        ".upper()"
      ],
      [
        "min(",
        "entries)"
      ],
      [
        "max(",
        "xs)"
      ],
      [
        "de",
        "mo"
      ],
      [
        "data[",
        "0]"
      ],
      [
        "|items",
        "|"
      ],
      [
        "ner",
        "g"
      ],
      [
        "+",
        "\""
      ],
      [
        "+",
        "cnt"
      ],
      [
        "-",
        "val"
      ],
      [
        ":",
        "a"
      ],
      [
        ">",
        "b"
      ],
      [
        ">",
        "z"
      ],
      [
        ">",
        "lhs"
      ],
      [
        "?",
        "k"
      ],
      [
        "i",
        "fe"
      ],
      [
        "n",
        "o"
      ],
      [
        "|",
        "s|"
      ],
      [
        "⟨",
        "items"
      ],
      [
        "ou",
        "rc"
      ],
      [
        "in",
        "v"
      ],
      [
        "value",
        "s[1:]"
      ],
      [
        "row",
        "s[::-1]"
      ],
      [
        "row",
        "s[1:]"
      ],
      [
        "tag",
        ".strip()"
      ],
      [
        "**",
        "rhs"
      ],
      [
        "⟨row",
        "s:[_]⟩→b"
      ],
      [
        "min(",
        "values)"
      ],
      [
        "min(",
        "items)"
      ],
      [
        "max(",
        "items)"
      ],
      [
        "max(",
        "buf)"
      ],
      [
        "_di",
        "r"
      ],
      [
        "sum(",
        "values)"
      ],
      [
        "⟨s",
        ":s⟩→i"
      ],
      [
        "data[",
        "::-1]"
      ],
      [
        "items[",
        "1:]"
      ],
      [
        "|items",
        "|≟0"
      ],
      [
        "can",
        "didate"
      ],
      [
        "|row",
        "s|≟0"
      ],
      [
        "FI",
        "G"
      ],
      [
        "CON",
        "FIG"
      ],
      [
        "ife",
        "st"
      ],
      [
        "⟨items",
        ":[_]⟩→b"
      ],
      [
        "ourc",
        "e"
      ],
      [
        "+",
        "c"
      ],
      [
        ",",
        "\",\""
      ],
      [
        "-",
        "j"
      ],
      [
        "-",
        "idx"
      ],
      [
        ":",
        "y"
      ],
      [
        ":",
        "\",\""
      ],
      [
        "E",
        "X"
      ],
      [
        "_",
        "ap"
      ],
      [
        "c",
        "at"
      ],
      [
        "f",
        "un"
      ],
      [
        "i",
        "<"
      ],
      [
        "i",
        "mp"
      ],
      [
        "i",
        "st"
      ],
      [
        "j",
        "*"
      ],
      [
        "l",
        "a"
      ],
      [
        "m",
        "<"
      ],
      [
        "m",
        "er"
      ],
      [
        ":i",
        "dx"
      ],
      [
        "key",
        "*"
      ],
      [
        "key",
        ".upper()"
      ],
      [
        "te",
        "st"
      ],
      [
        "value",
        "s[::-1]"
      ],
      [
        "out",
        "*"
      ],
      [
        "fi",
        "le"
      ],
      [
        "name",
        ".upper()"
      ],
      [
        "ad",
        "d_"
      ],
      [
        "row",
        "s]"
      ],
      [
        "**",
        "idx"
      ],
      [
        "che",
        "str"
      ],
      [
        "min(",
        "xs)"
      ],
      [
        "x∈",
        "rows]"
      ],
      [
        "line",
        ".upper()"
      ],
      [
        "⟨line",
        ":s⟩→b"
      ],
      [
        "⟨line",
        ":s⟩→i"
      ],
      [
        "⟨msg",
        ":s⟩→i"
      ],
      [
        "ur",
        "l"
      ],
      [
        "er_",
        "args"
      ],
      [
        "oma",
        "in"
      ],
      [
        "items[",
        "::-1]"
      ],
      [
        "|msg",
        "|"
      ],
      [
        "pa",
        "th"
      ],
      [
        "|value",
        "s|"
      ],
      [
        "forge",
        "."
      ],
      [
        "|line",
        "|"
      ],
      [
        "|line",
        ".strip()|≟0"
      ],
      [
        "Tr",
        "ue"
      ],
      [
        "fun",
        "c"
      ],
      [
        "+",
        "a"
      ],
      [
        "+",
        "k"
      ],
      [
        "+",
        "n"
      ],
      [
        "+",
        "acc"
      ],
      [
        "-",
        "n"
      ],
      [
        "-",
        "rhs"
      ],
      [
        ":",
        "z"
      ],
      [
        ":",
        "val"
      ],
      [
        ">",
        "j"
      ],
      [
        ">",
        "m"
      ],
      [
        "?",
        "x"
      ],
      [
        "E",
        "r"
      ],
      [
        "b",
        "*"
      ],
      [
        "d",
        "omain"
      ],
      [
        "e",
        "d"
      ],
      [
        "m",
        ":i⟩→f"
      ],
      [
        "m",
        "d_"
      ],
      [
        "t",
        "ure"
      ],
      [
        "x",
        "s[1:]"
      ],
      [
        "z",
        ":f⟩→f"
      ],
      [
        "z",
        "en"
      ],
      [
        "od",
        "el"
      ],
      [
        "name",
        ".strip()"
      ],
      [
        "entrie",
        "s]"
      ],
      [
        "entrie",
        "s[0]"
      ],
      [
        "⟨y",
        ":f"
      ],
      [
        "⟨name",
        ":s⟩→i"
      ],
      [
        "text",
        ".strip()"
      ],
      [
        "text",
        ".lower()"
      ],
      [
        "⟨buf",
        ":[_]⟩→b"
      ],
      [
        "max(",
        "ys)"
      ],
      [
        "x∈",
        "entries]"
      ],
      [
        "label",
        ".strip()"
      ],
      [
        "sum(",
        "buf)"
      ],
      [
        "line",
        ".strip()"
      ],
      [
        "ut",
        "o"
      ],
      [
        "|name",
        "|"
      ],
      [
        "|entrie",
        "s|"
      ],
      [
        "|buf",
        "|≟0"
      ],
      [
        "|y",
        "s|"
      ],
      [
        "fro",
        "zen"
      ],
      [
        "atomadi",
        "c-"
      ],
      [
        "Er",
        "ror"
      ],
      [
        "frozen",
        "se"
      ],
      [
        "<",
        "i"
      ],
      [
        ">",
        "cnt"
      ],
      [
        ">",
        "tmp"
      ],
      [
        "_",
        "c"
      ],
      [
        "_",
        "demo"
      ],
      [
        "d",
        "u"
      ],
      [
        "i",
        "t"
      ],
      [
        "n",
        ":f⟩→f"
      ],
      [
        "p",
        "o"
      ],
      [
        "p",
        "ort"
      ],
      [
        "s",
        "':"
      ],
      [
        "s",
        "ource"
      ],
      [
        "v",
        "a"
      ],
      [
        "w",
        "ri"
      ],
      [
        "x",
        "s[0]"
      ],
      [
        "re",
        "sul"
      ],
      [
        "key",
        ".lower()"
      ],
      [
        "pre",
        "se"
      ],
      [
        "co",
        "mp"
      ],
      [
        "acc",
        "**"
      ],
      [
        "⟨y",
        "s:[_]⟩→b"
      ],
      [
        "**",
        "m"
      ],
      [
        "msg",
        ".strip()"
      ],
      [
        "max(",
        "data)"
      ],
      [
        "max(",
        "entries)"
      ],
      [
        "sum(",
        "ys)"
      ],
      [
        "⟨text",
        ":s⟩→b"
      ],
      [
        "at",
        "_"
      ],
      [
        "at",
        "ure"
      ],
      [
        "ut",
        "f"
      ],
      [
        "|text",
        ".strip()|≟0"
      ],
      [
        "defaul",
        "t"
      ],
      [
        "|y",
        "s|≟0"
      ],
      [
        "}⟫",
        ")"
      ],
      [
        "_d",
        "t."
      ],
      [
        "cli",
        "_demo"
      ],
      [
        "nerg",
        "y"
      ],
      [
        "EX",
        "TS"
      ],
      [
        "frozense",
        "t("
      ],
      [
        "wri",
        "te"
      ],
      [
        "\"",
        "."
      ],
      [
        "+",
        "b"
      ],
      [
        "+",
        "x"
      ],
      [
        "-",
        "8"
      ],
      [
        "-",
        "i"
      ],
      [
        "-",
        "y"
      ],
      [
        "-",
        "out"
      ],
      [
        "-",
        "lhs"
      ],
      [
        "-",
        "tmp"
      ],
      [
        ".",
        "get"
      ],
      [
        "/",
        "\\n"
      ],
      [
        ":",
        "val-"
      ],
      [
        ">",
        "y"
      ],
      [
        "_",
        "sy"
      ],
      [
        "a",
        "th"
      ],
      [
        "c",
        "/"
      ],
      [
        "c",
        "_"
      ],
      [
        "d",
        "oc"
      ],
      [
        "f",
        "g"
      ],
      [
        "k",
        "ind"
      ],
      [
        "n",
        "u"
      ],
      [
        "r",
        "."
      ],
      [
        "x",
        ":f⟩→f"
      ],
      [
        "x",
        "s[::-1]"
      ],
      [
        "z",
        "<"
      ],
      [
        "⟨",
        "self"
      ],
      [
        "te",
        "d"
      ],
      [
        "lhs",
        ":f⟩→f"
      ],
      [
        "up",
        "date"
      ],
      [
        "fe",
        "ature"
      ],
      [
        "⟨m",
        ":f"
      ],
      [
        "buf[",
        "::-1]"
      ],
      [
        "buf[",
        "0]"
      ],
      [
        "|row",
        "s|"
      ],
      [
        "⟪{",
        "'"
      ],
      [
        "artifac",
        "t"
      ],
      [
        "help",
        "=\""
      ],
      [
        "utf",
        "-8"
      ],
      [
        "⟨self",
        ":"
      ],
      [
        "(",
        "json."
      ],
      [
        "+",
        "j"
      ],
      [
        "-",
        "a"
      ],
      [
        "4",
        "_sy"
      ],
      [
        ":",
        "x-"
      ],
      [
        "=",
        "True"
      ],
      [
        ">",
        "acc"
      ],
      [
        "?",
        "val"
      ],
      [
        "?",
        "c:"
      ],
      [
        "F",
        "al"
      ],
      [
        "R",
        "E"
      ],
      [
        "S",
        "can"
      ],
      [
        "_",
        "count"
      ],
      [
        "c",
        "ur"
      ],
      [
        "c",
        "md_"
      ],
      [
        "f",
        "in"
      ],
      [
        "r",
        "chestr"
      ],
      [
        "v",
        "e"
      ],
      [
        "y",
        "**"
      ],
      [
        "∅",
        ")"
      ],
      [
        ":s",
        "⟩"
      ],
      [
        "re",
        "nt"
      ],
      [
        "re",
        "turn"
      ],
      [
        "mp",
        "s("
      ],
      [
        "value",
        "s]"
      ],
      [
        "out",
        ":f⟩→f"
      ],
      [
        "_o",
        "rchestr"
      ],
      [
        "**",
        "y"
      ],
      [
        "x∈",
        "values]"
      ],
      [
        "gu",
        "ment"
      ],
      [
        "sum(",
        "xs)"
      ],
      [
        "pe",
        "n"
      ],
      [
        "\"]",
        ")"
      ],
      [
        "_p",
        "arser"
      ],
      [
        "ha",
        "se"
      ],
      [
        "tr",
        "ue"
      ],
      [
        "pro",
        "ject"
      ],
      [
        "fro",
        "m"
      ],
      [
        "\\\"\\\"",
        "\\\""
      ],
      [
        "``",
        "`"
      ],
      [
        "mb",
        "er"
      ],
      [
        "Co",
        "mmand"
      ],
      [
        "du",
        "mps("
      ],
      [
        "nu",
        "mber"
      ],
      [
        "4_sy",
        "_orchestr"
      ],
      [
        "=True",
        ")\",\""
      ],
      [
        "Fal",
        "se"
      ],
      [
        "4_sy_orchestr",
        "ation"
      ],
      [
        "#",
        "#"
      ],
      [
        "'",
        ")"
      ],
      [
        "+",
        "z"
      ],
      [
        "+",
        "val"
      ],
      [
        "+",
        "tmp"
      ],
      [
        "-",
        "k"
      ],
      [
        "/",
        "`"
      ],
      [
        "/",
        "a"
      ],
      [
        "/",
        "tmp"
      ],
      [
        "<",
        "c"
      ],
      [
        ">",
        "i"
      ],
      [
        ">",
        "out"
      ],
      [
        "?",
        "x-"
      ],
      [
        "C",
        "li"
      ],
      [
        "L",
        "L"
      ],
      [
        "S",
        "y"
      ],
      [
        "_",
        "s"
      ],
      [
        "_",
        "id"
      ],
      [
        "_",
        "score"
      ],
      [
        "_",
        "con"
      ],
      [
        "a",
        "uto"
      ],
      [
        "a",
        "va"
      ],
      [
        "i",
        "c"
      ],
      [
        "i",
        "g"
      ],
      [
        "m",
        "ith"
      ],
      [
        "m",
        "odel"
      ],
      [
        "p",
        "hase"
      ],
      [
        "s",
        "\",\""
      ],
      [
        "s",
        ".upper()"
      ],
      [
        "s",
        "\")"
      ],
      [
        "s",
        "mith"
      ],
      [
        "w",
        "ith"
      ],
      [
        "⟨",
        "⟩→"
      ],
      [
        "al",
        "og"
      ],
      [
        "rhs",
        "<"
      ],
      [
        "rhs",
        "≥0"
      ],
      [
        "out",
        "≤100"
      ],
      [
        "acc",
        ":f⟩→f"
      ],
      [
        "tmp",
        "≠0"
      ],
      [
        "ent",
        "="
      ],
      [
        "**",
        "i"
      ],
      [
        "**",
        "x"
      ],
      [
        "_]",
        "]"
      ],
      [
        "sum(",
        "entries)"
      ],
      [
        "⟨id",
        ":s⟩→b"
      ],
      [
        "⟨lhs",
        ":f"
      ],
      [
        "en",
        "v"
      ],
      [
        "en",
        "cod"
      ],
      [
        "produc",
        "er_args"
      ],
      [
        "-x",
        ":x-"
      ],
      [
        "mo",
        "ke"
      ],
      [
        "buf[",
        "1:]"
      ],
      [
        "--",
        "--"
      ],
      [
        "_re",
        "nder_"
      ],
      [
        "|id",
        ".strip()|≟0"
      ],
      [
        "consumer",
        "\"]⟧"
      ],
      [
        "producer",
        "\"]⟧"
      ],
      [
        "time",
        "."
      ],
      [
        "atomadi",
        "c_"
      ],
      [
        "⟦card[\"",
        "consumer\"]⟧"
      ],
      [
        "⟦card[\"",
        "producer\"]⟧"
      ],
      [
        "vid",
        "er"
      ],
      [
        "cat",
        "alog"
      ],
      [
        "func",
        "tion"
      ],
      [
        "utf-8",
        "\")"
      ],
      [
        "(json.",
        "dumps("
      ],
      [
        "fin",
        "al"
      ],
      [
        "Cli",
        "ent"
      ],
      [
        "encod",
        "ing"
      ],
      [
        "+",
        "out"
      ],
      [
        "+",
        "idx"
      ],
      [
        "-",
        "b"
      ],
      [
        "-",
        "key"
      ],
      [
        ".",
        "write"
      ],
      [
        "?",
        "rhs-"
      ],
      [
        "?",
        "val-"
      ],
      [
        "D",
        "e"
      ],
      [
        "E",
        "x"
      ],
      [
        "M",
        "an"
      ],
      [
        "a",
        "/"
      ],
      [
        "b",
        "al"
      ],
      [
        "i",
        "_"
      ],
      [
        "i",
        "t("
      ],
      [
        "j",
        "o"
      ],
      [
        "k",
        "≤100"
      ],
      [
        "m",
        "odu"
      ],
      [
        "n",
        "ow"
      ],
      [
        "r",
        "ai"
      ],
      [
        "s",
        "s"
      ],
      [
        "s",
        "pe"
      ],
      [
        "s",
        "ha"
      ],
      [
        "s",
        "chema_version"
      ],
      [
        "s",
        "moke"
      ],
      [
        "v",
        "i"
      ],
      [
        "val",
        ":f⟩→f"
      ],
      [
        "in",
        "("
      ],
      [
        "te",
        "p"
      ],
      [
        "ma",
        "t("
      ],
      [
        "ac",
        "he"
      ],
      [
        "rhs",
        "≤100"
      ],
      [
        "out",
        "≠0"
      ],
      [
        "idx",
        "<"
      ],
      [
        "lhs",
        "<"
      ],
      [
        "len",
        "("
      ],
      [
        "ge",
        "ner"
      ],
      [
        "**",
        "a"
      ],
      [
        "**",
        "val"
      ],
      [
        "**",
        "cnt"
      ],
      [
        "th",
        "e"
      ],
      [
        "th",
        "on"
      ],
      [
        "msg",
        ".lower()"
      ],
      [
        "msg",
        ".upper()"
      ],
      [
        "⟨s",
        "chema_version"
      ],
      [
        "⟨cnt",
        ":f"
      ],
      [
        "for",
        "mat("
      ],
      [
        "_p",
        "ro"
      ],
      [
        "pa",
        "rent"
      ],
      [
        "ind",
        "ent="
      ],
      [
        "script",
        "':"
      ],
      [
        "run",
        "("
      ],
      [
        "c:",
        "c-"
      ],
      [
        ":_⟩→",
        "_"
      ],
      [
        ":_⟩→",
        "s"
      ],
      [
        "lo",
        "ad"
      ],
      [
        "py",
        "thon"
      ],
      [
        "[[",
        "_]]"
      ],
      [
        "CONFIG",
        "_"
      ],
      [
        "resul",
        "t."
      ],
      [
        "default",
        "="
      ],
      [
        "\".",
        "jo"
      ],
      [
        "modu",
        "le"
      ],
      [
        "rai",
        "se"
      ],
      [
        "spe",
        "c"
      ],
      [
        "gener",
        "ate"
      ],
      [
        "⟨schema_version",
        ":s"
      ],
      [
        "indent=",
        "2"
      ],
      [
        "\".jo",
        "in("
      ],
      [
        "'",
        "producer"
      ],
      [
        "+",
        "y"
      ],
      [
        ",",
        "help=\""
      ],
      [
        "/",
        "y"
      ],
      [
        "=",
        "int"
      ],
      [
        ">",
        "a"
      ],
      [
        "?",
        "out-"
      ],
      [
        "?",
        "lhs-"
      ],
      [
        "A",
        "r"
      ],
      [
        "D",
        "E"
      ],
      [
        "D",
        "I"
      ],
      [
        "_",
        "command"
      ],
      [
        "a",
        "d_"
      ],
      [
        "a",
        "4_sy_orchestration"
      ],
      [
        "c",
        "all"
      ],
      [
        "g",
        "ist"
      ],
      [
        "i",
        ">0"
      ],
      [
        "j",
        "≠0"
      ],
      [
        "j",
        "ava"
      ],
      [
        "l",
        "oc"
      ],
      [
        "l",
        "as"
      ],
      [
        "o",
        "format("
      ],
      [
        "p",
        "t"
      ],
      [
        "s",
        ","
      ],
      [
        "s",
        ":[_]"
      ],
      [
        "y",
        ">0"
      ],
      [
        "⟨",
        "idx"
      ],
      [
        "od",
        "e"
      ],
      [
        "rhs",
        ":f⟩→f"
      ],
      [
        "out",
        "<"
      ],
      [
        "acc",
        "≠0"
      ],
      [
        "acc",
        ">0"
      ],
      [
        "idx",
        ":f⟩→f"
      ],
      [
        "idx",
        ">0"
      ],
      [
        "an",
        "script"
      ],
      [
        "cnt",
        ":f⟩→f"
      ],
      [
        "name",
        ":s"
      ],
      [
        "⟨x",
        ":f"
      ],
      [
        "**",
        "b"
      ],
      [
        "ti",
        "er_"
      ],
      [
        "⟨n",
        ":f"
      ],
      [
        "\\n",
        "\")"
      ],
      [
        "'.",
        "m"
      ],
      [
        "str",
        "("
      ],
      [
        "str",
        "ing"
      ],
      [
        "js",
        "',"
      ],
      [
        "items[",
        "0]"
      ],
      [
        "=\"",
        "utf-8\")"
      ],
      [
        "_re",
        "sul"
      ],
      [
        "tr",
        "ac"
      ],
      [
        "args",
        "."
      ],
      [
        "defaul",
        "t_"
      ],
      [
        "is",
        "oformat("
      ],
      [
        "typer.",
        "Ex"
      ],
      [
        "time",
        "spec"
      ],
      [
        "date",
        "time."
      ],
      [
        "imp",
        "or"
      ],
      [
        "la",
        "ma"
      ],
      [
        "_dt.",
        "datetime."
      ],
      [
        "_parser",
        "."
      ],
      [
        "Command",
        "smith"
      ],
      [
        "LL",
        "M"
      ],
      [
        "encoding",
        "=\"utf-8\")"
      ],
      [
        "Man",
        "ifest"
      ],
      [
        "i_",
        "key"
      ],
      [
        "DI",
        "R"
      ],
      [
        "⟨idx",
        ":f"
      ],
      [
        "isoformat(",
        "timespec"
      ],
      [
        "typer.Ex",
        "it("
      ],
      [
        "\"",
        "+"
      ],
      [
        "(",
        "f"
      ],
      [
        "+",
        "rhs"
      ],
      [
        "-",
        "z"
      ],
      [
        "-",
        "acc"
      ],
      [
        "/",
        "v"
      ],
      [
        "2",
        "_"
      ],
      [
        ":",
        "z-"
      ],
      [
        ":",
        "lhs-"
      ],
      [
        "=",
        "self."
      ],
      [
        "?",
        "k-"
      ],
      [
        "?",
        "m-"
      ],
      [
        "?",
        "z-"
      ],
      [
        "A",
        "U"
      ],
      [
        "E",
        "S"
      ],
      [
        "F",
        "AU"
      ],
      [
        "L",
        "T_"
      ],
      [
        "]",
        "\",\""
      ],
      [
        "_",
        "text"
      ],
      [
        "_",
        "output"
      ],
      [
        "a",
        "≤100"
      ],
      [
        "a",
        "≥0"
      ],
      [
        "a",
        "≠0"
      ],
      [
        "a",
        "ject"
      ],
      [
        "c",
        "≤100"
      ],
      [
        "d",
        "x-"
      ],
      [
        "e",
        "xt"
      ],
      [
        "g",
        "_"
      ],
      [
        "g",
        "ent"
      ],
      [
        "j",
        ":f⟩→f"
      ],
      [
        "j",
        "≤100"
      ],
      [
        "k",
        "≥0"
      ],
      [
        "k",
        ">0"
      ],
      [
        "m",
        "≤100"
      ],
      [
        "n",
        "ifest"
      ],
      [
        "p",
        "or"
      ],
      [
        "p",
        "ure"
      ],
      [
        "r",
        "a"
      ],
      [
        "r",
        "=True)\",\""
      ],
      [
        "s",
        "chema"
      ],
      [
        "s",
        "/`"
      ],
      [
        "z",
        ":z-"
      ],
      [
        "}",
        ","
      ],
      [
        "}",
        "',"
      ],
      [
        "re",
        "nder_"
      ],
      [
        "er",
        "ry"
      ],
      [
        "er",
        "r=True)\",\""
      ],
      [
        "nt",
        "ent"
      ],
      [
        "val",
        "≥0"
      ],
      [
        "ta",
        "ble"
      ],
      [
        "ma",
        "nifest"
      ],
      [
        "rhs",
        "/"
      ],
      [
        "idx",
        "≤100"
      ],
      [
        "idx",
        "≥0"
      ],
      [
        "lhs",
        "≥0"
      ],
      [
        "cnt",
        "<"
      ],
      [
        "cnt",
        ">0"
      ],
      [
        "d_",
        "at_"
      ],
      [
        "tmp",
        "<"
      ],
      [
        "tmp",
        ":f⟩→f"
      ],
      [
        "ar",
        "gument"
      ],
      [
        "se",
        "cho"
      ],
      [
        "na",
        "ture"
      ],
      [
        "s_",
        "dir"
      ],
      [
        "⟨key",
        ":f"
      ],
      [
        "ge",
        "d"
      ],
      [
        "\",",
        "type"
      ],
      [
        "**",
        "k"
      ],
      [
        "**",
        "n"
      ],
      [
        "**",
        "z"
      ],
      [
        "items",
        "]"
      ],
      [
        "ti",
        "ply"
      ],
      [
        "s]",
        "]"
      ],
      [
        "x∈",
        "items]"
      ],
      [
        "⟨out",
        ":f"
      ],
      [
        "idx:i",
        "dx-"
      ],
      [
        "⟨acc",
        ":f"
      ],
      [
        "'.",
        "w"
      ],
      [
        "⟨tmp",
        ":f"
      ],
      [
        "ct",
        "x"
      ],
      [
        "(\"",
        "a"
      ],
      [
        "si",
        "g"
      ],
      [
        "_p",
        "ath"
      ],
      [
        "ex",
        "c"
      ],
      [
        "package",
        "_"
      ],
      [
        "sy",
        "s."
      ],
      [
        "pro",
        "vider"
      ],
      [
        "defaul",
        "ts"
      ],
      [
        "typer.",
        "secho"
      ],
      [
        "FI",
        "L"
      ],
      [
        "src",
        "/"
      ],
      [
        "ce",
        "s"
      ],
      [
        "mb",
        "ol"
      ],
      [
        "sta",
        "nt"
      ],
      [
        "vid",
        "e"
      ],
      [
        "[[",
        "s]]"
      ],
      [
        "-val",
        ":val-"
      ],
      [
        "inv",
        "o"
      ],
      [
        "mer",
        "gent"
      ],
      [
        "add_",
        "parser"
      ],
      [
        "add_",
        "argument"
      ],
      [
        "atomadic-",
        "forge."
      ],
      [
        "fg",
        "='"
      ],
      [
        "cur",
        "_"
      ],
      [
        "number",
        "\")"
      ],
      [
        "Sy",
        "nergy"
      ],
      [
        "atomadic_",
        "forge."
      ],
      [
        "smoke",
        "_resul"
      ],
      [
        "generate",
        "d_at_"
      ],
      [
        "=int",
        ",help=\""
      ],
      [
        "DE",
        "FAU"
      ],
      [
        "gist",
        "ry"
      ],
      [
        "loc",
        "al"
      ],
      [
        "/v",
        "1"
      ],
      [
        "aject",
        "ory"
      ],
      [
        "\",type",
        "=int,help=\""
      ],
      [
        "generated_at_",
        "utc"
      ],
      [
        "DEFAU",
        "LT_"
      ],
      [
        "'",
        "}"
      ],
      [
        "'",
        "type"
      ],
      [
        "'",
        "}⟫)"
      ],
      [
        "(",
        "target"
      ],
      [
        ")",
        "+\""
      ],
      [
        "+",
        "lhs"
      ],
      [
        "-",
        "c"
      ],
      [
        ".",
        "re"
      ],
      [
        ".",
        "ex"
      ],
      [
        "/",
        "cnt"
      ],
      [
        ":",
        "k-"
      ],
      [
        ":",
        "rhs-"
      ],
      [
        ":",
        "m-"
      ],
      [
        ":",
        "y-"
      ],
      [
        "=",
        "true"
      ],
      [
        "?",
        "y-"
      ],
      [
        "E",
        "_"
      ],
      [
        "E",
        "mergent"
      ],
      [
        "F",
        "or"
      ],
      [
        "R",
        "I"
      ],
      [
        "_",
        "tier"
      ],
      [
        "_",
        "file"
      ],
      [
        "_",
        "comp"
      ],
      [
        "a",
        ","
      ],
      [
        "b",
        ":f⟩→f"
      ],
      [
        "c",
        ">0"
      ],
      [
        "c",
        "ap"
      ],
      [
        "c",
        "las"
      ],
      [
        "f",
        "n"
      ],
      [
        "i",
        "re"
      ],
      [
        "i",
        "fi"
      ],
      [
        "i",
        "≥0"
      ],
      [
        "j",
        "<"
      ],
      [
        "j",
        "≥0"
      ],
      [
        "k",
        "<"
      ],
      [
        "k",
        ":f⟩→f"
      ],
      [
        "k",
        "≠0"
      ],
      [
        "m",
        "is"
      ],
      [
        "n",
        "≠0"
      ],
      [
        "p",
        "ri"
      ],
      [
        "p",
        "ar"
      ],
      [
        "p",
        "li"
      ],
      [
        "u",
        "b"
      ],
      [
        "x",
        "',"
      ],
      [
        "x",
        "≥0"
      ],
      [
        "z",
        "e"
      ],
      [
        "re",
        "d_"
      ],
      [
        "co",
        "m"
      ],
      [
        "acc",
        "≤100"
      ],
      [
        "acc",
        "≥0"
      ],
      [
        "an",
        "d"
      ],
      [
        "cnt",
        "≥0"
      ],
      [
        "cnt",
        ":cnt"
      ],
      [
        "di",
        "ct"
      ],
      [
        "di",
        "vide"
      ],
      [
        "sub",
        "trac"
      ],
      [
        "mul",
        "tiply"
      ],
      [
        "s)",
        ")"
      ],
      [
        "ab",
        "le"
      ],
      [
        "**",
        "acc"
      ],
      [
        "score",
        "_"
      ],
      [
        "⟨k",
        ":f"
      ],
      [
        "⟨a",
        ":f"
      ],
      [
        "⟨z",
        ":f"
      ],
      [
        "⟨val",
        ":f"
      ],
      [
        "ur",
        "ation"
      ],
      [
        "er_",
        "fn"
      ],
      [
        "\"]",
        "="
      ],
      [
        "li",
        "st"
      ],
      [
        "pa",
        "y"
      ],
      [
        "ha",
        "s_"
      ],
      [
        "tr",
        "ajectory"
      ],
      [
        "None",
        ","
      ],
      [
        "Tr",
        "anscript"
      ],
      [
        "T_",
        "EXTS"
      ],
      [
        "_d",
        "oc"
      ],
      [
        "\\n\\n",
        "##"
      ],
      [
        "sta",
        "te"
      ],
      [
        "Re",
        "port"
      ],
      [
        "imp",
        "ort"
      ],
      [
        "atomadic-",
        "forge"
      ],
      [
        "it",
        "er"
      ],
      [
        "frozenset(",
        "{"
      ],
      [
        "frozenset(",
        "⟪{"
      ],
      [
        ".get",
        "(\""
      ],
      [
        "/\\n",
        "."
      ],
      [
        "_s",
        "tep"
      ],
      [
        "⟨⟩→",
        "s"
      ],
      [
        "DEFAULT_",
        "CONFIG"
      ],
      [
        ")+\"",
        "\\n\")"
      ],
      [
        "For",
        "ge"
      ],
      [
        "cap",
        "ture"
      ],
      [
        "Transcript",
        "Log"
      ],
      [
        "!",
        "="
      ],
      [
        "'",
        "sy"
      ],
      [
        "'",
        "-m"
      ],
      [
        "'",
        "java"
      ],
      [
        "'",
        "atomadic_forge."
      ],
      [
        "(",
        "_"
      ],
      [
        "(",
        "card"
      ],
      [
        "(",
        "config"
      ],
      [
        "+",
        "m"
      ],
      [
        ",",
        "indent=2"
      ],
      [
        ".",
        "\",\""
      ],
      [
        ".",
        "un"
      ],
      [
        ".",
        "call"
      ],
      [
        "/",
        "z"
      ],
      [
        "/",
        "acc"
      ],
      [
        "0",
        "_"
      ],
      [
        "0",
        ":\",\""
      ],
      [
        "1",
        "_"
      ],
      [
        "3",
        "_o"
      ],
      [
        ":",
        "\""
      ],
      [
        ":",
        "\",s\""
      ],
      [
        "=",
        "_"
      ],
      [
        "=",
        "False"
      ],
      [
        "?",
        "c-"
      ],
      [
        "?",
        "a-"
      ],
      [
        "A",
        "M"
      ],
      [
        "C",
        "RI"
      ],
      [
        "L",
        "A"
      ],
      [
        "L",
        "I"
      ],
      [
        "L",
        "O"
      ],
      [
        "L",
        "iter"
      ],
      [
        "N",
        "AM"
      ],
      [
        "P",
        "T_EXTS"
      ],
      [
        "R",
        "O"
      ],
      [
        "S",
        "e"
      ],
      [
        "S",
        "to"
      ],
      [
        "[",
        "sys."
      ],
      [
        "_",
        "me"
      ],
      [
        "_",
        "ms"
      ],
      [
        "_",
        "chain"
      ],
      [
        "a",
        ":f⟩→f"
      ],
      [
        "b",
        "e"
      ],
      [
        "b",
        "≤100"
      ],
      [
        "c",
        "u"
      ],
      [
        "c",
        ":f⟩→f"
      ],
      [
        "d",
        "uration"
      ],
      [
        "e",
        "cu"
      ],
      [
        "g",
        "lo"
      ],
      [
        "i",
        ":f"
      ],
      [
        "i",
        ":f⟩→f"
      ],
      [
        "i",
        "pe"
      ],
      [
        "j",
        "/"
      ],
      [
        "k",
        "_con"
      ],
      [
        "m",
        "l"
      ],
      [
        "m",
        "ory"
      ],
      [
        "n",
        "<"
      ],
      [
        "n",
        "≤100"
      ],
      [
        "n",
        "≥0"
      ],
      [
        "n",
        "ot"
      ],
      [
        "o",
        "s"
      ],
      [
        "o",
        "pen"
      ],
      [
        "p",
        "_"
      ],
      [
        "q",
        "k_con"
      ],
      [
        "r",
        "ound"
      ],
      [
        "v",
        "el"
      ],
      [
        "y",
        ":f⟩→f"
      ],
      [
        "z",
        "≥0"
      ],
      [
        "z",
        "≠0"
      ],
      [
        "z",
        ">0"
      ],
      [
        "|",
        "\\n"
      ],
      [
        "∨",
        "\""
      ],
      [
        "⟨",
        "i:f"
      ],
      [
        "al",
        "["
      ],
      [
        "val",
        "≤100"
      ],
      [
        "val",
        "≠0"
      ],
      [
        "key",
        "≠0"
      ],
      [
        "key",
        ":key"
      ],
      [
        "()",
        "."
      ],
      [
        "mp",
        "t_"
      ],
      [
        "ma",
        "in"
      ],
      [
        "co",
        "ver"
      ],
      [
        "acc",
        ":acc"
      ],
      [
        "_o",
        "mis"
      ],
      [
        "idx",
        "≠0"
      ],
      [
        "tmp",
        "≤100"
      ],
      [
        "ch",
        "erry"
      ],
      [
        "ent",
        "ry"
      ],
      [
        "sub",
        "pro"
      ],
      [
        "nd",
        "("
      ],
      [
        "s[",
        "\""
      ],
      [
        "\",",
        "default="
      ],
      [
        "ed_",
        "cli"
      ],
      [
        "**",
        ":"
      ],
      [
        "**",
        "key"
      ],
      [
        "**",
        "out"
      ],
      [
        "**",
        "lhs"
      ],
      [
        "',",
        "\",s\""
      ],
      [
        "⟨s",
        "rc"
      ],
      [
        "red",
        "',"
      ],
      [
        "⟨c",
        "ard"
      ],
      [
        "'.",
        "c"
      ],
      [
        "⟨b",
        ":f"
      ],
      [
        "rc",
        ")\",\""
      ],
      [
        "ex",
        "por"
      ],
      [
        "ex",
        "ecu"
      ],
      [
        "mo",
        "_comp"
      ],
      [
        "ap",
        "p"
      ],
      [
        "y*",
        "acc"
      ],
      [
        "c*",
        "z"
      ],
      [
        "\",s\"",
        "-"
      ],
      [
        "target",
        ")"
      ],
      [
        "to",
        "p_"
      ],
      [
        "s.",
        "run("
      ],
      [
        ").",
        "return"
      ],
      [
        "code",
        "\",\""
      ],
      [
        "candidate",
        "_id"
      ],
      [
        "-n",
        ":n"
      ],
      [
        "domain",
        "_"
      ],
      [
        "Error",
        ","
      ],
      [
        "_c",
        "ache"
      ],
      [
        "prese",
        "t"
      ],
      [
        "at_",
        "function"
      ],
      [
        "update",
        "s[\""
      ],
      [
        "_count",
        ":i"
      ],
      [
        "cmd_",
        "b"
      ],
      [
        "project",
        "_dir"
      ],
      [
        "phase",
        "_omis"
      ],
      [
        "s\",\"",
        "a"
      ],
      [
        "⟦card[\"producer\"]⟧",
        ","
      ],
      [
        ".write",
        "_text"
      ],
      [
        "sha",
        "red_"
      ],
      [
        "_pro",
        "mpt_"
      ],
      [
        "a4_sy_orchestration",
        ".un"
      ],
      [
        "default_",
        "target"
      ],
      [
        "impor",
        "ts"
      ],
      [
        "_parser.",
        "add_argument"
      ],
      [
        "LLM",
        "Client"
      ],
      [
        "typer.Exit(",
        "rc)\",\""
      ],
      [
        "\"+",
        "package"
      ],
      [
        "2_",
        "mo_comp"
      ],
      [
        "_output",
        "=False"
      ],
      [
        "g_",
        "feature"
      ],
      [
        "table",
        ","
      ],
      [
        "typer.secho",
        "(f"
      ],
      [
        "ces",
        "s.run("
      ],
      [
        "fg='",
        "red',"
      ],
      [
        "Synergy",
        "Scan"
      ],
      [
        "smoke_resul",
        "ts"
      ],
      [
        "=true",
        ")"
      ],
      [
        "Emergent",
        "Scan"
      ],
      [
        "ifi",
        "ed_cli"
      ],
      [
        "subtrac",
        "t"
      ],
      [
        "pay",
        "load"
      ],
      [
        "_doc",
        "string"
      ],
      [
        "frozenset(⟪{",
        "'."
      ],
      [
        "capture",
        "_output=False"
      ],
      [
        "'-m",
        "',"
      ],
      [
        "'atomadic_forge.",
        "a4_sy_orchestration.un"
      ],
      [
        "0_",
        "qk_con"
      ],
      [
        "1_",
        "at_function"
      ],
      [
        "3_o",
        "g_feature"
      ],
      [
        "CRI",
        "PT_EXTS"
      ],
      [
        "Liter",
        "al["
      ],
      [
        "Sto",
        "re"
      ],
      [
        "[sys.",
        "execu"
      ],
      [
        "glo",
        "bal"
      ],
      [
        "os",
        "ite"
      ],
      [
        "|\\n",
        "|"
      ],
      [
        "subpro",
        "cess.run("
      ],
      [
        ").return",
        "code\",\""
      ],
      [
        "phase_omis",
        "sion"
      ],
      [
        "2_mo_comp",
        "osite"
      ],
      [
        "ified_cli",
        "',\",s\""
      ],
      [
        "capture_output=False",
        ").returncode\",\""
      ],
      [
        "'atomadic_forge.a4_sy_orchestration.un",
        "ified_cli',\",s\""
      ],
      [
        "0_qk_con",
        "stant"
      ],
      [
        "[sys.execu",
        "table,"
      ],
      [
        "\"",
        "\\n"
      ],
      [
        "(",
        "_dt."
      ],
      [
        "(",
        "parent"
      ],
      [
        ",",
        "ex"
      ],
      [
        "-",
        ">"
      ],
      [
        ".",
        "m"
      ],
      [
        ".",
        "sub"
      ],
      [
        ".",
        "json"
      ],
      [
        ".",
        "utc"
      ],
      [
        ".",
        "update"
      ],
      [
        "/",
        "b"
      ],
      [
        "=",
        "re"
      ],
      [
        "=",
        "len("
      ],
      [
        "=",
        "dict"
      ],
      [
        "A",
        "L"
      ],
      [
        "C",
        "LI"
      ],
      [
        "D",
        "_"
      ],
      [
        "F",
        "i"
      ],
      [
        "J",
        "S"
      ],
      [
        "N",
        "O"
      ],
      [
        "P",
        "ath"
      ],
      [
        "R",
        "C"
      ],
      [
        "R",
        "un"
      ],
      [
        "T",
        "E"
      ],
      [
        "[",
        "_]"
      ],
      [
        "_",
        "P"
      ],
      [
        "_",
        "_"
      ],
      [
        "_",
        "artifact"
      ],
      [
        "_",
        "CONFIG_"
      ],
      [
        "`",
        "src/"
      ],
      [
        "a",
        "<"
      ],
      [
        "b",
        "y"
      ],
      [
        "b",
        "≥0"
      ],
      [
        "b",
        "≠0"
      ],
      [
        "b",
        "ack"
      ],
      [
        "b",
        "as"
      ],
      [
        "c",
        "≠0"
      ],
      [
        "d",
        "',"
      ],
      [
        "g",
        "',"
      ],
      [
        "g",
        "ment"
      ],
      [
        "h",
        "t"
      ],
      [
        "h",
        "ro"
      ],
      [
        "j",
        "+i"
      ],
      [
        "j",
        ">b"
      ],
      [
        "k",
        "*x"
      ],
      [
        "k",
        "dir"
      ],
      [
        "k",
        "=true)"
      ],
      [
        "l",
        "an"
      ],
      [
        "l",
        "lama"
      ],
      [
        "n",
        "c"
      ],
      [
        "n",
        ">0"
      ],
      [
        "s",
        ":i"
      ],
      [
        "s",
        "se"
      ],
      [
        "s",
        "\\n"
      ],
      [
        "t",
        "w"
      ],
      [
        "w",
        "ard"
      ],
      [
        "x",
        "<"
      ],
      [
        "x",
        "≠0"
      ],
      [
        "y",
        "≥0"
      ],
      [
        "z",
        "≤100"
      ],
      [
        "z",
        "one"
      ],
      [
        "⟦",
        "prese"
      ],
      [
        "⟧",
        "`"
      ],
      [
        "nt",
        "("
      ],
      [
        "nt",
        "hro"
      ],
      [
        "val",
        ":val-"
      ],
      [
        "in",
        "put"
      ],
      [
        "ri",
        "bu"
      ],
      [
        "st",
        "ribu"
      ],
      [
        "co",
        "ntent"
      ],
      [
        "acc",
        "<"
      ],
      [
        "_o",
        "k=true)"
      ],
      [
        "lhs",
        "≤100"
      ],
      [
        "lhs",
        "≠0"
      ],
      [
        "cnt",
        "≤100"
      ],
      [
        "tmp",
        "≥0"
      ],
      [
        "tmp",
        ":tmp"
      ],
      [
        "ar",
        "y"
      ],
      [
        "se",
        "gment"
      ],
      [
        "fi",
        "el"
      ],
      [
        "sub",
        "parser"
      ],
      [
        "\",",
        "DEFAULT_CONFIG"
      ],
      [
        "**",
        "c"
      ],
      [
        "**",
        "j"
      ],
      [
        "**",
        "tmp"
      ],
      [
        "sc",
        "out"
      ],
      [
        "_di",
        "stribu"
      ],
      [
        "head",
        "line"
      ],
      [
        "gu",
        "age"
      ],
      [
        "sa",
        "ve"
      ],
      [
        "int",
        "ent"
      ],
      [
        "⟨rhs",
        ":f"
      ],
      [
        "second",
        "s\")"
      ],
      [
        "⟨j",
        ":f"
      ],
      [
        "\")",
        "]"
      ],
      [
        "ct",
        "ory"
      ],
      [
        "li",
        "b"
      ],
      [
        "ap",
        "ply"
      ],
      [
        "consum",
        "er_args"
      ],
      [
        "=\"",
        "seconds\")"
      ],
      [
        "m*",
        "rhs"
      ],
      [
        "m*",
        "idx"
      ],
      [
        "y*",
        "k"
      ],
      [
        "json",
        "_artifact"
      ],
      [
        "_re",
        "turn"
      ],
      [
        "?i",
        ":key"
      ],
      [
        "target",
        ".write_text"
      ],
      [
        "s:[s]",
        "⟩"
      ],
      [
        "))",
        ")"
      ],
      [
        "s(",
        "card"
      ],
      [
        "None",
        ",\",\""
      ],
      [
        "None",
        ":\",\""
      ],
      [
        "time",
        "zone"
      ],
      [
        "a*",
        "y"
      ],
      [
        "chain",
        "[\""
      ],
      [
        "output",
        "_dir"
      ],
      [
        ").",
        "isoformat(timespec"
      ],
      [
        "k*",
        "idx"
      ],
      [
        "py",
        "test"
      ],
      [
        "s=",
        "true"
      ],
      [
        "_root",
        ":_"
      ],
      [
        "),",
        "encoding=\"utf-8\")"
      ],
      [
        "no",
        "ta"
      ],
      [
        "_ap",
        "ply"
      ],
      [
        "_ap",
        "i_key"
      ],
      [
        "cat",
        "ch"
      ],
      [
        "ist",
        "_ok=true)"
      ],
      [
        "po",
        "se"
      ],
      [
        "source",
        "s_dir"
      ],
      [
        "comp",
        "le"
      ],
      [
        "cli_demo",
        "_"
      ],
      [
        "cli_demo",
        "_return"
      ],
      [
        "⟪{'",
        "python"
      ],
      [
        "```",
        "bas"
      ],
      [
        "env",
        "',"
      ],
      [
        "-b",
        ":b"
      ],
      [
        "now",
        "(_dt."
      ],
      [
        "ad_",
        "config"
      ],
      [
        "_dt.datetime.",
        "now(_dt."
      ],
      [
        "Manifest",
        "Store"
      ],
      [
        "ra",
        "w"
      ],
      [
        "sig",
        "nature"
      ],
      [
        "FIL",
        "E_"
      ],
      [
        "'}",
        "),"
      ],
      [
        "'type",
        "script':"
      ],
      [
        "pri",
        "nt("
      ],
      [
        "score_",
        "trajectory"
      ],
      [
        "'java",
        "script':"
      ],
      [
        "⟨card",
        ":_⟩→s"
      ],
      [
        "default_target",
        "_score"
      ],
      [
        "\"+package",
        "+\""
      ],
      [
        "Literal[",
        "(\""
      ],
      [
        "\"\\n",
        "\".join("
      ],
      [
        "(parent",
        "s=true"
      ],
      [
        ",ex",
        "ist_ok=true)"
      ],
      [
        ".m",
        "kdir"
      ],
      [
        ".sub",
        "(\""
      ],
      [
        ".utc",
        ").isoformat(timespec"
      ],
      [
        ".update",
        "("
      ],
      [
        "=dict",
        "("
      ],
      [
        "AL",
        "_CONFIG_"
      ],
      [
        "JS",
        "ON"
      ],
      [
        "j>b",
        "?j"
      ],
      [
        "⟦prese",
        "t."
      ],
      [
        "nthro",
        "p"
      ],
      [
        "\",DEFAULT_CONFIG",
        "[\""
      ],
      [
        "_distribu",
        "tion"
      ],
      [
        "timezone",
        ".utc).isoformat(timespec"
      ],
      [
        "cli_demo_return",
        "code"
      ],
      [
        "⟪{'python",
        "':"
      ],
      [
        "```bas",
        "h"
      ],
      [
        "_dt.datetime.now(_dt.",
        "timezone.utc).isoformat(timespec"
      ],
      [
        "(parents=true",
        ",exist_ok=true)"
      ],
      [
        ".mkdir",
        "(parents=true,exist_ok=true)"
      ],
      [
        "AL_CONFIG_",
        "DIR"
      ],
      [
        "'",
        "]"
      ],
      [
        "'",
        "}⟫"
      ],
      [
        "'",
        "consumer"
      ],
      [
        "'",
        "),"
      ],
      [
        "'",
        "pure"
      ],
      [
        "'",
        "atomadic-forge."
      ],
      [
        "(",
        "("
      ],
      [
        "(",
        "n"
      ],
      [
        "(",
        "body"
      ],
      [
        "(",
        "\",\""
      ],
      [
        "(",
        "_p"
      ],
      [
        "(",
        "src"
      ],
      [
        "(",
        "func"
      ],
      [
        "(",
        "args."
      ],
      [
        "(",
        "invo"
      ],
      [
        ")",
        ")\",\""
      ],
      [
        ")",
        "]\",\""
      ],
      [
        ",",
        "default="
      ],
      [
        ".",
        "0"
      ],
      [
        ".",
        "s"
      ],
      [
        ".",
        "sc"
      ],
      [
        ".",
        "\\\"\\\"\\\""
      ],
      [
        ".",
        "parent"
      ],
      [
        ".",
        "invo"
      ],
      [
        "/",
        "i"
      ],
      [
        "/",
        "x"
      ],
      [
        "/",
        "rhs"
      ],
      [
        "/",
        "idx"
      ],
      [
        ":",
        "a-"
      ],
      [
        "=",
        "args"
      ],
      [
        "=",
        "config"
      ],
      [
        "=",
        "_dt.datetime."
      ],
      [
        "=",
        "subparser"
      ],
      [
        "@",
        "app"
      ],
      [
        "A",
        "S"
      ],
      [
        "A",
        "n"
      ],
      [
        "A",
        "t"
      ],
      [
        "E",
        "R"
      ],
      [
        "G",
        "_"
      ],
      [
        "G",
        "NO"
      ],
      [
        "I",
        "GNO"
      ],
      [
        "S",
        "E"
      ],
      [
        "S",
        "t"
      ],
      [
        "S",
        "RC"
      ],
      [
        "T",
        "I"
      ],
      [
        "Y",
        "P"
      ],
      [
        "Z",
        "\","
      ],
      [
        "[",
        "]"
      ],
      [
        "[",
        "str"
      ],
      [
        "[",
        "list"
      ],
      [
        "_",
        "name"
      ],
      [
        "_",
        "to"
      ],
      [
        "_",
        "turn"
      ],
      [
        "_",
        "url"
      ],
      [
        "_",
        "EXTS"
      ],
      [
        "_",
        "with"
      ],
      [
        "_",
        "env"
      ],
      [
        "_",
        "bal"
      ],
      [
        "`",
        "a"
      ],
      [
        "a",
        "re"
      ],
      [
        "a",
        ":a-"
      ],
      [
        "b",
        ":b"
      ],
      [
        "b",
        ">0"
      ],
      [
        "b",
        "\",type=int,help=\""
      ],
      [
        "b",
        ")))"
      ],
      [
        "c",
        "<"
      ],
      [
        "c",
        "le"
      ],
      [
        "c",
        "**idx"
      ],
      [
        "d",
        "ow"
      ],
      [
        "d",
        "out"
      ],
      [
        "g",
        "s"
      ],
      [
        "i",
        "p"
      ],
      [
        "i",
        "≤100"
      ],
      [
        "j",
        ">0"
      ],
      [
        "j",
        ":j"
      ],
      [
        "j",
        "+k"
      ],
      [
        "k",
        ":k-"
      ],
      [
        "k",
        "dow"
      ],
      [
        "l",
        "l"
      ],
      [
        "l",
        "og"
      ],
      [
        "l",
        "ate"
      ],
      [
        "m",
        ":f⟩→f"
      ],
      [
        "m",
        ">0"
      ],
      [
        "n",
        "da"
      ],
      [
        "s",
        "()"
      ],
      [
        "s",
        ":f"
      ],
      [
        "s",
        "',"
      ],
      [
        "s",
        "chema_"
      ],
      [
        "t",
        "tr"
      ],
      [
        "x",
        "≤100"
      ],
      [
        "x",
        "?key"
      ],
      [
        "y",
        "<"
      ],
      [
        "y",
        "≤100"
      ],
      [
        "y",
        "≠0"
      ],
      [
        "y",
        ":y-"
      ],
      [
        "y",
        "_ms"
      ],
      [
        "{",
        "rc"
      ],
      [
        "{",
        "package"
      ],
      [
        "{",
        "\",s\""
      ],
      [
        "↦",
        "print("
      ],
      [
        "⟦",
        "package"
      ],
      [
        "⟦",
        "result."
      ],
      [
        "⟧",
        "\")"
      ],
      [
        "⟨",
        "re"
      ],
      [
        "re",
        "e"
      ],
      [
        "re",
        "com"
      ],
      [
        "er",
        "ror"
      ],
      [
        "nt",
        "ext"
      ],
      [
        "al",
        "ig"
      ],
      [
        "al",
        "name:s"
      ],
      [
        "ke",
        "_with"
      ],
      [
        "val",
        ">0"
      ],
      [
        "val",
        "+c"
      ],
      [
        "val",
        "+a"
      ],
      [
        "val",
        ">acc"
      ],
      [
        "in",
        "de"
      ],
      [
        "in",
        "_me"
      ],
      [
        "key",
        ":f⟩→f"
      ],
      [
        "key",
        "≥0"
      ],
      [
        "ta",
        "ttr"
      ],
      [
        "id",
        "e"
      ],
      [
        "te",
        "d_"
      ],
      [
        "te",
        "ct"
      ],
      [
        "te",
        "nd("
      ],
      [
        "mp",
        "ort"
      ],
      [
        "ma",
        "r"
      ],
      [
        "ma",
        "ry"
      ],
      [
        "st",
        "dout"
      ],
      [
        "rhs",
        "≠0"
      ],
      [
        "rhs",
        ">0"
      ],
      [
        "rhs",
        "+cnt"
      ],
      [
        "rhs",
        ":rhs-"
      ],
      [
        "le",
        "vel"
      ],
      [
        "out",
        ">0"
      ],
      [
        "out",
        "_command"
      ],
      [
        "body",
        ".ex"
      ],
      [
        "body",
        ")+\"\\n\")"
      ],
      [
        "an",
        "ce"
      ],
      [
        "an",
        "didate"
      ],
      [
        "an",
        "ed"
      ],
      [
        "lhs",
        ">0"
      ],
      [
        "lhs",
        ":lhs-"
      ],
      [
        "cnt",
        "≠0"
      ],
      [
        "me",
        "nda"
      ],
      [
        "tmp",
        "*a"
      ],
      [
        "se",
        "t_"
      ],
      [
        "ent",
        "ory"
      ],
      [
        "s_",
        "comple"
      ],
      [
        "ge",
        "tattr"
      ],
      [
        "sum",
        "mary"
      ],
      [
        "ite",
        "d"
      ],
      [
        "s)",
        ","
      ],
      [
        "\",",
        "help=\""
      ],
      [
        "\",",
        "generated_at_utc"
      ],
      [
        "echo",
        "(json.dumps("
      ],
      [
        "or",
        "k"
      ],
      [
        "or",
        "chestr"
      ],
      [
        "ver",
        "ged"
      ],
      [
        "\",\"",
        "\",s\""
      ],
      [
        "\",\"",
        "##"
      ],
      [
        ":[_]",
        "⟩"
      ],
      [
        "il",
        "able"
      ],
      [
        "ked_sub",
        "command"
      ],
      [
        "head",
        "er_"
      ],
      [
        "line",
        "s(card"
      ],
      [
        "⟨m",
        "odel"
      ],
      [
        "qu",
        "alname:s"
      ],
      [
        "second",
        "s"
      ],
      [
        "'.",
        "ts"
      ],
      [
        "con",
        "verged"
      ],
      [
        "de",
        "f"
      ],
      [
        "de",
        "tect"
      ],
      [
        "(\"",
        "b\",type=int,help=\""
      ],
      [
        "[\"",
        "@app"
      ],
      [
        "si",
        "ze"
      ],
      [
        "str",
        "(\""
      ],
      [
        "_p",
        "ipe"
      ],
      [
        "ate",
        "d"
      ],
      [
        "s\"",
        "⟦"
      ],
      [
        "ex",
        "ce"
      ],
      [
        "ex",
        "ited"
      ],
      [
        "=\"",
        "atomadic-forge."
      ],
      [
        "k-",
        "y"
      ],
      [
        "m*",
        "y"
      ],
      [
        "pro",
        "pose"
      ],
      [
        "?n",
        ":i"
      ],
      [
        "omadi",
        "c"
      ],
      [
        "⟪{",
        "'a"
      ],
      [
        "typer.",
        "Co"
      ],
      [
        "typer.",
        "echo(json.dumps("
      ],
      [
        "None",
        ":\",s\""
      ],
      [
        "?cnt",
        ":n"
      ],
      [
        "⟦card[\"",
        "candidate_id"
      ],
      [
        "?tmp",
        ":i"
      ],
      [
        "run",
        "_"
      ],
      [
        "s.",
        "add_parser"
      ],
      [
        "src",
        ")"
      ],
      [
        "tier",
        "_distribution"
      ],
      [
        "fac",
        "e"
      ],
      [
        "key<",
        "x?key"
      ],
      [
        "ol",
        "ation"
      ],
      [
        "ol",
        "lama"
      ],
      [
        "cnt+",
        "b"
      ],
      [
        "='",
        "Ar"
      ],
      [
        "='",
        "seconds"
      ],
      [
        "cnt*",
        "acc"
      ],
      [
        "utc",
        "now"
      ],
      [
        "json.",
        "JSON"
      ],
      [
        "artifac",
        "t_"
      ],
      [
        "-m",
        ":m-"
      ],
      [
        "z*",
        "val"
      ],
      [
        "help",
        "='Ar"
      ],
      [
        "+\"",
        "Z\","
      ],
      [
        "no",
        "re"
      ],
      [
        "inv",
        "entory"
      ],
      [
        "candidate",
        "s="
      ],
      [
        "mer",
        "ge"
      ],
      [
        "mer",
        "ged"
      ],
      [
        "domain",
        "s"
      ],
      [
        "Error",
        ")"
      ],
      [
        "_c",
        "fg"
      ],
      [
        "resul",
        "t"
      ],
      [
        "cli_demo",
        "_command"
      ],
      [
        "nergy",
        "':"
      ],
      [
        "-lhs",
        ":lhs-"
      ],
      [
        "kind",
        ":s"
      ],
      [
        "ted",
        "[list"
      ],
      [
        "⟪{'",
        "schema_version"
      ],
      [
        "artifact",
        ")]\",\""
      ],
      [
        "⟨self:",
        "Commandsmith"
      ],
      [
        "RE",
        "D_"
      ],
      [
        "return",
        "\",\""
      ],
      [
        "number",
        "s\")"
      ],
      [
        "=True)\",\"",
        "def"
      ],
      [
        "False",
        ","
      ],
      [
        "')",
        "]"
      ],
      [
        "auto",
        "_apply"
      ],
      [
        "De",
        "code"
      ],
      [
        "ss",
        "',"
      ],
      [
        "schema_version",
        "=\"atomadic-forge."
      ],
      [
        "load",
        "s("
      ],
      [
        "CONFIG_",
        "FILE_"
      ],
      [
        "indent=2",
        "))\",\""
      ],
      [
        "Ar",
        "gument"
      ],
      [
        "str(",
        "artifact)]\",\""
      ],
      [
        "args.",
        "b)))"
      ],
      [
        "DIR",
        "S"
      ],
      [
        "isoformat(timespec",
        "=\"seconds\")"
      ],
      [
        "ctx",
        ":"
      ],
      [
        "ctx",
        ".invo"
      ],
      [
        "(\"a",
        "\",type=int,help=\""
      ],
      [
        "package_",
        "prefix"
      ],
      [
        "defaults",
        "(func"
      ],
      [
        "/v1",
        "',"
      ],
      [
        "/v1",
        "\",generated_at_utc"
      ],
      [
        "_tier",
        ":s"
      ],
      [
        "a,",
        "args.b)))"
      ],
      [
        "pli",
        "t"
      ],
      [
        "\"]=",
        "_prompt_"
      ],
      [
        "frozenset({",
        "'pure"
      ],
      [
        "'sy",
        "nergy':"
      ],
      [
        ".call",
        "back"
      ],
      [
        "=_",
        "header_"
      ],
      [
        "LO",
        "C"
      ],
      [
        "NAM",
        "E"
      ],
      [
        "RO",
        "O"
      ],
      [
        "Se",
        "cond"
      ],
      [
        "ml",
        "',"
      ],
      [
        "mory",
        "_pipe"
      ],
      [
        "open",
        "_"
      ],
      [
        "round",
        "s_comple"
      ],
      [
        "().",
        "isoformat(timespec=\"seconds\")"
      ],
      [
        "\",default=",
        "cur_"
      ],
      [
        "shared_",
        "schema"
      ],
      [
        "Fi",
        "rst"
      ],
      [
        "`src/",
        "\"+package+\""
      ],
      [
        "nc",
        "y_ms"
      ],
      [
        "tw",
        "o"
      ],
      [
        "target.write_text",
        "(json.dumps("
      ],
      [
        "nota",
        "ted[list"
      ],
      [
        "_api_key",
        "_env"
      ],
      [
        "cli_demo_",
        "stdout"
      ],
      [
        "\"\\n\".join(",
        "body)+\"\\n\")"
      ],
      [
        "_dt.datetime.now(_dt.timezone.utc).isoformat(timespec",
        "='seconds"
      ],
      [
        "(body",
        "=_header_"
      ],
      [
        "(invo",
        "ke_with"
      ],
      [
        ",default=",
        "str"
      ],
      [
        ".sc",
        "an"
      ],
      [
        "=args",
        "↦print("
      ],
      [
        "=config",
        ".get(\""
      ],
      [
        "=_dt.datetime.",
        "utcnow"
      ],
      [
        "=subparser",
        "s.add_parser"
      ],
      [
        "An",
        "notated[list"
      ],
      [
        "At",
        "omadic"
      ],
      [
        "IGNO",
        "RED_"
      ],
      [
        "St",
        "ub"
      ],
      [
        "[str",
        "]"
      ],
      [
        "_bal",
        "ance"
      ],
      [
        "cle",
        "aned"
      ],
      [
        "kdow",
        "n"
      ],
      [
        "ll",
        "m"
      ],
      [
        "late",
        "ncy_ms"
      ],
      [
        "schema_",
        "id"
      ],
      [
        "{rc",
        "}',"
      ],
      [
        "⟦package",
        "⟧"
      ],
      [
        "recom",
        "menda"
      ],
      [
        "alig",
        "n"
      ],
      [
        "inde",
        "x"
      ],
      [
        "in_me",
        "mory_pipe"
      ],
      [
        "tend(",
        "[\"@app"
      ],
      [
        "out_command",
        "=True)\",\"def"
      ],
      [
        "body.ex",
        "tend([\"@app"
      ],
      [
        "set_",
        "defaults(func"
      ],
      [
        "lines(card",
        ")"
      ],
      [
        "⟨model",
        ":_"
      ],
      [
        "(\"b\",type=int,help=\"",
        "Second"
      ],
      [
        "propose",
        "d_"
      ],
      [
        "typer.Co",
        "ntext"
      ],
      [
        "typer.echo(json.dumps(",
        "{\",s\""
      ],
      [
        "⟦card[\"candidate_id",
        "\"]⟧"
      ],
      [
        "key<x?key",
        ":x"
      ],
      [
        "json.JSON",
        "Decode"
      ],
      [
        "help='Ar",
        "gs"
      ],
      [
        "⟪{'schema_version",
        "':"
      ],
      [
        "CONFIG_FILE_",
        "NAME"
      ],
      [
        "indent=2))\",\"",
        "\"])"
      ],
      [
        "ctx.invo",
        "ked_subcommand"
      ],
      [
        "(\"a\",type=int,help=\"",
        "First"
      ],
      [
        "/v1\",generated_at_utc",
        "=_dt.datetime.utcnow"
      ],
      [
        ".callback",
        "(invoke_with"
      ],
      [
        "rounds_comple",
        "ted"
      ],
      [
        "().isoformat(timespec=\"seconds\")",
        "+\"Z\","
      ],
      [
        "`src/\"+package+\"",
        "/a"
      ],
      [
        "(body=_header_",
        "lines(card)"
      ],
      [
        "=subparsers.add_parser",
        "(\""
      ],
      [
        "Annotated[list",
        "[str]"
      ],
      [
        "IGNORED_",
        "DIRS"
      ],
      [
        "recommenda",
        "tion"
      ],
      [
        "body.extend([\"@app",
        ".callback(invoke_with"
      ],
      [
        "set_defaults(func",
        "=args↦print("
      ],
      [
        "/v1\",generated_at_utc=_dt.datetime.utcnow",
        "().isoformat(timespec=\"seconds\")+\"Z\","
      ],
      [
        "body.extend([\"@app.callback(invoke_with",
        "out_command=True)\",\"def"
      ],
      [
        "\"",
        ":\""
      ],
      [
        "'",
        "t"
      ],
      [
        "'",
        "--"
      ],
      [
        "'",
        "run"
      ],
      [
        "'",
        "state"
      ],
      [
        "'",
        "{package"
      ],
      [
        "(",
        "G"
      ],
      [
        "(",
        "data"
      ],
      [
        "(",
        "self."
      ],
      [
        "(",
        "consumer_args"
      ],
      [
        ")",
        "["
      ],
      [
        ")",
        "∈"
      ],
      [
        ")",
        "}⟫"
      ],
      [
        ")",
        "∨\""
      ],
      [
        ",",
        "\""
      ],
      [
        ",",
        "\",s\""
      ],
      [
        ",",
        "config"
      ],
      [
        "-",
        "cnt"
      ],
      [
        "-",
        "tier"
      ],
      [
        "-",
        "c:c-"
      ],
      [
        "-",
        "idx:idx-"
      ],
      [
        ".",
        "_"
      ],
      [
        ".",
        "save"
      ],
      [
        ".",
        "')]"
      ],
      [
        "/",
        "c"
      ],
      [
        "/",
        "j"
      ],
      [
        "/",
        "n"
      ],
      [
        "/",
        "val"
      ],
      [
        "/",
        "key"
      ],
      [
        "/",
        "lhs"
      ],
      [
        "/",
        "CONFIG_FILE_NAME"
      ],
      [
        "2",
        "σ"
      ],
      [
        "5",
        "-tier"
      ],
      [
        ":",
        "out-"
      ],
      [
        "?",
        "\""
      ],
      [
        "A",
        "A"
      ],
      [
        "A",
        "I"
      ],
      [
        "A",
        "V"
      ],
      [
        "D",
        "ire"
      ],
      [
        "G",
        "en"
      ],
      [
        "H",
        "ON"
      ],
      [
        "I",
        "ntent"
      ],
      [
        "J",
        "AV"
      ],
      [
        "O",
        "S"
      ],
      [
        "P",
        "Y"
      ],
      [
        "S",
        "c"
      ],
      [
        "S",
        "ur"
      ],
      [
        "S",
        "ig"
      ],
      [
        "T",
        "YP"
      ],
      [
        "T",
        "HON"
      ],
      [
        "V",
        "al"
      ],
      [
        "[",
        "'"
      ],
      [
        "[",
        "⟪"
      ],
      [
        "[",
        "s]"
      ],
      [
        "[",
        "]\",\""
      ],
      [
        "_",
        "se"
      ],
      [
        "_",
        "line"
      ],
      [
        "_",
        "score:f"
      ],
      [
        "_",
        "config"
      ],
      [
        "_",
        "type"
      ],
      [
        "_",
        "model"
      ],
      [
        "_",
        "module"
      ],
      [
        "_",
        "manifest"
      ],
      [
        "_",
        "com"
      ],
      [
        "_",
        "size"
      ],
      [
        "a",
        "st"
      ],
      [
        "a",
        "se"
      ],
      [
        "a",
        "da"
      ],
      [
        "a",
        ">0"
      ],
      [
        "a",
        "?i"
      ],
      [
        "b",
        "?key"
      ],
      [
        "b",
        ">val"
      ],
      [
        "c",
        "er"
      ],
      [
        "c",
        "*x"
      ],
      [
        "c",
        "≥0"
      ],
      [
        "c",
        "ro"
      ],
      [
        "c",
        "tion"
      ],
      [
        "d",
        ":i"
      ],
      [
        "e",
        ":"
      ],
      [
        "e",
        "m"
      ],
      [
        "e",
        "w"
      ],
      [
        "e",
        "re"
      ],
      [
        "e",
        "ver"
      ],
      [
        "f",
        "o"
      ],
      [
        "f",
        "y"
      ],
      [
        "f",
        "⟧"
      ],
      [
        "f",
        "',"
      ],
      [
        "f",
        "li"
      ],
      [
        "f",
        "ind"
      ],
      [
        "i",
        "*x"
      ],
      [
        "i",
        "-a"
      ],
      [
        "i",
        "+val"
      ],
      [
        "i",
        "**z"
      ],
      [
        "i",
        "ze"
      ],
      [
        "j",
        "*x"
      ],
      [
        "j",
        ">key"
      ],
      [
        "j",
        "-i"
      ],
      [
        "k",
        "g"
      ],
      [
        "k",
        ">idx"
      ],
      [
        "k",
        ">c"
      ],
      [
        "k",
        "**idx"
      ],
      [
        "k",
        "/tmp"
      ],
      [
        "l",
        "er"
      ],
      [
        "l",
        "le"
      ],
      [
        "m",
        "?n"
      ],
      [
        "m",
        "+out"
      ],
      [
        "m",
        ":m-"
      ],
      [
        "n",
        "+i"
      ],
      [
        "n",
        "-k"
      ],
      [
        "o",
        "pe"
      ],
      [
        "p",
        "tion"
      ],
      [
        "p",
        "kg"
      ],
      [
        "r",
        "an"
      ],
      [
        "s",
        ":"
      ],
      [
        "s",
        "h"
      ],
      [
        "s",
        "k"
      ],
      [
        "s",
        "p"
      ],
      [
        "s",
        "cover"
      ],
      [
        "t",
        "ry"
      ],
      [
        "v",
        "oc"
      ],
      [
        "x",
        ">idx"
      ],
      [
        "x",
        ">rhs"
      ],
      [
        "x",
        ">m"
      ],
      [
        "y",
        "out"
      ],
      [
        "y",
        ">m"
      ],
      [
        "z",
        ">key"
      ],
      [
        "z",
        "+key"
      ],
      [
        "z",
        "**rhs"
      ],
      [
        "{",
        "e:"
      ],
      [
        "∈",
        "IGNORED_DIRS"
      ],
      [
        "⟨",
        "chain"
      ],
      [
        "⟨",
        "project"
      ],
      [
        "⟫",
        "]"
      ],
      [
        "⟩→",
        "_"
      ],
      [
        "re",
        "vi"
      ],
      [
        "er",
        ","
      ],
      [
        "er",
        "me"
      ],
      [
        "er",
        ".\",\""
      ],
      [
        "er",
        "ated"
      ],
      [
        "ke",
        "n"
      ],
      [
        "val",
        "<"
      ],
      [
        "val",
        ">rhs"
      ],
      [
        "val",
        ">x"
      ],
      [
        "in",
        "-"
      ],
      [
        "key",
        ">x"
      ],
      [
        "key",
        "-idx"
      ],
      [
        "key",
        "-lhs"
      ],
      [
        "key",
        "?i:key"
      ],
      [
        "te",
        "m"
      ],
      [
        "ac",
        "e"
      ],
      [
        "st",
        "all"
      ],
      [
        "ue",
        "Error"
      ],
      [
        "rhs",
        "*a"
      ],
      [
        "rhs",
        ">out"
      ],
      [
        "co",
        "lle"
      ],
      [
        "out",
        "≥0"
      ],
      [
        "out",
        "**val"
      ],
      [
        "min",
        "i"
      ],
      [
        "acc",
        "-x"
      ],
      [
        "acc",
        "+key"
      ],
      [
        "_o",
        "llama"
      ],
[...]
